<unk>	0
<s>	0
</s>	0
<pad>	0
<endofline>	0
<endoftext>	0
▁import	-4.10916
▁return	-4.37865
▁get	-4.38947
▁string	-4.44975
▁if	-4.50182
▁public	-4.53423
▁this	-4.56674
▁name	-4.57709
▁test	-4.59794
▁to	-4.61397
▁type	-4.7208
▁class	-4.72776
▁end	-4.73892
▁a	-4.74369
▁new	-4.76542
▁t	-4.7732
▁self	-4.85325
▁id	-4.91405
▁function	-4.94251
▁assert	-4.96442
▁value	-4.98772
▁is	-5.03378
▁set	-5.05068
▁x	-5.06953
▁data	-5.10548
▁i	-5.12644
▁the	-5.13519
▁s	-5.18332
▁null	-5.30215
▁file	-5.36077
▁c	-5.37292
▁for	-5.37987
▁error	-5.38596
▁in	-5.3997
▁key	-5.40311
▁list	-5.40712
▁true	-5.4124
▁n	-5.4507
▁path	-5.45082
▁private	-5.47418
▁with	-5.49344
▁context	-5.51667
▁use	-5.55061
▁from	-5.56439
▁of	-5.57623
▁b	-5.57962
▁do	-5.60926
▁f	-5.61081
▁v	-5.61775
▁not	-5.62008
▁static	-5.63202
▁array	-5.63305
▁map	-5.64425
▁e	-5.64442
▁void	-5.64961
▁size	-5.66911
▁object	-5.67285
▁package	-5.69929
▁false	-5.71883
▁exception	-5.73458
▁result	-5.74012
▁io	-5.74139
▁d	-5.74306
▁r	-5.80024
▁request	-5.81242
▁time	-5.82106
▁view	-5.84025
▁create	-5.84368
▁on	-5.85846
▁default	-5.86061
▁client	-5.86158
▁user	-5.87298
▁and	-5.88121
▁case	-5.88428
▁add	-5.89517
▁model	-5.90192
▁text	-5.90496
▁h	-5.93903
▁it	-5.94286
▁m	-5.95388
▁should	-5.95528
▁message	-5.96124
▁system	-5.96682
▁state	-5.98342
▁err	-5.98383
▁local	-5.98755
▁p	-5.99548
▁else	-6.00017
▁node	-6.01764
▁be	-6.03619
▁event	-6.03768
▁response	-6.04412
▁override	-6.05606
▁as	-6.05779
▁service	-6.07808
▁code	-6.10929
▁expect	-6.11544
▁final	-6.13449
▁index	-6.13488
▁method	-6.13876
▁base	-6.15971
▁include	-6.15992
▁version	-6.1655
▁equal	-6.17144
▁input	-6.17448
▁nil	-6.1996
▁table	-6.26442
▁item	-6.26626
▁log	-6.28394
▁core	-6.28605
▁k	-6.28631
▁l	-6.2881
▁require	-6.30996
▁field	-6.32046
▁count	-6.3207
▁or	-6.3207
▁status	-6.32108
▁source	-6.34263
▁content	-6.3709
▁server	-6.37383
▁output	-6.37913
▁builder	-6.4068
▁all	-6.40793
▁y	-6.40826
▁none	-6.41445
▁format	-6.43329
▁instance	-6.43506
▁module	-6.43737
▁u	-6.43872
▁by	-6.44144
▁property	-6.44421
▁token	-6.45751
▁query	-6.45974
▁fun	-6.46274
▁length	-6.4645
▁foo	-6.47074
▁date	-6.48237
▁stream	-6.49756
▁command	-6.50891
▁start	-6.50997
▁then	-6.51404
▁android	-6.51974
▁action	-6.52504
▁check	-6.55311
▁long	-6.55794
▁no	-6.5633
▁run	-6.56616
▁image	-6.60522
▁read	-6.60805
▁resource	-6.60997
▁task	-6.61946
▁empty	-6.62443
▁manager	-6.62866
▁factory	-6.63207
▁number	-6.6339
▁mock	-6.6353
▁line	-6.64785
▁interface	-6.65089
▁color	-6.65179
▁hash	-6.65238
▁out	-6.65403
▁unit	-6.67296
▁o	-6.67364
▁build	-6.68421
▁apache	-6.69129
▁that	-6.69163
▁group	-6.69195
▁let	-6.69265
▁logger	-6.69301
▁write	-6.6952
▁update	-6.69651
▁cache	-6.71108
▁buffer	-6.73576
▁handler	-6.742
▁param	-6.7425
▁filter	-6.74583
▁j	-6.74629
▁page	-6.76014
▁char	-6.76236
▁w	-6.76818
▁target	-6.77404
▁option	-6.77701
▁bool	-6.7825
▁any	-6.79
▁session	-6.79072
▁tag	-6.79289
▁address	-6.79938
▁block	-6.80234
▁float	-6.80393
▁element	-6.80965
▁when	-6.81828
▁common	-6.81883
▁next	-6.82418
▁g	-6.83138
▁column	-6.8361
▁schema	-6.85712
▁internal	-6.85844
▁body	-6.87167
▁provider	-6.87634
▁current	-6.88436
▁entity	-6.88756
▁bar	-6.89613
▁match	-6.89846
▁net	-6.89954
▁first	-6.90335
▁spec	-6.90554
▁at	-6.91057
▁parse	-6.9143
▁container	-6.92463
▁header	-6.93086
▁connection	-6.9377
▁call	-6.94186
▁root	-6.94416
▁component	-6.94604
▁last	-6.95
▁os	-6.97222
▁attribute	-6.98048
▁project	-6.98509
▁configuration	-6.98838
▁title	-6.98912
▁mode	-6.99245
▁parser	-6.99251
▁load	-7.00784
▁width	-7.01027
▁range	-7.02651
▁find	-7.03213
▁description	-7.04202
▁parent	-7.05273
▁store	-7.05298
▁label	-7.06188
▁order	-7.08731
▁offset	-7.09727
▁post	-7.10008
▁testing	-7.1043
▁example	-7.11132
▁application	-7.11318
▁template	-7.11641
▁layout	-7.11792
▁argument	-7.1308
▁try	-7.13729
▁channel	-7.14287
▁before	-7.14447
▁ref	-7.14792
▁double	-7.14821
▁integer	-7.14985
▁an	-7.15014
▁entry	-7.15432
▁invalid	-7.15695
▁delete	-7.1595
▁super	-7.15961
▁z	-7.16541
▁style	-7.16691
▁append	-7.17188
▁collection	-7.17402
▁some	-7.17811
▁listener	-7.18208
▁main	-7.19909
▁record	-7.19926
▁open	-7.19979
▁throw	-7.20939
▁one	-7.21605
▁frame	-7.22311
▁annotation	-7.23339
▁row	-7.234
▁height	-7.23527
▁host	-7.23563
▁web	-7.2407
▁port	-7.24456
▁controller	-7.24641
▁level	-7.25202
▁helper	-7.25965
▁print	-7.27646
▁my	-7.27723
▁position	-7.2858
▁q	-7.28704
▁each	-7.29958
▁process	-7.30184
▁select	-7.30524
▁other	-7.30704
▁min	-7.30975
▁join	-7.31218
▁can	-7.33244
▁rule	-7.33656
▁prop	-7.33927
▁button	-7.3431
▁remove	-7.35171
▁prefix	-7.3521
▁register	-7.35275
▁you	-7.35321
▁storage	-7.35361
▁div	-7.35711
▁left	-7.36269
▁describe	-7.36325
▁define	-7.36796
▁graph	-7.36825
▁copy	-7.37113
▁job	-7.38112
▁thread	-7.38348
▁abstract	-7.38522
▁meta	-7.39039
▁tree	-7.39635
▁license	-7.39889
▁device	-7.39906
▁auto	-7.39929
▁repository	-7.40394
▁handle	-7.40519
▁send	-7.40973
▁are	-7.41107
▁reader	-7.41533
▁break	-7.41634
▁active	-7.42135
▁batch	-7.42314
▁password	-7.42793
▁scala	-7.43521
▁parameter	-7.43581
▁only	-7.43656
▁have	-7.43786
▁after	-7.4479
▁form	-7.44897
▁vector	-7.45346
▁pub	-7.45568
▁access	-7.46064
▁must	-7.46094
▁success	-7.46297
▁expression	-7.46657
▁close	-7.47273
▁random	-7.47657
▁make	-7.47661
▁activity	-7.47861
▁search	-7.48266
▁support	-7.48401
▁await	-7.48962
▁location	-7.4927
▁document	-7.49447
▁show	-7.49904
▁child	-7.50102
▁queue	-7.50261
▁scope	-7.51528
▁non	-7.52011
▁right	-7.5207
▁adapter	-7.52243
▁custom	-7.52335
▁put	-7.53016
▁link	-7.53303
▁valid	-7.53494
▁stack	-7.53587
▁subject	-7.54472
▁same	-7.54554
▁apply	-7.54631
▁opt	-7.54689
▁window	-7.55417
▁actual	-7.57091
▁generator	-7.57457
▁simple	-7.58652
▁writer	-7.58842
▁generic	-7.59134
▁found	-7.59771
▁cluster	-7.59946
▁raise	-7.60042
▁domain	-7.60236
▁future	-7.60613
▁spark	-7.6087
▁socket	-7.61306
▁directory	-7.61391
▁ret	-7.61842
▁go	-7.62137
▁sync	-7.63039
▁account	-7.63388
▁box	-7.63811
▁point	-7.64866
▁protocol	-7.64954
▁memory	-7.65675
▁reference	-7.66295
▁change	-7.66317
▁sub	-7.66525
▁will	-7.66854
▁pattern	-7.66907
▁pool	-7.67046
▁math	-7.67806
▁feature	-7.67962
▁engine	-7.68111
▁render	-7.68331
▁duration	-7.68399
▁implicit	-7.68697
▁icon	-7.6923
▁script	-7.69312
▁route	-7.69364
▁extension	-7.69368
▁insert	-7.69417
▁registry	-7.69601
▁raw	-7.6966
▁global	-7.7037
▁limit	-7.70419
▁shape	-7.70691
▁optional	-7.71124
▁save	-7.71504
▁total	-7.71959
▁definition	-7.72125
▁up	-7.72472
▁flag	-7.72855
▁concurrent	-7.73571
▁menu	-7.73599
▁security	-7.73745
▁span	-7.74225
▁execute	-7.74484
▁sample	-7.74599
▁role	-7.74737
▁where	-7.75123
▁setup	-7.75659
▁bundle	-7.76463
▁proxy	-7.7678
▁top	-7.76911
▁fragment	-7.77026
▁transaction	-7.77284
▁network	-7.77575
▁free	-7.78242
▁single	-7.78732
▁strict	-7.78867
▁loader	-7.78924
▁display	-7.79176
▁operation	-7.79259
▁variable	-7.79319
▁split	-7.79405
▁lock	-7.79455
▁kind	-7.79922
▁git	-7.81698
▁font	-7.81906
▁while	-7.82266
▁tensor	-7.82399
▁step	-7.82434
▁execution	-7.82441
▁comment	-7.82906
▁failure	-7.83162
▁export	-7.83299
▁receive	-7.83713
▁policy	-7.83858
▁push	-7.85304
▁environment	-7.86588
▁replace	-7.86625
▁col	-7.86703
▁fail	-7.87221
▁runner	-7.8726
▁verify	-7.88035
▁console	-7.88105
▁doc	-7.8817
▁catch	-7.8819
▁metrics	-7.88616
▁defined	-7.89519
▁unsigned	-7.89816
▁now	-7.89933
▁media	-7.9042
▁full	-7.90605
▁language	-7.90689
▁hello	-7.92068
▁allow	-7.923
▁exit	-7.92329
▁validate	-7.9247
▁sort	-7.93026
▁torch	-7.93286
▁platform	-7.93597
▁generate	-7.9364
▁props	-7.93969
▁member	-7.94403
▁mask	-7.94456
▁suite	-7.94712
▁head	-7.96091
▁short	-7.96129
▁click	-7.96484
▁report	-7.96574
▁secret	-7.96839
▁control	-7.96989
▁symbol	-7.97739
▁mapper	-7.9829
▁conn	-7.98327
▁logging	-7.9856
▁used	-7.98721
▁reset	-7.98798
▁merge	-7.99079
▁binding	-7.99306
▁trace	-7.99789
▁operator	-8.00391
▁framework	-8.00918
▁flow	-8.00972
▁reflect	-8.01014
▁matcher	-8.01112
▁big	-8.01601
▁docker	-8.01609
▁remote	-8.01704
▁wrapper	-8.01899
▁resolve	-8.0236
▁resolver	-8.02378
▁clear	-8.02586
▁executor	-8.02627
▁dev	-8.02728
▁player	-8.02819
▁metric	-8.02876
▁we	-8.02898
▁scale	-8.03048
▁convert	-8.03578
▁old	-8.03865
▁enable	-8.03926
▁actor	-8.04206
▁driver	-8.04492
▁topic	-8.04729
▁stop	-8.05354
▁binary	-8.05466
▁layer	-8.05661
▁consumer	-8.0569
▁gen	-8.06267
▁validation	-8.06339
▁literal	-8.07174
▁bind	-8.07192
▁profile	-8.0728
▁background	-8.07539
▁constructor	-8.07643
▁given	-8.07685
▁done	-8.07819
▁transform	-8.07914
▁pass	-8.07918
▁ruby	-8.081
▁sequence	-8.083
▁holder	-8.08344
▁second	-8.08519
▁extra	-8.08597
▁wait	-8.09177
▁native	-8.09679
▁per	-8.09882
▁alpha	-8.10094
▁strategy	-8.10108
▁trait	-8.10251
▁tab	-8.10494
▁ignore	-8.10501
▁switch	-8.10542
▁rate	-8.11201
▁may	-8.11433
▁owner	-8.11496
▁region	-8.11672
▁pair	-8.12835
▁product	-8.12898
▁de	-8.12908
▁does	-8.13463
▁train	-8.13562
▁selector	-8.13927
▁echo	-8.14055
▁login	-8.14074
▁sum	-8.14298
▁construct	-8.14435
▁matrix	-8.14792
▁ast	-8.1532
▁classes	-8.15368
▁help	-8.15394
▁alias	-8.15611
▁world	-8.15626
▁category	-8.15712
▁nullable	-8.1577
▁kernel	-8.15984
▁dependency	-8.16357
▁down	-8.17285
▁ad	-8.1768
▁condition	-8.17748
▁fetch	-8.17775
▁stub	-8.18353
▁agent	-8.18365
▁decode	-8.18685
▁space	-8.19106
▁initialize	-8.19409
▁cell	-8.1956
▁constant	-8.19591
▁connect	-8.19761
▁part	-8.19807
▁decimal	-8.20046
▁encode	-8.20631
▁into	-8.20716
▁fixture	-8.20823
▁missing	-8.21233
▁authentication	-8.21289
▁identifier	-8.21411
▁skip	-8.21647
▁unsafe	-8.21836
▁temp	-8.22074
▁counter	-8.22146
▁clone	-8.22359
▁ex	-8.2264
▁reg	-8.22792
▁atomic	-8.23048
▁locale	-8.23105
▁identity	-8.23575
▁basic	-8.23685
▁pointer	-8.23859
▁without	-8.24457
▁selected	-8.24582
▁bin	-8.25486
▁theme	-8.25593
▁edit	-8.25626
▁zero	-8.25662
▁amount	-8.25795
▁statement	-8.25941
▁except	-8.26054
▁commit	-8.26219
▁two	-8.2641
▁lazy	-8.27201
▁fake	-8.27279
▁yield	-8.27542
▁notification	-8.2757
▁cursor	-8.27904
▁original	-8.28199
▁iter	-8.28245
▁re	-8.28324
▁bit	-8.28498
▁grid	-8.28697
▁available	-8.28747
▁contract	-8.28862
▁bean	-8.29308
▁rest	-8.29405
▁interval	-8.29412
▁screen	-8.29486
▁en	-8.29539
▁got	-8.30219
▁converter	-8.30625
▁unknown	-8.30684
▁begin	-8.31087
▁weight	-8.31235
▁chain	-8.31239
▁work	-8.31391
▁sha	-8.3158
▁progress	-8.31756
▁like	-8.32136
▁primary	-8.32515
▁release	-8.32713
▁word	-8.32746
▁once	-8.32975
▁customer	-8.33312
▁timer	-8.33343
▁video	-8.33548
▁inner	-8.337
▁permission	-8.33761
▁loop	-8.3397
▁library	-8.34289
▁unique	-8.34319
▁folder	-8.34371
▁processor	-8.34711
▁initial	-8.34924
▁copyright	-8.34966
▁relative	-8.34994
▁want	-8.3507
▁intent	-8.35419
▁external	-8.35938
▁section	-8.37145
▁fact	-8.37425
▁asset	-8.37456
▁usage	-8.3746
▁drawable	-8.37813
▁inject	-8.37934
▁but	-8.38039
▁collect	-8.38434
▁graphics	-8.38634
▁warning	-8.38717
▁compiler	-8.38937
▁more	-8.38964
▁loss	-8.39118
▁card	-8.39329
▁than	-8.39525
▁disable	-8.3976
▁proto	-8.40262
▁your	-8.40365
▁transition	-8.40722
▁was	-8.40894
▁crate	-8.41276
▁person	-8.41717
▁editor	-8.41749
▁complete	-8.42187
▁day	-8.42303
▁cast	-8.42988
▁summary	-8.43564
▁master	-8.43594
▁standard	-8.43649
▁move	-8.43723
▁continue	-8.43836
▁zone	-8.44059
▁criteria	-8.44236
▁dynamic	-8.44663
▁signature	-8.44678
▁unless	-8.44881
▁rect	-8.44987
▁install	-8.45015
▁syntax	-8.4519
▁padding	-8.45369
▁transport	-8.45589
▁so	-8.4582
▁dummy	-8.45938
▁browser	-8.46256
▁center	-8.46358
▁site	-8.46495
▁dim	-8.46684
▁reflection	-8.46852
▁lambda	-8.46854
▁router	-8.46859
▁twitter	-8.4687
▁draw	-8.47199
▁which	-8.47575
▁hook	-8.47879
▁pipeline	-8.47958
▁scan	-8.47974
▁gateway	-8.48011
▁fill	-8.48214
▁chunk	-8.48373
▁exchange	-8.48401
▁compile	-8.4844
▁margin	-8.48506
▁worker	-8.48698
▁drop	-8.48852
▁slice	-8.49128
▁zip	-8.49167
▁destroy	-8.49388
▁bucket	-8.49619
▁border	-8.49869
▁mutable	-8.49895
▁delta	-8.50104
▁mark	-8.50171
▁setting	-8.50306
▁multiple	-8.50378
▁bottom	-8.50451
▁trigger	-8.50598
▁beta	-8.51101
▁modifier	-8.51369
▁history	-8.5139
▁safe	-8.51475
▁reason	-8.51678
▁delay	-8.51725
▁prototype	-8.51756
▁priority	-8.51865
▁home	-8.51902
▁animation	-8.51924
▁configure	-8.51976
▁edge	-8.52153
▁under	-8.52194
▁cloud	-8.5227
▁invoke	-8.52382
▁game	-8.52412
▁bad	-8.52415
▁retry	-8.52567
▁react	-8.52997
▁frozen	-8.5322
▁cannot	-8.53433
▁patch	-8.53862
▁python	-8.5435
▁destination	-8.54559
▁wrap	-8.54576
▁back	-8.5531
▁promise	-8.55381
▁running	-8.55394
▁compare	-8.5544
▁visible	-8.55538
▁declare	-8.55902
▁volume	-8.55929
▁psi	-8.56144
▁netty	-8.56669
▁st	-8.56805
▁authorization	-8.57042
▁exist	-8.57049
▁see	-8.57054
▁undefined	-8.57559
▁currency	-8.57576
▁serialization	-8.57963
▁partition	-8.58204
▁delegate	-8.58252
▁term	-8.5851
▁partial	-8.58553
▁branch	-8.58616
▁snapshot	-8.58758
▁stage	-8.58778
▁stride	-8.59182
▁serialize	-8.59332
▁relation	-8.59335
▁immutable	-8.59638
▁shift	-8.59795
▁refresh	-8.60161
▁mem	-8.60177
▁effect	-8.60251
▁author	-8.6028
▁cancel	-8.60522
▁issue	-8.61106
▁align	-8.61366
▁lower	-8.61387
▁resp	-8.6182
▁saved	-8.6183
▁certificate	-8.61851
▁force	-8.61906
▁machine	-8.62139
▁scroll	-8.62286
▁es	-8.62325
▁me	-8.6267
▁sender	-8.62718
▁reply	-8.62844
▁information	-8.63111
▁contents	-8.63119
▁renderer	-8.63424
▁dictionary	-8.63498
▁flat	-8.63991
▁normal	-8.64119
▁score	-8.64293
▁sign	-8.64342
▁redirect	-8.64769
▁packet	-8.65184
▁many	-8.65419
▁migration	-8.65536
▁cur	-8.65609
▁accept	-8.6587
▁observer	-8.66254
▁selection	-8.66328
▁depth	-8.66544
▁times	-8.66596
▁illegal	-8.67091
▁fixed	-8.67682
▁detail	-8.67868
▁rel	-8.67996
▁observable	-8.6819
▁notify	-8.68813
▁virtual	-8.68847
▁texture	-8.69477
▁origin	-8.69839
▁hidden	-8.69924
▁illuminate	-8.7002
▁subscription	-8.70205
▁pending	-8.70526
▁clock	-8.70566
▁strip	-8.70669
▁peer	-8.70749
▁dispatcher	-8.70992
▁price	-8.71144
▁panel	-8.71469
▁scheme	-8.71589
▁note	-8.72208
▁seed	-8.72365
▁dump	-8.72472
▁disabled	-8.73003
▁digest	-8.73269
▁extract	-8.73456
▁win	-8.73833
▁direction	-8.74998
▁previous	-8.75227
▁audio	-8.75389
▁unwrap	-8.75431
▁ca	-8.75809
▁deep	-8.75995
▁real	-8.76173
▁compute	-8.76264
▁room	-8.76375
▁health	-8.77103
▁additional	-8.7718
▁character	-8.77262
▁forward	-8.7807
▁integration	-8.78517
▁constraint	-8.78641
▁sharp	-8.7873
▁contain	-8.79124
▁el	-8.79357
▁year	-8.79485
▁grad	-8.79985
▁th	-8.80198
▁alert	-8.80444
▁blob	-8.80466
▁warn	-8.8051
▁area	-8.80626
▁sh	-8.8087
▁pod	-8.80892
▁boot	-8.80898
▁play	-8.80964
▁off	-8.80993
▁trim	-8.81145
▁subscribe	-8.81434
▁suppress	-8.81931
▁axis	-8.8263
▁payment	-8.82807
▁round	-8.83123
▁month	-8.83266
▁geo	-8.83363
▁present	-8.83805
▁segment	-8.83919
▁distance	-8.84432
▁assets	-8.84501
▁chat	-8.8452
▁red	-8.84855
▁transformer	-8.85149
▁been	-8.85297
▁linear	-8.85307
▁dao	-8.85334
▁material	-8.85383
▁between	-8.85466
▁hex	-8.85641
▁lint	-8.85794
▁fi	-8.85827
▁visit	-8.85894
▁extend	-8.85924
▁ensure	-8.85964
▁need	-8.86317
▁pack	-8.86896
▁dot	-8.87024
▁publisher	-8.87357
▁high	-8.87499
▁slot	-8.87939
▁li	-8.88337
▁suffix	-8.88357
▁checker	-8.88582
▁epoch	-8.88644
▁manifest	-8.88777
▁received	-8.88935
▁compose	-8.89092
▁sink	-8.89381
▁artifact	-8.89429
▁team	-8.89488
▁signal	-8.89698
▁latest	-8.8974
▁us	-8.89781
▁possible	-8.89888
▁fa	-8.89933
▁sheet	-8.89968
▁iterable	-8.90082
▁rand	-8.90374
▁dom	-8.90632
▁transfer	-8.90806
▁fast	-8.90813
▁serial	-8.90928
▁bootstrap	-8.91261
▁ready	-8.91282
▁scalar	-8.91884
▁assertion	-8.91887
▁shell	-8.91894
▁age	-8.91993
▁country	-8.92326
▁sleep	-8.92379
▁article	-8.92393
▁tile	-8.92624
▁plan	-8.92724
▁weather	-8.92731
▁pop	-8.92845
▁mean	-8.93266
▁either	-8.93363
▁pull	-8.93499
▁colors	-8.93589
▁already	-8.93657
▁fixer	-8.93758
▁mail	-8.9384
▁blank	-8.93912
▁licensed	-8.94013
▁primitive	-8.94255
▁visibility	-8.9457
▁absolute	-8.94643
▁schedule	-8.94723
▁callable	-8.94817
▁indent	-8.94846
▁spring	-8.95239
▁loaded	-8.95323
▁pipe	-8.95397
▁there	-8.95499
▁fix	-8.95675
▁union	-8.95708
▁monitor	-8.95737
▁live	-8.96071
▁tool	-8.96112
▁solution	-8.96322
▁dispatch	-8.96418
▁specs	-8.96492
▁visitor	-8.96607
▁fatal	-8.96729
▁separator	-8.96918
▁receiver	-8.97059
▁parallel	-8.97185
▁producer	-8.97211
▁invocation	-8.97234
▁subscriber	-8.97301
▁loading	-8.97506
▁canvas	-8.97768
▁thrift	-8.98143
▁expand	-8.98259
▁behavior	-8.98297
▁correct	-8.98387
▁until	-8.98463
▁aggregate	-8.99087
▁persistence	-8.99208
▁book	-8.99227
▁closed	-8.99288
▁provided	-8.99844
▁here	-8.9989
▁program	-8.99967
▁emit	-8.99993
▁algorithm	-9.00239
▁obtain	-9.0025
▁deployment	-9.00484
▁take	-9.00538
▁navigation	-9.00654
▁analysis	-9.007
▁track	-9.0087
▁defer	-9.0099
▁prepare	-9.01525
▁enumerable	-9.01528
▁sorted	-9.01614
▁days	-9.01855
▁vertex	-9.01914
▁mouse	-9.0193
▁since	-9.02043
▁period	-9.02055
▁bot	-9.02129
▁predicate	-9.02344
▁ai	-9.02426
▁puppet	-9.02438
▁family	-9.02536
▁upper	-9.02776
▁cause	-9.02819
▁indices	-9.02922
▁singleton	-9.03099
▁phone	-9.03404
▁ar	-9.03729
▁linked	-9.04012
▁escape	-9.04299
▁flush	-9.04351
▁publish	-9.04403
▁calendar	-9.04651
▁norm	-9.048
▁connector	-9.05117
▁series	-9.05146
▁criterion	-9.05343
▁based	-9.05586
▁unsupported	-9.05663
▁keep	-9.0617
▁chart	-9.06521
▁its	-9.06607
▁checked	-9.06713
▁speed	-9.06968
▁pad	-9.06992
▁cat	-9.07185
▁low	-9.07251
▁added	-9.07272
▁capture	-9.07276
▁reverse	-9.07908
▁small	-9.07928
▁broker	-9.08211
▁cipher	-9.08256
▁threshold	-9.08589
▁side	-9.0861
▁tables	-9.08756
▁radius	-9.09167
▁derive	-9.09293
▁clean	-9.09415
▁hide	-9.09878
▁macro	-9.10022
▁na	-9.10081
▁variant	-9.10238
▁unexpected	-9.10433
▁mac	-9.10829
▁hint	-9.11415
▁plain	-9.11867
▁verbose	-9.12411
▁sig	-9.12589
▁disk	-9.12602
▁prompt	-9.12876
▁focus	-9.12907
▁mime	-9.1302
▁compliance	-9.13099
▁stroke	-9.13299
▁archive	-9.13321
▁normalize	-9.13361
▁shutdown	-9.1383
▁terminal	-9.14204
▁dimension	-9.14522
▁organization	-9.14638
▁watch	-9.14664
▁light	-9.14704
▁touch	-9.14868
▁assembly	-9.14948
▁blocking	-9.15033
▁flash	-9.15233
▁slug	-9.15345
▁logical	-9.15349
▁heap	-9.15801
▁bound	-9.15909
▁links	-9.16129
▁inspect	-9.16214
▁foreign	-9.16485
▁over	-9.16652
▁tracker	-9.16869
▁doctrine	-9.16887
▁cleanup	-9.17078
▁less	-9.17087
▁contact	-9.17132
▁too	-9.17328
▁factor	-9.17446
▁creator	-9.1756
▁preview	-9.17684
▁something	-9.17821
▁translation	-9.17825
▁power	-9.18118
▁just	-9.18174
▁marker	-9.1827
▁modify	-9.18703
▁respond	-9.18758
▁collector	-9.19054
▁complex	-9.1923
▁balance	-9.1943
▁bus	-9.19449
▁commons	-9.19467
▁toggle	-9.19565
▁backup	-9.19579
▁blue	-9.19611
▁reporter	-9.20665
▁notice	-9.21189
▁training	-9.21326
▁tail	-9.21411
▁instant	-9.21568
▁ratio	-9.21568
▁could	-9.21587
▁sent	-9.21625
▁completion	-9.21634
▁fallback	-9.2173
▁calcite	-9.22025
▁streaming	-9.22101
▁enter	-9.22245
▁please	-9.22321
▁successful	-9.2246
▁distribution	-9.22551
▁finish	-9.22561
▁iso	-9.22599
▁unity	-9.2283
▁different	-9.22989
▁companion	-9.23032
▁trade	-9.23099
▁nothing	-9.23394
▁asp	-9.23438
▁launch	-9.23462
▁quote	-9.23525
▁assign	-9.23796
▁translate	-9.23991
▁negative	-9.2403
▁capacity	-9.24039
▁instead	-9.24547
▁structure	-9.24664
▁special	-9.24762
▁magic	-9.25121
▁unused	-9.25387
▁white	-9.25565
▁sound	-9.26021
▁carbon	-9.26035
▁shadow	-9.2615
▁matching	-9.26254
▁analytics	-9.26274
▁interceptor	-9.26324
▁mount	-9.26409
▁creation	-9.26518
▁about	-9.26593
▁injection	-9.26633
▁inflater	-9.26803
▁greater	-9.27039
▁another	-9.27079
▁always	-9.27089
▁specification	-9.27209
▁camera	-9.2727
▁anchor	-9.2735
▁registration	-9.27391
▁exclude	-9.27632
▁mono	-9.27733
▁pay	-9.2785
▁maximum	-9.2822
▁also	-9.2828
▁declaration	-9.28734
▁tester	-9.2882
▁attachment	-9.28933
▁cost	-9.29025
▁removed	-9.29158
▁specific	-9.29209
▁wire	-9.29322
▁perform	-9.29373
▁preference	-9.29384
▁stripe	-9.29476
▁answer	-9.29718
▁secure	-9.29878
▁green	-9.29929
▁hub	-9.30338
▁distributed	-9.30369
▁surface	-9.30624
▁mesh	-9.30816
▁cancellation	-9.31077
▁reactive	-9.31333
▁fit	-9.31674
▁foundation	-9.31906
▁share	-9.31979
▁arch	-9.32053
▁registered	-9.3208
▁choice	-9.32333
▁twig	-9.32434
▁sofa	-9.32481
▁implementation	-9.32572
▁maybe	-9.33076
▁vertical	-9.33092
▁reduce	-9.33108
▁paint	-9.33194
▁best	-9.33204
▁returned	-9.33579
▁conversion	-9.33643
▁bias	-9.33723
▁hi	-9.33809
▁horizontal	-9.33857
▁sec	-9.33906
▁em	-9.34029
▁poll	-9.34239
▁positive	-9.34272
▁dense	-9.34591
▁verification	-9.34975
▁city	-9.35193
▁wrong	-9.3546
▁extern	-9.35476
▁analyzer	-9.35542
▁flex	-9.3564
▁increment	-9.35673
▁closure	-9.35717
▁rank	-9.36062
▁indexed	-9.36155
▁repeat	-9.36227
▁suspend	-9.36254
▁place	-9.3626
▁routing	-9.36359
▁fold	-9.36452
▁every	-9.36695
▁swagger	-9.36706
▁direct	-9.36839
▁hour	-9.36911
▁sa	-9.37116
▁provide	-9.37299
▁discovery	-9.37366
▁fee	-9.37472
▁sparse	-9.37488
▁resolved	-9.37812
▁connected	-9.37829
▁sealed	-9.37868
▁plot	-9.37974
▁feed	-9.38036
▁wrapped	-9.38193
▁audit	-9.38226
▁getter	-9.38271
▁alignment	-9.38361
▁rep	-9.3844
▁large	-9.38563
▁di	-9.388
▁interpreter	-9.38817
▁via	-9.39321
▁arrow	-9.39827
▁alt	-9.39872
▁both	-9.39918
▁deploy	-9.39929
▁statistics	-9.40044
▁submit	-9.40118
▁finally	-9.40158
▁face	-9.4041
▁resize	-9.41066
▁pa	-9.41476
▁percent	-9.41494
▁unlock	-9.41523
▁plural	-9.4172
▁cross	-9.41865
▁moment	-9.42005
▁plus	-9.42332
▁vendor	-9.42355
▁claim	-9.42642
▁legacy	-9.42654
▁rescue	-9.42777
▁ordered	-9.42848
▁gem	-9.42853
▁aa	-9.43118
▁upstream	-9.43118
▁reactor	-9.43354
▁pact	-9.43685
▁association	-9.43774
▁don	-9.43863
▁documentation	-9.44089
▁attach	-9.44166
▁finished	-9.44274
▁three	-9.445
▁ace	-9.44806
▁clip	-9.456
▁scene	-9.45684
▁precision	-9.46084
▁following	-9.46126
▁within	-9.46491
▁credit	-9.46619
▁functional	-9.46705
▁known	-9.46772
▁angle	-9.46888
▁company	-9.47066
▁directive	-9.47102
▁comparison	-9.4765
▁stretch	-9.4768
▁generation	-9.4802
▁such	-9.48163
▁minimum	-9.48349
▁diagnostics	-9.48398
▁general	-9.4889
▁tick	-9.49479
▁scenario	-9.49579
▁evaluate	-9.49799
▁highlight	-9.50052
▁management	-9.50279
▁arc	-9.50292
▁ascii	-9.50317
▁activation	-9.50431
▁idle	-9.50463
▁confirm	-9.50507
▁setter	-9.50685
▁disposable	-9.50691
▁tracing	-9.5085
▁reserved	-9.5099
▁finder	-9.51029
▁mobile	-9.51048
▁black	-9.51124
▁outer	-9.51322
▁sampler	-9.51393
▁restore	-9.51431
▁guard	-9.51438
▁markdown	-9.51444
▁through	-9.51521
▁pi	-9.51559
▁shader	-9.51758
▁restart	-9.5179
▁compilation	-9.51887
▁dashboard	-9.51919
▁bash	-9.52028
▁smart	-9.52125
▁credential	-9.52345
▁floor	-9.52351
▁animator	-9.52545
▁extractor	-9.52636
▁reload	-9.52655
▁regular	-9.53032
▁composer	-9.53045
▁tap	-9.53214
▁problem	-9.53344
▁pin	-9.53815
▁easy	-9.53868
▁own	-9.54012
▁never	-9.54098
▁act	-9.54137
▁upgrade	-9.54137
▁composite	-9.54144
▁question	-9.54203
▁recipe	-9.54289
▁album	-9.54341
▁arn	-9.54857
▁principal	-9.5495
▁unset	-9.55109
▁jerry	-9.55222
▁kit	-9.55242
▁broadcast	-9.55302
▁curr	-9.55375
▁unable	-9.55402
▁encryption	-9.55742
▁extended	-9.55742
▁geometry	-9.55755
▁offense	-9.56016
▁starting	-9.56036
▁week	-9.5609
▁specify	-9.5613
▁least	-9.5617
▁diagnostic	-9.56238
▁bold	-9.56776
▁supplier	-9.56945
▁inside	-9.56973
▁what	-9.56979
▁si	-9.57277
▁duplicate	-9.57366
▁deprecation	-9.57373
▁did	-9.5742
▁cop	-9.57638
▁modal	-9.57822
▁persistent	-9.58013
▁review	-9.58507
▁da	-9.58541
▁encrypt	-9.58637
▁unpack	-9.58837
▁compression	-9.59106
▁pager	-9.59286
▁bug	-9.59349
▁phase	-9.59404
▁spy	-9.5948
▁overlay	-9.59515
▁clause	-9.59536
▁reject	-9.59564
▁mat	-9.60058
▁lite	-9.60219
▁wallet	-9.6033
▁executable	-9.60337
▁gradient	-9.6047
▁major	-9.6073
▁con	-9.60941
▁rename	-9.6116
▁pagination	-9.61202
▁sure	-9.61202
▁because	-9.61308
▁faker	-9.61315
▁meter	-9.61315
▁whether	-9.61527
▁resume	-9.61534
▁embed	-9.6157
▁revision	-9.61577
▁minute	-9.61662
▁average	-9.61683
▁measure	-9.61761
▁emitter	-9.61868
▁locator	-9.62395
▁listen	-9.62424
▁bulk	-9.6261
▁aspect	-9.62688
▁retention	-9.62724
▁eu	-9.62803
▁dark	-9.62832
▁indicator	-9.63134
▁readable	-9.63206
▁jar	-9.63278
▁comparator	-9.63299
▁ba	-9.63342
▁pure	-9.6348
▁am	-9.63501
▁thing	-9.63537
▁good	-9.63972
▁naming	-9.64008
▁these	-9.64496
▁photo	-9.64547
▁related	-9.647
▁freeze	-9.64751
▁watcher	-9.64869
▁circuit	-9.65125
▁formula	-9.65221
▁brand	-9.65471
▁flatten	-9.65618
▁keyboard	-9.65855
▁sizes	-9.65914
▁spawn	-9.66025
▁curl	-9.6627
▁recursive	-9.66285
▁spatial	-9.66344
▁translator	-9.66359
▁dispose	-9.66455
▁cycle	-9.66537
▁hoodie	-9.66582
▁apple	-9.66746
▁calculate	-9.66918
▁sentinel	-9.66948
▁cap	-9.66985
▁daemon	-9.67105
▁logic	-9.67217
▁ma	-9.67247
▁medium	-9.676
▁vagrant	-9.67638
▁included	-9.67706
▁seek	-9.67706
▁nonce	-9.67789
▁exactly	-9.67857
▁runnable	-9.67909
▁orientation	-9.67932
▁resolution	-9.67955
▁scanner	-9.68106
▁ping	-9.6825
▁delivery	-9.68257
▁picker	-9.68409
▁un	-9.68621
▁fire	-9.68705
▁se	-9.68743
▁thrown	-9.68751
▁pretty	-9.69094
▁assignment	-9.69147
▁presenter	-9.6927
▁inspector	-9.69362
▁drag	-9.69369
▁ax	-9.69392
▁authorize	-9.69661
▁tenant	-9.69915
▁sock	-9.69969
▁beagle	-9.7027
▁bridge	-9.70502
▁buttons	-9.70564
▁hit	-9.70905
▁coverage	-9.7096
▁experimental	-9.71233
▁datum	-9.71248
▁la	-9.71342
▁correctly	-9.71428
▁swap	-9.71647
▁delimiter	-9.71765
▁national	-9.71804
▁damage	-9.71898
▁conditional	-9.71914
▁authority	-9.7204
▁rotation	-9.72331
▁printer	-9.72434
▁arbitrary	-9.72458
▁distinct	-9.72521
▁yes	-9.72758
▁binder	-9.72798
▁sun	-9.73044
▁expectation	-9.73211
▁panic	-9.73786
▁testify	-9.73842
▁cond	-9.73954
▁radio	-9.74018
▁visual	-9.74042
▁aes	-9.7405
▁mirror	-9.74291
▁estimator	-9.74396
▁money	-9.7446
▁backward	-9.74808
▁attempt	-9.74832
▁allocator	-9.74889
▁compress	-9.74986
▁decorator	-9.75132
▁rating	-9.75302
▁folly	-9.75416
▁combine	-9.75497
▁consume	-9.75595
▁gauge	-9.75595
▁guild	-9.7562
▁explicit	-9.75685
▁works	-9.75726
▁uniform	-9.75734
▁toast	-9.75758
▁gray	-9.75946
▁injector	-9.76274
▁detect	-9.76348
▁hive	-9.76471
▁histogram	-9.76554
▁predict	-9.76586
▁crop	-9.76611
▁marshal	-9.76644
▁shard	-9.76694
▁synchronized	-9.76718
▁writable	-9.76735
▁tar	-9.76933
▁evaluation	-9.77339
▁reward	-9.77405
▁they	-9.77438
▁catalyst	-9.77446
▁probe	-9.77804
▁ne	-9.77837
▁fluent	-9.77846
▁severity	-9.77846
▁temporary	-9.78205
▁otherwise	-9.78238
▁intercept	-9.78364
▁projection	-9.78364
▁very	-9.78381
▁mailer	-9.78523
▁flux	-9.78591
▁elf	-9.78885
▁circle	-9.78893
▁latch	-9.7891
▁relationship	-9.79104
▁board	-9.79443
▁compact	-9.79561
▁friendly	-9.79748
▁lo	-9.79774
▁elastic	-9.79799
▁classifier	-9.79842
▁curve	-9.79859
▁working	-9.79952
▁successfully	-9.80054
▁footer	-9.80157
▁learning	-9.80217
▁operand	-9.80251
▁associated	-9.80482
▁needs	-9.80507
▁aware	-9.80576
▁inventory	-9.80576
▁kill	-9.80722
▁candidate	-9.80928
▁lit	-9.81505
▁effects	-9.81627
▁deferred	-9.82304
▁unchecked	-9.82453
▁blueprint	-9.82645
▁abort	-9.82654
▁mutation	-9.82855
▁markup	-9.82864
▁instruction	-9.8318
▁bag	-9.83224
▁purchase	-9.8325
▁representation	-9.83374
▁ring	-9.83409
▁trust	-9.83409
▁detector	-9.83621
▁leaf	-9.83629
▁most	-9.83647
▁interaction	-9.83656
▁retrieve	-9.83771
▁pause	-9.84125
▁square	-9.84134
▁ability	-9.84303
▁performance	-9.84312
▁particle	-9.84365
▁authorized	-9.84526
▁accepted	-9.84535
▁them	-9.8465
▁trial	-9.84793
▁letter	-9.84919
▁finagle	-9.84981
▁physical	-9.85017
▁limiter	-9.85089
▁picture	-9.85295
▁utility	-9.8534
▁balancer	-9.86197
▁chainer	-9.86243
▁built	-9.86288
▁al	-9.86306
▁tracer	-9.86488
▁coin	-9.86879
▁motion	-9.86916
▁bank	-9.86998
▁secondary	-9.87245
▁minor	-9.87392
▁how	-9.87852
▁caller	-9.87861
▁weak	-9.88156
▁declared	-9.88378
▁exact	-9.88443
▁rev	-9.88731
▁quick	-9.88861
▁quantity	-9.88964
▁logged	-9.89253
▁locked	-9.89505
▁dropout	-9.89674
▁feat	-9.90088
▁realm	-9.90418
▁chip	-9.90447
▁entropy	-9.9057
▁underlying	-9.9057
▁boundary	-9.90845
▁soft	-9.90987
▁grant	-9.91178
▁leading	-9.91216
▁poly	-9.9134
▁slack	-9.91368
▁slider	-9.91435
▁sessions	-9.91512
▁dagger	-9.91837
▁third	-9.91856
▁overflow	-9.92058
▁sentence	-9.92096
▁undertow	-9.92241
▁atom	-9.92578
▁cake	-9.92646
▁ae	-9.92733
▁skin	-9.9283
▁volatile	-9.92927
▁cobra	-9.92975
▁accessibility	-9.93276
▁profiler	-9.93422
▁arm	-9.93461
▁people	-9.93461
▁regression	-9.93647
▁ce	-9.93695
▁handshake	-9.93803
▁excel	-9.94038
▁truth	-9.94048
▁violation	-9.94077
▁verifier	-9.94146
▁alive	-9.94254
▁expire	-9.9447
▁fe	-9.9449
▁slow	-9.94529
▁iteration	-9.94598
▁infinity	-9.94835
▁dead	-9.94983
▁rack	-9.95271
▁boost	-9.95281
▁even	-9.95649
▁shuffle	-9.95679
▁movie	-9.95758
▁prophecy	-9.96158
▁rotate	-9.96158
▁production	-9.96389
▁enumerate	-9.96519
▁bench	-9.96579
▁anonymous	-9.9667
▁hot	-9.96761
▁aria	-9.96922
▁offer	-9.96972
▁market	-9.97053
▁manual	-9.97063
▁persist	-9.97905
▁cask	-9.98007
▁percentage	-9.9812
▁azure	-9.98242
▁above	-9.98263
▁recorder	-9.98365
▁dup	-9.98406
▁normalizer	-9.98416
▁snippet	-9.98488
▁lens	-9.98662
▁quality	-9.98662
▁digit	-9.98919
▁ginkgo	-9.99022
▁buff	-9.99084
▁prod	-9.99363
▁executed	-9.99373
▁instrumentation	-9.99394
▁minus	-9.99767
▁half	-9.99985
▁paragraph	-10.0004
▁inserter	-10.0016
▁way	-10.002
▁cart	-10.0027
▁jet	-10.0033
▁par	-10.0042
▁aggregation	-10.0068
▁party	-10.0083
▁noise	-10.0089
▁qualified	-10.0126
▁ta	-10.013
▁proposal	-10.0136
▁sol	-10.0137
▁nan	-10.0142
▁serve	-10.0149
▁ticker	-10.0158
▁diagram	-10.016
▁notifier	-10.016
▁ask	-10.0183
▁inflate	-10.0196
▁skill	-10.0198
▁follow	-10.0202
▁love	-10.0208
▁nexus	-10.0228
▁tear	-10.0234
▁za	-10.0242
▁mixed	-10.0244
▁cover	-10.0246
▁fork	-10.0272
▁accessible	-10.0275
▁biz	-10.0283
▁our	-10.0286
▁sin	-10.0311
▁mu	-10.033
▁written	-10.033
▁being	-10.0365
▁authenticator	-10.0371
▁dumper	-10.0376
▁classification	-10.0381
▁middle	-10.0422
▁frequency	-10.0445
▁trainer	-10.0449
▁unary	-10.0451
▁recording	-10.0453
▁culture	-10.0456
▁er	-10.0475
▁invoker	-10.0478
▁hover	-10.0481
▁tiny	-10.0499
▁tech	-10.0503
▁expiration	-10.0517
▁express	-10.0531
▁choose	-10.0533
▁soap	-10.0539
▁brains	-10.0545
▁confirmation	-10.0563
▁observe	-10.0572
▁remember	-10.0582
▁walk	-10.0592
▁leader	-10.0601
▁temporal	-10.0608
▁wide	-10.0612
▁instrument	-10.0638
▁prepared	-10.0659
▁rich	-10.0663
▁during	-10.0681
▁yellow	-10.0684
▁dialect	-10.0712
▁transient	-10.0728
▁press	-10.0741
▁invoice	-10.0785
▁alter	-10.0787
▁recipient	-10.0828
▁manage	-10.0836
▁merchant	-10.0837
▁compatible	-10.0865
▁authenticate	-10.0872
▁rollback	-10.0883
▁overwrite	-10.0907
▁experiment	-10.0926
▁conflict	-10.0932
▁issuer	-10.0937
▁curator	-10.0945
▁interrupted	-10.0946
▁sequential	-10.0968
▁employee	-10.0969
▁thumbnail	-10.0978
▁pane	-10.099
▁guest	-10.0997
▁fetcher	-10.1015
▁ticket	-10.1026
▁waiting	-10.1033
▁produce	-10.1052
▁detection	-10.1054
▁vim	-10.1061
▁feedback	-10.107
▁prediction	-10.1077
▁handling	-10.1079
▁strong	-10.1137
▁submission	-10.1142
▁front	-10.1148
▁ea	-10.1155
▁pow	-10.1158
▁pet	-10.1162
▁swift	-10.1179
▁palette	-10.1185
▁infrastructure	-10.1186
▁transformation	-10.1188
▁prelude	-10.1197
▁allocate	-10.1201
▁activate	-10.1203
▁calling	-10.1266
▁again	-10.127
▁cascade	-10.1279
▁tint	-10.1279
▁rendering	-10.1306
▁sniff	-10.1309
▁noop	-10.1319
▁enumerator	-10.132
▁presence	-10.1324
▁pip	-10.1327
▁applied	-10.1332
▁protection	-10.1337
▁news	-10.134
▁inbound	-10.1343
▁viewer	-10.1348
▁traverse	-10.1352
▁drawing	-10.1406
▁telegram	-10.1406
▁disconnect	-10.1407
▁incorrect	-10.1428
▁spacing	-10.1435
▁leave	-10.144
▁billing	-10.1442
▁risk	-10.1443
▁lat	-10.1453
▁swipe	-10.1461
▁tagged	-10.1477
▁ray	-10.1482
▁course	-10.1502
▁smack	-10.1524
▁expanded	-10.1529
▁today	-10.153
▁timber	-10.1552
▁acquire	-10.1557
▁mid	-10.1557
▁semantic	-10.1562
▁dirty	-10.1568
▁ie	-10.1578
▁difference	-10.1581
▁hand	-10.1595
▁outcome	-10.1607
▁sess	-10.161
▁bob	-10.1634
▁nu	-10.1639
▁reveal	-10.1644
▁micro	-10.1655
▁ingress	-10.1657
▁band	-10.1685
▁canonical	-10.169
▁below	-10.1692
▁rectangle	-10.1692
▁sampling	-10.1692
▁infer	-10.1699
▁trailing	-10.1699
▁accuracy	-10.1706
▁ago	-10.1706
▁blocked	-10.1711
▁latency	-10.1712
▁reshape	-10.1727
▁studio	-10.173
▁timing	-10.1731
▁star	-10.1732
▁grain	-10.1735
▁journal	-10.1735
▁foreground	-10.1777
▁alternate	-10.1804
▁migrate	-10.1806
▁slave	-10.1813
▁voice	-10.1814
▁fully	-10.1834
▁zoom	-10.1835
▁yet	-10.1837
▁pix	-10.1849
▁around	-10.1877
▁drawer	-10.1893
▁preferred	-10.1927
▁currently	-10.1931
▁dash	-10.1936
▁rabbit	-10.1945
▁te	-10.1949
▁prob	-10.1956
▁rewrite	-10.1957
▁attached	-10.1959
▁would	-10.1971
▁requirement	-10.1978
▁desired	-10.1993
▁replacement	-10.2004
▁teardown	-10.202
▁well	-10.2034
▁flip	-10.2039
▁sandbox	-10.2041
▁launcher	-10.2061
▁environ	-10.2071
▁dry	-10.2072
▁street	-10.2076
▁inverse	-10.2095
▁gate	-10.2114
▁comma	-10.212
▁mismatch	-10.2123
▁mining	-10.2141
▁vertices	-10.2149
▁ownership	-10.217
▁decay	-10.2181
▁assigned	-10.2184
▁drive	-10.2198
▁opening	-10.221
▁seen	-10.222
▁corner	-10.2222
▁shop	-10.2242
▁marathon	-10.2252
▁reading	-10.2252
▁traffic	-10.2266
▁contributor	-10.2279
▁opacity	-10.2297
▁their	-10.2308
▁alarm	-10.2318
▁fade	-10.2334
▁development	-10.2346
▁stuffer	-10.2348
▁vehicle	-10.2362
▁sprite	-10.2363
▁replication	-10.2374
▁human	-10.2384
▁ge	-10.2388
▁gif	-10.2407
▁turn	-10.2414
▁building	-10.243
▁participant	-10.2437
▁heading	-10.2442
▁creative	-10.2445
▁look	-10.2452
▁mi	-10.247
▁stopped	-10.2481
▁statistic	-10.2485
▁hierarchy	-10.2486
▁elm	-10.25
▁potential	-10.2506
▁pickle	-10.2508
▁shipping	-10.2564
▁design	-10.2567
▁slide	-10.2568
▁badge	-10.2575
▁car	-10.258
▁capability	-10.2584
▁challenge	-10.2594
▁ak	-10.2595
▁raised	-10.2612
▁stable	-10.2615
▁caster	-10.2644
▁finite	-10.2648
▁ur	-10.2667
▁equality	-10.268
▁music	-10.2688
▁anything	-10.2693
▁subclass	-10.2695
▁conference	-10.2716
▁incoming	-10.2733
▁pick	-10.2733
▁polygon	-10.2755
▁peek	-10.2761
▁ground	-10.2768
▁automatically	-10.2827
▁breaker	-10.2828
▁cucumber	-10.283
▁sequel	-10.2842
▁ordinal	-10.2845
▁say	-10.285
▁slash	-10.2852
▁mix	-10.2853
▁ha	-10.2857
▁man	-10.2871
▁salt	-10.2874
▁critical	-10.2875
▁able	-10.2877
▁gravity	-10.2906
▁exporter	-10.2914
▁advanced	-10.2916
▁office	-10.2927
▁maker	-10.2935
▁para	-10.2942
▁fraction	-10.2945
▁converted	-10.296
▁artist	-10.2966
▁gamma	-10.2995
▁envelope	-10.3014
▁wheel	-10.3021
▁episode	-10.307
▁ply	-10.3071
▁sensitive	-10.3076
▁semaphore	-10.3084
▁pic	-10.3088
▁monad	-10.3094
▁guzzle	-10.3103
▁compatibility	-10.3118
▁correction	-10.3123
▁interrupt	-10.3127
▁lift	-10.315
▁recent	-10.317
▁assume	-10.3175
▁replay	-10.3211
▁internals	-10.3224
▁urn	-10.3224
▁signer	-10.3225
▁banner	-10.324
▁subset	-10.3259
▁still	-10.327
▁bounding	-10.3271
▁truncate	-10.3289
▁later	-10.3292
▁combined	-10.3328
▁axes	-10.3335
▁perm	-10.3347
▁ball	-10.3354
▁detach	-10.3366
▁po	-10.3369
▁stateful	-10.3404
▁campaign	-10.342
▁portal	-10.3421
▁brush	-10.3423
▁aggregator	-10.3427
▁plane	-10.3442
▁solver	-10.3449
▁optimize	-10.3461
▁topology	-10.3461
▁heartbeat	-10.3467
▁quit	-10.3468
▁refund	-10.3474
▁otter	-10.3479
▁solid	-10.349
▁analyze	-10.3521
▁architecture	-10.3539
▁consensus	-10.3547
▁cool	-10.3561
▁lettuce	-10.3572
▁ra	-10.3585
▁prime	-10.3591
▁relic	-10.3599
▁finalize	-10.3606
▁developer	-10.3648
▁latitude	-10.3651
▁compressed	-10.3658
▁implement	-10.3661
▁scratch	-10.3663
▁six	-10.3667
▁dog	-10.3679
▁caught	-10.3701
▁bonus	-10.3705
▁decoration	-10.3711
▁chrome	-10.3738
▁conversation	-10.3746
▁thumb	-10.3747
▁spiral	-10.3758
▁ser	-10.3762
▁study	-10.3769
▁solidity	-10.3785
▁psalm	-10.3794
▁tip	-10.3802
▁arena	-10.3804
▁succeed	-10.3805
▁spell	-10.3807
▁parcel	-10.3825
▁decision	-10.3829
▁seg	-10.3843
▁outline	-10.3863
▁determine	-10.3865
▁quartz	-10.3878
▁oracle	-10.388
▁bolt	-10.3883
▁longitude	-10.3894
▁extent	-10.3904
▁stuff	-10.3924
▁divider	-10.3931
▁league	-10.3957
▁led	-10.3965
▁ga	-10.398
▁fingerprint	-10.3982
▁normalization	-10.4008
▁verb	-10.4024
▁floating	-10.4034
▁due	-10.4039
▁forbidden	-10.4039
▁sensor	-10.4039
▁localization	-10.4044
▁dependent	-10.405
▁invalidate	-10.4058
▁recovery	-10.4061
▁truthy	-10.4064
▁cut	-10.4067
▁charge	-10.4069
▁eloquent	-10.4072
▁ary	-10.4075
▁rocket	-10.4088
▁jest	-10.4095
▁parquet	-10.411
▁blend	-10.4132
▁were	-10.4141
▁guide	-10.4149
▁interactive	-10.4168
▁goal	-10.4185
▁outbound	-10.4187
▁forecast	-10.4195
▁velocity	-10.4195
▁vault	-10.4198
▁presentation	-10.4215
▁twisted	-10.4222
▁rune	-10.4244
▁cos	-10.425
▁hero	-10.4255
▁inspection	-10.4263
▁supply	-10.4279
▁attention	-10.4282
▁limited	-10.4295
▁avoid	-10.4298
▁business	-10.4301
▁membership	-10.4316
▁weapon	-10.4332
▁concrete	-10.4348
▁collision	-10.4354
▁song	-10.4356
▁swing	-10.4362
▁sans	-10.4365
▁properly	-10.4373
▁roi	-10.4382
▁installation	-10.4398
▁mir	-10.4404
▁relay	-10.4456
▁transpose	-10.4466
▁alchemy	-10.4472
▁outside	-10.4476
▁phrase	-10.4476
▁facade	-10.4482
▁stereotype	-10.4484
▁inactive	-10.4487
▁better	-10.449
▁crash	-10.449
▁opaque	-10.4493
▁alternative	-10.4513
▁favorite	-10.4516
▁community	-10.4531
▁meeting	-10.4557
▁concern	-10.4562
▁chapter	-10.4565
▁convolution	-10.457
▁glyph	-10.4579
▁mux	-10.4579
▁derived	-10.4585
▁gold	-10.4615
▁broken	-10.4621
▁sugar	-10.4628
▁those	-10.4638
▁nid	-10.4643
▁permit	-10.465
▁stamp	-10.466
▁gap	-10.4664
▁synthetic	-10.4676
▁zeppelin	-10.4704
▁undo	-10.4711
▁invite	-10.4719
▁unavailable	-10.4721
▁measurement	-10.4739
▁behaviour	-10.4744
▁wall	-10.4768
▁unauthorized	-10.4786
▁notebook	-10.4808
▁concurrency	-10.4828
▁interpolation	-10.4832
▁narrow	-10.4845
▁replica	-10.4847
▁dock	-10.4852
▁terminate	-10.4855
▁exclusive	-10.4876
▁sam	-10.4891
▁privacy	-10.4899
▁snap	-10.4899
▁against	-10.4901
▁atlas	-10.4906
▁tweet	-10.4915
▁malformed	-10.4928
▁lab	-10.4952
▁paper	-10.4957
▁downstream	-10.4964
▁scaling	-10.4964
▁die	-10.4971
▁sell	-10.4974
▁singular	-10.4988
▁adjust	-10.5026
▁backbone	-10.5035
▁hard	-10.5052
▁mo	-10.5066
▁eager	-10.5074
▁passing	-10.5081
▁restrict	-10.5086
▁pro	-10.5102
▁animated	-10.5107
▁caption	-10.5109
▁beam	-10.5112
▁density	-10.5118
▁timed	-10.5124
▁stock	-10.5135
▁nat	-10.5144
▁attack	-10.5159
▁convention	-10.5168
▁inference	-10.5175
▁mall	-10.5182
▁prevent	-10.5194
▁suggestion	-10.5194
▁gender	-10.5198
▁student	-10.5206
▁navigate	-10.5215
▁east	-10.5231
▁spinner	-10.5238
▁social	-10.524
▁jump	-10.5242
▁advance	-10.5249
▁directly	-10.527
▁tid	-10.5282
▁ripper	-10.5284
▁inherit	-10.5289
▁eye	-10.5303
▁rex	-10.5305
▁energy	-10.5307
▁compound	-10.5317
▁mockery	-10.5317
▁lifetime	-10.5319
▁corp	-10.534
▁great	-10.5349
▁ti	-10.5356
▁navigator	-10.5383
▁four	-10.5385
▁punctuation	-10.5387
▁coco	-10.5397
▁glide	-10.5397
▁verbosity	-10.5403
▁publication	-10.5415
▁ceil	-10.5419
▁interpolator	-10.543
▁unlink	-10.5442
▁little	-10.5446
▁wave	-10.5448
▁collapse	-10.5458
▁inserted	-10.5462
▁friend	-10.5465
▁sphinx	-10.5476
▁tax	-10.5501
▁made	-10.5503
▁cube	-10.5518
▁replicated	-10.5525
▁angular	-10.553
▁algebra	-10.5534
▁listing	-10.5536
▁audience	-10.5545
▁pivot	-10.5548
▁populate	-10.5558
▁dismiss	-10.5565
▁bearer	-10.5576
▁legend	-10.5581
▁vol	-10.5581
▁preset	-10.559
▁helm	-10.5592
▁repeated	-10.561
▁animate	-10.5643
▁quiet	-10.5647
▁allocation	-10.5651
▁stanza	-10.5654
▁placement	-10.568
▁pac	-10.5687
▁pacific	-10.5693
▁welcome	-10.5698
▁workbook	-10.5704
▁eureka	-10.5709
▁neon	-10.5717
▁camel	-10.572
▁discard	-10.5728
▁prof	-10.5744
▁raft	-10.5755
▁nut	-10.5778
▁calculator	-10.5783
▁storm	-10.5805
▁figure	-10.5811
▁give	-10.5815
▁implode	-10.5819
▁quad	-10.5822
▁decorated	-10.5826
▁sharper	-10.5837
▁crypt	-10.5852
▁plumbing	-10.5856
▁postfix	-10.5882
▁sunshine	-10.5893
▁ko	-10.5925
▁temperature	-10.5938
▁shown	-10.5942
▁sniffer	-10.5944
▁writing	-10.5978
▁sigma	-10.5989
▁hosting	-10.6024
▁refute	-10.6046
▁draft	-10.6052
▁incident	-10.6065
▁ut	-10.6077
▁propagation	-10.6079
▁captor	-10.6081
▁blur	-10.6092
▁expiry	-10.6104
▁coll	-10.6106
▁gather	-10.6111
▁carrier	-10.6113
▁quest	-10.6132
▁purpose	-10.6136
▁zircon	-10.615
▁vote	-10.6157
▁epsilon	-10.6163
▁latex	-10.6163
▁copied	-10.6167
▁rake	-10.6167
▁handled	-10.6173
▁circular	-10.6179
▁preserve	-10.6188
▁iterate	-10.6215
▁restriction	-10.6227
▁installer	-10.6248
▁ember	-10.6291
▁central	-10.6319
▁confirmed	-10.6321
▁equivalent	-10.6321
▁triggered	-10.6332
▁gesture	-10.6334
▁rounded	-10.635
▁might	-10.6356
▁blah	-10.6368
▁explode	-10.6378
▁effective	-10.6385
▁subtitle	-10.6399
▁absent	-10.6409
▁zoo	-10.6411
▁everything	-10.6413
▁multiply	-10.6435
▁complexity	-10.6447
▁reuse	-10.6459
▁transactional	-10.6459
▁electric	-10.6461
▁manga	-10.6468
▁canal	-10.647
▁art	-10.6488
▁hold	-10.649
▁comparable	-10.6492
▁important	-10.6494
▁multiplier	-10.6504
▁early	-10.6538
▁indexing	-10.655
▁danger	-10.6554
▁he	-10.6554
▁whole	-10.6566
▁glue	-10.6568
▁eclipse	-10.657
▁precedence	-10.6588
▁recover	-10.6588
▁transparent	-10.6602
▁silent	-10.6613
▁brace	-10.6621
▁gain	-10.6621
▁robot	-10.6627
▁om	-10.6635
▁qualifier	-10.6637
▁cheerio	-10.6639
▁caret	-10.6641
▁deadline	-10.6651
▁keeper	-10.6657
▁bracket	-10.6665
▁throttle	-10.6667
▁shall	-10.6679
▁approval	-10.6698
▁immediate	-10.67
▁chef	-10.6708
▁gas	-10.6708
▁grammar	-10.6712
▁aw	-10.672
▁nearest	-10.6749
▁exposed	-10.6763
▁piece	-10.6773
▁crawler	-10.6781
▁life	-10.6785
▁bing	-10.6814
▁gin	-10.6816
▁micrometer	-10.682
▁gid	-10.6822
▁cleaner	-10.6829
▁bo	-10.6833
▁awesome	-10.6864
▁lease	-10.6866
▁fifo	-10.6868
▁optimization	-10.6882
▁necessary	-10.6897
▁story	-10.6907
▁reducer	-10.694
▁similar	-10.6947
▁indirect	-10.6978
▁depend	-10.6988
▁rook	-10.6988
▁flume	-10.6991
▁coerce	-10.6993
▁clamp	-10.7014
▁justify	-10.7022
▁weighted	-10.703
▁snowflake	-10.7039
▁getting	-10.7043
▁failing	-10.7049
▁splitter	-10.7051
▁modification	-10.7054
▁ship	-10.7062
▁almost	-10.7066
▁kraken	-10.71
▁insensitive	-10.7111
▁indexer	-10.7115
▁colour	-10.7119
▁playback	-10.7134
▁exposure	-10.7142
▁sibling	-10.7142
▁displayed	-10.7149
▁joe	-10.7159
▁deny	-10.7164
▁subtract	-10.7164
▁persister	-10.7189
▁sending	-10.7196
▁calculation	-10.7204
▁marten	-10.7213
▁brew	-10.7215
▁fog	-10.7215
▁consul	-10.7219
▁correlation	-10.7226
▁far	-10.7264
▁division	-10.7275
▁fault	-10.7275
▁retain	-10.7292
▁ending	-10.7294
▁consider	-10.7297
▁underscore	-10.7312
▁really	-10.7316
▁acme	-10.7342
▁triangle	-10.7362
▁collation	-10.7364
▁buy	-10.7366
▁daily	-10.7379
▁intermediate	-10.7379
▁survey	-10.7381
▁department	-10.7392
▁apt	-10.7399
▁od	-10.7409
▁discriminator	-10.7425
▁dont	-10.7427
▁envoy	-10.7451
▁probability	-10.7466
▁spender	-10.7477
▁indentation	-10.7497
▁borrow	-10.7504
▁enumeration	-10.7517
▁taken	-10.7519
▁beacon	-10.7524
▁disposed	-10.755
▁mass	-10.7552
▁invariant	-10.7559
▁masked	-10.7577
▁um	-10.7588
▁reduction	-10.7592
▁sanitize	-10.7606
▁torrent	-10.761
▁tilt	-10.7623
▁resilience	-10.7628
▁variance	-10.7639
▁deletion	-10.7664
▁superclass	-10.767
▁rancher	-10.7686
▁gone	-10.7691
▁bulkhead	-10.7695
▁enough	-10.7704
▁swarm	-10.7704
▁procedure	-10.7711
▁millisecond	-10.772
▁categorical	-10.7722
▁west	-10.7729
▁sentry	-10.7731
▁telemetry	-10.7731
▁hip	-10.7733
▁equipment	-10.7747
▁extracted	-10.7754
▁flask	-10.7758
▁hardware	-10.777
▁steam	-10.7776
▁tenancy	-10.7776
▁serving	-10.7806
▁traversal	-10.7806
▁brave	-10.781
▁quota	-10.7815
▁availability	-10.7817
▁physics	-10.7819
▁concept	-10.7867
▁accumulator	-10.787
▁sponsor	-10.7872
▁travis	-10.7874
▁sticky	-10.7883
▁rational	-10.7892
▁discover	-10.7902
▁deal	-10.7913
▁explicitly	-10.7915
▁fabric	-10.7927
▁fiber	-10.7929
▁scaled	-10.7929
▁speaker	-10.7929
▁eventually	-10.7955
▁deliver	-10.7968
▁conductor	-10.7985
▁linter	-10.8015
▁ah	-10.8026
▁filled	-10.8029
▁shogun	-10.8063
▁cal	-10.8075
▁lost	-10.8077
▁browse	-10.808
▁composition	-10.8087
▁prefer	-10.8087
▁ya	-10.8091
▁comparer	-10.8098
▁divide	-10.8105
▁pat	-10.8108
▁fresh	-10.8117
▁corresponding	-10.8136
▁grouped	-10.8136
▁infinite	-10.8145
▁closer	-10.8155
▁hasher	-10.8157
▁useful	-10.8159
▁anime	-10.8181
▁prefab	-10.8202
▁authorizer	-10.8216
▁kudu	-10.8223
▁minimal	-10.8223
▁who	-10.8228
▁glow	-10.8233
▁whenever	-10.8237
▁grouping	-10.824
▁pie	-10.8242
▁monoid	-10.8247
▁drill	-10.8268
▁water	-10.8268
▁orange	-10.8275
▁roll	-10.8275
▁underline	-10.8275
▁inter	-10.8314
▁tested	-10.8323
▁identical	-10.8326
▁inflector	-10.8328
▁universe	-10.8338
▁marked	-10.834
▁implicitly	-10.8349
▁smooth	-10.8349
▁prune	-10.8359
▁bundler	-10.8369
▁natural	-10.8373
▁rejection	-10.8388
▁memo	-10.8395
▁guess	-10.8424
▁werf	-10.8424
▁mutate	-10.8443
▁personal	-10.8446
▁confidence	-10.8463
▁continuous	-10.8485
▁hist	-10.849
▁expose	-10.8492
▁maintenance	-10.8497
▁clustering	-10.8499
▁adapt	-10.8507
▁estimate	-10.8514
▁odd	-10.8516
▁overlap	-10.8524
▁separate	-10.8526
▁pseudo	-10.8541
▁ease	-10.8548
▁bookmark	-10.856
▁prism	-10.857
▁overview	-10.8597
▁tier	-10.8627
▁door	-10.8629
▁postal	-10.8649
▁higher	-10.8651
▁itself	-10.8666
▁chai	-10.8684
▁mon	-10.8691
▁moving	-10.8693
▁planner	-10.8701
▁trail	-10.8723
▁longer	-10.8751
▁selenium	-10.8783
▁reaction	-10.8793
▁pulse	-10.8801
▁proof	-10.8821
▁joint	-10.8844
▁bullet	-10.8861
▁disconnected	-10.8866
▁assignable	-10.8876
▁particular	-10.8881
▁prefect	-10.8884
▁trying	-10.8922
▁ann	-10.8927
▁north	-10.893
▁polymorphic	-10.895
▁triple	-10.8952
▁tell	-10.897
▁introspection	-10.8973
▁cargo	-10.8983
▁protect	-10.8983
▁visualizer	-10.8988
▁lin	-10.8993
▁busy	-10.9001
▁discord	-10.9014
▁increase	-10.9034
▁colon	-10.9047
▁dolor	-10.9063
▁international	-10.9073
▁proper	-10.9081
▁overload	-10.9083
▁momentum	-10.9086
▁actually	-10.9088
▁ay	-10.9094
▁consistency	-10.9099
▁importer	-10.9112
▁universal	-10.9114
▁mult	-10.9117
▁inclusive	-10.9122
▁inflect	-10.9138
▁ory	-10.9143
▁barrier	-10.9153
▁purge	-10.9164
▁octet	-10.9166
▁assembler	-10.9184
▁cancelable	-10.9197
▁corrector	-10.92
▁jib	-10.9203
▁snake	-10.9224
▁unreachable	-10.9229
▁flavor	-10.9242
▁substitute	-10.9247
▁beginning	-10.9258
▁coupon	-10.9258
▁bid	-10.9263
▁suggest	-10.9268
▁supervisor	-10.9268
▁mediator	-10.9273
▁carry	-10.9284
▁announce	-10.9287
▁phantom	-10.9289
▁breeze	-10.93
▁needle	-10.9305
▁ni	-10.9308
▁south	-10.9308
▁inheritance	-10.9331
▁materializer	-10.9331
▁degree	-10.9355
▁awful	-10.9371
▁dag	-10.939
▁rolling	-10.9392
▁coalesce	-10.9398
▁manually	-10.9398
▁sodium	-10.9403
▁skipping	-10.9424
▁structured	-10.9427
▁know	-10.9451
▁prior	-10.9457
▁provision	-10.9467
▁fly	-10.9475
▁male	-10.9475
▁exponential	-10.9481
▁cachet	-10.9483
▁hyper	-10.9486
▁leak	-10.9491
▁subtype	-10.9499
▁whatever	-10.9499
▁harness	-10.951
▁incomplete	-10.9518
▁tunnel	-10.9537
▁expansion	-10.954
▁devise	-10.9545
▁movement	-10.9559
▁pal	-10.9564
▁automatic	-10.9567
▁ox	-10.9572
▁outgoing	-10.9594
▁reserve	-10.9597
▁paste	-10.9621
▁enterprise	-10.9624
▁individual	-10.9629
▁lane	-10.9629
▁flowable	-10.9646
▁past	-10.9649
▁intersect	-10.9651
▁invert	-10.9657
▁dynamo	-10.9662
▁avail	-10.9673
▁disposition	-10.9676
▁intersection	-10.9676
▁bone	-10.9687
▁twice	-10.9695
▁shallow	-10.9701
▁selectable	-10.9712
▁erase	-10.972
▁ram	-10.9728
▁shrink	-10.975
▁nth	-10.9756
▁predictor	-10.9756
▁theory	-10.9761
▁benthos	-10.9767
▁smaller	-10.978
▁ephemeral	-10.9783
▁synchronize	-10.9789
▁belt	-10.9808
▁scatter	-10.9808
▁continuation	-10.9825
▁painter	-10.9833
▁spot	-10.9836
▁plate	-10.9839
▁tup	-10.9844
▁infection	-10.9847
▁phi	-10.9853
▁bubble	-10.9855
▁gallery	-10.9855
▁subgroup	-10.9867
▁healthy	-10.9869
▁five	-10.9881
▁characteristic	-10.9906
▁deflate	-10.9906
▁traversable	-10.9906
▁removing	-10.9911
▁yo	-10.9917
▁contribution	-10.9925
▁operating	-10.9925
▁jetty	-10.9948
▁unordered	-10.9948
▁lief	-10.9954
▁nick	-10.9956
▁reservation	-10.9973
▁near	-10.9982
▁filtering	-10.9987
▁unresolved	-11.0041
▁saving	-11.0044
▁termination	-11.0067
▁learn	-11.007
▁shot	-11.007
▁san	-11.0081
▁wa	-11.0104
▁polling	-11.011
▁sigmoid	-11.0112
▁stenographer	-11.0115
▁objective	-11.0121
▁poi	-11.0127
▁wrapping	-11.0132
▁trip	-11.015
▁headline	-11.0167
▁mine	-11.017
▁redundant	-11.0178
▁appearance	-11.0184
▁cyan	-11.019
▁animal	-11.0213
▁genesis	-11.0213
▁coder	-11.0225
▁prog	-11.0225
▁food	-11.0233
▁tolerance	-11.0233
▁lag	-11.0236
▁teacher	-11.0239
▁flipper	-11.0242
▁backdrop	-11.0245
▁liquid	-11.0248
▁messenger	-11.0248
▁ancestor	-11.0254
▁grow	-11.0257
▁interpolate	-11.0259
▁rot	-11.0268
▁logistic	-11.0274
▁regarding	-11.0312
▁lightning	-11.0326
▁acceptance	-11.0332
▁ripple	-11.0335
▁wo	-11.0341
▁intrinsic	-11.0344
▁walker	-11.0344
▁iron	-11.0359
▁distribute	-11.0362
▁simulate	-11.0388
▁observation	-11.0397
▁canary	-11.0409
▁transparency	-11.0412
▁reflector	-11.0414
▁insecure	-11.0432
▁brick	-11.0444
▁gist	-11.0462
▁percentile	-11.0462
▁fetched	-11.0474
▁backing	-11.0485
▁connectivity	-11.0488
▁ban	-11.0527
▁identify	-11.0527
▁yarn	-11.053
▁fu	-11.0533
▁approve	-11.0539
▁fig	-11.0542
▁zoned	-11.0542
▁median	-11.0545
▁chroma	-11.0554
▁decrement	-11.0554
▁prefixed	-11.0554
▁bloom	-11.0569
▁lean	-11.0581
▁restricted	-11.0584
▁spin	-11.059
▁applicable	-11.0605
▁administrator	-11.0608
▁knowledge	-11.0623
▁partitioner	-11.065
▁capybara	-11.0659
▁immediately	-11.0659
▁theta	-11.0671
▁rewind	-11.0677
▁decompress	-11.0689
▁linker	-11.0695
▁inset	-11.0702
▁explain	-11.0735
▁election	-11.0741
▁nice	-11.075
▁think	-11.0753
▁according	-11.0759
▁refined	-11.0759
▁gnu	-11.0762
▁compressor	-11.0765
▁melee	-11.0765
▁spider	-11.0765
▁vocabulary	-11.0778
▁incremental	-11.0787
▁routine	-11.0787
▁spread	-11.0799
▁unbind	-11.0821
▁looper	-11.0827
▁scaler	-11.0827
▁restful	-11.0833
▁explorer	-11.0839
▁drain	-11.0845
▁adaptive	-11.0851
▁squared	-11.0885
▁slick	-11.0895
▁yard	-11.0901
▁budget	-11.0904
▁enforce	-11.0913
▁infix	-11.0916
▁biter	-11.0919
▁covered	-11.0935
▁differ	-11.0935
▁responder	-11.0935
▁calculated	-11.0938
▁discrete	-11.0944
▁basis	-11.0957
▁pink	-11.096
▁positional	-11.096
▁druid	-11.0969
▁pong	-11.0975
▁trap	-11.0982
▁fitness	-11.0985
▁permitted	-11.0985
▁bare	-11.0988
▁greeting	-11.0991
▁reversed	-11.0997
▁dial	-11.1
▁locate	-11.1025
▁neo	-11.1025
▁pinned	-11.1028
▁chronicle	-11.1035
▁trend	-11.1035
▁mailbox	-11.1057
▁scaffold	-11.1063
▁hue	-11.1085
▁ly	-11.1085
▁showing	-11.1091
▁ug	-11.1098
▁descending	-11.1148
▁highest	-11.1151
▁shopping	-11.1164
▁science	-11.1167
▁corpus	-11.1186
▁strength	-11.1186
▁cam	-11.119
▁privilege	-11.1193
▁communication	-11.1196
▁slim	-11.1215
▁death	-11.125
▁pose	-11.1292
▁consistent	-11.1295
▁educational	-11.1305
▁reconnect	-11.1305
▁female	-11.1318
▁battery	-11.1334
▁piranha	-11.1337
▁parallelism	-11.134
▁spaceship	-11.134
▁chosen	-11.136
▁computation	-11.136
▁nickname	-11.1373
▁addition	-11.1376
▁courier	-11.1386
▁exponent	-11.1392
▁semi	-11.1392
▁reaper	-11.1415
▁few	-11.1438
▁skinny	-11.1445
▁ferret	-11.1448
▁corpse	-11.1454
▁contiguous	-11.1458
▁acceptable	-11.1467
▁listening	-11.1481
▁simulation	-11.1484
▁fuzzy	-11.149
▁become	-11.151
▁feign	-11.151
▁ka	-11.151
▁nest	-11.1513
▁stopping	-11.152
▁sense	-11.1546
▁periodic	-11.1553
▁rio	-11.1556
▁bu	-11.1573
▁neighbor	-11.1579
▁monkey	-11.1583
▁compaction	-11.1589
▁generating	-11.1589
▁rust	-11.1589
▁renderable	-11.1593
▁genre	-11.1596
▁ion	-11.1609
▁folding	-11.1619
▁searcher	-11.1643
▁applicative	-11.1653
▁affected	-11.1676
▁paginate	-11.1679
▁faster	-11.1693
▁stale	-11.1696
▁bill	-11.1699
▁bond	-11.1703
▁blade	-11.1709
▁ocelot	-11.1709
▁argon	-11.1713
▁legal	-11.1716
▁dill	-11.1723
▁serif	-11.173
▁revert	-11.1733
▁similarity	-11.1746
▁surging	-11.1757
▁anti	-11.176
▁lead	-11.1784
▁ide	-11.1794
▁discount	-11.1804
▁forest	-11.1804
▁ascending	-11.1807
▁incompatible	-11.1807
▁descendant	-11.1811
▁fine	-11.1811
▁advice	-11.1817
▁iris	-11.1824
▁bread	-11.1838
▁chi	-11.1851
▁unhandled	-11.1855
▁doe	-11.1858
▁ran	-11.1872
▁forced	-11.1875
▁elastica	-11.1879
▁isolation	-11.1879
▁coeval	-11.1882
▁shade	-11.1882
▁intern	-11.1885
▁detached	-11.1889
▁fish	-11.1892
▁detailed	-11.1899
▁amt	-11.1906
▁fluid	-11.1906
▁commerce	-11.192
▁thickness	-11.193
▁ended	-11.194
▁cryptography	-11.1954
▁rounding	-11.1957
▁relaxed	-11.1961
▁wind	-11.1964
▁forwarding	-11.1968
▁stash	-11.1971
▁squeeze	-11.1978
▁boss	-11.1982
▁argo	-11.1985
▁huge	-11.1995
▁won	-11.1999
▁sortable	-11.2002
▁girl	-11.2016
▁ammo	-11.202
▁together	-11.2023
▁promotion	-11.203
▁booking	-11.2037
▁remainder	-11.204
▁race	-11.2044
▁mandatory	-11.2047
▁matter	-11.2047
▁loose	-11.2051
▁deterministic	-11.2054
▁tracked	-11.2058
▁modular	-11.2099
▁night	-11.2103
▁relevant	-11.2103
▁staging	-11.2113
▁mention	-11.2117
▁blackfire	-11.2124
▁prep	-11.2124
▁passive	-11.2127
▁elt	-11.2134
▁talk	-11.2134
▁fired	-11.2162
▁infra	-11.2166
▁partner	-11.217
▁projectile	-11.2177
▁discussion	-11.2187
▁staff	-11.2187
▁nobs	-11.2198
▁receipt	-11.2198
▁goes	-11.2201
▁truncated	-11.2208
▁speech	-11.2212
▁vis	-11.2219
▁ice	-11.2222
▁sax	-11.2233
▁why	-11.2247
▁hud	-11.2251
▁skeleton	-11.2268
▁requester	-11.2272
▁validity	-11.2272
▁ghost	-11.2275
▁convey	-11.229
▁placeable	-11.2293
▁recycle	-11.2293
▁moko	-11.2297
▁ey	-11.2311
▁sized	-11.2311
▁bounded	-11.2332
▁eh	-11.2343
▁kinesis	-11.235
▁den	-11.2357
▁unmanaged	-11.2357
▁unstable	-11.2357
▁classic	-11.2361
▁unbound	-11.2368
▁opulence	-11.2372
▁ignite	-11.2383
▁fin	-11.2401
▁provisioner	-11.2404
▁yoga	-11.2411
▁invisible	-11.2419
▁award	-11.2426
▁pitch	-11.2433
▁consent	-11.244
▁beat	-11.2444
▁forum	-11.2451
▁across	-11.2458
▁thresh	-11.2465
▁going	-11.2469
▁modern	-11.2473
▁reminder	-11.2473
▁unread	-11.248
▁listed	-11.2491
▁withdraw	-11.2491
▁sile	-11.2494
▁hunger	-11.2524
▁colored	-11.2531
▁magenta	-11.2549
▁gear	-11.2553
▁simulator	-11.2556
▁voyager	-11.2556
▁aborted	-11.256
▁tabler	-11.2567
▁reflected	-11.2571
▁hack	-11.2575
▁quarter	-11.2586
▁extraction	-11.2593
▁mechanism	-11.2593
▁enemy	-11.2611
▁sorter	-11.2622
▁insight	-11.2626
▁neutral	-11.2637
▁deposit	-11.2652
▁tutorial	-11.2652
▁tol	-11.2655
▁visa	-11.2655
▁unpooled	-11.2663
▁computer	-11.267
▁mocker	-11.267
▁lithium	-11.2685
▁mustache	-11.2685
▁recall	-11.2704
▁unrecognized	-11.2711
▁pen	-11.2718
▁stencil	-11.2718
▁symbolic	-11.2726
▁pressure	-11.2733
▁stem	-11.2748
▁cold	-11.2756
▁forget	-11.2763
▁goods	-11.277
▁burner	-11.2774
▁backlog	-11.2782
▁transcript	-11.2782
▁roaring	-11.2804
▁arithmetic	-11.2812
▁collected	-11.2812
▁propagate	-11.2815
▁unspecified	-11.2819
▁disallow	-11.2827
▁hat	-11.2827
▁neural	-11.2827
▁doing	-11.2834
▁namer	-11.2834
▁affinity	-11.2842
▁fetching	-11.2842
▁accent	-11.2849
▁aura	-11.2849
▁threaded	-11.2853
▁annotate	-11.2864
▁sat	-11.2872
▁flexible	-11.2875
▁among	-11.2887
▁combust	-11.2887
▁combat	-11.2891
▁construction	-11.2902
▁miss	-11.2932
▁minimize	-11.2963
▁reorder	-11.2966
▁nancy	-11.2974
▁splice	-11.2974
▁had	-11.2978
▁idea	-11.2978
▁integrity	-11.2978
▁vision	-11.2978
▁sprint	-11.2982
▁concatenate	-11.3008
▁laser	-11.3012
▁appropriate	-11.3047
▁finding	-11.3047
▁liability	-11.3058
▁however	-11.3066
▁omit	-11.3077
▁tu	-11.3089
▁karate	-11.3093
▁dice	-11.3104
▁gecko	-11.3104
▁flank	-11.3135
▁unload	-11.3135
▁halt	-11.3143
▁monthly	-11.3143
▁colorize	-11.3147
▁throughput	-11.3151
▁house	-11.3159
▁oam	-11.3162
▁bat	-11.3166
▁ore	-11.3166
▁interest	-11.317
▁diary	-11.3197
▁slate	-11.3201
▁keyed	-11.3213
▁recursion	-11.3213
▁packer	-11.3221
▁existent	-11.3225
▁revoke	-11.3225
▁zebra	-11.3225
▁dig	-11.3232
▁razor	-11.3232
▁synchronous	-11.3236
▁wireless	-11.324
▁dilation	-11.3244
▁loot	-11.3248
▁pickup	-11.3248
▁exclusion	-11.3252
▁flapjack	-11.326
▁bookstore	-11.3268
▁along	-11.3272
▁garbage	-11.3283
▁miner	-11.3291
▁searchable	-11.3291
▁ull	-11.3291
▁chained	-11.3295
▁chooser	-11.3295
▁orchestrator	-11.3295
▁morph	-11.3307
▁tst	-11.3331
▁grey	-11.3346
▁spray	-11.3374
▁activator	-11.339
▁safety	-11.3394
▁indented	-11.3398
▁chomp	-11.3402
▁combination	-11.3426
▁cable	-11.3442
▁scales	-11.345
▁sad	-11.3454
▁starter	-11.3454
▁silo	-11.3466
▁thrasher	-11.3494
▁dual	-11.3498
▁much	-11.351
▁hibernate	-11.3514
▁turret	-11.3514
▁removal	-11.3522
▁saint	-11.3522
▁sip	-11.3522
▁synchronization	-11.3538
▁contest	-11.3546
▁segmentation	-11.3558
▁insertion	-11.3562
▁warranty	-11.3562
▁hybrid	-11.3574
▁deg	-11.3582
▁popular	-11.3586
▁rad	-11.3586
▁boom	-11.3595
▁oh	-11.3607
▁sonata	-11.3619
▁completer	-11.3627
▁decorate	-11.3627
▁parenthesis	-11.3639
▁pluck	-11.3643
▁smarty	-11.3651
▁specifier	-11.3651
▁tanh	-11.3664
▁wi	-11.3684
▁jane	-11.3688
▁forever	-11.3705
▁traverser	-11.3713
▁paddle	-11.3721
▁refer	-11.3721
▁rebuild	-11.3725
▁province	-11.3729
▁penalty	-11.3737
▁braces	-11.3742
▁school	-11.375
▁orc	-11.3762
▁wizard	-11.3762
▁limitation	-11.3766
▁scannable	-11.3766
▁paren	-11.3779
▁jo	-11.3787
▁witness	-11.3799
▁selective	-11.3808
▁ramp	-11.3812
▁remark	-11.3812
▁reduced	-11.3824
▁mob	-11.3828
▁seat	-11.3837
▁forgery	-11.3878
▁easing	-11.3891
▁quaternion	-11.3899
▁naive	-11.3907
▁director	-11.3928
▁proceed	-11.3937
▁functionality	-11.3945
▁pan	-11.3945
▁sleeping	-11.3945
▁counting	-11.3949
▁technology	-11.3953
▁various	-11.3953
▁hora	-11.3966
▁pendulum	-11.3966
▁premake	-11.3991
▁tween	-11.4017
▁ten	-11.4021
▁occurrence	-11.4038
▁dis	-11.4042
▁playground	-11.4046
▁manufacturer	-11.4059
▁sit	-11.4059
▁spawner	-11.4059
▁tube	-11.4059
▁tapir	-11.4067
▁faction	-11.4072
▁volt	-11.4072
▁nose	-11.4089
▁slab	-11.4089
▁censor	-11.4097
▁consecutive	-11.4102
▁suspended	-11.4106
▁appear	-11.4119
▁ons	-11.4131
▁subsystem	-11.414
▁bases	-11.4144
▁bottle	-11.4153
▁migrator	-11.4161
▁population	-11.4161
▁sliding	-11.417
▁tour	-11.417
▁passport	-11.4174
▁tray	-11.4183
▁threat	-11.4187
▁unbounded	-11.4187
▁equip	-11.4196
▁indigo	-11.4204
▁influx	-11.4204
▁redirection	-11.4204
▁divisor	-11.4209
▁flight	-11.4209
▁met	-11.4213
▁club	-11.4222
▁reconciliation	-11.4226
▁spout	-11.4248
▁clang	-11.4256
▁iota	-11.4256
▁targeted	-11.4261
▁golden	-11.4269
▁capitalize	-11.4295
▁porter	-11.4295
▁upon	-11.43
▁igniter	-11.4308
▁several	-11.4308
▁usar	-11.4308
▁summarizer	-11.4321
▁impact	-11.4326
▁ledger	-11.4334
▁raid	-11.4339
▁blake	-11.4347
▁burst	-11.4347
▁birth	-11.4352
▁attacher	-11.4356
▁ensemble	-11.4361
▁citation	-11.4365
▁communicator	-11.4365
▁groovy	-11.4369
▁respect	-11.4378
▁behave	-11.4383
▁uncaught	-11.4383
▁chassis	-11.44
▁simply	-11.44
▁vert	-11.4409
▁damages	-11.4413
▁allowance	-11.444
▁lily	-11.444
▁affine	-11.4444
▁gadget	-11.4444
▁insufficient	-11.4466
▁boo	-11.4479
▁care	-11.4479
▁deactivate	-11.4484
▁trained	-11.4488
▁bloop	-11.4497
▁collate	-11.451
▁informer	-11.4515
▁dungeon	-11.4519
▁notation	-11.4519
▁parentheses	-11.4533
▁fuel	-11.4537
▁recognizer	-11.4542
▁cow	-11.4546
▁registrar	-11.4551
▁whom	-11.4555
▁fat	-11.4573
▁independent	-11.4582
▁iterant	-11.4582
▁unmodifiable	-11.4582
▁bitwise	-11.4591
▁produced	-11.46
▁previously	-11.4613
▁salary	-11.4618
▁explanation	-11.4622
▁armor	-11.4631
▁mojo	-11.4631
▁buoyant	-11.4636
▁brightness	-11.4645
▁staged	-11.4649
▁condensed	-11.4658
▁silence	-11.4658
▁fitted	-11.4667
▁refinery	-11.4667
▁funder	-11.4676
▁unnamed	-11.4676
▁remain	-11.4681
▁associate	-11.4685
▁liveness	-11.4685
▁mute	-11.4703
▁interpret	-11.4721
▁emergency	-11.4735
▁sweep	-11.4758
▁away	-11.4762
▁monster	-11.4781
▁raster	-11.4794
▁joiner	-11.4799
▁identification	-11.4817
▁operate	-11.4822
▁assistant	-11.4826
▁liable	-11.4826
▁readiness	-11.4826
▁puzzle	-11.4849
▁bypass	-11.4858
▁tape	-11.4872
▁outdated	-11.4886
▁announcement	-11.4891
▁locker	-11.4891
▁wise	-11.4909
▁doesnt	-11.4914
▁privileged	-11.4932
▁portrait	-11.4946
▁stemmer	-11.4955
▁osmium	-11.4969
▁law	-11.4974
▁electron	-11.4979
▁likelihood	-11.4979
▁sphere	-11.4979
▁negate	-11.4988
▁grade	-11.4997
▁turns	-11.4997
▁plant	-11.5002
▁alphabet	-11.5007
▁harmony	-11.5007
▁tort	-11.5011
▁fall	-11.5021
▁hereby	-11.5021
▁solo	-11.5021
▁consumption	-11.503
▁refine	-11.503
▁smoke	-11.503
▁untagged	-11.503
▁saver	-11.5044
▁telephone	-11.5044
▁peg	-11.5053
▁cumulative	-11.5058
▁admission	-11.5063
▁gun	-11.5067
▁poster	-11.5067
▁older	-11.5072
▁asynchronous	-11.5096
▁substantial	-11.5096
▁emu	-11.51
▁backed	-11.5105
▁probably	-11.5114
▁substitution	-11.5114
▁chalk	-11.5124
▁sketch	-11.5124
▁anon	-11.5133
▁redo	-11.5133
▁monotonic	-11.5143
▁usually	-11.5148
▁ant	-11.5162
▁happen	-11.5167
▁shaped	-11.5167
▁castle	-11.5171
▁partitioned	-11.5171
▁symmetric	-11.5176
▁enforced	-11.5209
▁importance	-11.5224
▁coil	-11.5228
▁air	-11.5233
▁gym	-11.5233
▁wish	-11.5233
▁sparkling	-11.5238
▁decrease	-11.5243
▁apex	-11.5247
▁emplace	-11.5247
▁diversity	-11.5257
▁critic	-11.5262
▁solve	-11.5267
▁sanity	-11.5291
▁curly	-11.5295
▁noisy	-11.5295
▁dollar	-11.53
▁looking	-11.53
▁sonar	-11.53
▁trident	-11.5305
▁difficulty	-11.5324
▁intuit	-11.5324
▁entire	-11.5329
▁furnished	-11.5329
▁printed	-11.5329
▁sublicense	-11.5329
▁sup	-11.5339
▁ribbon	-11.5344
▁considered	-11.5348
▁rewriter	-11.5348
▁ado	-11.5353
▁puppeteer	-11.5377
▁twill	-11.5382
▁lighthouse	-11.5392
▁measured	-11.5392
▁mocha	-11.5392
▁regressor	-11.5392
▁mar	-11.5397
▁tablet	-11.5397
▁isolated	-11.5406
▁mounted	-11.5416
▁explosion	-11.5431
▁portable	-11.5431
▁grab	-11.5436
▁disjoint	-11.5441
▁radix	-11.5441
▁parallelize	-11.5445
▁blink	-11.5455
▁declined	-11.547
▁formation	-11.5475
▁fence	-11.5494
▁peak	-11.5494
▁jersey	-11.5499
▁referrer	-11.5509
▁tri	-11.5514
▁boxing	-11.5529
▁tan	-11.5529
▁residual	-11.5538
▁cash	-11.5553
▁chance	-11.5553
▁drawee	-11.5553
▁safari	-11.5558
▁constellation	-11.5573
▁unpacked	-11.5573
▁contrast	-11.5583
▁jack	-11.5588
▁resty	-11.5588
▁quant	-11.5608
▁recurring	-11.5608
▁egress	-11.5622
▁filer	-11.5627
▁unchanged	-11.5632
▁invitation	-11.5642
▁xi	-11.5642
▁bom	-11.5647
▁pom	-11.5647
▁recurse	-11.5667
▁retriever	-11.5677
▁adder	-11.5682
▁shim	-11.5682
▁represent	-11.5702
▁fan	-11.5707
▁purple	-11.5712
▁ingest	-11.5722
▁cubic	-11.5737
▁buyer	-11.5747
▁elevation	-11.5752
▁prettifier	-11.5757
▁remap	-11.5762
▁slope	-11.5762
▁polynomial	-11.5772
▁recommend	-11.5772
▁volunteer	-11.5772
▁prim	-11.5777
▁projector	-11.5783
▁estimation	-11.5788
▁cutoff	-11.5813
▁spline	-11.5813
▁wake	-11.5813
▁cad	-11.5823
▁craft	-11.5828
▁pump	-11.5838
▁anyhow	-11.5843
▁banana	-11.5853
▁octant	-11.5853
▁typical	-11.5864
▁ambiguous	-11.5869
▁sky	-11.5869
▁integral	-11.5874
▁alpine	-11.5879
▁fancy	-11.5879
▁late	-11.5889
▁semicolon	-11.5894
▁coffee	-11.5899
▁semantics	-11.5899
▁catalogue	-11.5925
▁bounty	-11.594
▁indicate	-11.594
▁fusion	-11.5955
▁maintainer	-11.5961
▁relational	-11.5976
▁patience	-11.5981
▁premium	-11.5986
▁smoothing	-11.5986
▁deck	-11.5997
▁locking	-11.5997
▁grape	-11.6017
▁reinterpret	-11.6022
▁lea	-11.6028
▁rhea	-11.6033
▁saturation	-11.6033
▁travel	-11.6033
▁assemble	-11.6038
▁seeder	-11.6038
▁surrogate	-11.6038
▁forge	-11.6043
▁greeter	-11.6059
▁locally	-11.6064
▁diagonal	-11.6069
▁watched	-11.6069
▁purifier	-11.6074
▁resulting	-11.6074
▁neck	-11.6079
▁responsive	-11.6085
▁crawl	-11.609
▁ami	-11.6095
▁chia	-11.6095
▁backwards	-11.6105
▁demand	-11.6105
▁popover	-11.6105
▁adaptor	-11.6111
▁facet	-11.6111
▁founding	-11.6116
▁certain	-11.6131
▁magnitude	-11.6131
▁digital	-11.6137
▁inception	-11.6137
▁rerun	-11.6147
▁milestone	-11.6152
▁haystack	-11.6158
▁stress	-11.6173
▁advertiser	-11.6179
▁redux	-11.6179
▁translatable	-11.6179
▁walking	-11.6189
▁gob	-11.6194
▁graphic	-11.62
▁plat	-11.62
▁watermark	-11.62
▁whose	-11.6215
▁parity	-11.6236
▁nor	-11.6242
▁commander	-11.6258
▁grace	-11.6263
▁imp	-11.6263
▁likely	-11.6263
▁confusion	-11.6273
▁deviation	-11.6295
▁partitioning	-11.6305
▁voter	-11.6305
▁numerical	-11.6311
▁bogus	-11.6316
▁ho	-11.6316
▁shark	-11.6316
▁leaves	-11.6332
▁unified	-11.6337
▁sale	-11.6353
▁settable	-11.6353
▁corporation	-11.6412
▁fuzz	-11.6418
▁landscape	-11.6418
▁payable	-11.6418
▁rather	-11.6423
▁throwing	-11.6428
▁retrieval	-11.6434
▁enhanced	-11.6439
▁saga	-11.6444
▁making	-11.6455
▁driven	-11.6471
▁significant	-11.6471
▁permutation	-11.6482
▁thin	-11.6493
▁uncompressed	-11.6493
▁checkers	-11.6498
▁angel	-11.6504
▁ellipsis	-11.6504
▁agreement	-11.6509
▁excerpt	-11.6515
▁official	-11.6515
▁station	-11.6515
▁dragonfly	-11.652
▁egg	-11.6547
▁era	-11.6547
▁stone	-11.6547
▁localize	-11.6558
▁fid	-11.6564
▁jingle	-11.6564
▁merger	-11.6564
▁venue	-11.6569
▁corona	-11.6575
▁succinct	-11.6575
▁bye	-11.658
▁overall	-11.658
▁domestic	-11.6585
▁pusher	-11.6585
▁radar	-11.6591
▁arbitrate	-11.6602
▁featured	-11.6635
▁fruit	-11.6635
▁grum	-11.6635
▁simplify	-11.664
▁composed	-11.6646
▁sorcery	-11.6651
▁duplex	-11.6657
▁faraday	-11.6662
▁god	-11.6673
▁headless	-11.6679
▁derivation	-11.6684
▁campo	-11.6706
▁obsolete	-11.6718
▁splash	-11.6723
▁transact	-11.6734
▁deprecate	-11.6745
▁hant	-11.6756
▁vat	-11.6773
▁stripped	-11.6779
▁metal	-11.6795
▁duck	-11.6801
▁exceptionless	-11.6801
▁cyclic	-11.6829
▁robin	-11.6834
▁happy	-11.684
▁symmetry	-11.684
▁rotated	-11.6846
▁chest	-11.6851
▁marshaler	-11.6857
▁hey	-11.6868
▁beautiful	-11.6891
▁unmount	-11.6891
▁lexicon	-11.6913
▁turtle	-11.6913
▁emulator	-11.6919
▁intended	-11.6936
▁poetry	-11.6953
▁atlantic	-11.6964
▁formulae	-11.6964
▁suppressed	-11.697
▁yr	-11.6976
▁possibly	-11.6987
▁silk	-11.6987
▁ye	-11.7004
▁greedy	-11.7021
▁moon	-11.7027
▁reps	-11.7032
▁evict	-11.7044
▁regularizer	-11.7044
▁shapeless	-11.7044
▁guarded	-11.705
▁completely	-11.7055
▁tower	-11.7055
▁edition	-11.7061
▁leadership	-11.7078
▁pu	-11.7078
▁balanced	-11.7084
▁eta	-11.7084
▁accumulate	-11.7107
▁reconcile	-11.7107
▁chaos	-11.7113
▁cookbook	-11.7113
▁recently	-11.7119
▁specialized	-11.7119
▁geometric	-11.7136
▁tone	-11.7142
▁myself	-11.7147
▁testee	-11.7147
▁silhouette	-11.7176
▁stubbed	-11.7176
▁tomorrow	-11.7182
▁bounce	-11.7188
▁cosine	-11.7188
▁lister	-11.72
▁existence	-11.7205
▁decompose	-11.7217
▁experience	-11.7223
▁humanoid	-11.7223
▁inclusion	-11.7223
▁ora	-11.7229
▁denominator	-11.7235
▁restaurant	-11.7235
▁tried	-11.724
▁organizer	-11.7246
▁telescope	-11.7246
▁geyser	-11.7252
▁trunk	-11.7258
▁convertor	-11.727
▁gulp	-11.7287
▁epic	-11.7293
▁horizon	-11.7311
▁imagine	-11.7311
▁intensity	-11.7311
▁funds	-11.7316
▁growth	-11.7316
▁satisfy	-11.7316
▁warp	-11.7328
▁inverted	-11.7334
▁stability	-11.7334
▁triplet	-11.734
▁depending	-11.7364
▁fuse	-11.7364
▁quorum	-11.737
▁reachable	-11.7375
▁rid	-11.7375
▁keg	-11.7381
▁opal	-11.7381
▁seasonal	-11.7387
▁assist	-11.7399
▁clue	-11.7399
▁recommendation	-11.7399
▁approach	-11.7405
▁coefficient	-11.7405
▁opus	-11.7405
▁sect	-11.7417
▁interact	-11.7423
▁spotless	-11.7423
▁umbrella	-11.7429
▁scoring	-11.7435
▁cortex	-11.7447
▁notifiable	-11.7447
▁portability	-11.7459
▁further	-11.7471
▁sway	-11.7476
▁guru	-11.7482
▁hugging	-11.7482
▁lan	-11.7488
▁birthday	-11.75
▁visualization	-11.75
▁derivative	-11.7512
▁optionally	-11.7512
▁ever	-11.7518
▁maid	-11.7518
▁sector	-11.7518
▁spend	-11.7518
▁useless	-11.7518
▁bright	-11.753
▁bilinear	-11.7536
▁blocker	-11.7536
▁trash	-11.7542
▁caffeine	-11.7548
▁nonzero	-11.756
▁slogan	-11.756
▁quat	-11.7566
▁sar	-11.7579
▁toll	-11.7579
▁waiter	-11.7579
▁sentiment	-11.7597
▁lamp	-11.7609
▁locality	-11.7645
▁profit	-11.7657
▁owl	-11.7663
▁reach	-11.7669
▁china	-11.7676
▁conflicting	-11.7676
▁brown	-11.7682
▁capital	-11.7682
▁pruner	-11.7682
▁styling	-11.7688
▁underground	-11.7688
▁pledge	-11.77
▁rebalance	-11.77
▁filler	-11.7706
▁shrine	-11.7706
▁zombie	-11.7706
▁mib	-11.7712
▁fourth	-11.7724
▁war	-11.7724
▁spire	-11.7731
▁disc	-11.7737
▁kay	-11.7737
▁reek	-11.7737
▁simplified	-11.7737
▁doorkeeper	-11.7743
▁skew	-11.7749
▁efficient	-11.7755
▁posted	-11.7755
▁weed	-11.7755
▁gutter	-11.7761
▁duo	-11.778
▁noun	-11.778
▁supporting	-11.778
▁covid	-11.7786
▁shiny	-11.7786
▁boring	-11.7792
▁fae	-11.7817
▁quot	-11.7817
▁suitable	-11.7823
▁thinking	-11.7829
▁swiper	-11.7848
▁printable	-11.786
▁sri	-11.7873
▁his	-11.7879
▁crystal	-11.7885
▁mixer	-11.7885
▁expander	-11.7897
▁hilt	-11.7904
▁kern	-11.7904
▁navigable	-11.7916
▁whisk	-11.7916
▁burn	-11.7941
▁cocorico	-11.796
▁idempotent	-11.796
▁usable	-11.796
▁follower	-11.7972
▁tang	-11.7972
▁streamlet	-11.7979
▁yahoo	-11.7979
▁communicate	-11.7985
▁ternary	-11.7991
▁tofu	-11.8016
▁rail	-11.8023
▁watchdog	-11.8023
▁contextual	-11.8035
▁treat	-11.8035
▁permanent	-11.8042
▁viper	-11.8042
▁precompile	-11.8054
▁typescript	-11.8067
▁cand	-11.8073
▁overhead	-11.808
▁ahead	-11.8086
▁normally	-11.8086
▁writeable	-11.8086
▁extreme	-11.8092
▁sex	-11.8118
▁bedrock	-11.8124
▁antarctica	-11.8131
▁centered	-11.8143
▁preamble	-11.815
▁scrub	-11.8163
▁unnecessary	-11.8169
▁materialize	-11.8182
▁adjustment	-11.8188
▁junk	-11.8188
▁shut	-11.8188
▁pluralize	-11.8195
▁assignee	-11.8201
▁gimel	-11.8201
▁stomp	-11.8201
▁uniqueness	-11.8214
▁fleet	-11.8227
▁spew	-11.8246
▁acceptor	-11.8265
▁touched	-11.8272
▁federation	-11.8278
▁converting	-11.8285
▁corruption	-11.8285
▁curry	-11.8304
▁repair	-11.8304
▁stereo	-11.8304
▁analyse	-11.8324
▁cheese	-11.8324
▁facing	-11.8324
▁contour	-11.833
▁shorthand	-11.8343
▁dying	-11.835
▁ether	-11.8356
▁engineer	-11.8363
▁cleave	-11.8369
▁sensitivity	-11.8369
▁cant	-11.8396
▁hole	-11.8396
▁recognition	-11.8402
▁ingredient	-11.8428
▁allure	-11.8442
▁regenerate	-11.8442
▁replicate	-11.8442
▁matrices	-11.8448
▁sidecar	-11.8448
▁clips	-11.8455
▁midnight	-11.8455
▁safely	-11.8455
▁disruptor	-11.8461
▁sizer	-11.8461
▁constrained	-11.8474
▁flocker	-11.8474
▁van	-11.8474
▁fed	-11.8481
▁splat	-11.8481
▁warm	-11.8481
▁phases	-11.8488
▁mostly	-11.8501
▁okapi	-11.8501
▁dos	-11.8508
▁artisan	-11.8514
▁latent	-11.8514
▁come	-11.8527
▁orb	-11.8534
▁starred	-11.8534
▁trailer	-11.8534
▁smell	-11.8541
▁sharded	-11.8547
▁elb	-11.8554
▁shake	-11.8554
▁smith	-11.8554
▁beg	-11.8561
▁swep	-11.8561
▁strike	-11.8581
▁redraw	-11.8587
▁pep	-11.8601
▁heart	-11.8607
▁lim	-11.8621
▁longs	-11.8627
▁committer	-11.8641
▁suppression	-11.8641
▁dimensional	-11.8648
▁externally	-11.8654
▁gram	-11.8654
▁mag	-11.8654
▁went	-11.8654
▁lesson	-11.8661
▁unreal	-11.8681
▁bravo	-11.8695
▁convertible	-11.8695
▁combiner	-11.8708
▁aggressive	-11.8715
▁searching	-11.8715
▁wallpaper	-11.8722
▁cabal	-11.8729
▁rainbow	-11.8742
▁transferred	-11.8742
▁basket	-11.8749
▁perfect	-11.8749
▁tank	-11.8756
▁jasmine	-11.8769
▁essence	-11.879
▁printing	-11.879
▁eviction	-11.8803
▁mana	-11.8803
▁nonexistent	-11.8803
▁jitter	-11.8851
▁candle	-11.8865
▁guinea	-11.8865
▁luke	-11.8865
▁satisfied	-11.8879
▁mongoose	-11.8885
▁kex	-11.8892
▁coercion	-11.8899
▁copier	-11.8899
▁transporter	-11.8899
▁stateless	-11.8906
▁bam	-11.8913
▁rebase	-11.892
▁manipulation	-11.8927
▁mesa	-11.8927
▁transmission	-11.8927
▁united	-11.8927
▁transmit	-11.8941
▁seven	-11.8948
▁lot	-11.8954
▁partially	-11.8954
▁rock	-11.8954
▁tau	-11.8954
▁acceleration	-11.8961
▁enlistment	-11.8961
▁resample	-11.8961
▁vamp	-11.8961
▁sufficient	-11.8968
▁vanilla	-11.8975
▁promote	-11.8982
▁samp	-11.8982
▁evidence	-11.8989
▁robust	-11.8989
▁volcano	-11.9003
▁discipline	-11.9024
▁browsing	-11.9031
▁han	-11.9031
▁puma	-11.9031
▁permute	-11.9038
▁roster	-11.9045
▁weekly	-11.9052
▁localizer	-11.9073
▁hourly	-11.908
▁forwards	-11.9087
▁treatment	-11.9101
▁dan	-11.9108
▁unlimited	-11.9108
▁covariance	-11.9115
▁taxi	-11.9122
▁understand	-11.9122
▁intrigue	-11.9136
▁though	-11.9136
▁yesterday	-11.9143
▁leap	-11.915
▁season	-11.915
▁tiff	-11.915
▁fresco	-11.9164
▁poller	-11.9164
▁reagent	-11.9164
▁precise	-11.9179
▁unhealthy	-11.9186
▁gossip	-11.9193
▁tot	-11.92
▁german	-11.9207
▁payer	-11.9207
▁newsletter	-11.9214
▁heal	-11.9221
▁renew	-11.9221
▁anvil	-11.9228
▁dispute	-11.9235
▁pizza	-11.9235
▁itinerary	-11.9243
▁tabular	-11.9243
▁precondition	-11.9264
▁tai	-11.9264
▁turned	-11.9271
▁unauthenticated	-11.9271
▁assured	-11.9285
▁knife	-11.9285
▁vary	-11.9293
▁wipe	-11.9307
▁affect	-11.9314
▁aid	-11.9314
▁belong	-11.9314
▁trading	-11.9314
▁negotiation	-11.9336
▁shipment	-11.9364
▁shield	-11.9372
▁chronology	-11.9379
▁tangram	-11.9379
▁balancing	-11.9386
▁comet	-11.9386
▁gherkin	-11.9408
▁island	-11.9415
▁pole	-11.9415
▁storer	-11.9437
▁pollution	-11.9444
▁cropper	-11.9451
▁poco	-11.9451
▁fused	-11.9459
▁ambassador	-11.9466
▁approximate	-11.9481
▁ow	-11.9481
▁thus	-11.9495
▁behind	-11.9502
▁sur	-11.9502
▁impossible	-11.951
▁providing	-11.951
▁jinja	-11.9524
▁soon	-11.9524
▁unwrapped	-11.9524
▁eat	-11.9532
▁switcher	-11.9532
▁gift	-11.9546
▁watching	-11.9546
▁deb	-11.9554
▁demos	-11.9554
▁catchup	-11.9561
▁debt	-11.9561
▁mud	-11.9561
▁bump	-11.9569
▁brief	-11.9576
▁york	-11.9576
▁notary	-11.9583
▁showcase	-11.9583
▁bor	-11.9591
▁mill	-11.9613
▁mora	-11.962
▁yn	-11.962
▁casting	-11.9628
▁helium	-11.9628
▁tee	-11.9642
▁irregular	-11.965
▁pruning	-11.9665
▁trader	-11.9665
▁blaze	-11.9687
▁healing	-11.9687
▁someone	-11.9694
▁tagger	-11.9694
▁grand	-11.9717
▁heavy	-11.9717
▁pairwise	-11.9724
▁adjacent	-11.9732
▁mad	-11.9739
▁dialogue	-11.9754
▁lockbox	-11.9762
▁testable	-11.9762
▁pimple	-11.9769
▁spacer	-11.9769
▁utilization	-11.9769
▁tangent	-11.9777
▁favor	-11.9792
▁minify	-11.9792
▁scored	-11.9792
▁baggage	-11.9799
▁celluloid	-11.9799
▁corrupted	-11.9799
▁deform	-11.9799
▁maximize	-11.9807
▁bouncer	-11.9815
▁pickler	-11.9815
▁mobility	-11.9822
▁orderer	-11.983
▁passenger	-11.9837
▁tango	-11.9852
▁cleaning	-11.986
▁sides	-11.986
▁fib	-11.9867
▁declarative	-11.9875
▁brain	-11.989
▁spent	-11.989
▁terrain	-11.989
▁nominal	-11.9898
▁stick	-11.9906
▁associative	-11.9913
▁handshaker	-11.9913
▁smoking	-11.9921
▁established	-11.9928
▁flaky	-11.9928
▁nope	-11.9928
▁rocketeer	-11.9928
▁dupe	-11.9936
▁seller	-11.9936
▁weekday	-11.9936
▁monocle	-11.9944
▁hug	-11.9951
▁mangle	-11.9967
▁koala	-11.9974
▁bigger	-11.9982
▁maze	-11.9997
▁neither	-11.9997
▁unmatched	-11.9997
▁tuning	-12.0005
▁dad	-12.002
▁scanning	-12.0028
▁additive	-12.0044
▁acquired	-12.0051
▁auction	-12.0051
▁defense	-12.0051
▁suit	-12.0067
▁rain	-12.0074
▁weaver	-12.0074
▁capsule	-12.0098
▁interior	-12.0113
▁sizing	-12.0113
▁entrance	-12.0129
▁huff	-12.0129
▁battle	-12.0144
▁hop	-12.0152
▁scram	-12.0152
▁amenity	-12.0168
▁inconsistent	-12.0168
▁summarize	-12.0168
▁eligible	-12.0176
▁portfolio	-12.0176
▁recoil	-12.0176
▁opener	-12.0184
▁handy	-12.0191
▁lod	-12.0191
▁mint	-12.0191
▁wagon	-12.0191
▁ist	-12.0199
▁leaky	-12.0199
▁goa	-12.0207
▁vanity	-12.0207
▁manipulator	-12.0215
▁pomerium	-12.0223
▁gum	-12.0246
▁mission	-12.0254
▁marketing	-12.027
▁tweak	-12.027
▁rigid	-12.0278
▁withdrawal	-12.0278
▁scalding	-12.0294
▁designer	-12.0302
▁taking	-12.0302
▁discovered	-12.031
▁intention	-12.0333
▁variation	-12.0333
▁crush	-12.0341
▁lexical	-12.0341
▁sai	-12.0349
▁directed	-12.0365
▁falcon	-12.0365
▁orphan	-12.0365
▁bail	-12.0389
▁numeral	-12.0389
▁radial	-12.0389
▁graphite	-12.0413
▁maintain	-12.0413
▁nine	-12.0413
▁svelte	-12.0413
▁fulfillment	-12.0429
▁actionable	-12.0437
▁canada	-12.0445
▁polar	-12.0445
▁conduit	-12.0453
▁tuner	-12.0453
▁refreshing	-12.0478
▁sinh	-12.0478
▁unlocked	-12.0478
▁spawning	-12.0486
▁species	-12.0486
▁throttling	-12.0486
▁kept	-12.051
▁tin	-12.051
▁dragging	-12.0518
▁mist	-12.0518
▁seal	-12.0518
▁raven	-12.0542
▁exceed	-12.055
▁scientific	-12.055
▁sie	-12.055
▁bang	-12.0559
▁globally	-12.0567
▁notified	-12.0583
▁snow	-12.0583
▁specimen	-12.0583
▁pig	-12.0591
▁trivial	-12.0599
▁unquoted	-12.0599
▁rugged	-12.0607
▁numerator	-12.0632
▁rod	-12.0632
▁themis	-12.0632
▁buzz	-12.0648
▁dotted	-12.0648
▁originally	-12.0648
▁unlikely	-12.0648
▁imprint	-12.0657
▁taint	-12.0673
▁trig	-12.0673
▁coral	-12.0689
▁majority	-12.0698
▁diffuse	-12.0706
▁filament	-12.0706
▁nettle	-12.0706
▁nova	-12.0706
▁comes	-12.0714
▁auxiliary	-12.0722
▁unescaped	-12.0731
▁plug	-12.0739
▁therefore	-12.0739
▁compass	-12.0747
▁din	-12.0747
▁bios	-12.0756
▁increasing	-12.0756
▁administration	-12.0764
▁hydrator	-12.0772
▁quarantine	-12.0772
▁eagle	-12.0789
▁tor	-12.0789
▁ber	-12.0797
▁mnemonic	-12.0797
▁nearby	-12.0797
▁occur	-12.0797
▁archetype	-12.0814
▁firm	-12.0814
▁pam	-12.0814
▁sometimes	-12.0814
▁took	-12.0814
▁captain	-12.0822
▁randomize	-12.083
▁lut	-12.0839
▁optimal	-12.0847
▁interactivity	-12.0856
▁orbit	-12.0872
▁often	-12.0889
▁unicorn	-12.0898
▁humidity	-12.0906
▁trainable	-12.0906
▁indirection	-12.0931
▁symbolize	-12.0931
▁assigner	-12.094
▁guesser	-12.0948
▁potion	-12.0948
▁spa	-12.0948
▁introspect	-12.0965
▁reconciler	-12.0974
▁lose	-12.0982
▁pot	-12.0982
▁ellipse	-12.099
▁relocation	-12.099
▁rib	-12.099
▁responsible	-12.0999
▁limiting	-12.1007
▁middleman	-12.1007
▁scorer	-12.1016
▁ways	-12.1016
▁dotty	-12.1024
▁replaceable	-12.1024
▁arrange	-12.1033
▁peripheral	-12.1033
▁flyweight	-12.1042
▁soup	-12.1042
▁wild	-12.1042
▁finger	-12.1059
▁granularity	-12.1059
▁her	-12.1059
▁molecule	-12.1059
▁assessment	-12.1084
▁tec	-12.1084
▁bird	-12.1093
▁comfy	-12.1093
▁cha	-12.1101
▁delegation	-12.1101
▁advisor	-12.111
▁compliant	-12.111
▁straight	-12.1119
▁transit	-12.1119
▁tui	-12.1119
▁attacker	-12.1127
▁dram	-12.1127
▁nebula	-12.1127
▁sliced	-12.1127
▁joining	-12.1136
▁revalidate	-12.1136
▁linking	-12.1144
▁resolvable	-12.1153
▁tic	-12.1162
▁acronym	-12.1188
▁perspective	-12.1188
▁countable	-12.1196
▁augmentation	-12.1205
▁bidirectional	-12.1205
▁haptic	-12.1205
▁programmatic	-12.1205
▁statics	-12.1205
▁toolbox	-12.1214
▁indifferent	-12.1231
▁replacer	-12.1231
▁tal	-12.124
▁bower	-12.1248
▁meet	-12.1257
▁decide	-12.1266
▁film	-12.1266
▁hydrate	-12.1266
▁gremlin	-12.1275
▁snack	-12.1275
▁chunky	-12.1283
▁establish	-12.1292
▁trickster	-12.1292
▁mathematics	-12.1301
▁ranged	-12.1301
▁fractional	-12.131
▁fut	-12.1336
▁lei	-12.1345
▁tactic	-12.1345
▁assumed	-12.1354
▁randomly	-12.1354
▁quietly	-12.1362
▁remover	-12.1371
▁scribe	-12.1371
▁subsequent	-12.1371
▁saw	-12.1389
▁bud	-12.1398
▁forgot	-12.1398
▁furnace	-12.1398
▁lazily	-12.1398
▁explore	-12.1406
▁reflective	-12.1406
▁regional	-12.1406
▁boiler	-12.1415
▁fore	-12.1415
▁complement	-12.1433
▁footnote	-12.1433
▁hazard	-12.1433
▁dip	-12.1442
▁dither	-12.1442
▁recreate	-12.1451
▁augment	-12.146
▁breaking	-12.146
▁outlet	-12.1469
▁statistical	-12.1469
▁lighting	-12.1478
▁tomcat	-12.1478
▁tire	-12.1486
▁clustered	-12.1495
▁frank	-12.1495
▁ocean	-12.1495
▁earth	-12.1504
▁convenience	-12.1513
▁guarantee	-12.1513
▁nag	-12.1513
▁doit	-12.1522
▁streamer	-12.1522
▁corrected	-12.1531
▁corridor	-12.154
▁chad	-12.1549
▁enrollment	-12.1549
▁durable	-12.1558
▁pouch	-12.1567
▁submariner	-12.1576
▁checkable	-12.1585
▁kick	-12.1585
▁lerp	-12.1585
▁rho	-12.1585
▁switching	-12.1585
▁tonga	-12.1585
▁cull	-12.1594
▁agency	-12.1603
▁buildable	-12.1603
▁columnar	-12.1612
▁terminator	-12.1612
▁modulus	-12.163
▁orient	-12.163
▁weird	-12.163
▁holding	-12.1639
▁spare	-12.1639
▁forwarder	-12.1648
▁lollipop	-12.1648
▁electrum	-12.1657
▁squash	-12.1657
▁sticker	-12.1657
▁scapegoat	-12.1666
▁eight	-12.1685
▁progressive	-12.1685
▁research	-12.1685
▁road	-12.1685
▁toto	-12.1694
▁proportion	-12.1712
▁graceful	-12.1721
▁repeatable	-12.173
▁drunk	-12.1739
▁recurrence	-12.1739
▁son	-12.1739
▁cum	-12.1749
▁develop	-12.1758
▁distributor	-12.1758
▁tie	-12.1758
▁warden	-12.1758
▁interleave	-12.1767
▁lenient	-12.1776
▁swag	-12.1776
▁unsuccessful	-12.1794
▁alphabetical	-12.1804
▁flutter	-12.1822
▁newly	-12.1822
▁persona	-12.1822
▁typography	-12.1841
▁erizo	-12.185
▁skippable	-12.185
▁learner	-12.1859
▁mutant	-12.1868
▁raising	-12.1868
▁tabulate	-12.1878
▁dialer	-12.1887
▁duff	-12.1887
▁king	-12.1896
▁beer	-12.1924
▁exhausted	-12.1924
▁introduction	-12.1924
▁scrapy	-12.1924
▁clipping	-12.1943
▁achievement	-12.1952
▁focal	-12.1952
▁reservoir	-12.1952
▁unassigned	-12.1952
▁dragon	-12.1971
▁ing	-12.1971
▁mind	-12.1971
▁calibration	-12.199
▁winner	-12.199
▁corrupt	-12.1999
▁electronic	-12.2008
▁internally	-12.2008
▁prerelease	-12.2018
▁tall	-12.2018
▁alen	-12.2027
▁forked	-12.2027
▁ym	-12.2027
▁broadcaster	-12.2037
▁ceiling	-12.2046
▁voting	-12.2046
▁pocket	-12.2055
▁typically	-12.2055
▁humanize	-12.2074
▁amplitude	-12.2084
▁inflection	-12.2093
▁district	-12.2103
▁pangolin	-12.2103
▁wan	-12.2103
▁booster	-12.2112
▁bottleneck	-12.2112
▁focusable	-12.2122
▁referral	-12.2131
▁steel	-12.2141
▁bacon	-12.216
▁batcher	-12.216
▁nonprofit	-12.216
▁rat	-12.216
▁sorry	-12.216
▁magnet	-12.2169
▁chewy	-12.2179
▁snappy	-12.2188
▁lateral	-12.2198
▁sla	-12.2198
▁balloon	-12.2208
▁visualize	-12.2208
▁wiring	-12.2256
▁cased	-12.2265
▁indeterminate	-12.2275
▁rely	-12.2275
▁verdict	-12.2275
▁judge	-12.2285
▁somewhere	-12.2285
▁typecast	-12.2285
▁accelerator	-12.2294
▁grunt	-12.2304
▁oe	-12.2304
▁backspace	-12.2314
▁tornado	-12.2314
▁fox	-12.2323
▁structural	-12.2323
▁tiled	-12.2323
▁feeder	-12.2333
▁negotiate	-12.2333
▁bandit	-12.2343
▁blood	-12.2343
▁playbook	-12.2343
▁boulder	-12.2352
▁recoverable	-12.2352
▁spanner	-12.2352
▁chemical	-12.2362
▁exercise	-12.2362
▁garden	-12.2362
▁rouge	-12.2362
▁scrooge	-12.2362
▁transitive	-12.2362
▁twitch	-12.2362
▁convolutional	-12.2372
▁historical	-12.2372
▁preceding	-12.2372
▁recognize	-12.2372
▁butter	-12.2382
▁accidentally	-12.2391
▁deregister	-12.2391
▁absinthe	-12.2411
▁droplet	-12.2421
▁shorter	-12.2421
▁signum	-12.2431
▁inheritable	-12.244
▁gorilla	-12.245
▁referential	-12.245
▁dream	-12.246
▁entering	-12.248
▁onto	-12.248
▁altitude	-12.2499
▁facility	-12.2499
▁fiat	-12.2499
▁destructor	-12.2509
▁founder	-12.2509
▁picked	-12.2509
▁victim	-12.2509
▁flake	-12.2519
▁excluding	-12.2529
▁chop	-12.2549
▁alumni	-12.2559
▁autopilot	-12.2559
▁coarse	-12.2559
▁solar	-12.2559
▁acknowledged	-12.2569
▁initially	-12.2569
▁peter	-12.2569
▁revocation	-12.2579
▁asterisk	-12.2589
▁flame	-12.2589
▁accountable	-12.2599
▁bay	-12.2599
▁poison	-12.2609
▁emotion	-12.2619
▁leg	-12.2619
▁pyramid	-12.2619
▁utterance	-12.2619
▁extensible	-12.2639
▁zeroize	-12.2639
▁pry	-12.2649
▁tars	-12.2669
▁biti	-12.2679
▁convergence	-12.2679
▁rax	-12.2679
▁advertise	-12.2689
▁awaiter	-12.2689
▁lam	-12.2689
▁drake	-12.2699
▁eastern	-12.2699
▁inch	-12.2699
▁opera	-12.2699
▁ped	-12.2699
▁quill	-12.2699
▁tune	-12.2699
▁subsample	-12.2709
▁jabber	-12.2719
▁whiny	-12.2759
▁ben	-12.277
▁das	-12.277
▁nome	-12.278
▁wid	-12.278
▁meant	-12.279
▁spectator	-12.279
▁terminus	-12.279
▁becomes	-12.281
▁mixture	-12.282
▁filterable	-12.2872
▁patron	-12.2872
▁binomial	-12.2913
▁sage	-12.2913
▁pst	-12.2923
▁diamond	-12.2933
▁lesser	-12.2933
▁renewal	-12.2933
▁thermal	-12.2933
▁delegator	-12.2944
▁dynamically	-12.2954
▁minable	-12.2954
▁rethrow	-12.2954
▁silver	-12.2954
▁arms	-12.2964
▁glossary	-12.2964
▁closable	-12.2975
▁hierarchical	-12.2975
▁warehouse	-12.2985
▁ambient	-12.2995
▁radiant	-12.3006
▁planet	-12.3016
▁eventuate	-12.3026
▁analyser	-12.3037
▁ava	-12.3037
▁fraud	-12.3037
▁nebulous	-12.3058
▁toy	-12.3068
▁ethics	-12.3079
▁breed	-12.3089
▁forecaster	-12.3089
▁quantize	-12.3089
▁landmark	-12.31
▁unsorted	-12.31
▁compensation	-12.311
▁silencer	-12.311
▁dissolution	-12.3121
▁assumption	-12.3131
▁augmented	-12.3131
▁meaningful	-12.3131
▁spool	-12.3131
▁stay	-12.3131
▁tck	-12.3142
▁volley	-12.3152
▁attestation	-12.3173
▁determined	-12.3173
▁colossus	-12.3184
▁joke	-12.3184
▁reopen	-12.3205
▁iterative	-12.3216
▁tue	-12.3216
▁effort	-12.3237
▁sheep	-12.3237
▁unwind	-12.3237
▁lattice	-12.3247
▁mas	-12.3247
▁roc	-12.3247
▁landing	-12.3258
▁drawn	-12.3269
▁til	-12.3269
▁opposite	-12.329
▁successor	-12.329
▁chalice	-12.3301
▁generalized	-12.3301
▁accordion	-12.3311
▁ongoing	-12.3311
▁expiring	-12.3322
▁fillable	-12.3322
▁kana	-12.3322
▁risky	-12.3333
▁touchable	-12.3333
▁blas	-12.3344
▁folded	-12.3344
▁income	-12.3344
▁creat	-12.3354
▁deeply	-12.3354
▁expensive	-12.3354
▁acting	-12.3365
▁combinator	-12.3365
▁completeness	-12.3365
▁modality	-12.3365
▁topo	-12.3365
▁cruise	-12.3376
▁doctor	-12.3376
▁wrote	-12.3376
▁ally	-12.3387
▁issuing	-12.3387
▁truffle	-12.3387
▁born	-12.3397
▁bake	-12.3408
▁modulo	-12.3408
▁constrain	-12.3419
▁trivia	-12.3419
▁chromium	-12.343
▁bal	-12.3441
▁cosmos	-12.3441
▁ding	-12.3441
▁knob	-12.3441
▁loan	-12.3441
▁degrade	-12.3452
▁equivalence	-12.3452
▁scrubbed	-12.3452
▁accelerate	-12.3462
▁advisory	-12.3462
▁dapper	-12.3462
▁panda	-12.3462
▁tilde	-12.3473
▁preparation	-12.3495
▁town	-12.3495
▁untrusted	-12.3495
▁cook	-12.3506
▁automata	-12.3528
▁bas	-12.3528
▁pika	-12.3528
▁lev	-12.3539
▁adjacency	-12.355
▁emulate	-12.3561
▁microsecond	-12.3561
▁shading	-12.3561
▁wow	-12.3561
▁hawk	-12.3572
▁reliable	-12.3572
▁valued	-12.3572
▁initiate	-12.3583
▁charging	-12.3594
▁initiator	-12.3594
▁interesting	-12.3594
▁introspector	-12.3594
▁descent	-12.3605
▁unfiltered	-12.3605
▁wy	-12.3605
▁negotiator	-12.3627
▁scallop	-12.3627
▁centroid	-12.3638
▁medical	-12.3638
▁guava	-12.3649
▁hong	-12.3649
▁plexus	-12.3649
▁cate	-12.366
▁relevance	-12.366
▁dar	-12.3671
▁sold	-12.3671
▁bra	-12.3682
▁rarity	-12.3682
▁easier	-12.3693
▁foldable	-12.3693
▁paired	-12.3693
▁sport	-12.3693
▁unconfirmed	-12.3693
▁beard	-12.3705
▁cartridge	-12.3705
▁creativity	-12.3705
▁evolve	-12.3705
▁limb	-12.3716
▁sequencer	-12.3716
▁clearance	-12.3727
▁foot	-12.3738
▁chips	-12.3749
▁fei	-12.3749
▁gel	-12.3749
▁mate	-12.3749
▁quantization	-12.3749
▁agnostic	-12.376
▁hyperspace	-12.376
▁isometry	-12.376
▁singularize	-12.376
▁synopsis	-12.3772
▁applier	-12.3783
▁sud	-12.3783
▁march	-12.3816
▁thanks	-12.3816
▁billable	-12.3828
▁factorial	-12.3828
▁interception	-12.3828
▁outlier	-12.3828
▁quasi	-12.3828
▁aka	-12.3839
▁ass	-12.3839
▁querying	-12.385
▁receipts	-12.385
▁framed	-12.3862
▁forbid	-12.3873
▁shutting	-12.3873
▁diagnose	-12.3884
▁ravel	-12.3884
▁spirit	-12.3884
▁absorb	-12.3896
▁coinmate	-12.3896
▁dogs	-12.3896
▁eventual	-12.3896
▁insertable	-12.3896
▁commutative	-12.3907
▁trio	-12.3907
▁intervention	-12.3918
▁reality	-12.3918
▁sauce	-12.3918
▁geode	-12.393
▁subsequence	-12.393
▁vaccination	-12.393
▁enchantment	-12.3941
▁gracefully	-12.3941
▁els	-12.3953
▁enrich	-12.3953
▁injectable	-12.3953
▁maduro	-12.3953
▁quiz	-12.3964
▁enhance	-12.3998
▁pony	-12.3998
▁sma	-12.3998
▁vertically	-12.3998
▁tele	-12.401
▁mailable	-12.4021
▁sine	-12.4033
▁capable	-12.4056
▁fitting	-12.4056
▁vulnerability	-12.4067
▁biome	-12.4079
▁nature	-12.4079
▁proceeding	-12.4079
▁wed	-12.4079
▁strongly	-12.409
▁uncommitted	-12.409
▁beyond	-12.4102
▁clump	-12.4102
▁coming	-12.4102
▁summer	-12.4102
▁forth	-12.4114
▁knot	-12.4125
▁concatenation	-12.4137
▁suffer	-12.4137
▁tun	-12.4137
▁unblock	-12.4137
▁unify	-12.4137
▁machinery	-12.4149
▁vacuum	-12.4149
▁meteor	-12.416
▁cheat	-12.4172
▁ens	-12.4172
▁stochastic	-12.4172
▁exploration	-12.4184
▁greyhound	-12.4184
▁shorten	-12.4195
▁unquote	-12.4195
▁winter	-12.4195
▁aim	-12.4207
▁encore	-12.4219
▁wat	-12.4219
▁cellular	-12.423
▁chevron	-12.423
▁sparsity	-12.423
▁till	-12.423
▁vent	-12.423
▁complicated	-12.4266
▁doodle	-12.4266
▁exhaustive	-12.4266
▁hypothesis	-12.4266
▁western	-12.4266
▁deva	-12.4277
▁martin	-12.4277
▁lineage	-12.4289
▁patcher	-12.4289
▁yourself	-12.4289
▁fifth	-12.4301
▁jelly	-12.4313
▁regardless	-12.4313
▁transistor	-12.4313
▁ill	-12.4325
▁murmur	-12.4325
▁het	-12.4337
▁transactor	-12.4337
▁awake	-12.4348
▁quadratic	-12.4348
▁surname	-12.4348
▁escaper	-12.436
▁identifiable	-12.4372
▁equation	-12.4384
▁magazine	-12.4384
▁scrolled	-12.4384
▁elliptic	-12.4408
▁father	-12.4408
▁feel	-12.442
▁prober	-12.442
▁retina	-12.442
▁scepter	-12.4432
▁sigil	-12.4444
▁stapler	-12.4444
▁hardness	-12.4468
▁sao	-12.448
▁unregistered	-12.448
▁automatization	-12.4492
▁lax	-12.4492
▁unsaved	-12.4492
▁bencher	-12.4504
▁describer	-12.4516
▁mash	-12.4516
▁republic	-12.4516
▁separation	-12.4516
▁blowfish	-12.4528
▁friction	-12.4528
▁fairy	-12.4552
▁resizer	-12.4577
▁easily	-12.4589
▁expert	-12.4589
▁guardrail	-12.4589
▁harvest	-12.4589
▁leaving	-12.4589
▁mezzanine	-12.4601
▁rhizome	-12.4601
▁trampoline	-12.4601
▁him	-12.4613
▁representer	-12.4613
▁depart	-12.4625
▁isolate	-12.4625
▁mood	-12.4625
▁presto	-12.4625
▁unparsed	-12.4625
▁apprise	-12.4638
▁gos	-12.4638
▁strictly	-12.4638
▁broad	-12.465
▁extending	-12.465
▁gan	-12.465
▁unbox	-12.465
▁curd	-12.4662
▁exceptionally	-12.4662
▁parrot	-12.4674
▁fiddle	-12.4687
▁inlet	-12.4687
▁snapshotter	-12.4724
▁authoritative	-12.4736
▁dumb	-12.4736
▁bearing	-12.4748
▁dashed	-12.4748
▁financial	-12.4748
▁kappa	-12.4748
▁queen	-12.4748
▁redeem	-12.4748
▁unlike	-12.4748
▁untracked	-12.4748
▁watchman	-12.4748
▁damping	-12.4761
▁jaeger	-12.4773
▁recurrent	-12.4773
▁continent	-12.4785
▁fishing	-12.4785
▁pidgin	-12.4785
▁selling	-12.4785
▁oriental	-12.4798
▁gogo	-12.481
▁rag	-12.481
▁wearable	-12.481
▁scoreboard	-12.4823
▁alone	-12.4835
▁moo	-12.4835
▁panama	-12.4835
▁subscript	-12.4835
▁abbreviation	-12.486
▁clipped	-12.486
▁materialistic	-12.486
▁totem	-12.486
▁unsubscribed	-12.486
▁outstanding	-12.4873
▁anywhere	-12.4885
▁impure	-12.4885
▁mille	-12.4885
▁shadowed	-12.4885
▁soot	-12.4885
▁adult	-12.4898
▁derby	-12.4898
▁invalidation	-12.4898
▁shriek	-12.4898
▁stamper	-12.4898
▁supervision	-12.4898
▁anomaly	-12.491
▁greet	-12.491
▁baud	-12.4923
▁caution	-12.4923
▁divisible	-12.4923
▁asymmetric	-12.4935
▁lobby	-12.4935
▁wad	-12.4935
▁fort	-12.4948
▁morning	-12.4948
▁negation	-12.4948
▁piped	-12.4948
▁cellar	-12.4961
▁unfinished	-12.4961
▁justification	-12.4973
▁diagnosis	-12.4986
▁instructor	-12.4986
▁meaning	-12.4986
▁sandwich	-12.4986
▁subplot	-12.4986
▁surrounding	-12.4986
▁alfa	-12.5011
▁confluent	-12.5011
▁salomon	-12.5011
▁shorts	-12.5024
▁nonlocal	-12.5037
▁assuming	-12.5049
▁analyses	-12.5062
▁comb	-12.5062
▁keeping	-12.5062
▁badger	-12.5075
▁nuke	-12.5075
▁spice	-12.5075
▁young	-12.5075
▁alb	-12.5088
▁cherry	-12.5088
▁committee	-12.5088
▁miscellaneous	-12.5088
▁delight	-12.51
▁everyone	-12.51
▁farm	-12.51
▁puck	-12.51
▁resend	-12.51
▁mirrored	-12.5113
▁muss	-12.5113
▁parliament	-12.5113
▁permanently	-12.5113
▁blame	-12.5126
▁workshop	-12.5126
▁encounter	-12.5139
▁latter	-12.5139
▁qualify	-12.5139
▁rector	-12.5152
▁crowd	-12.5165
▁galaxy	-12.5178
▁stand	-12.5178
▁valve	-12.5178
▁covariant	-12.519
▁synchronizer	-12.519
▁concurrently	-12.5203
▁consuming	-12.5203
▁pill	-12.5203
▁remind	-12.5203
▁weave	-12.5203
▁omega	-12.5216
▁rendezvous	-12.5216
▁copybook	-12.5229
▁hup	-12.5229
▁dividend	-12.5242
▁illusion	-12.5242
▁looping	-12.5242
▁awless	-12.5255
▁interested	-12.5255
▁splitting	-12.5255
▁drift	-12.5268
▁las	-12.5281
▁stolen	-12.5281
▁decomposition	-12.5294
▁luminance	-12.5294
▁modifiable	-12.5294
▁unaligned	-12.5294
▁dazzle	-12.5307
▁hyp	-12.5307
▁movable	-12.5321
▁formed	-12.5334
▁men	-12.5347
▁bastille	-12.536
▁consumable	-12.5373
▁descriptive	-12.5386
▁linger	-12.5386
▁pol	-12.5386
▁slop	-12.5386
▁vincent	-12.5386
▁dean	-12.5399
▁verbatim	-12.5399
▁bring	-12.5413
▁confidential	-12.5413
▁debit	-12.5413
▁casing	-12.5426
▁tea	-12.5426
▁dal	-12.5439
▁rope	-12.5439
▁turk	-12.5439
▁accompanist	-12.5452
▁unloaded	-12.5452
▁hyphen	-12.5466
▁gala	-12.5479
▁tooling	-12.5479
▁unprocessed	-12.5479
▁berlin	-12.5492
▁strata	-12.5492
▁cab	-12.5505
▁exceptional	-12.5519
▁pilot	-12.5519
▁cite	-12.5532
▁exploit	-12.5532
▁peso	-12.5546
▁settlement	-12.5546
▁impression	-12.5559
▁decline	-12.5572
▁lake	-12.5572
▁specialization	-12.5572
▁surprise	-12.5572
▁discoverer	-12.5586
▁incorrectly	-12.5586
▁mutually	-12.5586
▁park	-12.5586
▁catching	-12.5599
▁proximity	-12.5599
▁flee	-12.5613
▁heat	-12.5613
▁pirate	-12.5613
▁taxonomy	-12.5613
▁estate	-12.5626
▁motif	-12.5626
▁ivy	-12.564
▁traditional	-12.564
▁compacted	-12.5653
▁griffin	-12.5653
▁pomelo	-12.5653
▁truncation	-12.5653
▁reconnection	-12.5667
▁shoppe	-12.5667
▁accurate	-12.568
▁executer	-12.568
▁improve	-12.568
▁northern	-12.568
▁tout	-12.568
▁classified	-12.5694
▁emphasis	-12.5694
▁tramp	-12.5694
▁cho	-12.5707
▁glib	-12.5707
▁ink	-12.5707
▁refinement	-12.5707
▁ach	-12.5721
▁downgrade	-12.5721
▁hog	-12.5721
▁potentially	-12.5721
▁cosh	-12.5735
▁shaper	-12.5735
▁ideal	-12.5748
▁valet	-12.5748
▁ancestry	-12.5762
▁commission	-12.5762
▁governance	-12.5762
▁cup	-12.5776
▁transitional	-12.5789
▁convex	-12.5803
▁powered	-12.5803
▁unmapped	-12.5803
▁imaginary	-12.5817
▁ruler	-12.5817
▁unroll	-12.5817
▁conformance	-12.5844
▁whence	-12.5844
▁desk	-12.5858
▁empire	-12.5858
▁ratchet	-12.5858
▁undocumented	-12.5858
▁indication	-12.5872
▁taps	-12.5872
▁temporarily	-12.5872
▁civic	-12.5886
▁cud	-12.5886
▁sea	-12.5886
▁situation	-12.5886
▁wont	-12.5886
▁dart	-12.59
▁emote	-12.59
▁maha	-12.59
▁extruder	-12.5914
▁giving	-12.5914
▁optimistic	-12.5914
▁throttler	-12.5914
▁understood	-12.5914
▁bee	-12.5928
▁outlook	-12.5928
▁spinach	-12.5928
▁helpful	-12.5942
▁whoops	-12.5942
▁hunk	-12.5955
▁metronome	-12.5955
▁simplification	-12.5997
▁clearing	-12.6011
▁couch	-12.6011
▁interpretation	-12.6011
▁enzyme	-12.6025
▁isle	-12.6039
▁stake	-12.6039
▁verse	-12.6039
▁segmented	-12.6054
▁textual	-12.6054
▁tidy	-12.6054
▁unpublished	-12.6054
▁attribution	-12.6068
▁jail	-12.6068
▁rationale	-12.6068
▁exclusively	-12.6082
▁modeling	-12.6082
▁multiplex	-12.6082
▁outbox	-12.6082
▁technical	-12.6082
▁zo	-12.6082
▁bike	-12.6096
▁multiplication	-12.6096
▁yaw	-12.6096
▁land	-12.611
▁mantissa	-12.611
▁remediation	-12.611
▁mutual	-12.6124
▁tunable	-12.6124
▁vex	-12.6124
▁rip	-12.6138
▁silly	-12.6138
▁dop	-12.6153
▁lemma	-12.6153
▁urgent	-12.6153
▁yang	-12.6153
▁fir	-12.6167
▁spelling	-12.6167
▁underflow	-12.6167
▁blazing	-12.6181
▁costa	-12.6195
▁mali	-12.6195
▁clog	-12.621
▁confine	-12.621
▁fixable	-12.621
▁flint	-12.621
▁omnibus	-12.621
▁operational	-12.621
▁ballot	-12.6224
▁horizontally	-12.6224
▁prayer	-12.6224
▁ale	-12.6238
▁generally	-12.6238
▁mechanize	-12.6238
▁polyglot	-12.6238
▁widen	-12.6238
▁castor	-12.6253
▁forecasting	-12.6253
▁strategic	-12.6253
▁clap	-12.6267
▁nap	-12.6267
▁wamp	-12.6267
▁toe	-12.6281
▁blending	-12.6296
▁directional	-12.6296
▁jess	-12.6296
▁nix	-12.6296
▁transducer	-12.6296
▁commercial	-12.631
▁grub	-12.631
▁wine	-12.631
▁billy	-12.6325
▁donate	-12.6325
▁scalable	-12.6325
▁boat	-12.6339
▁delve	-12.6339
▁influence	-12.6339
▁tera	-12.6339
▁bidding	-12.6354
▁rolled	-12.6354
▁bet	-12.6368
▁complain	-12.6383
▁dust	-12.6383
▁guy	-12.6383
▁hair	-12.6383
▁mage	-12.6383
▁gross	-12.6397
▁inertia	-12.6397
▁telephony	-12.6397
▁gatherer	-12.6412
▁mike	-12.6412
▁remains	-12.6412
▁slightly	-12.6412
▁hammer	-12.6427
▁august	-12.6441
▁distinguished	-12.6441
▁japan	-12.6441
▁librarian	-12.6441
▁productivity	-12.6441
▁teal	-12.6441
▁abstraction	-12.6456
▁diameter	-12.6456
▁quantum	-12.6456
▁highly	-12.6471
▁reskin	-12.6471
▁verifiable	-12.6471
▁explosive	-12.6485
▁enigma	-12.65
▁immune	-12.65
▁posting	-12.65
▁unifier	-12.65
▁imputer	-12.6515
▁shuttle	-12.6515
▁tut	-12.6515
▁fling	-12.6529
▁lob	-12.6529
▁populator	-12.6529
▁reschedule	-12.6529
▁striped	-12.6544
▁converge	-12.6559
▁mal	-12.6559
▁outlined	-12.6559
▁reseed	-12.6559
▁scout	-12.6559
▁vulnerable	-12.6559
▁decelerate	-12.6574
▁octave	-12.6574
▁valor	-12.6574
▁acquisition	-12.6589
▁bunch	-12.6589
▁regularization	-12.6589
▁endless	-12.6604
▁improvement	-12.6604
▁moderation	-12.6604
▁chess	-12.6619
▁conjunction	-12.6619
▁guideline	-12.6619
▁heuristic	-12.6619
▁aft	-12.6633
▁battlefield	-12.6633
▁causal	-12.6633
▁commenter	-12.6633
▁dangerous	-12.6633
▁integrate	-12.6633
▁scrape	-12.6633
▁cham	-12.6648
▁pahlavi	-12.6648
▁interview	-12.6663
▁publishable	-12.6663
▁resistance	-12.6663
▁shebang	-12.6663
▁trajectory	-12.6663
▁uncountable	-12.6663
▁coconut	-12.6678
▁nul	-12.6678
▁unlabeled	-12.6678
▁acknowledge	-12.6693
▁booted	-12.6693
▁inactivity	-12.6708
▁gens	-12.6723
▁moderator	-12.6723
▁proposition	-12.6723
▁traceable	-12.6723
▁hinge	-12.6738
▁meson	-12.6738
▁specialty	-12.6738
▁wer	-12.6738
▁abnormal	-12.6754
▁axiom	-12.6754
▁talent	-12.6769
▁worm	-12.6769
▁administrate	-12.6784
▁nibble	-12.6784
▁thinker	-12.6784
▁turf	-12.6784
▁anyway	-12.6799
▁ean	-12.6799
▁authorizable	-12.6814
▁katakana	-12.6814
▁prawn	-12.6829
▁busted	-12.6845
▁sah	-12.6845
▁breakdown	-12.686
▁thank	-12.686
▁dinar	-12.6875
▁equatable	-12.6875
▁inform	-12.6875
▁regenerator	-12.6875
▁phony	-12.689
▁southern	-12.689
▁unverified	-12.689
▁anyone	-12.6906
▁glass	-12.6921
▁linkage	-12.6921
▁portion	-12.6921
▁truck	-12.6921
▁shoot	-12.6936
▁stringer	-12.6936
▁contravariant	-12.6952
▁mess	-12.6952
▁pour	-12.6952
▁brute	-12.6967
▁maturity	-12.6967
▁mot	-12.6967
▁pants	-12.6967
▁squib	-12.6967
▁northeast	-12.6983
▁pasteboard	-12.6983
▁sal	-12.6998
▁aptly	-12.7014
▁multinomial	-12.7014
▁purl	-12.7014
▁animating	-12.7029
▁darken	-12.7029
▁effectivity	-12.7029
▁ellipsoid	-12.7029
▁impurity	-12.7029
▁keel	-12.7029
▁maya	-12.7029
▁preflight	-12.7029
▁tum	-12.7029
▁university	-12.7029
▁designed	-12.7045
▁evil	-12.706
▁confused	-12.7076
▁hull	-12.7076
▁sierra	-12.7076
▁behemoth	-12.7092
▁rare	-12.7092
▁shanghai	-12.7092
▁calculating	-12.7107
▁exportable	-12.7107
▁farmer	-12.7107
▁flock	-12.7107
▁gauss	-12.7107
▁bosun	-12.7123
▁bordered	-12.7139
▁gatekeeper	-12.7139
▁marking	-12.7139
▁stubber	-12.7139
▁undirected	-12.7139
▁wonderland	-12.7139
▁blind	-12.7154
▁collective	-12.7154
▁committable	-12.7154
▁redefine	-12.7154
▁fizz	-12.717
▁hydrosphere	-12.717
▁numerically	-12.717
▁optics	-12.717
▁collateral	-12.7186
▁framer	-12.7186
▁fund	-12.7186
▁neighborhood	-12.7186
▁evolution	-12.7201
▁fair	-12.7201
▁nam	-12.7201
▁respectively	-12.7201
▁copper	-12.7217
▁duplication	-12.7217
▁lime	-12.7217
▁tripper	-12.7217
▁weekend	-12.7217
▁auditor	-12.7233
▁cue	-12.7233
▁honor	-12.7233
▁rig	-12.7233
▁spectral	-12.7233
▁spill	-12.7233
▁said	-12.7249
▁alphabetic	-12.7265
▁involved	-12.7265
▁rated	-12.7265
▁wear	-12.7265
▁divided	-12.7281
▁knop	-12.7281
▁operable	-12.7297
▁wood	-12.7297
▁algor	-12.7313
▁chord	-12.7313
▁coverlet	-12.7313
▁disclaimer	-12.7313
▁formal	-12.7313
▁sweet	-12.7313
▁ear	-12.7329
▁prosody	-12.7329
▁sculpin	-12.7329
▁tight	-12.7329
▁virgin	-12.7329
▁grass	-12.7345
▁kan	-12.7345
▁specifically	-12.7345
▁summon	-12.7345
▁technique	-12.7345
▁torus	-12.7345
▁aesthetic	-12.7361
▁gopher	-12.7361
▁maria	-12.7361
▁vuln	-12.7361
▁aside	-12.7377
▁lyric	-12.7377
▁unfold	-12.7377
▁aurelia	-12.7393
▁relax	-12.7393
▁spitter	-12.7393
▁fur	-12.7409
▁invulnerable	-12.7409
▁pointing	-12.7409
▁supposed	-12.7409
▁worst	-12.7409
▁separately	-12.7425
▁enhancer	-12.7441
▁frequent	-12.7441
▁saa	-12.7441
▁seeded	-12.7441
▁sir	-12.7441
▁steal	-12.7441
▁contribute	-12.7458
▁expanding	-12.7458
▁weasel	-12.7458
▁axe	-12.7474
▁hound	-12.7474
▁lay	-12.749
▁parametric	-12.749
▁strictness	-12.749
▁connectable	-12.7506
▁contamination	-12.7506
▁dotless	-12.7506
▁pretend	-12.7506
▁redact	-12.7506
▁typer	-12.7506
▁adopt	-12.7523
▁feather	-12.7523
▁ignition	-12.7523
▁june	-12.7555
▁sneaky	-12.7555
▁yearly	-12.7555
▁buddy	-12.7572
▁curse	-12.7572
▁pap	-12.7572
▁pun	-12.7572
▁punct	-12.7572
▁silently	-12.7572
▁waker	-12.7572
▁executive	-12.7588
▁motor	-12.7588
▁resident	-12.7588
▁worked	-12.7588
▁agreed	-12.7604
▁falling	-12.7604
▁translucent	-12.7604
▁hiragana	-12.7621
▁oasis	-12.7621
▁pluralization	-12.7621
▁probabilistic	-12.7621
▁slog	-12.7621
▁education	-12.7637
▁zipper	-12.7654
▁flavour	-12.767
▁rider	-12.767
▁comic	-12.7687
▁spooky	-12.7687
▁alembic	-12.7704
▁serf	-12.7704
▁causing	-12.772
▁depthwise	-12.772
▁rematch	-12.772
▁externals	-12.7737
▁mover	-12.7737
▁mutability	-12.7737
▁pon	-12.7737
▁tonic	-12.7737
▁fringe	-12.7754
▁plotting	-12.7754
▁sake	-12.7754
▁sib	-12.7754
▁biometric	-12.777
▁fireproof	-12.777
▁fro	-12.777
▁kore	-12.777
▁manifold	-12.777
▁synchronously	-12.777
▁comfortable	-12.7787
▁hooked	-12.7787
▁readability	-12.7787
▁collator	-12.7804
▁spacy	-12.7804
▁dropping	-12.7821
▁fight	-12.7821
▁filling	-12.7821
▁living	-12.7821
▁poke	-12.7821
▁polled	-12.7821
▁symmetrical	-12.7821
▁cent	-12.7837
▁colorable	-12.7854
▁explainer	-12.7854
▁knapsack	-12.7854
▁zinc	-12.7854
▁ham	-12.7871
▁preparer	-12.7871
▁towards	-12.7871
▁unselected	-12.7871
▁fiscal	-12.7888
▁haven	-12.7905
▁manipulate	-12.7905
▁reassign	-12.7905
▁slows	-12.7905
▁spinal	-12.7905
▁annotator	-12.7922
▁claro	-12.7922
▁workbox	-12.7922
▁hangul	-12.7939
▁postmaster	-12.7939
▁rehash	-12.7939
▁killer	-12.7973
▁performer	-12.7973
▁sand	-12.7973
▁candy	-12.799
▁expense	-12.799
▁oes	-12.799
▁flair	-12.8007
▁kitten	-12.8007
▁correspond	-12.8024
▁daylight	-12.8024
▁oil	-12.8024
▁horse	-12.8041
▁subtotal	-12.8041
▁adaptation	-12.8059
▁batman	-12.8059
▁porto	-12.8059
▁speak	-12.8059
▁haw	-12.8076
▁ady	-12.8093
▁mountain	-12.8093
▁pooler	-12.8093
▁punctuator	-12.8093
▁querier	-12.8093
▁revive	-12.8093
▁smoother	-12.8093
▁surround	-12.8093
▁thick	-12.8093
▁typesetter	-12.8093
▁crazy	-12.811
▁elixir	-12.811
▁swashbuckle	-12.811
▁affiliation	-12.8128
▁radii	-12.8128
▁reimbursement	-12.8128
▁unmodified	-12.8128
▁consist	-12.8145
▁holiday	-12.8145
▁parking	-12.8145
▁sham	-12.8145
▁stocks	-12.8145
▁affix	-12.8162
▁pound	-12.8162
▁coercer	-12.818
▁eliminate	-12.818
▁oat	-12.818
▁settled	-12.818
▁bought	-12.8197
▁decider	-12.8197
▁kitchen	-12.8197
▁nock	-12.8197
▁pretrain	-12.8197
▁blip	-12.8215
▁nightly	-12.8215
▁beng	-12.8232
▁irrelevant	-12.8232
▁marginal	-12.8232
▁stun	-12.8232
▁journey	-12.825
▁bear	-12.8267
▁deformer	-12.8267
▁engineering	-12.8267
▁simp	-12.8267
▁compositor	-12.8285
▁enforcement	-12.8285
▁everywhere	-12.8285
▁rap	-12.8285
▁repetition	-12.8303
▁reify	-12.832
▁scrum	-12.832
▁accessory	-12.8338
▁anchored	-12.8338
▁dell	-12.8338
▁mae	-12.8338
▁reviewer	-12.8338
▁gettable	-12.8356
▁mong	-12.8356
▁stylet	-12.8356
▁agree	-12.8373
▁demonstration	-12.8373
▁territory	-12.8373
▁alien	-12.8391
▁cobalt	-12.8391
▁nimbus	-12.8391
▁duty	-12.8409
▁guardian	-12.8409
▁janitor	-12.8409
▁learned	-12.8409
▁taker	-12.8427
▁hundred	-12.8445
▁tale	-12.8445
▁enclosure	-12.8463
▁pau	-12.8463
▁ultimate	-12.8463
▁unclosed	-12.8463
▁iba	-12.8481
▁thrifty	-12.8481
▁guernsey	-12.8499
▁practice	-12.8499
▁sherlock	-12.8517
▁vibrate	-12.8517
▁agile	-12.8535
▁compo	-12.8535
▁rapid	-12.8535
▁silex	-12.8535
▁unpin	-12.8535
▁viewable	-12.8535
▁worth	-12.8535
▁dilate	-12.8553
▁fiction	-12.8553
▁quickly	-12.8553
▁essential	-12.8571
▁freedom	-12.8571
▁zimbabwe	-12.8571
▁buffalo	-12.8589
▁creature	-12.8589
▁franc	-12.8589
▁kinetics	-12.8589
▁obsessive	-12.8589
▁orchestration	-12.8589
▁pear	-12.8607
▁reissue	-12.8607
▁river	-12.8607
▁positioned	-12.8625
▁separable	-12.8625
▁cylinder	-12.8643
▁deadlock	-12.8643
▁listable	-12.8643
▁sleeper	-12.8643
▁tig	-12.8643
▁ugly	-12.8643
▁josh	-12.8662
▁quis	-12.8662
▁ride	-12.8662
▁collide	-12.868
▁distant	-12.868
▁hence	-12.8698
▁lots	-12.8698
▁mary	-12.8698
▁nog	-12.8698
▁sett	-12.8698
▁sponsorship	-12.8698
▁arrangement	-12.8717
▁pepper	-12.8717
▁posterior	-12.8717
▁cuboid	-12.8735
▁approximately	-12.8754
▁champ	-12.8754
▁growable	-12.8754
▁highway	-12.8754
▁karma	-12.8754
▁propagator	-12.8754
▁bookkeeper	-12.8772
▁downcast	-12.8772
▁helmet	-12.8772
▁introduce	-12.8772
▁snafu	-12.8772
▁afternoon	-12.8791
▁chisel	-12.8791
▁displacement	-12.8791
▁joy	-12.8791
▁playable	-12.8791
▁repeater	-12.8791
▁cape	-12.8809
▁milk	-12.8809
▁borer	-12.8828
▁coo	-12.8828
▁stepper	-12.8828
▁enchant	-12.8846
▁trackable	-12.8846
▁displayer	-12.8865
▁steep	-12.8865
▁bluebird	-12.8884
▁homogeneous	-12.8884
▁impulse	-12.8884
▁ransack	-12.8884
▁superscript	-12.8884
▁chandu	-12.8902
▁inversed	-12.8902
▁lightness	-12.8902
▁planar	-12.8902
▁kingpin	-12.8921
▁cod	-12.894
▁dingo	-12.894
▁lad	-12.894
▁sharable	-12.894
▁clockwork	-12.8959
▁dynamics	-12.8959
▁lamb	-12.8959
▁deduplication	-12.8977
▁diesel	-12.8977
▁drink	-12.8977
▁skey	-12.8977
▁bow	-12.8996
▁knight	-12.8996
▁orthogonal	-12.8996
▁vie	-12.8996
▁dum	-12.9015
▁idiom	-12.9015
▁proofer	-12.9015
▁reverb	-12.9015
▁softly	-12.9015
▁symptom	-12.9015
▁yielding	-12.9015
▁gat	-12.9034
▁reputation	-12.9034
▁spine	-12.9034
▁clockwise	-12.9053
▁finishing	-12.9053
▁foundry	-12.9053
▁grit	-12.9053
▁plex	-12.9053
▁quay	-12.9053
▁rear	-12.9053
▁rotating	-12.9053
▁voyage	-12.9053
▁aba	-12.9072
▁cream	-12.9072
▁leftover	-12.9072
▁noon	-12.9072
▁timor	-12.9072
▁displayable	-12.9091
▁lottery	-12.9091
▁correctness	-12.911
▁hire	-12.911
▁kat	-12.911
▁leet	-12.911
▁skal	-12.911
▁cone	-12.913
▁flagger	-12.913
▁lina	-12.913
▁switched	-12.9149
▁wit	-12.9149
▁crumb	-12.9168
▁fader	-12.9168
▁gez	-12.9168
▁locust	-12.9168
▁roaming	-12.9168
▁spectrum	-12.9168
▁templater	-12.9168
▁civil	-12.9187
▁excess	-12.9187
▁grandchild	-12.9187
▁shi	-12.9187
▁bell	-12.9206
▁bookshelf	-12.9206
▁dak	-12.9206
▁donation	-12.9206
▁dragged	-12.9206
▁resumable	-12.9206
▁approver	-12.9226
▁declarator	-12.9226
▁dwarf	-12.9226
▁evening	-12.9226
▁gene	-12.9226
▁palindrome	-12.9226
▁typo	-12.9226
▁descend	-12.9245
▁finance	-12.9245
▁ranger	-12.9245
▁scabbard	-12.9245
▁seem	-12.9245
▁acid	-12.9284
▁grip	-12.9284
▁hill	-12.9284
▁quite	-12.9284
▁tog	-12.9284
▁intangible	-12.9303
▁lightweight	-12.9303
▁optic	-12.9303
▁regress	-12.9303
▁soldier	-12.9303
▁topological	-12.9323
▁violate	-12.9323
▁mop	-12.9342
▁observability	-12.9342
▁pollable	-12.9342
▁almond	-12.9362
▁analogue	-12.9362
▁hope	-12.9362
▁wraith	-12.9362
▁inductive	-12.9382
▁informative	-12.9382
▁lockable	-12.9382
▁rooted	-12.9382
▁vinyl	-12.9382
▁divergence	-12.9401
▁olm	-12.9401
▁sacred	-12.9401
▁bis	-12.9421
▁swatch	-12.9421
▁thunder	-12.9421
▁bipartite	-12.9441
▁dutch	-12.9441
▁preact	-12.9441
▁spherical	-12.9441
▁sword	-12.9441
▁tra	-12.9441
▁bunny	-12.9461
▁regulatory	-12.9461
▁settle	-12.9461
▁strange	-12.9461
▁checkstring	-12.948
▁dominant	-12.948
▁inhibit	-12.948
▁microphone	-12.948
▁although	-12.95
▁combining	-12.95
▁thought	-12.95
▁collaborator	-12.952
▁county	-12.952
▁lis	-12.952
▁trick	-12.952
▁awa	-12.954
▁exploded	-12.954
▁frontier	-12.954
▁loge	-12.954
▁disassemble	-12.956
▁leverage	-12.956
▁retail	-12.956
▁sil	-12.956
▁spaced	-12.956
▁swiss	-12.956
▁warmer	-12.956
▁amber	-12.958
▁bankera	-12.958
▁decompression	-12.958
▁ogam	-12.958
▁koi	-12.96
▁gor	-12.962
▁hung	-12.962
▁ingestion	-12.962
▁quo	-12.962
▁warrior	-12.962
▁dimensionality	-12.964
▁gip	-12.964
▁swizzle	-12.964
▁bali	-12.9661
▁brin	-12.9661
▁graphical	-12.9661
▁silenced	-12.9661
▁capped	-12.9681
▁chile	-12.9681
▁classroom	-12.9681
▁disjunction	-12.9681
▁extender	-12.9681
▁soc	-12.9681
▁accumulation	-12.9701
▁multiplicative	-12.9701
▁ridge	-12.9701
▁triangular	-12.9701
▁administrative	-12.9721
▁kebab	-12.9721
▁onion	-12.9721
▁abandon	-12.9742
▁deformable	-12.9742
▁disruption	-12.9742
▁representative	-12.9742
▁siren	-12.9742
▁beaker	-12.9762
▁icicle	-12.9762
▁panoptic	-12.9762
▁gleam	-12.9783
▁inquirer	-12.9783
▁pointed	-12.9783
▁sap	-12.9783
▁chocolate	-12.9803
▁ecosystem	-12.9803
▁florent	-12.9803
▁industrial	-12.9803
▁pastel	-12.9803
▁pup	-12.9803
▁shipped	-12.9803
▁stuck	-12.9803
▁swallow	-12.9803
▁backtrack	-12.9824
▁fulfill	-12.9824
▁syndication	-12.9824
▁outsize	-12.9844
▁adjective	-12.9865
▁freezer	-12.9865
▁holy	-12.9865
▁maroon	-12.9865
▁rogue	-12.9865
▁scissor	-12.9865
▁uncovered	-12.9865
▁fabricate	-12.9885
▁hungry	-12.9885
▁wither	-12.9906
▁bed	-12.9927
▁intelligence	-12.9927
▁lucky	-12.9927
▁swig	-12.9927
▁ancient	-12.9948
▁cave	-12.9948
▁fixing	-12.9948
▁gam	-12.9948
▁investigation	-12.9968
▁lion	-12.9968
▁medicine	-12.9968
▁reaching	-12.9968
▁standardized	-12.9968
▁unscheduled	-12.9968
▁che	-12.9989
▁emission	-12.9989
▁interruption	-12.9989
▁offensive	-12.9989
▁supportability	-12.9989
▁foreman	-13.001
▁governing	-13.001
▁ordinary	-13.001
▁phoenix	-13.001
▁pict	-13.001
▁statically	-13.001
▁subtraction	-13.001
▁chatter	-13.0031
▁examine	-13.0031
▁backer	-13.0052
▁cursive	-13.0052
▁destructive	-13.0052
▁fen	-13.0052
▁frameless	-13.0052
▁jeweler	-13.0052
▁passage	-13.0052
▁yap	-13.0052
▁pebble	-13.0073
▁tiling	-13.0073
▁analytic	-13.0094
▁basically	-13.0094
▁lord	-13.0094
▁rub	-13.0094
▁sen	-13.0094
▁unrelated	-13.0094
▁goo	-13.0115
▁specificity	-13.0115
▁ultra	-13.0115
▁commitment	-13.0136
▁hydration	-13.0136
▁interference	-13.0136
▁kali	-13.0136
▁skiff	-13.0136
▁clearer	-13.0158
▁conch	-13.0158
▁conter	-13.0158
▁difficult	-13.0158
▁gay	-13.0158
▁jam	-13.0158
▁locomotive	-13.0158
▁tome	-13.0158
▁vacancy	-13.0158
▁dob	-13.0179
▁footprint	-13.0179
▁recur	-13.0179
▁acute	-13.02
▁blizzard	-13.02
▁inflated	-13.02
▁kite	-13.02
▁additionally	-13.0222
▁freed	-13.0222
▁predecessor	-13.0222
▁shaw	-13.0222
▁arrival	-13.0243
▁goon	-13.0243
▁pend	-13.0243
▁sigh	-13.0243
▁steady	-13.0243
▁governor	-13.0264
▁mand	-13.0264
▁overtime	-13.0264
▁themselves	-13.0264
▁perhaps	-13.0286
▁prerequisite	-13.0286
▁severe	-13.0286
▁sublime	-13.0286
▁thingy	-13.0286
▁equalizer	-13.0307
▁genotype	-13.0307
▁junction	-13.0307
▁phrasing	-13.0307
▁speculative	-13.0307
▁twenty	-13.0307
▁monetary	-13.0329
▁servant	-13.0329
▁wen	-13.0329
▁convolve	-13.0351
▁industry	-13.0351
▁mandate	-13.0351
▁occidental	-13.0351
▁och	-13.0351
▁ort	-13.0351
▁serpent	-13.0351
▁sind	-13.0351
▁unequal	-13.0351
▁quotation	-13.0372
▁rufus	-13.0372
▁accelerated	-13.0394
▁decreasing	-13.0394
▁raj	-13.0394
▁reinstall	-13.0394
▁cracker	-13.0416
▁infallible	-13.0416
▁killing	-13.0416
▁quint	-13.0416
▁smile	-13.0416
▁unterminated	-13.0416
▁informational	-13.0438
▁nonblocking	-13.0438
▁rant	-13.0438
▁slap	-13.0438
▁turbine	-13.0438
▁adobe	-13.0459
▁ate	-13.0459
▁compactor	-13.0459
▁disturbance	-13.0459
▁flawed	-13.0459
▁gon	-13.0459
▁undeclared	-13.0459
▁kos	-13.0481
▁mango	-13.0481
▁teng	-13.0481
▁ubi	-13.0481
▁unexpectedly	-13.0481
▁vista	-13.0481
▁gambia	-13.0503
▁otto	-13.0503
▁brazil	-13.0525
▁kiwi	-13.0525
▁sane	-13.0525
▁thousand	-13.0525
▁charting	-13.0547
▁gathering	-13.0547
▁goose	-13.0547
▁lighten	-13.0547
▁retract	-13.0547
▁ribble	-13.0547
▁shaded	-13.0547
▁wired	-13.0547
▁centrale	-13.0569
▁dolphin	-13.0569
▁entitlement	-13.0569
▁prettify	-13.0569
▁provenance	-13.0569
▁pyre	-13.0569
▁fading	-13.0592
▁organized	-13.0592
▁apa	-13.0614
▁asserter	-13.0614
▁dance	-13.0614
▁fifteen	-13.0614
▁observing	-13.0614
▁parallax	-13.0614
▁pyroscope	-13.0614
▁sole	-13.0614
▁winning	-13.0614
▁cor	-13.0636
▁disassembly	-13.0636
▁mordant	-13.0636
▁pushing	-13.0636
▁sike	-13.0636
▁touching	-13.0636
▁unveil	-13.0636
▁collapsible	-13.0658
▁flashlight	-13.0658
▁conjugate	-13.0681
▁crap	-13.0681
▁drunkard	-13.0681
▁government	-13.0681
▁interruptible	-13.0681
▁progression	-13.0681
▁titanium	-13.0681
▁unresolvable	-13.0681
▁abandoned	-13.0703
▁crossing	-13.0703
▁doubly	-13.0703
▁permissive	-13.0703
▁precheck	-13.0703
▁rent	-13.0703
▁tombstone	-13.0703
▁weakly	-13.0703
▁chucker	-13.0725
▁moderate	-13.0725
▁nub	-13.0725
▁reissuable	-13.0725
▁sail	-13.0725
▁shirt	-13.0725
▁submarine	-13.0725
▁advised	-13.0748
▁approximation	-13.0748
▁blast	-13.0748
▁clinic	-13.0748
▁equivalency	-13.0748
▁grenade	-13.0748
▁million	-13.0748
▁pico	-13.0748
▁reproduce	-13.0748
▁she	-13.0748
▁shear	-13.0748
▁sided	-13.0748
▁standardize	-13.0748
▁trumpet	-13.0748
▁unreferenced	-13.0748
▁arbiter	-13.0771
▁confirming	-13.0771
▁phonetic	-13.0771
▁poker	-13.0771
▁efficiently	-13.0793
▁lantern	-13.0793
▁titanic	-13.0793
▁admiral	-13.0816
▁economic	-13.0816
▁exclamation	-13.0816
▁licensee	-13.0816
▁recompose	-13.0816
▁vast	-13.0816
▁exempt	-13.0838
▁minimizer	-13.0838
▁thrust	-13.0838
▁bicycle	-13.0861
▁celery	-13.0861
▁flushing	-13.0861
▁summed	-13.0861
▁transforming	-13.0861
▁tundra	-13.0861
▁unsatisfied	-13.0861
▁bisect	-13.0884
▁rubber	-13.0884
▁russia	-13.0884
▁synonym	-13.0884
▁zar	-13.0884
▁automaton	-13.0907
▁hotel	-13.0907
▁personalization	-13.0907
▁perturb	-13.0907
▁transcription	-13.0907
▁digraph	-13.093
▁interstitial	-13.093
▁ket	-13.093
▁passe	-13.093
▁preorder	-13.093
▁sog	-13.093
▁totally	-13.093
▁centrifuge	-13.0953
▁foliage	-13.0953
▁lark	-13.0953
▁oval	-13.0953
▁pawn	-13.0953
▁recommender	-13.0953
▁redistribution	-13.0953
▁supplemental	-13.0953
▁vet	-13.0953
▁actuator	-13.0976
▁annual	-13.0976
▁clash	-13.0976
▁framing	-13.0976
▁rebound	-13.0976
▁orderable	-13.0999
▁submitter	-13.0999
▁surf	-13.0999
▁attenuation	-13.1022
▁emulation	-13.1022
▁minter	-13.1022
▁parapet	-13.1022
▁qua	-13.1022
▁slip	-13.1022
▁amass	-13.1045
▁engagement	-13.1045
▁imperial	-13.1045
▁palm	-13.1045
▁cardinal	-13.1068
▁cartoon	-13.1068
▁elector	-13.1068
▁gio	-13.1068
▁kea	-13.1068
▁mani	-13.1068
▁mosaic	-13.1068
▁repartition	-13.1068
▁sequentially	-13.1068
▁twin	-13.1068
▁upcoming	-13.1068
▁ascent	-13.1092
▁cog	-13.1092
▁personality	-13.1092
▁twist	-13.1092
▁axially	-13.1115
▁bolivia	-13.1115
▁lumen	-13.1115
▁pristine	-13.1115
▁recheck	-13.1115
▁refit	-13.1115
▁shelf	-13.1115
▁wonder	-13.1115
▁carter	-13.1138
▁flower	-13.1138
▁measurer	-13.1138
▁paragon	-13.1138
▁stagger	-13.1138
▁coloring	-13.1162
▁couple	-13.1162
▁exchanger	-13.1162
▁lifo	-13.1162
▁announcer	-13.1185
▁baton	-13.1185
▁efficiency	-13.1185
▁fashion	-13.1185
▁reciprocal	-13.1185
▁syre	-13.1185
▁camp	-13.1209
▁creek	-13.1209
▁flare	-13.1209
▁flood	-13.1209
▁kestrel	-13.1209
▁naughty	-13.1209
▁proposer	-13.1209
▁chuck	-13.1232
▁inferno	-13.1232
▁rage	-13.1232
▁amend	-13.1256
▁chal	-13.1256
▁nuclear	-13.1256
▁opponent	-13.1256
▁azimuth	-13.128
▁dangling	-13.128
▁occupancy	-13.128
▁reconstruct	-13.128
▁gee	-13.1304
▁polarity	-13.1304
▁aperture	-13.1327
▁coercible	-13.1327
▁mero	-13.1327
▁skipper	-13.1327
▁slinky	-13.1327
▁bomb	-13.1351
▁crypted	-13.1351
▁deliverable	-13.1351
▁lum	-13.1351
▁ode	-13.1351
▁subframe	-13.1351
▁cutout	-13.1375
▁helix	-13.1375
▁microscope	-13.1375
▁tranquility	-13.1375
▁algebraic	-13.1399
▁applicator	-13.1399
▁fragmentation	-13.1399
▁photograph	-13.1399
▁rose	-13.1399
▁brushes	-13.1423
▁culling	-13.1423
▁nak	-13.1423
▁specular	-13.1423
▁uniquely	-13.1423
▁unspent	-13.1423
▁cashier	-13.1448
▁century	-13.1448
▁cilium	-13.1448
▁impersonate	-13.1448
▁painting	-13.1448
▁perk	-13.1448
▁programmer	-13.1448
▁topping	-13.1448
▁plasma	-13.1472
▁possibility	-13.1472
▁resist	-13.1472
▁thumbprint	-13.1472
▁freshness	-13.1496
▁mother	-13.1496
▁subpass	-13.1496
▁usual	-13.1496
▁weld	-13.1496
▁cayman	-13.152
▁chair	-13.152
▁classical	-13.152
▁consistently	-13.152
▁mun	-13.152
▁ridgepole	-13.152
▁authenticity	-13.1545
▁comptroller	-13.1545
▁differently	-13.1545
▁ladder	-13.1545
▁revenue	-13.1545
▁suspension	-13.1545
▁collins	-13.1569
▁glean	-13.1569
▁kingdom	-13.1569
▁nuclei	-13.1569
▁pistol	-13.1569
▁publicly	-13.1569
▁sonobuoy	-13.1569
▁stationary	-13.1569
▁vibration	-13.1569
▁bod	-13.1594
▁dumping	-13.1594
▁khar	-13.1594
▁spotlight	-13.1594
▁unsustainable	-13.1594
▁vibrator	-13.1594
▁atmosphere	-13.1618
▁bagging	-13.1618
▁lucet	-13.1618
▁paranoid	-13.1618
▁remotely	-13.1618
▁zorro	-13.1618
▁convenient	-13.1643
▁elsewhere	-13.1643
▁yer	-13.1643
▁alternatively	-13.1667
▁capstone	-13.1667
▁faucet	-13.1667
▁tesseract	-13.1667
▁glove	-13.1692
▁nicely	-13.1692
▁quotient	-13.1692
▁cannon	-13.1717
▁enricher	-13.1717
▁munge	-13.1717
▁polish	-13.1717
▁tiger	-13.1717
▁artificial	-13.1742
▁mainly	-13.1742
▁subversion	-13.1742
▁accordingly	-13.1767
▁ade	-13.1767
▁creole	-13.1767
▁evenly	-13.1767
▁advise	-13.1792
▁came	-13.1792
▁definer	-13.1792
▁duplicator	-13.1792
▁servo	-13.1792
▁consolidate	-13.1817
▁fame	-13.1817
▁grave	-13.1817
▁panicked	-13.1817
▁prone	-13.1817
▁unitary	-13.1817
▁wap	-13.1817
▁inn	-13.1842
▁married	-13.1842
▁refresher	-13.1842
▁vera	-13.1842
▁entirely	-13.1867
▁flax	-13.1867
▁maximal	-13.1867
▁eject	-13.1892
▁guz	-13.1892
▁initiative	-13.1892
▁kell	-13.1892
▁sixth	-13.1892
▁torso	-13.1892
▁vowel	-13.1892
▁cisco	-13.1917
▁creatable	-13.1917
▁dusk	-13.1917
▁fortune	-13.1917
▁hypo	-13.1917
▁nei	-13.1917
▁rescan	-13.1917
▁thrower	-13.1917
▁benjamin	-13.1943
▁cardholder	-13.1943
▁catchall	-13.1943
▁magnolia	-13.1943
▁reasonable	-13.1943
▁spending	-13.1943
▁discriminant	-13.1968
▁goby	-13.1968
▁hurt	-13.1968
▁resettable	-13.1968
▁donkey	-13.1994
▁gizzard	-13.1994
▁improper	-13.1994
▁mockable	-13.1994
▁removable	-13.1994
▁dude	-13.2019
▁refuse	-13.2019
▁advertising	-13.2045
▁conservative	-13.2045
▁drupal	-13.2045
▁especially	-13.2045
▁inspired	-13.2045
▁niter	-13.2045
▁recalculate	-13.2045
▁staleness	-13.2045
▁tension	-13.2045
▁unconfined	-13.2045
▁unqualified	-13.2045
▁proportional	-13.207
▁smote	-13.207
▁thirty	-13.207
▁accounting	-13.2096
▁docket	-13.2096
▁inaccessible	-13.2096
▁inversion	-13.2096
▁irreversible	-13.2096
▁plausible	-13.2096
▁titled	-13.2096
▁uncle	-13.2096
▁layered	-13.2122
▁lux	-13.2122
▁tippy	-13.2122
▁unreadable	-13.2122
▁wae	-13.2122
▁dominated	-13.2148
▁fam	-13.2148
▁federal	-13.2148
▁watchtower	-13.2148
▁paw	-13.2174
▁representable	-13.2174
▁steven	-13.2174
▁tent	-13.2174
▁aurora	-13.22
▁conformity	-13.22
▁driving	-13.22
▁growl	-13.22
▁individually	-13.22
▁lack	-13.22
▁liquidity	-13.22
▁lowering	-13.22
▁meat	-13.22
▁rise	-13.22
▁sparks	-13.22
▁ust	-13.22
▁advantage	-13.2226
▁ana	-13.2226
▁darkness	-13.2226
▁destruction	-13.2226
▁onetime	-13.2226
▁parsley	-13.2226
▁sift	-13.2226
▁valuable	-13.2226
▁gyp	-13.2252
▁misfire	-13.2252
▁synthesize	-13.2252
▁uninstalled	-13.2252
▁baby	-13.2278
▁confirmable	-13.2278
▁dit	-13.2278
▁klaxon	-13.2278
▁lockout	-13.2278
▁quantifier	-13.2278
▁shadowing	-13.2278
▁stays	-13.2278
▁stratified	-13.2278
▁outfit	-13.2304
▁pauser	-13.2304
▁practical	-13.2304
▁unselect	-13.2304
▁buggy	-13.2331
▁dive	-13.2331
▁enforcer	-13.2331
▁eve	-13.2331
▁resent	-13.2331
▁toleration	-13.2331
▁beautify	-13.2357
▁peewee	-13.2357
▁saur	-13.2357
▁sora	-13.2384
▁successive	-13.2384
▁ara	-13.241
▁citizen	-13.241
▁clearable	-13.241
▁cursed	-13.241
▁prince	-13.241
▁relativize	-13.241
▁squad	-13.241
▁blessed	-13.2437
▁deferrable	-13.2437
▁donor	-13.2437
▁mayor	-13.2437
▁paradox	-13.2437
▁sling	-13.2437
▁sports	-13.2437
▁turbo	-13.2437
▁afterwards	-13.2464
▁baa	-13.2464
▁blow	-13.2464
▁firebird	-13.2464
▁former	-13.2464
▁spruce	-13.2464
▁whats	-13.2464
▁ave	-13.249
▁cloth	-13.249
▁dawn	-13.249
▁elapse	-13.249
▁flog	-13.249
▁malicious	-13.249
▁monochrome	-13.249
▁voltage	-13.249
▁adversary	-13.2517
▁canned	-13.2517
▁erased	-13.2517
▁famous	-13.2517
▁forty	-13.2517
▁genome	-13.2517
▁glutin	-13.2517
▁hell	-13.2517
▁pile	-13.2517
▁ranked	-13.2517
▁appropriately	-13.2544
▁boston	-13.2544
▁chase	-13.2544
▁dae	-13.2544
▁kiss	-13.2544
▁optical	-13.2544
▁piano	-13.2544
▁roller	-13.2544
▁sate	-13.2544
▁topmost	-13.2544
▁blinding	-13.2571
▁expressed	-13.2571
▁harry	-13.2571
▁loglike	-13.2571
▁throughout	-13.2571
▁bulb	-13.2598
▁declarer	-13.2598
▁doggo	-13.2598
▁logistics	-13.2598
▁recompute	-13.2598
▁sing	-13.2598
▁transmitter	-13.2598
▁trimming	-13.2598
▁cheetah	-13.2625
▁indic	-13.2625
▁subtle	-13.2625
▁troll	-13.2625
▁commonly	-13.2653
▁lasso	-13.2653
▁litho	-13.2653
▁propose	-13.2653
▁steering	-13.2653
▁ours	-13.268
▁rootless	-13.268
▁upcast	-13.268
▁correlate	-13.2707
▁mercurial	-13.2707
▁cest	-13.2735
▁conclusion	-13.2735
▁drug	-13.2735
▁enrichment	-13.2735
▁newton	-13.2735
▁rob	-13.2735
▁shapely	-13.2735
▁toon	-13.2735
▁conditionally	-13.2762
▁appendix	-13.279
▁cohort	-13.279
▁ortho	-13.279
▁reraise	-13.279
▁unconstrained	-13.279
▁amazing	-13.2817
▁careful	-13.2817
▁isomorphic	-13.2817
▁marcel	-13.2817
▁marionette	-13.2817
▁occlusion	-13.2817
▁singer	-13.2817
▁soul	-13.2817
▁hummingbird	-13.2845
▁nobody	-13.2845
▁offshore	-13.2845
▁survival	-13.2845
▁uglify	-13.2845
▁airport	-13.2873
▁bamboo	-13.2873
▁carriage	-13.2873
▁lap	-13.2873
▁lisp	-13.2873
▁loma	-13.2873
▁lossless	-13.2873
▁monarchy	-13.2873
▁sieve	-13.2873
▁storybook	-13.2873
▁wormhole	-13.2873
▁backfill	-13.2901
▁cheap	-13.2901
▁rental	-13.2901
▁cocktail	-13.2929
▁derma	-13.2929
▁erasure	-13.2929
▁jade	-13.2929
▁overlord	-13.2929
▁enclave	-13.2957
▁floodlight	-13.2957
▁flora	-13.2957
▁gated	-13.2957
▁grantee	-13.2957
▁macao	-13.2957
▁rebind	-13.2957
▁subsection	-13.2957
▁trunking	-13.2957
▁bark	-13.2985
▁bop	-13.2985
▁questionnaire	-13.2985
▁rump	-13.2985
▁addend	-13.3013
▁alongside	-13.3013
▁cryptogram	-13.3013
▁dealing	-13.3013
▁farming	-13.3013
▁spoiler	-13.3013
▁surveyor	-13.3013
▁versioner	-13.3013
▁wasted	-13.3013
▁dali	-13.3042
▁manger	-13.3042
▁mushroom	-13.3042
▁speedometer	-13.3042
▁strap	-13.3042
▁violet	-13.3042
▁clipper	-13.307
▁colorful	-13.307
▁coveralls	-13.307
▁eric	-13.307
▁exam	-13.307
▁honeycomb	-13.307
▁mermaid	-13.307
▁ohm	-13.307
▁rout	-13.307
▁longhorn	-13.3098
▁tycoon	-13.3098
▁absence	-13.3127
▁allele	-13.3127
▁crouch	-13.3127
▁nearly	-13.3127
▁neigh	-13.3127
▁finch	-13.3155
▁monadic	-13.3155
▁subaccount	-13.3155
▁chamber	-13.3184
▁definite	-13.3184
▁ewe	-13.3184
▁expunge	-13.3184
▁firing	-13.3184
▁lue	-13.3184
▁repairable	-13.3184
▁church	-13.3213
▁lak	-13.3213
▁relate	-13.3213
▁subdivision	-13.3213
▁ted	-13.3213
▁yeah	-13.3213
▁armature	-13.3242
▁branching	-13.3242
▁funny	-13.3242
▁gnome	-13.3242
▁pit	-13.3242
▁raspberry	-13.3242
▁stime	-13.3242
▁conform	-13.3271
▁glint	-13.3271
▁nullify	-13.3271
▁relabel	-13.3271
▁repeatedly	-13.3271
▁scraper	-13.3271
▁suspicious	-13.3271
▁wolf	-13.3271
▁blazer	-13.33
▁dealer	-13.33
▁disappear	-13.33
▁discourse	-13.33
▁hob	-13.33
▁isotonic	-13.33
▁kilo	-13.33
▁popper	-13.33
▁standing	-13.33
▁tide	-13.33
▁hazel	-13.3329
▁improperly	-13.3329
▁pulp	-13.3329
▁reconstructed	-13.3329
▁typeset	-13.3329
▁boy	-13.3358
▁curried	-13.3358
▁ego	-13.3358
▁obfuscate	-13.3358
▁poor	-13.3358
▁reclaim	-13.3358
▁willow	-13.3358
▁worse	-13.3358
▁prevention	-13.3387
▁regulation	-13.3387
▁whisper	-13.3387
▁advertisement	-13.3417
▁cub	-13.3417
▁ignorable	-13.3417
▁indefinite	-13.3417
▁intact	-13.3417
▁memento	-13.3417
▁mountable	-13.3417
▁revealed	-13.3417
▁whistle	-13.3417
▁exploder	-13.3446
▁joinable	-13.3446
▁lone	-13.3446
▁shortener	-13.3446
▁tristate	-13.3446
▁golf	-13.3476
▁hall	-13.3476
▁inport	-13.3476
▁teapot	-13.3476
▁turning	-13.3476
▁wird	-13.3476
▁arango	-13.3505
▁cork	-13.3505
▁handed	-13.3505
▁registrator	-13.3505
▁unnest	-13.3505
▁hamster	-13.3535
▁impersonation	-13.3535
▁stupid	-13.3535
▁transformable	-13.3535
▁wangle	-13.3535
▁adjoint	-13.3565
▁dow	-13.3565
▁releaser	-13.3565
▁shimmer	-13.3565
▁distortion	-13.3595
▁laminar	-13.3595
▁mima	-13.3595
▁olla	-13.3595
▁parsable	-13.3595
▁plenary	-13.3595
▁shan	-13.3595
▁unwanted	-13.3595
▁actively	-13.3625
▁bearded	-13.3625
▁decorative	-13.3625
▁elvish	-13.3625
▁excessive	-13.3625
▁initiation	-13.3625
▁outport	-13.3625
▁substituted	-13.3625
▁symptomatic	-13.3625
▁tally	-13.3625
▁abb	-13.3655
▁agate	-13.3655
▁cocoa	-13.3655
▁disclosure	-13.3655
▁furniture	-13.3655
▁rickshaw	-13.3655
▁slurp	-13.3655
▁toi	-13.3655
▁ush	-13.3655
▁allowable	-13.3685
▁boarding	-13.3685
▁continuity	-13.3685
▁faulty	-13.3685
▁gains	-13.3685
▁mappable	-13.3685
▁stamina	-13.3685
▁ammonite	-13.3715
▁bass	-13.3715
▁chicken	-13.3715
▁finland	-13.3715
▁literally	-13.3715
▁ogre	-13.3715
▁postable	-13.3715
▁remodel	-13.3715
▁quadrant	-13.3746
▁satisfiable	-13.3746
▁saturated	-13.3746
▁semiring	-13.3746
▁unrolled	-13.3746
▁capturer	-13.3776
▁dilated	-13.3776
▁numb	-13.3776
▁sancho	-13.3776
▁defender	-13.3807
▁interlaced	-13.3807
▁shoulder	-13.3807
▁wice	-13.3807
▁backdoor	-13.3837
▁breakable	-13.3837
▁ebb	-13.3837
▁fighter	-13.3837
▁glassfish	-13.3837
▁raiser	-13.3837
▁scalariform	-13.3837
▁shareable	-13.3837
▁contentful	-13.3868
▁ess	-13.3868
▁grandparent	-13.3868
▁moniker	-13.3868
▁protector	-13.3868
▁rounder	-13.3868
▁teaser	-13.3868
▁debris	-13.3899
▁dee	-13.3899
▁gaufrette	-13.3899
▁seeker	-13.3899
▁abuse	-13.393
▁chill	-13.393
▁juniper	-13.393
▁lac	-13.393
▁lunar	-13.393
▁stylus	-13.393
▁virus	-13.393
▁clark	-13.3961
▁kelvin	-13.3961
▁manner	-13.3961
▁overshoot	-13.3961
▁proven	-13.3961
▁subcase	-13.3961
▁tied	-13.3961
▁anda	-13.3992
▁cinch	-13.3992
▁cleanse	-13.3992
▁cora	-13.3992
▁granter	-13.3992
▁multilingual	-13.3992
▁concise	-13.4023
▁excellent	-13.4023
▁frustum	-13.4023
▁guidance	-13.4023
▁agility	-13.4054
▁apparent	-13.4054
▁census	-13.4054
▁clan	-13.4054
▁easter	-13.4054
▁poet	-13.4054
▁satisfying	-13.4054
▁stopper	-13.4054
▁sweeper	-13.4054
▁avenue	-13.4086
▁bel	-13.4086
▁bum	-13.4086
▁crossed	-13.4086
▁cryptographic	-13.4086
▁somehow	-13.4086
▁squid	-13.4086
▁treasure	-13.4086
▁unreserved	-13.4086
▁unscaled	-13.4086
▁aqua	-13.4117
▁computable	-13.4117
▁erroneous	-13.4117
▁riff	-13.4117
▁swimmer	-13.4117
▁troposphere	-13.4117
▁beauty	-13.4149
▁boots	-13.4149
▁bowhead	-13.4149
▁correspondence	-13.4149
▁crane	-13.4149
▁dap	-13.4149
▁enclose	-13.4149
▁magical	-13.4149
▁materialization	-13.4149
▁mistake	-13.4149
▁respective	-13.4149
▁tomato	-13.4149
▁woo	-13.4149
▁adjuster	-13.418
▁definitely	-13.418
▁mimesis	-13.418
▁tricky	-13.418
▁untested	-13.418
▁weighting	-13.418
▁crispy	-13.4212
▁emptiness	-13.4212
▁imageable	-13.4212
▁integrator	-13.4212
▁koa	-13.4212
▁pain	-13.4212
▁rearrange	-13.4212
▁reconstruction	-13.4212
▁rectangular	-13.4212
▁supervise	-13.4212
▁citrus	-13.4244
▁fou	-13.4244
▁grouper	-13.4244
▁iced	-13.4244
▁newsboat	-13.4244
▁organizational	-13.4244
▁ose	-13.4244
▁overdue	-13.4244
▁unfortunately	-13.4244
▁unstaged	-13.4244
▁caddy	-13.4276
▁canon	-13.4276
▁climber	-13.4276
▁threw	-13.4276
▁tref	-13.4276
▁undone	-13.4276
▁unpacker	-13.4276
▁unprotected	-13.4276
▁visiting	-13.4276
▁arrive	-13.4308
▁brigade	-13.4308
▁frost	-13.4308
▁importable	-13.4308
▁simpler	-13.4308
▁sunset	-13.4308
▁synch	-13.4308
▁cay	-13.434
▁howdy	-13.434
▁jordan	-13.434
▁talking	-13.434
▁ante	-13.4373
▁blo	-13.4373
▁oblique	-13.4373
▁potato	-13.4373
▁reducing	-13.4373
▁rotator	-13.4373
▁scrubber	-13.4373
▁tense	-13.4373
▁agenda	-13.4405
▁bib	-13.4405
▁eel	-13.4405
▁reversal	-13.4405
▁rifle	-13.4405
▁taxis	-13.4405
▁adventurer	-13.4438
▁atomics	-13.4438
▁beach	-13.4438
▁booth	-13.4438
▁cooking	-13.4438
▁factorization	-13.4438
▁fad	-13.4438
▁kuba	-13.4438
▁labeler	-13.4438
▁ourselves	-13.4438
▁pulldown	-13.4438
▁sensible	-13.4438
▁snip	-13.4438
▁unrecoverable	-13.4438
▁cloak	-13.447
▁hetero	-13.447
▁nevermore	-13.447
▁periodically	-13.447
▁accelerometer	-13.4503
▁fie	-13.4503
▁maestro	-13.4503
▁tiered	-13.4503
▁vestibulum	-13.4503
▁attendance	-13.4536
▁binning	-13.4536
▁cattle	-13.4536
▁continued	-13.4536
▁dairy	-13.4536
▁snaps	-13.4536
▁stoppable	-13.4536
▁torque	-13.4536
▁zeta	-13.4536
▁contention	-13.4569
▁destroyer	-13.4569
▁necessarily	-13.4569
▁pencil	-13.4569
▁photon	-13.4569
▁pluggable	-13.4569
▁prose	-13.4569
▁reap	-13.4569
▁sarif	-13.4569
▁unlinked	-13.4569
▁breath	-13.4602
▁catalina	-13.4602
▁numerous	-13.4602
▁overdrive	-13.4602
▁socialite	-13.4602
▁stringy	-13.4602
▁toggler	-13.4602
▁aval	-13.4635
▁bush	-13.4635
▁homestead	-13.4635
▁perplexity	-13.4635
▁pronto	-13.4635
▁reproducible	-13.4635
▁unseen	-13.4635
▁broke	-13.4668
▁freezing	-13.4668
▁shielded	-13.4668
▁audible	-13.4702
▁conventional	-13.4702
▁disposer	-13.4702
▁fallible	-13.4702
▁forging	-13.4702
▁harvester	-13.4702
▁intentionally	-13.4702
▁prest	-13.4702
▁servidor	-13.4702
▁streak	-13.4702
▁ape	-13.4735
▁conflate	-13.4735
▁controllable	-13.4735
▁distraction	-13.4735
▁eating	-13.4735
▁refill	-13.4735
▁scrim	-13.4735
▁transmute	-13.4735
▁watchable	-13.4735
▁attachable	-13.4769
▁billed	-13.4769
▁hacker	-13.4769
▁inflict	-13.4769
▁inhibitor	-13.4769
▁jazz	-13.4769
▁mandrill	-13.4769
▁pagina	-13.4769
▁pushover	-13.4769
▁referee	-13.4769
▁speaking	-13.4769
▁styler	-13.4769
▁superfluous	-13.4769
▁allemand	-13.4803
▁continually	-13.4803
▁localizable	-13.4803
▁loofah	-13.4803
▁vara	-13.4803
▁chasing	-13.4836
▁covering	-13.4836
▁multihead	-13.4836
▁nelson	-13.4836
▁originator	-13.4836
▁taproot	-13.4836
▁warping	-13.4836
▁chief	-13.487
▁hap	-13.487
▁leftmost	-13.487
▁ranker	-13.487
▁reportable	-13.487
▁saturate	-13.487
▁untitled	-13.487
▁walkable	-13.487
▁determinant	-13.4904
▁distinguish	-13.4904
▁fang	-13.4904
▁independently	-13.4904
▁lotto	-13.4904
▁plank	-13.4904
▁rough	-13.4904
▁certification	-13.4939
▁depot	-13.4939
▁dor	-13.4939
▁mechanical	-13.4939
▁trouble	-13.4939
▁clique	-13.4973
▁expirable	-13.4973
▁pundit	-13.4973
▁twirl	-13.4973
▁friendship	-13.5007
▁guarani	-13.5007
▁somewhat	-13.5007
▁yours	-13.5007
▁beehive	-13.5042
▁hear	-13.5042
▁investigate	-13.5042
▁searchlight	-13.5042
▁simplex	-13.5042
▁sunrise	-13.5042
▁elbow	-13.5077
▁heath	-13.5077
▁kurtosis	-13.5077
▁lingua	-13.5077
▁punch	-13.5077
▁refuter	-13.5077
▁rice	-13.5077
▁stepped	-13.5077
▁cyp	-13.5111
▁enjoyment	-13.5111
▁lid	-13.5111
▁olive	-13.5111
▁postman	-13.5111
▁repaint	-13.5111
▁tabulator	-13.5111
▁told	-13.5111
▁vignette	-13.5111
▁wife	-13.5111
▁consequent	-13.5146
▁foursquare	-13.5146
▁premature	-13.5146
▁recompile	-13.5146
▁roar	-13.5146
▁uncheck	-13.5146
▁adventure	-13.5181
▁ascend	-13.5181
▁clobber	-13.5181
▁hanging	-13.5181
▁orchestra	-13.5181
▁similarly	-13.5181
▁superman	-13.5181
▁blub	-13.5216
▁cypress	-13.5216
▁extremely	-13.5216
▁hoodwink	-13.5216
▁inspectable	-13.5216
▁lamba	-13.5216
▁pressing	-13.5216
▁profession	-13.5216
▁puller	-13.5216
▁substrate	-13.5216
▁summarization	-13.5216
▁tether	-13.5216
▁unhide	-13.5216
▁bumper	-13.5252
▁dari	-13.5252
▁essentially	-13.5252
▁hacking	-13.5252
▁invocable	-13.5252
▁issuance	-13.5252
▁kiosk	-13.5252
▁perpendicular	-13.5252
▁prove	-13.5252
▁significance	-13.5252
▁sister	-13.5252
▁tat	-13.5252
▁computational	-13.5287
▁enrolled	-13.5287
▁renegotiation	-13.5287
▁ross	-13.5287
▁bridged	-13.5323
▁greenlet	-13.5323
▁hep	-13.5323
▁nowhere	-13.5323
▁redundancy	-13.5323
▁stance	-13.5323
▁yank	-13.5323
▁acquirer	-13.5358
▁benefit	-13.5358
▁comprehension	-13.5358
▁durability	-13.5358
▁naked	-13.5358
▁opportunity	-13.5358
▁pinch	-13.5358
▁pinning	-13.5358
▁platinum	-13.5358
▁police	-13.5358
▁proton	-13.5358
▁sac	-13.5358
▁sina	-13.5358
▁darr	-13.5394
▁destroyable	-13.5394
▁downward	-13.5394
▁electronics	-13.5394
▁forcing	-13.5394
▁mozambique	-13.5394
▁stall	-13.5394
▁stiffness	-13.5394
▁waterline	-13.5394
▁beginner	-13.543
▁drunken	-13.543
▁hertz	-13.543
▁laura	-13.543
▁patient	-13.543
▁reread	-13.543
▁shooting	-13.543
▁arise	-13.5466
▁defect	-13.5466
▁differentiable	-13.5466
▁draper	-13.5466
▁hamlet	-13.5466
▁monarch	-13.5466
▁offering	-13.5466
▁prologue	-13.5466
▁shifting	-13.5466
▁shine	-13.5466
▁subcategory	-13.5466
▁wang	-13.5466
▁woman	-13.5466
▁annoying	-13.5502
▁bac	-13.5502
▁barra	-13.5502
▁dexter	-13.5502
▁effectively	-13.5502
▁justo	-13.5502
▁stellar	-13.5502
▁vicious	-13.5502
▁waterfall	-13.5502
▁yelp	-13.5502
▁afar	-13.5538
▁flattener	-13.5538
▁hum	-13.5538
▁ignorer	-13.5538
▁liner	-13.5538
▁mig	-13.5538
▁promoter	-13.5538
▁rewarder	-13.5538
▁termin	-13.5538
▁twelve	-13.5538
▁annoy	-13.5575
▁ligula	-13.5575
▁lush	-13.5575
▁monte	-13.5575
▁turquoise	-13.5575
▁unvalidated	-13.5575
▁wir	-13.5575
▁armored	-13.5611
▁belonging	-13.5611
▁correlated	-13.5611
▁interrupting	-13.5611
▁logos	-13.5611
▁rainy	-13.5611
▁swish	-13.5611
▁tibet	-13.5611
▁augmenter	-13.5648
▁avast	-13.5648
▁disconnection	-13.5648
▁dout	-13.5648
▁gazetteer	-13.5648
▁monologue	-13.5648
▁sick	-13.5648
▁eagerly	-13.5685
▁fantasy	-13.5685
▁flyway	-13.5685
▁guitar	-13.5685
▁outpoint	-13.5685
▁overline	-13.5685
▁shrinking	-13.5685
▁textile	-13.5685
▁yeni	-13.5685
▁appointment	-13.5722
▁classy	-13.5722
▁existential	-13.5722
▁ivory	-13.5722
▁jeff	-13.5722
▁peto	-13.5722
▁procurement	-13.5722
▁snooze	-13.5722
▁dendrite	-13.5759
▁marvel	-13.5759
▁oar	-13.5759
▁ope	-13.5759
▁redistribute	-13.5759
▁slicing	-13.5759
▁somebody	-13.5759
▁subspace	-13.5759
▁glance	-13.5796
▁rescore	-13.5796
▁sight	-13.5796
▁unmonitored	-13.5796
▁unprefixed	-13.5796
▁baked	-13.5834
▁barrel	-13.5834
▁blurred	-13.5834
▁conduct	-13.5834
▁giant	-13.5834
▁hydrated	-13.5834
▁keto	-13.5834
▁mimic	-13.5834
▁shaping	-13.5834
▁acorn	-13.5871
▁coupling	-13.5871
▁dependence	-13.5871
▁hangfire	-13.5871
▁heaven	-13.5871
▁marquee	-13.5871
▁rerank	-13.5871
▁supplicant	-13.5871
▁telemeter	-13.5871
▁admonition	-13.5909
▁elevated	-13.5909
▁novel	-13.5909
▁problematic	-13.5909
▁psych	-13.5909
▁reversible	-13.5909
▁surrounded	-13.5909
▁tasker	-13.5909
▁alphabetically	-13.5947
▁borderless	-13.5947
▁catcher	-13.5947
▁crime	-13.5947
▁hijack	-13.5947
▁lemon	-13.5947
▁nonsense	-13.5947
▁unfreeze	-13.5947
▁ani	-13.5985
▁boa	-13.5985
▁curved	-13.5985
▁epilogue	-13.5985
▁gloss	-13.5985
▁interconnect	-13.5985
▁miter	-13.5985
▁recon	-13.5985
▁rethink	-13.5985
▁simultaneous	-13.5985
▁tole	-13.5985
▁volumetric	-13.5985
▁alto	-13.6023
▁doom	-13.6023
▁enquirer	-13.6023
▁indirectly	-13.6023
▁inferior	-13.6023
▁nestable	-13.6023
▁outpath	-13.6023
▁protractor	-13.6023
▁residue	-13.6023
▁scalene	-13.6023
▁serious	-13.6023
▁spendable	-13.6023
▁commodity	-13.6061
▁continuum	-13.6061
▁demote	-13.6061
▁empirical	-13.6061
▁flying	-13.6061
▁gaming	-13.6061
▁salmon	-13.6061
▁seamless	-13.6061
▁seeking	-13.6061
▁transliterate	-13.6061
▁unconsumed	-13.6061
▁unmounted	-13.6061
▁ailment	-13.6099
▁dirt	-13.6099
▁hearts	-13.6099
▁bats	-13.6138
▁biggest	-13.6138
▁faded	-13.6138
▁fifty	-13.6138
▁frog	-13.6138
▁intercom	-13.6138
▁pug	-13.6138
▁realize	-13.6138
▁stripping	-13.6138
▁subunit	-13.6138
▁capitalization	-13.6177
▁compensate	-13.6177
▁designator	-13.6177
▁dragger	-13.6177
▁hoist	-13.6177
▁luck	-13.6177
▁museum	-13.6177
▁pali	-13.6177
▁rightmost	-13.6177
▁tarantula	-13.6177
▁commissioner	-13.6215
▁flakiness	-13.6215
▁hourglass	-13.6215
▁langi	-13.6215
▁lived	-13.6215
▁subpackage	-13.6215
▁variety	-13.6215
▁writability	-13.6215
▁allies	-13.6254
▁bull	-13.6254
▁cee	-13.6254
▁dib	-13.6254
▁insider	-13.6254
▁primarily	-13.6254
▁shepherd	-13.6254
▁shopkeeper	-13.6254
▁stitch	-13.6254
▁yep	-13.6254
▁bookcase	-13.6294
▁castable	-13.6294
▁departure	-13.6294
▁flogger	-13.6294
▁forger	-13.6294
▁inviter	-13.6294
▁ouf	-13.6294
▁payee	-13.6294
▁roughly	-13.6294
▁strider	-13.6294
▁treetop	-13.6294
▁unaccent	-13.6294
▁clover	-13.6333
▁cree	-13.6333
▁funky	-13.6333
▁grabber	-13.6333
▁hypotheses	-13.6333
▁interim	-13.6333
▁propensity	-13.6333
▁scramble	-13.6333
▁xenon	-13.6333
▁barlow	-13.6372
▁ford	-13.6372
▁incompatibility	-13.6372
▁invitee	-13.6372
▁superior	-13.6372
▁tifinagh	-13.6372
▁trellis	-13.6372
▁apart	-13.6412
▁hunt	-13.6412
▁interlace	-13.6412
▁lighter	-13.6412
▁mina	-13.6412
▁numero	-13.6412
▁syllable	-13.6412
▁tew	-13.6412
▁traversing	-13.6412
▁banda	-13.6452
▁gearman	-13.6452
▁headset	-13.6452
▁manila	-13.6452
▁pes	-13.6452
▁presign	-13.6452
▁quip	-13.6452
▁rim	-13.6452
▁ark	-13.6492
▁fidelity	-13.6492
▁flattening	-13.6492
▁geography	-13.6492
▁globe	-13.6492
▁journalist	-13.6492
▁minim	-13.6492
▁oak	-13.6492
▁pillow	-13.6492
▁preparator	-13.6492
▁treasury	-13.6492
▁vantage	-13.6492
▁withdrawn	-13.6492
▁auxiliar	-13.6532
▁decided	-13.6532
▁incidence	-13.6532
▁meridional	-13.6532
▁organize	-13.6532
▁passable	-13.6532
▁preface	-13.6532
▁rick	-13.6532
▁synthesis	-13.6532
▁architect	-13.6572
▁berry	-13.6572
▁cabinet	-13.6572
▁calibrate	-13.6572
▁coda	-13.6572
▁moyen	-13.6572
▁primer	-13.6572
▁shuffling	-13.6572
▁bucketing	-13.6612
▁earnings	-13.6612
▁growing	-13.6612
▁occupation	-13.6612
▁onset	-13.6612
▁optimum	-13.6612
▁prophet	-13.6612
▁relocate	-13.6612
▁shouldnt	-13.6612
▁tempo	-13.6612
▁ware	-13.6612
▁anagram	-13.6653
▁bae	-13.6653
▁breadth	-13.6653
▁considering	-13.6653
▁invertible	-13.6653
▁mounter	-13.6653
▁pointless	-13.6653
▁simplifier	-13.6653
▁simultaneously	-13.6653
▁unconnected	-13.6653
▁unsent	-13.6653
▁iceland	-13.6694
▁idiomatic	-13.6694
▁knee	-13.6694
▁military	-13.6694
▁origination	-13.6694
▁repost	-13.6694
▁resumption	-13.6694
▁storable	-13.6694
▁unneeded	-13.6694
▁yen	-13.6694
▁applicant	-13.6735
▁belly	-13.6735
▁cockroach	-13.6735
▁disease	-13.6735
▁dose	-13.6735
▁drone	-13.6735
▁glacier	-13.6735
▁navy	-13.6735
▁dissect	-13.6776
▁keeling	-13.6776
▁scholarship	-13.6776
▁uncased	-13.6776
▁bosh	-13.6817
▁concurrence	-13.6817
▁gave	-13.6817
▁hay	-13.6817
▁institutional	-13.6817
▁notional	-13.6817
▁padlock	-13.6817
▁sept	-13.6817
▁squish	-13.6817
▁suicide	-13.6817
▁sunny	-13.6817
▁suspect	-13.6817
▁untouched	-13.6817
▁wren	-13.6817
▁bulleted	-13.6858
▁detective	-13.6858
▁lookout	-13.6858
▁needing	-13.6858
▁nim	-13.6858
▁pollard	-13.6858
▁sectional	-13.6858
▁uncontrolled	-13.6858
▁adorner	-13.69
▁ala	-13.69
▁asana	-13.69
▁astral	-13.69
▁compromise	-13.69
▁reunion	-13.69
▁transliteration	-13.69
▁unlocking	-13.69
▁upscale	-13.69
▁wrangler	-13.69
▁angry	-13.6942
▁congestion	-13.6942
▁fra	-13.6942
▁miller	-13.6942
▁persisting	-13.6942
▁temple	-13.6942
▁warsaw	-13.6942
▁choosing	-13.6983
▁concentration	-13.6983
▁continuously	-13.6983
▁evaluable	-13.6983
▁extractable	-13.6983
▁hate	-13.6983
▁navigational	-13.6983
▁pointwise	-13.6983
▁reassembly	-13.6983
▁resort	-13.6983
▁urgency	-13.6983
▁ambiguity	-13.7026
▁blanc	-13.7026
▁dab	-13.7026
▁fop	-13.7026
▁kachin	-13.7026
▁neuron	-13.7026
▁varnish	-13.7026
▁atomically	-13.7068
▁bungee	-13.7068
▁college	-13.7068
▁cormorant	-13.7068
▁correctable	-13.7068
▁editorial	-13.7068
▁fisher	-13.7068
▁forgotten	-13.7068
▁inequality	-13.7068
▁qualification	-13.7068
▁scalpel	-13.7068
▁shap	-13.7068
▁timeliness	-13.7068
▁unblocked	-13.7068
▁beneficiary	-13.711
▁crow	-13.711
▁dangerously	-13.711
▁fare	-13.711
▁hobby	-13.711
▁losing	-13.711
▁morse	-13.711
▁professional	-13.711
▁sepia	-13.711
▁slugged	-13.711
▁splay	-13.711
▁turkey	-13.711
▁weaving	-13.711
▁ampersand	-13.7153
▁assessor	-13.7153
▁besides	-13.7153
▁bliss	-13.7153
▁blurb	-13.7153
▁cinder	-13.7153
▁elimination	-13.7153
▁jean	-13.7153
▁plotted	-13.7153
▁preposition	-13.7153
▁septentrional	-13.7153
▁tournament	-13.7153
▁tribe	-13.7153
▁variational	-13.7153
▁vice	-13.7153
▁anchorage	-13.7196
▁bena	-13.7196
▁exceeding	-13.7196
▁flashing	-13.7196
▁flusher	-13.7196
▁funnel	-13.7196
▁interchange	-13.7196
▁quaint	-13.7196
▁subrange	-13.7196
▁biography	-13.7239
▁changeable	-13.7239
▁magnetic	-13.7239
▁mako	-13.7239
▁masker	-13.7239
▁precious	-13.7239
▁circumflex	-13.7282
▁differentiate	-13.7282
▁fragmented	-13.7282
▁metallic	-13.7282
▁monolith	-13.7282
▁nitrogen	-13.7282
▁recolor	-13.7282
▁tong	-13.7282
▁worry	-13.7282
▁butterfly	-13.7325
▁episodic	-13.7325
▁minority	-13.7325
▁nation	-13.7325
▁pancake	-13.7325
▁ranging	-13.7325
▁smithing	-13.7325
▁sonic	-13.7325
▁suid	-13.7325
▁dropt	-13.7369
▁genius	-13.7369
▁phoneme	-13.7369
▁powerful	-13.7369
▁semipublic	-13.7369
▁beef	-13.7413
▁concur	-13.7413
▁equalize	-13.7413
▁harm	-13.7413
▁iconic	-13.7413
▁midway	-13.7413
▁painted	-13.7413
▁peephole	-13.7413
▁portugais	-13.7413
▁tomb	-13.7413
▁contractor	-13.7457
▁heterogeneous	-13.7457
▁inferrer	-13.7457
▁inwards	-13.7457
▁lee	-13.7457
▁lie	-13.7457
▁nonlinear	-13.7457
▁plateau	-13.7457
▁positioner	-13.7457
▁sharpen	-13.7457
▁silky	-13.7457
▁synapse	-13.7457
▁taunt	-13.7457
▁tote	-13.7457
▁unidirectional	-13.7457
▁visually	-13.7457
▁bangkok	-13.7501
▁coulomb	-13.7501
▁denotation	-13.7501
▁freezable	-13.7501
▁halite	-13.7501
▁kasa	-13.7501
▁monomial	-13.7501
▁pasted	-13.7501
▁sepal	-13.7501
▁swapping	-13.7501
▁bah	-13.7545
▁darts	-13.7545
▁degraded	-13.7545
▁departed	-13.7545
▁impling	-13.7545
▁mystery	-13.7545
▁obfuscator	-13.7545
▁piecewise	-13.7545
▁pyx	-13.7545
▁quark	-13.7545
▁rememberable	-13.7545
▁technically	-13.7545
▁tolerant	-13.7545
▁basque	-13.759
▁eligibility	-13.759
▁multithreaded	-13.759
▁perforce	-13.759
▁sis	-13.759
▁specialize	-13.759
▁surge	-13.759
▁beanstalk	-13.7634
▁breakfast	-13.7634
▁campfire	-13.7634
▁crack	-13.7634
▁estado	-13.7634
▁negligence	-13.7634
▁officer	-13.7634
▁rigger	-13.7634
▁sab	-13.7634
▁underlay	-13.7634
▁voucher	-13.7634
▁carl	-13.7679
▁consequential	-13.7679
▁hacky	-13.7679
▁medal	-13.7679
▁pest	-13.7679
▁porta	-13.7679
▁reseller	-13.7679
▁shotgun	-13.7679
▁skinning	-13.7679
▁sty	-13.7679
▁unification	-13.7679
▁wombat	-13.7679
▁booting	-13.7725
▁contingency	-13.7725
▁cuttle	-13.7725
▁exemplary	-13.7725
▁formulary	-13.7725
▁ideally	-13.7725
▁retransmit	-13.7725
▁shrinkage	-13.7725
▁stickers	-13.7725
▁tertiary	-13.7725
▁toxic	-13.7725
▁unbalanced	-13.7725
▁unobserved	-13.7725
▁ascension	-13.777
▁crossover	-13.777
▁dialing	-13.777
▁fennec	-13.777
▁glimmer	-13.777
▁kina	-13.777
▁lavender	-13.777
▁oxygen	-13.777
▁palmer	-13.777
▁reposition	-13.777
▁scaffolding	-13.777
▁signatory	-13.777
▁transferable	-13.777
▁avo	-13.7815
▁mounting	-13.7815
▁particularly	-13.7815
▁samara	-13.7815
▁shiv	-13.7815
▁tamper	-13.7815
▁unlisted	-13.7815
▁whilst	-13.7815
▁archer	-13.7861
▁consolidated	-13.7861
▁despite	-13.7861
▁grocery	-13.7861
▁hunting	-13.7861
▁imperative	-13.7861
▁leeway	-13.7861
▁lodging	-13.7861
▁multiverse	-13.7861
▁overpass	-13.7861
▁plotter	-13.7861
▁registrable	-13.7861
▁salta	-13.7861
▁satellite	-13.7861
▁slicer	-13.7861
▁tua	-13.7861
▁unexisting	-13.7861
▁unmasked	-13.7861
▁unrestricted	-13.7861
▁demographic	-13.7907
▁deprecator	-13.7907
▁environmental	-13.7907
▁punta	-13.7907
▁reliability	-13.7907
▁unacknowledged	-13.7907
▁accrual	-13.7953
▁climate	-13.7953
▁demonstrate	-13.7953
▁deseret	-13.7953
▁desugar	-13.7953
▁firefly	-13.7953
▁gal	-13.7953
▁hacked	-13.7953
▁masher	-13.7953
▁premise	-13.7953
▁prepay	-13.7953
▁redelivery	-13.7953
▁shutter	-13.7953
▁tableau	-13.7953
▁unstore	-13.7953
▁village	-13.7953
▁appeal	-13.8
▁biff	-13.8
▁bun	-13.8
▁exhaust	-13.8
▁mug	-13.8
▁orthographic	-13.8
▁penguin	-13.8
▁postscript	-13.8
▁redactor	-13.8
▁subtext	-13.8
▁winding	-13.8
▁bother	-13.8046
▁calm	-13.8046
▁cute	-13.8046
▁gnostic	-13.8046
▁keyless	-13.8046
▁nep	-13.8046
▁perimeter	-13.8046
▁randomness	-13.8046
▁reform	-13.8046
▁tinker	-13.8046
▁touser	-13.8046
▁branded	-13.8093
▁brother	-13.8093
▁centripetal	-13.8093
▁chorus	-13.8093
▁confluence	-13.8093
▁deduce	-13.8093
▁differential	-13.8093
▁enabler	-13.8093
▁linguist	-13.8093
▁multiplicity	-13.8093
▁opinion	-13.8093
▁sniper	-13.8093
▁tost	-13.8093
▁traversed	-13.8093
▁bloc	-13.814
▁consonant	-13.814
▁disposal	-13.814
▁dominance	-13.814
▁fencing	-13.814
▁marco	-13.814
▁pine	-13.814
▁prunable	-13.814
▁rapier	-13.814
▁suspenders	-13.814
▁veil	-13.814
▁affecting	-13.8188
▁ash	-13.8188
▁banking	-13.8188
▁italics	-13.8188
▁maiden	-13.8188
▁polymorphism	-13.8188
▁redefinition	-13.8188
▁strand	-13.8188
▁tessellation	-13.8188
▁arbitrator	-13.8235
▁assignor	-13.8235
▁biometrics	-13.8235
▁changer	-13.8235
▁dodo	-13.8235
▁jimmy	-13.8235
▁mole	-13.8235
▁popularity	-13.8235
▁rally	-13.8235
▁sixteen	-13.8235
▁stemmed	-13.8235
▁ticking	-13.8235
▁tighten	-13.8235
▁vesting	-13.8235
▁waffle	-13.8235
▁zigzag	-13.8235
▁antenna	-13.8283
▁cram	-13.8283
▁deactivation	-13.8283
▁discoverable	-13.8283
▁doge	-13.8283
▁flick	-13.8283
▁gib	-13.8283
▁mend	-13.8283
▁outlying	-13.8283
▁quickness	-13.8283
▁speakable	-13.8283
▁woof	-13.8283
▁automotive	-13.8331
▁baku	-13.8331
▁cuisine	-13.8331
▁dish	-13.8331
▁duplicable	-13.8331
▁lame	-13.8331
▁marengo	-13.8331
▁matchable	-13.8331
▁mouth	-13.8331
▁nameable	-13.8331
▁regularize	-13.8331
▁slather	-13.8331
▁snowball	-13.8331
▁southeast	-13.8331
▁cist	-13.8379
▁coast	-13.8379
▁decomposed	-13.8379
▁defensive	-13.8379
▁dud	-13.8379
▁fear	-13.8379
▁intermediary	-13.8379
▁mammal	-13.8379
▁resetter	-13.8379
▁retrain	-13.8379
▁bowline	-13.8427
▁celestial	-13.8427
▁digester	-13.8427
▁envy	-13.8427
▁intentional	-13.8427
▁lend	-13.8427
▁meal	-13.8427
▁ogham	-13.8427
▁overrun	-13.8427
▁retrievable	-13.8427
▁showdown	-13.8427
▁spear	-13.8427
▁succeeding	-13.8427
▁sunt	-13.8427
▁unsupervised	-13.8427
▁victory	-13.8427
▁wand	-13.8427
▁antes	-13.8476
▁behalf	-13.8476
▁corpora	-13.8476
▁howe	-13.8476
▁intercepting	-13.8476
▁orchid	-13.8476
▁prize	-13.8476
▁receptor	-13.8476
▁susu	-13.8476
▁transliterator	-13.8476
▁unacceptable	-13.8476
▁attractor	-13.8525
▁chipmunk	-13.8525
▁chose	-13.8525
▁cleanly	-13.8525
▁crimson	-13.8525
▁flop	-13.8525
▁fod	-13.8525
▁generative	-13.8525
▁hopefully	-13.8525
▁incidental	-13.8525
▁nach	-13.8525
▁outcoming	-13.8525
▁pout	-13.8525
▁rend	-13.8525
▁tetra	-13.8525
▁uneven	-13.8525
▁welsh	-13.8525
▁yday	-13.8525
▁airplane	-13.8574
▁anterior	-13.8574
▁antigen	-13.8574
▁believe	-13.8574
▁butt	-13.8574
▁constructible	-13.8574
▁invariance	-13.8574
▁keystone	-13.8574
▁mel	-13.8574
▁permissible	-13.8574
▁purgeable	-13.8574
▁saying	-13.8574
▁seasonality	-13.8574
▁theirs	-13.8574
▁achieve	-13.8624
▁anna	-13.8624
▁cordoba	-13.8624
▁descale	-13.8624
▁equatorial	-13.8624
▁grained	-13.8624
▁instigator	-13.8624
▁massage	-13.8624
▁mathematical	-13.8624
▁miny	-13.8624
▁pape	-13.8624
▁rebuy	-13.8624
▁rue	-13.8624
▁selectivity	-13.8624
▁ton	-13.8624
▁wim	-13.8624
▁woodcutting	-13.8624
▁atop	-13.8673
▁bivariate	-13.8673
▁grading	-13.8673
▁intrusive	-13.8673
▁juba	-13.8673
▁loom	-13.8673
▁mant	-13.8673
▁rial	-13.8673
▁skewed	-13.8673
▁uncommunicative	-13.8673
▁unpinned	-13.8673
▁billion	-13.8723
▁erd	-13.8723
▁flunk	-13.8723
▁ken	-13.8723
▁loyalty	-13.8723
▁mentionable	-13.8723
▁mink	-13.8723
▁minx	-13.8723
▁parallelization	-13.8723
▁petal	-13.8723
▁recitation	-13.8723
▁uninterpreted	-13.8723
▁blender	-13.8773
▁doubled	-13.8773
▁edict	-13.8773
▁excluder	-13.8773
▁granular	-13.8773
▁kelly	-13.8773
▁knit	-13.8773
▁plaid	-13.8773
▁restoration	-13.8773
▁roughness	-13.8773
▁seventh	-13.8773
▁stemming	-13.8773
▁toaster	-13.8773
▁valley	-13.8773
▁vouch	-13.8773
▁ako	-13.8824
▁amman	-13.8824
▁deferral	-13.8824
▁electrical	-13.8824
▁enhancement	-13.8824
▁extrapolate	-13.8824
▁fist	-13.8824
▁frequently	-13.8824
▁openable	-13.8824
▁remnant	-13.8824
▁scissors	-13.8824
▁seer	-13.8824
▁shoe	-13.8824
▁slashing	-13.8824
▁subheading	-13.8824
▁tripoli	-13.8824
▁versicolor	-13.8824
▁bonded	-13.8874
▁bubbling	-13.8874
▁cognitive	-13.8874
▁dear	-13.8874
▁geometrical	-13.8874
▁illustration	-13.8874
▁mamba	-13.8874
▁massa	-13.8874
▁nightmare	-13.8874
▁reception	-13.8874
▁restorer	-13.8874
▁sack	-13.8874
▁salesperson	-13.8874
▁smelly	-13.8874
▁sop	-13.8874
▁thorn	-13.8874
▁unmet	-13.8874
▁breeder	-13.8925
▁coff	-13.8925
▁contraction	-13.8925
▁cox	-13.8925
▁dividing	-13.8925
▁doodad	-13.8925
▁hooker	-13.8925
▁lilac	-13.8925
▁overbook	-13.8925
▁pluralizer	-13.8925
▁smoothness	-13.8925
▁soe	-13.8925
▁tinted	-13.8925
▁absolutely	-13.8976
▁agouti	-13.8976
▁alliance	-13.8976
▁artillery	-13.8976
▁coach	-13.8976
▁decomposer	-13.8976
▁jow	-13.8976
▁omission	-13.8976
▁quarterly	-13.8976
▁whereas	-13.8976
▁ancillary	-13.9028
▁assess	-13.9028
▁astrakhan	-13.9028
▁bend	-13.9028
▁disassociate	-13.9028
▁geodesic	-13.9028
▁holdout	-13.9028
▁humbug	-13.9028
▁lucida	-13.9028
▁neat	-13.9028
▁possess	-13.9028
▁remount	-13.9028
▁scaffolder	-13.9028
▁standardization	-13.9028
▁strut	-13.9028
▁upstart	-13.9028
▁alchemist	-13.9079
▁charas	-13.9079
▁chime	-13.9079
▁glued	-13.9079
▁indefinitely	-13.9079
▁instruct	-13.9079
▁masonry	-13.9079
▁obfuscation	-13.9079
▁obvious	-13.9079
▁redaction	-13.9079
▁slant	-13.9079
▁spencer	-13.9079
▁stickiness	-13.9079
▁telethon	-13.9079
▁television	-13.9079
▁unreached	-13.9079
▁wet	-13.9079
▁acker	-13.9131
▁extensibility	-13.9131
▁exterior	-13.9131
▁gating	-13.9131
▁glace	-13.9131
▁harmful	-13.9131
▁herb	-13.9131
▁hockey	-13.9131
▁indoor	-13.9131
▁jazzy	-13.9131
▁pessimistic	-13.9131
▁quake	-13.9131
▁shower	-13.9131
▁spearman	-13.9131
▁trophy	-13.9131
▁whiptail	-13.9131
▁absolutize	-13.9183
▁agglomerate	-13.9183
▁astronomy	-13.9183
▁baker	-13.9183
▁branchless	-13.9183
▁cloudy	-13.9183
▁leaflet	-13.9183
▁resolute	-13.9183
▁restrictive	-13.9183
▁slayer	-13.9183
▁uniformity	-13.9183
▁unknow	-13.9183
▁usings	-13.9183
▁waste	-13.9183
▁borrower	-13.9236
▁cord	-13.9236
▁hopper	-13.9236
▁liftable	-13.9236
▁logarithmic	-13.9236
▁luna	-13.9236
▁odds	-13.9236
▁political	-13.9236
▁slowdown	-13.9236
▁unsized	-13.9236
▁wiggle	-13.9236
▁churn	-13.9289
▁ell	-13.9289
▁examiner	-13.9289
▁hatch	-13.9289
▁kor	-13.9289
▁lifting	-13.9289
▁mog	-13.9289
▁recode	-13.9289
▁stealth	-13.9289
▁tony	-13.9289
▁venom	-13.9289
▁yammer	-13.9289
▁ail	-13.9342
▁arctic	-13.9342
▁hamburger	-13.9342
▁morphia	-13.9342
▁myst	-13.9342
▁pontianak	-13.9342
▁postpone	-13.9342
▁randomization	-13.9342
▁responsibility	-13.9342
▁rising	-13.9342
▁salaam	-13.9342
▁sizable	-13.9342
▁testy	-13.9342
▁trove	-13.9342
▁vest	-13.9342
▁alec	-13.9395
▁amin	-13.9395
▁cot	-13.9395
▁dong	-13.9395
▁incognito	-13.9395
▁newt	-13.9395
▁poss	-13.9395
▁skewness	-13.9395
▁alan	-13.9449
▁appendices	-13.9449
▁arcane	-13.9449
▁checkerboard	-13.9449
▁clarity	-13.9449
▁eats	-13.9449
▁hood	-13.9449
▁immersive	-13.9449
▁interfere	-13.9449
▁naga	-13.9449
▁shallows	-13.9449
▁sponge	-13.9449
▁addendum	-13.9503
▁adopted	-13.9503
▁baseball	-13.9503
▁bout	-13.9503
▁disbursement	-13.9503
▁dodge	-13.9503
▁elder	-13.9503
▁franklin	-13.9503
▁geographic	-13.9503
▁gingerbread	-13.9503
▁immunity	-13.9503
▁lumber	-13.9503
▁maint	-13.9503
▁metatype	-13.9503
▁nutrition	-13.9503
▁oral	-13.9503
▁ostrich	-13.9503
▁prohibit	-13.9503
▁reroute	-13.9503
▁tentative	-13.9503
▁tox	-13.9503
▁upward	-13.9503
▁yan	-13.9503
▁aluminium	-13.9557
▁aster	-13.9557
▁attend	-13.9557
▁confidentiality	-13.9557
▁describable	-13.9557
▁gossiping	-13.9557
▁inaudible	-13.9557
▁larry	-13.9557
▁limestone	-13.9557
▁merch	-13.9557
▁nonexisting	-13.9557
▁peace	-13.9557
▁reprocess	-13.9557
▁sofar	-13.9557
▁stray	-13.9557
▁subordinate	-13.9557
▁unhook	-13.9557
▁uninflected	-13.9557
▁abstain	-13.9611
▁determinate	-13.9611
▁enjoy	-13.9611
▁flesh	-13.9611
▁fundamental	-13.9611
▁happening	-13.9611
▁mileage	-13.9611
▁parental	-13.9611
▁proximal	-13.9611
▁terse	-13.9611
▁vas	-13.9611
▁abbreviate	-13.9666
▁buster	-13.9666
▁dropper	-13.9666
▁dye	-13.9666
▁eleven	-13.9666
▁gotten	-13.9666
▁likewise	-13.9666
▁neutron	-13.9666
▁roam	-13.9666
▁scintilla	-13.9666
▁traps	-13.9666
▁twine	-13.9666
▁uniformly	-13.9666
▁unmask	-13.9666
▁bingo	-13.9721
▁cayenne	-13.9721
▁escudo	-13.9721
▁feasible	-13.9721
▁harshen	-13.9721
▁jewel	-13.9721
▁muscat	-13.9721
▁nous	-13.9721
▁oda	-13.9721
▁odometer	-13.9721
▁pinner	-13.9721
▁regulator	-13.9721
▁repay	-13.9721
▁sendable	-13.9721
▁sinter	-13.9721
▁wrongly	-13.9721
▁badly	-13.9777
▁blitz	-13.9777
▁cancan	-13.9777
▁containment	-13.9777
▁indention	-13.9777
▁measurable	-13.9777
▁outname	-13.9777
▁president	-13.9777
▁reflow	-13.9777
▁shout	-13.9777
▁swim	-13.9777
▁uncolored	-13.9777
▁unguarded	-13.9777
▁unidentified	-13.9777
▁annex	-13.9832
▁belief	-13.9832
▁brunch	-13.9832
▁cure	-13.9832
▁elemental	-13.9832
▁homer	-13.9832
▁prescriptive	-13.9832
▁relatively	-13.9832
▁retraction	-13.9832
▁schemata	-13.9832
▁serum	-13.9832
▁tye	-13.9832
▁beast	-13.9888
▁fragile	-13.9888
▁juice	-13.9888
▁poltergeist	-13.9888
▁radiography	-13.9888
▁stalker	-13.9888
▁tabber	-13.9888
▁trimmer	-13.9888
▁unboxed	-13.9888
▁army	-13.9945
▁autonomous	-13.9945
▁chamberlain	-13.9945
▁crea	-13.9945
▁dinner	-13.9945
▁dispersion	-13.9945
▁inquiry	-13.9945
▁monotone	-13.9945
▁nip	-13.9945
▁referent	-13.9945
▁senior	-13.9945
▁sketchy	-13.9945
▁twilight	-13.9945
▁unusual	-13.9945
▁affiliate	-14.0001
▁altimeter	-14.0001
▁banco	-14.0001
▁calced	-14.0001
▁cutter	-14.0001
▁dismissible	-14.0001
▁exponentially	-14.0001
▁hinter	-14.0001
▁installment	-14.0001
▁prompter	-14.0001
▁reviver	-14.0001
▁smash	-14.0001
▁wrist	-14.0001
▁cabin	-14.0058
▁causer	-14.0058
▁chimney	-14.0058
▁ineffective	-14.0058
▁measuring	-14.0058
▁misconfiguration	-14.0058
▁pathway	-14.0058
▁resurrect	-14.0058
▁rusty	-14.0058
▁singly	-14.0058
▁summation	-14.0058
▁unexported	-14.0058
▁cosmetic	-14.0116
▁damp	-14.0116
▁decade	-14.0116
▁flapdoodle	-14.0116
▁gog	-14.0116
▁insetter	-14.0116
▁occupy	-14.0116
▁procedural	-14.0116
▁religion	-14.0116
▁repudiation	-14.0116
▁spinning	-14.0116
▁supportable	-14.0116
▁theft	-14.0116
▁uncompleted	-14.0116
▁whale	-14.0116
▁wooden	-14.0116
▁aby	-14.0173
▁accommodation	-14.0173
▁aircraft	-14.0173
▁authentic	-14.0173
▁blacksmith	-14.0173
▁collaborative	-14.0173
▁contrastive	-14.0173
▁elite	-14.0173
▁equinox	-14.0173
▁exercitation	-14.0173
▁kitty	-14.0173
▁luminous	-14.0173
▁monotonically	-14.0173
▁nationality	-14.0173
▁panorama	-14.0173
▁patent	-14.0173
▁pathfinder	-14.0173
▁seeing	-14.0173
▁slugger	-14.0173
▁titre	-14.0173
▁unmerged	-14.0173
▁upwards	-14.0173
▁watt	-14.0173
▁younger	-14.0173
▁alteration	-14.0231
▁attraction	-14.0231
▁bauxite	-14.0231
▁carp	-14.0231
▁conflated	-14.0231
▁dominator	-14.0231
▁football	-14.0231
▁hei	-14.0231
▁illumination	-14.0231
▁jargon	-14.0231
▁lip	-14.0231
▁misuse	-14.0231
▁moksha	-14.0231
▁purely	-14.0231
▁quart	-14.0231
▁quarters	-14.0231
▁riot	-14.0231
▁salted	-14.0231
▁skull	-14.0231
▁valeur	-14.0231
▁barometer	-14.029
▁cleanable	-14.029
▁crossbeam	-14.029
▁eraser	-14.029
▁farthest	-14.029
▁flay	-14.029
▁gambier	-14.029
▁heaps	-14.029
▁horn	-14.029
▁housekeeping	-14.029
▁independence	-14.029
▁mice	-14.029
▁nib	-14.029
▁pale	-14.029
▁percolator	-14.029
▁rift	-14.029
▁spouse	-14.029
▁syntactic	-14.029
▁tabulation	-14.029
▁allocatable	-14.0348
▁appliance	-14.0348
▁breathe	-14.0348
▁curacao	-14.0348
▁cutting	-14.0348
▁deadman	-14.0348
▁decal	-14.0348
▁distill	-14.0348
▁earning	-14.0348
▁mart	-14.0348
▁muse	-14.0348
▁obstacle	-14.0348
▁octopus	-14.0348
▁runic	-14.0348
▁shy	-14.0348
▁skel	-14.0348
▁terry	-14.0348
▁uglifier	-14.0348
▁unstyled	-14.0348
▁workbench	-14.0348
▁accord	-14.0407
▁altar	-14.0407
▁centric	-14.0407
▁clever	-14.0407
▁comprehensive	-14.0407
▁cyclical	-14.0407
▁ova	-14.0407
▁predictive	-14.0407
▁recruit	-14.0407
▁referendum	-14.0407
▁spectrogram	-14.0407
▁spike	-14.0407
▁timekeeper	-14.0407
▁vend	-14.0407
▁deaf	-14.0467
▁disagree	-14.0467
▁embrace	-14.0467
▁envelop	-14.0467
▁fury	-14.0467
▁grin	-14.0467
▁hyphenate	-14.0467
▁lich	-14.0467
▁logarithm	-14.0467
▁luminosity	-14.0467
▁predictable	-14.0467
▁relatable	-14.0467
▁cit	-14.0526
▁degenerate	-14.0526
▁diffusion	-14.0526
▁dress	-14.0526
▁elephant	-14.0526
▁fate	-14.0526
▁gaze	-14.0526
▁hexagon	-14.0526
▁hydrogen	-14.0526
▁preimage	-14.0526
▁programmatically	-14.0526
▁spoof	-14.0526
▁torii	-14.0526
▁trinary	-14.0526
▁unannotated	-14.0526
▁wholesale	-14.0526
▁zig	-14.0526
▁alternating	-14.0586
▁drow	-14.0586
▁inefficient	-14.0586
▁inscriptional	-14.0586
▁legislation	-14.0586
▁obviously	-14.0586
▁opposed	-14.0586
▁rab	-14.0586
▁slippage	-14.0586
▁sonnet	-14.0586
▁tucuman	-14.0586
▁unresponsive	-14.0586
▁untranslated	-14.0586
▁urna	-14.0586
▁yew	-14.0586
▁diode	-14.0647
▁eros	-14.0647
▁intelligent	-14.0647
▁irony	-14.0647
▁jing	-14.0647
▁learnable	-14.0647
▁magnifier	-14.0647
▁protone	-14.0647
▁stratum	-14.0647
▁understanding	-14.0647
▁academic	-14.0708
▁acoustic	-14.0708
▁atrium	-14.0708
▁constitution	-14.0708
▁doll	-14.0708
▁guessing	-14.0708
▁hammock	-14.0708
▁mastodon	-14.0708
▁multidimensional	-14.0708
▁nudge	-14.0708
▁panning	-14.0708
▁presentable	-14.0708
▁reassignment	-14.0708
▁resemble	-14.0708
▁screenman	-14.0708
▁tops	-14.0708
▁trinket	-14.0708
▁unwritable	-14.0708
▁urban	-14.0708
▁windowless	-14.0708
▁aquamarine	-14.0769
▁eater	-14.0769
▁morocco	-14.0769
▁nodal	-14.0769
▁purity	-14.0769
▁unviewed	-14.0769
▁vacation	-14.0769
▁clerk	-14.083
▁discharge	-14.083
▁flot	-14.083
▁garage	-14.083
▁mongrel	-14.083
▁outputter	-14.083
▁pace	-14.083
▁parted	-14.083
▁plugged	-14.083
▁pond	-14.083
▁romance	-14.083
▁sunflower	-14.083
▁unambiguous	-14.083
▁yeoman	-14.083
▁ama	-14.0892
▁assassin	-14.0892
▁chap	-14.0892
▁decipher	-14.0892
▁eme	-14.0892
▁graham	-14.0892
▁needles	-14.0892
▁nether	-14.0892
▁nonstandard	-14.0892
▁poem	-14.0892
▁realistic	-14.0892
▁redeploy	-14.0892
▁retaining	-14.0892
▁seaweed	-14.0892
▁shrinker	-14.0892
▁soar	-14.0892
▁subpool	-14.0892
▁tranquilizer	-14.0892
▁victor	-14.0892
▁wheat	-14.0892
▁absorption	-14.0954
▁backstage	-14.0954
▁blessing	-14.0954
▁categorize	-14.0954
▁contracted	-14.0954
▁crouton	-14.0954
▁delaying	-14.0954
▁dissector	-14.0954
▁gyroscope	-14.0954
▁henry	-14.0954
▁ich	-14.0954
▁investor	-14.0954
▁momo	-14.0954
▁plum	-14.0954
▁rayon	-14.0954
▁saber	-14.0954
▁aute	-14.1017
▁breadbox	-14.1017
▁copula	-14.1017
▁dueling	-14.1017
▁inexact	-14.1017
▁methodical	-14.1017
▁orderly	-14.1017
▁revise	-14.1017
▁rupee	-14.1017
▁undispatched	-14.1017
▁unreleased	-14.1017
▁unusable	-14.1017
▁analytical	-14.108
▁burnt	-14.108
▁cigar	-14.108
▁escrow	-14.108
▁funk	-14.108
▁mule	-14.108
▁regeneration	-14.108
▁resilient	-14.108
▁roger	-14.108
▁sacrifice	-14.108
▁sammy	-14.108
▁simplicity	-14.108
▁temporally	-14.108
▁turco	-14.108
▁undefine	-14.108
▁unwrapper	-14.108
▁warming	-14.108
▁apartment	-14.1144
▁atrous	-14.1144
▁burning	-14.1144
▁cage	-14.1144
▁combinatorial	-14.1144
▁coyote	-14.1144
▁encapsulate	-14.1144
▁intense	-14.1144
▁linearly	-14.1144
▁marc	-14.1144
▁missile	-14.1144
▁significantly	-14.1144
▁skinned	-14.1144
▁starry	-14.1144
▁superhero	-14.1144
▁synthesizer	-14.1144
▁transferring	-14.1144
▁untrust	-14.1144
▁anonymously	-14.1208
▁bait	-14.1208
▁bevel	-14.1208
▁canton	-14.1208
▁exponentiation	-14.1208
▁glam	-14.1208
▁narr	-14.1208
▁repack	-14.1208
▁resign	-14.1208
▁sailor	-14.1208
▁spinel	-14.1208
▁stated	-14.1208
▁suppose	-14.1208
▁tanka	-14.1208
▁tuned	-14.1208
▁alist	-14.1272
▁bowler	-14.1272
▁coop	-14.1272
▁exoskeleton	-14.1272
▁flicker	-14.1272
▁goblin	-14.1272
▁infectiousness	-14.1272
▁inflation	-14.1272
▁innermost	-14.1272
▁lump	-14.1272
▁modulation	-14.1272
▁outliner	-14.1272
▁overspeed	-14.1272
▁paho	-14.1272
▁pand	-14.1272
▁starling	-14.1272
▁apostrophe	-14.1337
▁bakery	-14.1337
▁chol	-14.1337
▁equally	-14.1337
▁katar	-14.1337
▁merchandise	-14.1337
▁organic	-14.1337
▁outrow	-14.1337
▁planting	-14.1337
▁royal	-14.1337
▁rung	-14.1337
▁supporter	-14.1337
▁tactical	-14.1337
▁tolerate	-14.1337
▁undercut	-14.1337
▁unget	-14.1337
▁visitable	-14.1337
▁wedge	-14.1337
▁wrench	-14.1337
▁appoint	-14.1402
▁batt	-14.1402
▁coupled	-14.1402
▁crowbar	-14.1402
▁eigenvalue	-14.1402
▁freeing	-14.1402
▁infected	-14.1402
▁lira	-14.1402
▁minimization	-14.1402
▁priced	-14.1402
▁principle	-14.1402
▁reallocate	-14.1402
▁rejoin	-14.1402
▁spoon	-14.1402
▁tantivy	-14.1402
▁thief	-14.1402
▁untar	-14.1402
▁zed	-14.1402
▁alternation	-14.1467
▁apparently	-14.1467
▁asker	-14.1467
▁baru	-14.1467
▁broccoli	-14.1467
▁comprehend	-14.1467
▁deed	-14.1467
▁freight	-14.1467
▁generalize	-14.1467
▁libra	-14.1467
▁outwards	-14.1467
▁refusing	-14.1467
▁sixty	-14.1467
▁stepping	-14.1467
▁streamline	-14.1467
▁wert	-14.1467
▁aga	-14.1533
▁anisotropy	-14.1533
▁commence	-14.1533
▁confounder	-14.1533
▁demon	-14.1533
▁diverse	-14.1533
▁enablement	-14.1533
▁hyperbolic	-14.1533
▁jake	-14.1533
▁judgment	-14.1533
▁monogram	-14.1533
▁occupant	-14.1533
▁outstream	-14.1533
▁riddle	-14.1533
▁signable	-14.1533
▁snagger	-14.1533
▁uncalled	-14.1533
▁walter	-14.1533
▁applicability	-14.16
▁awareness	-14.16
▁beeline	-14.16
▁compressible	-14.16
▁crossbow	-14.16
▁drama	-14.16
▁franco	-14.16
▁hysteresis	-14.16
▁knockout	-14.16
▁naam	-14.16
▁pir	-14.16
▁signaler	-14.16
▁sleepy	-14.16
▁squiggly	-14.16
▁tappable	-14.16
▁tod	-14.16
▁toward	-14.16
▁trample	-14.16
▁triage	-14.16
▁unconditional	-14.16
▁unlit	-14.16
▁utilize	-14.16
▁versus	-14.16
▁wobble	-14.16
▁elect	-14.1667
▁enlarge	-14.1667
▁fairness	-14.1667
▁introducer	-14.1667
▁kim	-14.1667
▁locksmith	-14.1667
▁moose	-14.1667
▁perpetual	-14.1667
▁pronoun	-14.1667
▁retired	-14.1667
▁stabilization	-14.1667
▁unopened	-14.1667
▁waist	-14.1667
▁whiten	-14.1667
▁yin	-14.1667
▁youth	-14.1667
▁aligner	-14.1734
▁behavioral	-14.1734
▁coherent	-14.1734
▁conserve	-14.1734
▁diabetes	-14.1734
▁diaeresis	-14.1734
▁enroll	-14.1734
▁fabricator	-14.1734
▁nasty	-14.1734
▁obscure	-14.1734
▁offerer	-14.1734
▁racer	-14.1734
▁retrace	-14.1734
▁sandy	-14.1734
▁schematic	-14.1734
▁strawberry	-14.1734
▁beige	-14.1802
▁blended	-14.1802
▁blot	-14.1802
▁boil	-14.1802
▁damped	-14.1802
▁dematerialize	-14.1802
▁eighth	-14.1802
▁encapsulation	-14.1802
▁eyre	-14.1802
▁frison	-14.1802
▁harmonics	-14.1802
▁indeed	-14.1802
▁lagged	-14.1802
▁pind	-14.1802
▁ras	-14.1802
▁reside	-14.1802
▁thaw	-14.1802
▁walt	-14.1802
▁aged	-14.187
▁blues	-14.187
▁casino	-14.187
▁chino	-14.187
▁collaboration	-14.187
▁consult	-14.187
▁crank	-14.187
▁cursus	-14.187
▁digamma	-14.187
▁doorman	-14.187
▁establishment	-14.187
▁feedbin	-14.187
▁ganglia	-14.187
▁infamy	-14.187
▁muzzy	-14.187
▁pivotal	-14.187
▁primal	-14.187
▁reinforcement	-14.187
▁restitution	-14.187
▁robustness	-14.187
▁scientist	-14.187
▁spaceless	-14.187
▁teamwork	-14.187
▁unclean	-14.187
▁unpaid	-14.187
▁appetize	-14.1939
▁capacitor	-14.1939
▁contra	-14.1939
▁cycling	-14.1939
▁demean	-14.1939
▁deputy	-14.1939
▁detour	-14.1939
▁dimmed	-14.1939
▁drained	-14.1939
▁greed	-14.1939
▁hedge	-14.1939
▁hollow	-14.1939
▁hostile	-14.1939
▁housing	-14.1939
▁kent	-14.1939
▁khaki	-14.1939
▁lien	-14.1939
▁liquidation	-14.1939
▁lovely	-14.1939
▁medic	-14.1939
▁molecular	-14.1939
▁penetration	-14.1939
▁quantitative	-14.1939
▁reducible	-14.1939
▁renounce	-14.1939
▁scattered	-14.1939
▁ski	-14.1939
▁subtrahend	-14.1939
▁unconditionally	-14.1939
▁beside	-14.2008
▁calico	-14.2008
▁clown	-14.2008
▁distillation	-14.2008
▁evasion	-14.2008
▁insurance	-14.2008
▁jenny	-14.2008
▁lager	-14.2008
▁leu	-14.2008
▁literature	-14.2008
▁loud	-14.2008
▁recast	-14.2008
▁reflog	-14.2008
▁sprig	-14.2008
▁ungrouped	-14.2008
▁unpadded	-14.2008
▁vibrant	-14.2008
▁aero	-14.2078
▁ase	-14.2078
▁cavern	-14.2078
▁desert	-14.2078
▁finisher	-14.2078
▁gag	-14.2078
▁pikelet	-14.2078
▁proprietary	-14.2078
▁replier	-14.2078
▁treating	-14.2078
▁unbiased	-14.2078
▁unfocused	-14.2078
▁becoming	-14.2148
▁bystander	-14.2148
▁candlestick	-14.2148
▁canny	-14.2148
▁caveat	-14.2148
▁contending	-14.2148
▁defuse	-14.2148
▁dissolve	-14.2148
▁divine	-14.2148
▁filo	-14.2148
▁headroom	-14.2148
▁hunks	-14.2148
▁indenter	-14.2148
▁inflected	-14.2148
▁lifter	-14.2148
▁mull	-14.2148
▁nar	-14.2148
▁precipitation	-14.2148
▁registrant	-14.2148
▁tha	-14.2148
▁thruster	-14.2148
▁titi	-14.2148
▁valuer	-14.2148
▁aenean	-14.2219
▁billboard	-14.2219
▁blackboard	-14.2219
▁bloodhound	-14.2219
▁bobby	-14.2219
▁breach	-14.2219
▁cronet	-14.2219
▁employer	-14.2219
▁hovering	-14.2219
▁landline	-14.2219
▁legendary	-14.2219
▁lonely	-14.2219
▁minion	-14.2219
▁needless	-14.2219
▁ouch	-14.2219
▁preheat	-14.2219
▁suspense	-14.2219
▁untethered	-14.2219
▁confuse	-14.229
▁disappearing	-14.229
▁faint	-14.229
▁gong	-14.229
▁instability	-14.229
▁natively	-14.229
▁ownerless	-14.229
▁pall	-14.229
▁aptitude	-14.2361
▁archival	-14.2361
▁assistance	-14.2361
▁caseless	-14.2361
▁crawling	-14.2361
▁cruel	-14.2361
▁cultural	-14.2361
▁dashing	-14.2361
▁degradation	-14.2361
▁dub	-14.2361
▁easiest	-14.2361
▁foreigner	-14.2361
▁halo	-14.2361
▁hyphenated	-14.2361
▁oven	-14.2361
▁preinstall	-14.2361
▁projectionist	-14.2361
▁supplement	-14.2361
▁taille	-14.2361
▁banded	-14.2434
▁birch	-14.2434
▁braced	-14.2434
▁dam	-14.2434
▁doubler	-14.2434
▁honeypot	-14.2434
▁impute	-14.2434
▁intend	-14.2434
▁judger	-14.2434
▁lobster	-14.2434
▁napoleon	-14.2434
▁potter	-14.2434
▁quire	-14.2434
▁reline	-14.2434
▁tam	-14.2434
▁unlogged	-14.2434
▁yuan	-14.2434
▁beetle	-14.2506
▁countless	-14.2506
▁feeding	-14.2506
▁fictional	-14.2506
▁formerly	-14.2506
▁geographer	-14.2506
▁haversine	-14.2506
▁hiss	-14.2506
▁instantly	-14.2506
▁magnification	-14.2506
▁nightingale	-14.2506
▁notch	-14.2506
▁resting	-14.2506
▁stripper	-14.2506
▁tapping	-14.2506
▁trebuchet	-14.2506
▁ule	-14.2506
▁vila	-14.2506
▁vint	-14.2506
▁blinker	-14.258
▁coal	-14.258
▁communicating	-14.258
▁encumbrance	-14.258
▁facilitator	-14.258
▁fermentum	-14.258
▁heater	-14.258
▁indestructible	-14.258
▁invalidator	-14.258
▁irk	-14.258
▁krypton	-14.258
▁loco	-14.258
▁peach	-14.258
▁placer	-14.258
▁plop	-14.258
▁ported	-14.258
▁prowl	-14.258
▁rationalize	-14.258
▁steradian	-14.258
▁subpanel	-14.258
▁taste	-14.258
▁therapy	-14.258
▁transcribe	-14.258
▁unpickled	-14.258
▁ward	-14.258
▁brad	-14.2653
▁charm	-14.2653
▁delicious	-14.2653
▁giraffe	-14.2653
▁kin	-14.2653
▁linearize	-14.2653
▁proved	-14.2653
▁reselect	-14.2653
▁sparkle	-14.2653
▁taa	-14.2653
▁unbuffered	-14.2653
▁weigher	-14.2653
▁canceler	-14.2728
▁drum	-14.2728
▁earl	-14.2728
▁exogenous	-14.2728
▁homeland	-14.2728
▁imply	-14.2728
▁mantis	-14.2728
▁reliably	-14.2728
▁shingle	-14.2728
▁toasty	-14.2728
▁trun	-14.2728
▁unreliable	-14.2728
▁whirl	-14.2728
▁adaptable	-14.2803
▁allergen	-14.2803
▁banked	-14.2803
▁coolant	-14.2803
▁ditto	-14.2803
▁divisibility	-14.2803
▁eaten	-14.2803
▁fairly	-14.2803
▁harbour	-14.2803
▁horribly	-14.2803
▁nucleus	-14.2803
▁obi	-14.2803
▁pax	-14.2803
▁reification	-14.2803
▁rewire	-14.2803
▁separating	-14.2803
▁shilling	-14.2803
▁spurious	-14.2803
▁taiga	-14.2803
▁trek	-14.2803
▁assault	-14.2878
▁clarification	-14.2878
▁clothes	-14.2878
▁complicate	-14.2878
▁decayed	-14.2878
▁dictum	-14.2878
▁endorse	-14.2878
▁endorsement	-14.2878
▁equity	-14.2878
▁forcibly	-14.2878
▁gilbert	-14.2878
▁jungle	-14.2878
▁lacinia	-14.2878
▁musician	-14.2878
▁platoon	-14.2878
▁staircase	-14.2878
▁steward	-14.2878
▁turnover	-14.2878
▁twister	-14.2878
▁yell	-14.2878
▁alike	-14.2954
▁designate	-14.2954
▁dobra	-14.2954
▁elementary	-14.2954
▁harpoon	-14.2954
▁holt	-14.2954
▁inspiring	-14.2954
▁massive	-14.2954
▁medieval	-14.2954
▁mout	-14.2954
▁nema	-14.2954
▁patriarch	-14.2954
▁plastic	-14.2954
▁sext	-14.2954
▁slam	-14.2954
▁sloppy	-14.2954
▁sniffing	-14.2954
▁squirrel	-14.2954
▁subband	-14.2954
▁unhex	-14.2954
▁acyclic	-14.3031
▁angled	-14.3031
▁bane	-14.3031
▁circus	-14.3031
▁conceal	-14.3031
▁culpa	-14.3031
▁edible	-14.3031
▁electricity	-14.3031
▁fiend	-14.3031
▁floodgate	-14.3031
▁harmless	-14.3031
▁hookup	-14.3031
▁ilk	-14.3031
▁jocko	-14.3031
▁leasing	-14.3031
▁magi	-14.3031
▁mao	-14.3031
▁meridian	-14.3031
▁onwards	-14.3031
▁perishable	-14.3031
▁regard	-14.3031
▁respondent	-14.3031
▁semantically	-14.3031
▁showable	-14.3031
▁smug	-14.3031
▁trusty	-14.3031
▁yule	-14.3031
▁barth	-14.3108
▁bishop	-14.3108
▁bitter	-14.3108
▁constituent	-14.3108
▁crescendo	-14.3108
▁dessert	-14.3108
▁diplomacy	-14.3108
▁discuss	-14.3108
▁elasticity	-14.3108
▁employment	-14.3108
▁harder	-14.3108
▁oversize	-14.3108
▁pretext	-14.3108
▁promisor	-14.3108
▁puppy	-14.3108
▁quack	-14.3108
▁rang	-14.3108
▁recordable	-14.3108
▁redox	-14.3108
▁schemer	-14.3108
▁supplementary	-14.3108
▁tach	-14.3108
▁unstarted	-14.3108
▁akey	-14.3186
▁alway	-14.3186
▁blinking	-14.3186
▁coat	-14.3186
▁determiner	-14.3186
▁expressionable	-14.3186
▁filterer	-14.3186
▁goat	-14.3186
▁historic	-14.3186
▁iceberg	-14.3186
▁inappropriate	-14.3186
▁legit	-14.3186
▁loo	-14.3186
▁mangler	-14.3186
▁pretraining	-14.3186
▁retire	-14.3186
▁rotary	-14.3186
▁singles	-14.3186
▁slasher	-14.3186
▁stool	-14.3186
▁swa	-14.3186
▁thrall	-14.3186
▁yielder	-14.3186
▁amplify	-14.3264
▁categorization	-14.3264
▁conclude	-14.3264
▁cough	-14.3264
▁dating	-14.3264
▁followable	-14.3264
▁mor	-14.3264
▁noted	-14.3264
▁participate	-14.3264
▁proficiency	-14.3264
▁propeller	-14.3264
▁pyr	-14.3264
▁tasty	-14.3264
▁unsatisfiable	-14.3264
▁unshared	-14.3264
▁voided	-14.3264
▁warlock	-14.3264
▁atmos	-14.3343
▁brainer	-14.3343
▁causation	-14.3343
▁constantly	-14.3343
▁corporate	-14.3343
▁creep	-14.3343
▁custody	-14.3343
▁desaturate	-14.3343
▁displace	-14.3343
▁heckle	-14.3343
▁mediation	-14.3343
▁praise	-14.3343
▁purger	-14.3343
▁richness	-14.3343
▁scoop	-14.3343
▁stair	-14.3343
▁tit	-14.3343
▁unwritten	-14.3343
▁bowling	-14.3423
▁dexterity	-14.3423
▁glad	-14.3423
▁glut	-14.3423
▁harbor	-14.3423
▁inkwell	-14.3423
▁minuend	-14.3423
▁nanoid	-14.3423
▁naturalize	-14.3423
▁nerve	-14.3423
▁objection	-14.3423
▁placard	-14.3423
▁playtime	-14.3423
▁psalter	-14.3423
▁remit	-14.3423
▁rotor	-14.3423
▁subform	-14.3423
▁tenth	-14.3423
▁timothy	-14.3423
▁trow	-14.3423
▁unmappable	-14.3423
▁unsecured	-14.3423
▁unstack	-14.3423
▁violin	-14.3423
▁anonymity	-14.3503
▁arches	-14.3503
▁career	-14.3503
▁delegatee	-14.3503
▁delimit	-14.3503
▁extraneous	-14.3503
▁grizzled	-14.3503
▁healer	-14.3503
▁hyphenation	-14.3503
▁lava	-14.3503
▁paranoia	-14.3503
▁pedro	-14.3503
▁postmark	-14.3503
▁recharge	-14.3503
▁rug	-14.3503
▁shelve	-14.3503
▁shibboleth	-14.3503
▁skeuomorph	-14.3503
▁slowly	-14.3503
▁unscored	-14.3503
▁virtualize	-14.3503
▁carte	-14.3584
▁customs	-14.3584
▁disturb	-14.3584
▁elaborator	-14.3584
▁escalate	-14.3584
▁faith	-14.3584
▁fest	-14.3584
▁joker	-14.3584
▁lecture	-14.3584
▁liberation	-14.3584
▁photographer	-14.3584
▁probable	-14.3584
▁refraction	-14.3584
▁returner	-14.3584
▁roof	-14.3584
▁salutation	-14.3584
▁specially	-14.3584
▁tch	-14.3584
▁terrible	-14.3584
▁ticked	-14.3584
▁unallowed	-14.3584
▁unstar	-14.3584
▁accurately	-14.3666
▁adjoin	-14.3666
▁adverb	-14.3666
▁backstop	-14.3666
▁brought	-14.3666
▁causality	-14.3666
▁climbing	-14.3666
▁entrust	-14.3666
▁jaguar	-14.3666
▁lain	-14.3666
▁leakage	-14.3666
▁litmus	-14.3666
▁pasting	-14.3666
▁reverser	-14.3666
▁sput	-14.3666
▁welt	-14.3666
▁climb	-14.3748
▁commute	-14.3748
▁dharma	-14.3748
▁doughnut	-14.3748
▁firebug	-14.3748
▁fool	-14.3748
▁goof	-14.3748
▁handshaking	-14.3748
▁inexistent	-14.3748
▁kip	-14.3748
▁labor	-14.3748
▁lately	-14.3748
▁macaroon	-14.3748
▁mitigator	-14.3748
▁nickel	-14.3748
▁outwatch	-14.3748
▁passivation	-14.3748
▁tend	-14.3748
▁undelivered	-14.3748
▁unliftable	-14.3748
▁vegetable	-14.3748
▁aal	-14.3831
▁cancelation	-14.3831
▁cancer	-14.3831
▁centennial	-14.3831
▁counterpart	-14.3831
▁distinctness	-14.3831
▁emissive	-14.3831
▁explanatory	-14.3831
▁filmstrip	-14.3831
▁flexibility	-14.3831
▁integrand	-14.3831
▁lar	-14.3831
▁newspaper	-14.3831
▁outage	-14.3831
▁peep	-14.3831
▁pinpoint	-14.3831
▁pride	-14.3831
▁receivable	-14.3831
▁reflexive	-14.3831
▁rupia	-14.3831
▁rut	-14.3831
▁scream	-14.3831
▁semester	-14.3831
▁shelter	-14.3831
▁streets	-14.3831
▁tradable	-14.3831
▁volatility	-14.3831
▁carefully	-14.3915
▁familiar	-14.3915
▁gambit	-14.3915
▁geodist	-14.3915
▁invitable	-14.3915
▁jure	-14.3915
▁maximus	-14.3915
▁painless	-14.3915
▁rebuilt	-14.3915
▁rippler	-14.3915
▁shifter	-14.3915
▁shire	-14.3915
▁unapproved	-14.3915
▁unwrapping	-14.3915
▁ame	-14.3999
▁anchorable	-14.3999
▁combinable	-14.3999
▁comedy	-14.3999
▁conquer	-14.3999
▁covert	-14.3999
▁dealt	-14.3999
▁golem	-14.3999
▁hander	-14.3999
▁kai	-14.3999
▁machinist	-14.3999
▁polite	-14.3999
▁releasable	-14.3999
▁resubscribe	-14.3999
▁shaker	-14.3999
▁sharpness	-14.3999
▁sob	-14.3999
▁swapper	-14.3999
▁tiler	-14.3999
▁trigram	-14.3999
▁undetermined	-14.3999
▁biological	-14.4084
▁clockface	-14.4084
▁competition	-14.4084
▁continental	-14.4084
▁crew	-14.4084
▁defence	-14.4084
▁denote	-14.4084
▁dipper	-14.4084
▁dossier	-14.4084
▁groove	-14.4084
▁inertial	-14.4084
▁investment	-14.4084
▁linkable	-14.4084
▁omen	-14.4084
▁renewable	-14.4084
▁sandglass	-14.4084
▁spoken	-14.4084
▁sue	-14.4084
▁suffering	-14.4084
▁suggester	-14.4084
▁swimming	-14.4084
▁appeaser	-14.417
▁assure	-14.417
▁barney	-14.417
▁bite	-14.417
▁carrot	-14.417
▁chemistry	-14.417
▁conformant	-14.417
▁consequence	-14.417
▁counterclockwise	-14.417
▁creational	-14.417
▁diner	-14.417
▁exemption	-14.417
▁hired	-14.417
▁jay	-14.417
▁messy	-14.417
▁multimodal	-14.417
▁notable	-14.417
▁obligation	-14.417
▁padder	-14.417
▁prematurely	-14.417
▁pulvinar	-14.417
▁unhinted	-14.417
▁wale	-14.417
▁wend	-14.417
▁widely	-14.417
▁arbitrarily	-14.4257
▁connexion	-14.4257
▁court	-14.4257
▁deduction	-14.4257
▁descendent	-14.4257
▁dolly	-14.4257
▁escapable	-14.4257
▁funded	-14.4257
▁glowing	-14.4257
▁linearity	-14.4257
▁maxima	-14.4257
▁orbital	-14.4257
▁percolate	-14.4257
▁promotable	-14.4257
▁quan	-14.4257
▁refutation	-14.4257
▁reinforce	-14.4257
▁reproducibility	-14.4257
▁rotten	-14.4257
▁scattering	-14.4257
▁sitter	-14.4257
▁subsonic	-14.4257
▁supersedence	-14.4257
▁ugh	-14.4257
▁accidental	-14.4344
▁analogous	-14.4344
▁catchable	-14.4344
▁celt	-14.4344
▁chokidar	-14.4344
▁desperate	-14.4344
▁domino	-14.4344
▁eft	-14.4344
▁hak	-14.4344
▁heteronym	-14.4344
▁intersperse	-14.4344
▁metis	-14.4344
▁pythonic	-14.4344
▁recoverer	-14.4344
▁rumble	-14.4344
▁subsequently	-14.4344
▁traveler	-14.4344
▁unofficial	-14.4344
▁aboriginal	-14.4432
▁carol	-14.4432
▁centimeter	-14.4432
▁confident	-14.4432
▁consolidation	-14.4432
▁devourer	-14.4432
▁eldest	-14.4432
▁enlace	-14.4432
▁fuzziness	-14.4432
▁genie	-14.4432
▁household	-14.4432
▁invocant	-14.4432
▁iteratively	-14.4432
▁muid	-14.4432
▁outform	-14.4432
▁peseta	-14.4432
▁redemption	-14.4432
▁roulette	-14.4432
▁rum	-14.4432
▁scape	-14.4432
▁tabled	-14.4432
▁unionid	-14.4432
▁unmarked	-14.4432
▁weet	-14.4432
▁withheld	-14.4432
▁advancer	-14.4521
▁bisection	-14.4521
▁concentrate	-14.4521
▁congress	-14.4521
▁daisy	-14.4521
▁diet	-14.4521
▁dimensionless	-14.4521
▁halfway	-14.4521
▁hamal	-14.4521
▁imbalance	-14.4521
▁institution	-14.4521
▁interplanetary	-14.4521
▁kon	-14.4521
▁lounge	-14.4521
▁mangling	-14.4521
▁manifestation	-14.4521
▁muscle	-14.4521
▁nef	-14.4521
▁outworld	-14.4521
▁patrol	-14.4521
▁precisely	-14.4521
▁rebill	-14.4521
▁resultant	-14.4521
▁reversing	-14.4521
▁seating	-14.4521
▁shooter	-14.4521
▁sickness	-14.4521
▁stomach	-14.4521
▁tennis	-14.4521
▁thats	-14.4521
▁ultimately	-14.4521
▁uncommon	-14.4521
▁amulet	-14.4611
▁aver	-14.4611
▁borning	-14.4611
▁distal	-14.4611
▁ere	-14.4611
▁exemplar	-14.4611
▁exile	-14.4611
▁fixation	-14.4611
▁flanger	-14.4611
▁incubator	-14.4611
▁inde	-14.4611
▁linen	-14.4611
▁lunch	-14.4611
▁millions	-14.4611
▁morgan	-14.4611
▁refinance	-14.4611
▁roundup	-14.4611
▁squelch	-14.4611
▁thermometer	-14.4611
▁abrupt	-14.4701
▁adaption	-14.4701
▁attest	-14.4701
▁chameleon	-14.4701
▁cinema	-14.4701
▁clint	-14.4701
▁cracked	-14.4701
▁cruzeiro	-14.4701
▁exhaustion	-14.4701
▁formidable	-14.4701
▁harmonic	-14.4701
▁heavily	-14.4701
▁lady	-14.4701
▁lof	-14.4701
▁radian	-14.4701
▁rarely	-14.4701
▁remarkable	-14.4701
▁residence	-14.4701
▁tou	-14.4701
▁viaduct	-14.4701
▁whirlpool	-14.4701
▁begun	-14.4793
▁beverage	-14.4793
▁booter	-14.4793
▁cass	-14.4793
▁chakram	-14.4793
▁chargeable	-14.4793
▁elegant	-14.4793
▁ellipses	-14.4793
▁evergreen	-14.4793
▁ger	-14.4793
▁halting	-14.4793
▁hau	-14.4793
▁injured	-14.4793
▁juju	-14.4793
▁lengthy	-14.4793
▁minutely	-14.4793
▁protein	-14.4793
▁punish	-14.4793
▁racing	-14.4793
▁reb	-14.4793
▁regime	-14.4793
▁resubmit	-14.4793
▁solarize	-14.4793
▁stacker	-14.4793
▁steer	-14.4793
▁symbolizer	-14.4793
▁tender	-14.4793
▁tub	-14.4793
▁uncompiled	-14.4793
▁undeliverable	-14.4793
▁warped	-14.4793
▁yok	-14.4793
▁abyssal	-14.4885
▁betweenness	-14.4885
▁contradiction	-14.4885
▁electro	-14.4885
▁flinger	-14.4885
▁freely	-14.4885
▁huh	-14.4885
▁induced	-14.4885
▁lambert	-14.4885
▁leopard	-14.4885
▁mines	-14.4885
▁multiplying	-14.4885
▁peel	-14.4885
▁placebo	-14.4885
▁reapply	-14.4885
▁recalculation	-14.4885
▁redrive	-14.4885
▁respecting	-14.4885
▁skim	-14.4885
▁strategist	-14.4885
▁suddenly	-14.4885
▁trillion	-14.4885
▁wax	-14.4885
▁afford	-14.4978
▁anatomy	-14.4978
▁arbitrable	-14.4978
▁avahi	-14.4978
▁calligraphy	-14.4978
▁deceleration	-14.4978
▁disregard	-14.4978
▁entailment	-14.4978
▁exclusivity	-14.4978
▁exodus	-14.4978
▁leather	-14.4978
▁nettable	-14.4978
▁parley	-14.4978
▁pili	-14.4978
▁professor	-14.4978
▁ramping	-14.4978
▁reattach	-14.4978
▁teach	-14.4978
▁undecided	-14.4978
▁wander	-14.4978
▁welfare	-14.4978
▁wops	-14.4978
▁agora	-14.5072
▁anneal	-14.5072
▁baking	-14.5072
▁blonde	-14.5072
▁cofactor	-14.5072
▁condense	-14.5072
▁creeper	-14.5072
▁decapitalize	-14.5072
▁digging	-14.5072
▁epicenter	-14.5072
▁exhibit	-14.5072
▁eyebrow	-14.5072
▁floppy	-14.5072
▁furthermore	-14.5072
▁himself	-14.5072
▁jumbo	-14.5072
▁melt	-14.5072
▁modulator	-14.5072
▁oculus	-14.5072
▁ontology	-14.5072
▁overtrue	-14.5072
▁phonetics	-14.5072
▁projecting	-14.5072
▁redrawer	-14.5072
▁sarsa	-14.5072
▁sitio	-14.5072
▁specie	-14.5072
▁spigot	-14.5072
▁sufficiently	-14.5072
▁uva	-14.5072
▁vela	-14.5072
▁weakness	-14.5072
▁wellington	-14.5072
▁windup	-14.5072
▁wonderful	-14.5072
▁absorbed	-14.5167
▁alcohol	-14.5167
▁atrophy	-14.5167
▁bibliography	-14.5167
▁brevity	-14.5167
▁cry	-14.5167
▁cuneiform	-14.5167
▁designation	-14.5167
▁enchantress	-14.5167
▁flemish	-14.5167
▁hider	-14.5167
▁honey	-14.5167
▁inaccurate	-14.5167
▁intensive	-14.5167
▁leer	-14.5167
▁naturally	-14.5167
▁pearl	-14.5167
▁reborn	-14.5167
▁reprint	-14.5167
▁serenity	-14.5167
▁succession	-14.5167
▁teeth	-14.5167
▁undecorated	-14.5167
▁unsampled	-14.5167
▁wisp	-14.5167
▁admit	-14.5262
▁aesthetics	-14.5262
▁aint	-14.5262
▁barycentric	-14.5262
▁centrality	-14.5262
▁desensitizer	-14.5262
▁fever	-14.5262
▁flowing	-14.5262
▁hatter	-14.5262
▁hight	-14.5262
▁magnetometer	-14.5262
▁mare	-14.5262
▁pilgrim	-14.5262
▁priest	-14.5262
▁senate	-14.5262
▁slight	-14.5262
▁snapped	-14.5262
▁substance	-14.5262
▁suspicion	-14.5262
▁tactive	-14.5262
▁typographically	-14.5262
▁vaccine	-14.5262
▁votable	-14.5262
▁yea	-14.5262
▁altogether	-14.5359
▁anaconda	-14.5359
▁apprentice	-14.5359
▁brake	-14.5359
▁buck	-14.5359
▁celebrity	-14.5359
▁effectful	-14.5359
▁facilitate	-14.5359
▁fastening	-14.5359
▁forcefully	-14.5359
▁grown	-14.5359
▁julio	-14.5359
▁lop	-14.5359
▁millennium	-14.5359
▁overworld	-14.5359
▁polo	-14.5359
▁sexuality	-14.5359
▁snowy	-14.5359
▁southwest	-14.5359
▁wilt	-14.5359
▁zag	-14.5359
▁cadence	-14.5456
▁captive	-14.5456
▁curb	-14.5456
▁defaulter	-14.5456
▁divert	-14.5456
▁emphasize	-14.5456
▁jettison	-14.5456
▁koel	-14.5456
▁lever	-14.5456
▁mick	-14.5456
▁outdoor	-14.5456
▁parsec	-14.5456
▁pedantic	-14.5456
▁plated	-14.5456
▁reasonably	-14.5456
▁sugared	-14.5456
▁unaffected	-14.5456
▁unapplied	-14.5456
▁walloon	-14.5456
▁wing	-14.5456
▁blackberry	-14.5555
▁brack	-14.5555
▁bronze	-14.5555
▁carried	-14.5555
▁conscript	-14.5555
▁contrary	-14.5555
▁economy	-14.5555
▁eternal	-14.5555
▁firecracker	-14.5555
▁forker	-14.5555
▁gang	-14.5555
▁happiness	-14.5555
▁honeydew	-14.5555
▁inert	-14.5555
▁infinitive	-14.5555
▁lek	-14.5555
▁lexicographic	-14.5555
▁lover	-14.5555
▁multiplicand	-14.5555
▁ninth	-14.5555
▁paraphrase	-14.5555
▁pierce	-14.5555
▁playwright	-14.5555
▁preservation	-14.5555
▁quartile	-14.5555
▁rater	-14.5555
▁rebate	-14.5555
▁reflecting	-14.5555
▁reorganize	-14.5555
▁slang	-14.5555
▁slashed	-14.5555
▁sprout	-14.5555
▁sticked	-14.5555
▁stylize	-14.5555
▁subscribable	-14.5555
▁toss	-14.5555
▁toty	-14.5555
▁woe	-14.5555
▁amy	-14.5654
▁ascendancy	-14.5654
▁burnable	-14.5654
▁cep	-14.5654
▁clicker	-14.5654
▁consideration	-14.5654
▁dew	-14.5654
▁enrol	-14.5654
▁escort	-14.5654
▁firework	-14.5654
▁fow	-14.5654
▁lata	-14.5654
▁linguistic	-14.5654
▁marbles	-14.5654
▁mise	-14.5654
▁pathy	-14.5654
▁perception	-14.5654
▁planetoid	-14.5654
▁porcelain	-14.5654
▁renegotiate	-14.5654
▁screener	-14.5654
▁testa	-14.5654
▁teste	-14.5654
▁umlaut	-14.5654
▁unattended	-14.5654
▁unfavorite	-14.5654
▁unnecessarily	-14.5654
▁unrendered	-14.5654
▁uplay	-14.5654
▁vow	-14.5654
▁bison	-14.5755
▁bland	-14.5755
▁comply	-14.5755
▁confined	-14.5755
▁coth	-14.5755
▁deliberately	-14.5755
▁dent	-14.5755
▁disaster	-14.5755
▁ender	-14.5755
▁fico	-14.5755
▁goodness	-14.5755
▁goofy	-14.5755
▁gyro	-14.5755
▁hiro	-14.5755
▁iiwi	-14.5755
▁insane	-14.5755
▁kinematic	-14.5755
▁laid	-14.5755
▁lastly	-14.5755
▁neuter	-14.5755
▁ought	-14.5755
▁overhang	-14.5755
▁oxy	-14.5755
▁participation	-14.5755
▁pino	-14.5755
▁rasa	-14.5755
▁returnable	-14.5755
▁ringing	-14.5755
▁seps	-14.5755
▁shingles	-14.5755
▁slept	-14.5755
▁alligator	-14.5857
▁anyways	-14.5857
▁ascender	-14.5857
▁attentive	-14.5857
▁axle	-14.5857
▁barbarian	-14.5857
▁chili	-14.5857
▁clearly	-14.5857
▁clothing	-14.5857
▁compensable	-14.5857
▁deficit	-14.5857
▁destructible	-14.5857
▁discrepancy	-14.5857
▁endure	-14.5857
▁entertainment	-14.5857
▁evacuate	-14.5857
▁evade	-14.5857
▁forcible	-14.5857
▁heritage	-14.5857
▁inconsistency	-14.5857
▁instrumental	-14.5857
▁invest	-14.5857
▁masquerade	-14.5857
▁monk	-14.5857
▁namely	-14.5857
▁nimble	-14.5857
▁personnel	-14.5857
▁preopen	-14.5857
▁revisit	-14.5857
▁rocky	-14.5857
▁scraped	-14.5857
▁scut	-14.5857
▁sting	-14.5857
▁strainer	-14.5857
▁susi	-14.5857
▁thumber	-14.5857
▁uncertainty	-14.5857
▁underwear	-14.5857
▁viable	-14.5857
▁wint	-14.5857
▁aerial	-14.5959
▁assertable	-14.5959
▁autoloading	-14.5959
▁blotter	-14.5959
▁bust	-14.5959
▁centaur	-14.5959
▁cob	-14.5959
▁decent	-14.5959
▁defend	-14.5959
▁delicate	-14.5959
▁determination	-14.5959
▁disparity	-14.5959
▁dissociate	-14.5959
▁donna	-14.5959
▁filelike	-14.5959
▁khan	-14.5959
▁kilogram	-14.5959
▁knock	-14.5959
▁nit	-14.5959
▁panner	-14.5959
▁passbook	-14.5959
▁posy	-14.5959
▁riding	-14.5959
▁scary	-14.5959
▁spoke	-14.5959
▁staple	-14.5959
▁substract	-14.5959
▁telling	-14.5959
▁transceiver	-14.5959
▁unsubscribing	-14.5959
▁vain	-14.5959
▁welder	-14.5959
▁aisle	-14.6063
▁almanac	-14.6063
▁basketball	-14.6063
▁blackout	-14.6063
▁bleed	-14.6063
▁bomber	-14.6063
▁cheque	-14.6063
▁cobble	-14.6063
▁coexist	-14.6063
▁coot	-14.6063
▁dick	-14.6063
▁elevate	-14.6063
▁faceted	-14.6063
▁favored	-14.6063
▁fiery	-14.6063
▁gerund	-14.6063
▁glasses	-14.6063
▁nab	-14.6063
▁ninety	-14.6063
▁nun	-14.6063
▁poh	-14.6063
▁pray	-14.6063
▁pudge	-14.6063
▁puff	-14.6063
▁punt	-14.6063
▁seriously	-14.6063
▁severely	-14.6063
▁sons	-14.6063
▁tarpaulin	-14.6063
▁thriller	-14.6063
▁toot	-14.6063
▁typewriter	-14.6063
▁vasa	-14.6063
▁walrus	-14.6063
▁whatnot	-14.6063
▁depose	-14.6167
▁drawback	-14.6167
▁drawers	-14.6167
▁grantable	-14.6167
▁heating	-14.6167
▁hospital	-14.6167
▁midden	-14.6167
▁penalize	-14.6167
▁perturbation	-14.6167
▁pud	-14.6167
▁ripe	-14.6167
▁rite	-14.6167
▁securely	-14.6167
▁spitfire	-14.6167
▁survive	-14.6167
▁theoretical	-14.6167
▁troy	-14.6167
▁truly	-14.6167
▁vine	-14.6167
▁wildfire	-14.6167
▁wordbook	-14.6167
▁anthelion	-14.6273
▁arrest	-14.6273
▁artistic	-14.6273
▁banding	-14.6273
▁bellman	-14.6273
▁buzzer	-14.6273
▁concretize	-14.6273
▁curvature	-14.6273
▁dominus	-14.6273
▁evens	-14.6273
▁feil	-14.6273
▁gardening	-14.6273
▁iva	-14.6273
▁knowing	-14.6273
▁meaningless	-14.6273
▁mingle	-14.6273
▁nito	-14.6273
▁nowy	-14.6273
▁originate	-14.6273
▁pint	-14.6273
▁posterize	-14.6273
▁ragged	-14.6273
▁ration	-14.6273
▁rebar	-14.6273
▁reimburse	-14.6273
▁restorable	-14.6273
▁shaking	-14.6273
▁sic	-14.6273
▁soda	-14.6273
▁synapses	-14.6273
▁tough	-14.6273
▁trigonometry	-14.6273
▁unsuccessfully	-14.6273
▁violence	-14.6273
▁wool	-14.6273
▁zephyr	-14.6273
▁arcana	-14.638
▁attester	-14.638
▁averager	-14.638
▁avoidance	-14.638
▁bless	-14.638
▁buried	-14.638
▁carrying	-14.638
▁certified	-14.638
▁corruptor	-14.638
▁decommission	-14.638
▁discrimination	-14.638
▁explainable	-14.638
▁fet	-14.638
▁foe	-14.638
▁gibberish	-14.638
▁hind	-14.638
▁homo	-14.638
▁illustrate	-14.638
▁jako	-14.638
▁morphology	-14.638
▁morsel	-14.638
▁objector	-14.638
▁offender	-14.638
▁optionality	-14.638
▁periodical	-14.638
▁privately	-14.638
▁prover	-14.638
▁provisional	-14.638
▁reasoning	-14.638
▁sally	-14.638
▁sever	-14.638
▁shippable	-14.638
▁shipper	-14.638
▁spit	-14.638
▁strum	-14.638
▁survivor	-14.638
▁tactics	-14.638
▁thorough	-14.638
▁verbal	-14.638
▁wager	-14.638
▁articulation	-14.6488
▁bouncing	-14.6488
▁boundable	-14.6488
▁cedar	-14.6488
▁citizenship	-14.6488
▁cooper	-14.6488
▁crossbar	-14.6488
▁democratic	-14.6488
▁diverge	-14.6488
▁drip	-14.6488
▁elision	-14.6488
▁erosion	-14.6488
▁facial	-14.6488
▁flannel	-14.6488
▁honda	-14.6488
▁honorific	-14.6488
▁incapable	-14.6488
▁krona	-14.6488
▁lotus	-14.6488
▁mature	-14.6488
▁mile	-14.6488
▁outset	-14.6488
▁piper	-14.6488
▁projective	-14.6488
▁pronunciation	-14.6488
▁ree	-14.6488
▁revocable	-14.6488
▁runecraft	-14.6488
▁scraping	-14.6488
▁sexy	-14.6488
▁sprue	-14.6488
▁subdivide	-14.6488
▁tongue	-14.6488
▁unowned	-14.6488
▁warcraft	-14.6488
▁watermelon	-14.6488
▁wilderness	-14.6488
▁witch	-14.6488
▁yak	-14.6488
▁analyst	-14.6598
▁badness	-14.6598
▁colorado	-14.6598
▁deer	-14.6598
▁distinction	-14.6598
▁furthest	-14.6598
▁papa	-14.6598
▁pedometer	-14.6598
▁playhouse	-14.6598
▁possessive	-14.6598
▁purify	-14.6598
▁rhino	-14.6598
▁savable	-14.6598
▁scrabble	-14.6598
▁settling	-14.6598
▁slime	-14.6598
▁starty	-14.6598
▁summable	-14.6598
▁toolsmith	-14.6598
▁trigonometric	-14.6598
▁typesetting	-14.6598
▁warrant	-14.6598
▁alp	-14.6708
▁attitude	-14.6708
▁axolotl	-14.6708
▁beforehand	-14.6708
▁bramble	-14.6708
▁carafe	-14.6708
▁cern	-14.6708
▁civilization	-14.6708
▁costly	-14.6708
▁curate	-14.6708
▁dismissable	-14.6708
▁fell	-14.6708
▁hemisphere	-14.6708
▁internationalization	-14.6708
▁parenthesize	-14.6708
▁portage	-14.6708
▁relevancy	-14.6708
▁sinusoidal	-14.6708
▁subnormal	-14.6708
▁suspected	-14.6708
▁taxon	-14.6708
▁teletype	-14.6708
▁tock	-14.6708
▁univocity	-14.6708
▁vali	-14.6708
▁voluntary	-14.6708
▁wisdom	-14.6708
▁aggregable	-14.682
▁baloo	-14.682
▁beautifier	-14.682
▁bottommost	-14.682
▁bub	-14.682
▁canonize	-14.682
▁certainly	-14.682
▁charisma	-14.682
▁chronometer	-14.682
▁closely	-14.682
▁continual	-14.682
▁duke	-14.682
▁fourteen	-14.682
▁grapefruit	-14.682
▁gravel	-14.682
▁holster	-14.682
▁imperfect	-14.682
▁incompletion	-14.682
▁nones	-14.682
▁oppose	-14.682
▁paladin	-14.682
▁prefilter	-14.682
▁pressable	-14.682
▁racket	-14.682
▁reactivate	-14.682
▁sech	-14.682
▁stranger	-14.682
▁sustain	-14.682
▁tweaker	-14.682
▁ubiquity	-14.682
▁unbundled	-14.682
▁villa	-14.682
▁welding	-14.682
▁wrath	-14.682
▁accordance	-14.6933
▁adverse	-14.6933
▁barry	-14.6933
▁blanket	-14.6933
▁calibrator	-14.6933
▁contiguity	-14.6933
▁cope	-14.6933
▁cycler	-14.6933
▁descender	-14.6933
▁dimmer	-14.6933
▁disown	-14.6933
▁dun	-14.6933
▁floss	-14.6933
▁ingot	-14.6933
▁insanity	-14.6933
▁jammer	-14.6933
▁lagging	-14.6933
▁liberty	-14.6933
▁multicore	-14.6933
▁murder	-14.6933
▁nonparallel	-14.6933
▁overflowing	-14.6933
▁paying	-14.6933
▁prima	-14.6933
▁prostate	-14.6933
▁regularly	-14.6933
▁rita	-14.6933
▁rumor	-14.6933
▁saddle	-14.6933
▁shredder	-14.6933
▁skewer	-14.6933
▁tala	-14.6933
▁tao	-14.6933
▁unexpired	-14.6933
▁unscale	-14.6933
▁unsure	-14.6933
▁vacant	-14.6933
▁accountant	-14.7047
▁aln	-14.7047
▁arba	-14.7047
▁boliviano	-14.7047
▁differentiation	-14.7047
▁distillate	-14.7047
▁distributive	-14.7047
▁duel	-14.7047
▁finale	-14.7047
▁goldenrod	-14.7047
▁grove	-14.7047
▁identically	-14.7047
▁likable	-14.7047
▁mund	-14.7047
▁nullity	-14.7047
▁opportunistic	-14.7047
▁outermost	-14.7047
▁paradise	-14.7047
▁parole	-14.7047
▁passout	-14.7047
▁perfectly	-14.7047
▁recommand	-14.7047
▁refocus	-14.7047
▁relaunch	-14.7047
▁sitting	-14.7047
▁slotted	-14.7047
▁spectacle	-14.7047
▁sunlight	-14.7047
▁syntactically	-14.7047
▁tailer	-14.7047
▁tolerable	-14.7047
▁triangulation	-14.7047
▁undercover	-14.7047
▁upright	-14.7047
▁argentine	-14.7163
▁aroma	-14.7163
▁awaken	-14.7163
▁benign	-14.7163
▁competitive	-14.7163
▁diacritic	-14.7163
▁dwindle	-14.7163
▁elide	-14.7163
▁eon	-14.7163
▁fife	-14.7163
▁fleck	-14.7163
▁frolic	-14.7163
▁germanic	-14.7163
▁herd	-14.7163
▁horror	-14.7163
▁linha	-14.7163
▁marine	-14.7163
▁matte	-14.7163
▁mitigation	-14.7163
▁oer	-14.7163
▁oversized	-14.7163
▁pathfinding	-14.7163
▁poorly	-14.7163
▁retransform	-14.7163
▁riven	-14.7163
▁rocker	-14.7163
▁sicilian	-14.7163
▁unfix	-14.7163
▁unintercepted	-14.7163
▁untraced	-14.7163
▁unvisited	-14.7163
▁wherever	-14.7163
▁wiz	-14.7163
▁wut	-14.7163
▁xenial	-14.7163
▁awesomeness	-14.728
▁byname	-14.728
▁canopy	-14.728
▁centering	-14.728
▁characterization	-14.728
▁competitor	-14.728
▁curriculum	-14.728
▁discontinuity	-14.728
▁explaining	-14.728
▁fantastic	-14.728
▁groff	-14.728
▁hen	-14.728
▁hydraulic	-14.728
▁ism	-14.728
▁llama	-14.728
▁neutrino	-14.728
▁noa	-14.728
▁polyaxon	-14.728
▁protest	-14.728
▁radium	-14.728
▁scavenge	-14.728
▁screaming	-14.728
▁scythe	-14.728
▁surplus	-14.728
▁tunneling	-14.728
▁unclear	-14.728
▁unprivileged	-14.728
▁wots	-14.728
▁accusative	-14.7398
▁acre	-14.7398
▁artery	-14.7398
▁autobahn	-14.7398
▁bagged	-14.7398
▁bisque	-14.7398
▁bloodstain	-14.7398
▁corrosive	-14.7398
▁darling	-14.7398
▁deepen	-14.7398
▁essay	-14.7398
▁everybody	-14.7398
▁immutability	-14.7398
▁ineligible	-14.7398
▁kindle	-14.7398
▁mortal	-14.7398
▁offhand	-14.7398
▁periodicity	-14.7398
▁princess	-14.7398
▁recency	-14.7398
▁recti	-14.7398
▁skimming	-14.7398
▁stabilize	-14.7398
▁statue	-14.7398
▁stooge	-14.7398
▁substructure	-14.7398
▁tabla	-14.7398
▁thema	-14.7398
▁transparently	-14.7398
▁unfilled	-14.7398
▁unready	-14.7398
▁wage	-14.7398
▁winch	-14.7398
▁acolyte	-14.7518
▁aide	-14.7518
▁aland	-14.7518
▁anagrams	-14.7518
▁antic	-14.7518
▁assertive	-14.7518
▁comparative	-14.7518
▁concerned	-14.7518
▁dele	-14.7518
▁dislike	-14.7518
▁edged	-14.7518
▁faff	-14.7518
▁giver	-14.7518
▁haste	-14.7518
▁headful	-14.7518
▁hump	-14.7518
▁lai	-14.7518
▁ligne	-14.7518
▁loser	-14.7518
▁merely	-14.7518
▁modulate	-14.7518
▁mona	-14.7518
▁motorcycle	-14.7518
▁musical	-14.7518
▁mystic	-14.7518
▁noncurrent	-14.7518
▁permutate	-14.7518
▁rubbish	-14.7518
▁spiller	-14.7518
▁suck	-14.7518
▁tarr	-14.7518
▁timeless	-14.7518
▁tuath	-14.7518
▁wash	-14.7518
▁abyss	-14.7639
▁alk	-14.7639
▁amongst	-14.7639
▁armed	-14.7639
▁astronaut	-14.7639
▁bent	-14.7639
▁beware	-14.7639
▁breast	-14.7639
▁burg	-14.7639
▁burned	-14.7639
▁closeness	-14.7639
▁complaint	-14.7639
▁containable	-14.7639
▁endogenous	-14.7639
▁finer	-14.7639
▁folio	-14.7639
▁guerrilla	-14.7639
▁gump	-14.7639
▁hale	-14.7639
▁haptics	-14.7639
▁horde	-14.7639
▁improving	-14.7639
▁laden	-14.7639
▁lure	-14.7639
▁nye	-14.7639
▁payed	-14.7639
▁pike	-14.7639
▁piles	-14.7639
▁prestige	-14.7639
▁rectified	-14.7639
▁revealer	-14.7639
▁ruling	-14.7639
▁spied	-14.7639
▁swipes	-14.7639
▁thematic	-14.7639
▁tripping	-14.7639
▁uncategorized	-14.7639
▁uninterruptible	-14.7639
▁wording	-14.7639
▁abac	-14.7762
▁bath	-14.7762
▁commanding	-14.7762
▁dalle	-14.7762
▁demotic	-14.7762
▁dogmatic	-14.7762
▁entrant	-14.7762
▁gallium	-14.7762
▁grr	-14.7762
▁isomorphism	-14.7762
▁kala	-14.7762
▁koruna	-14.7762
▁lawn	-14.7762
▁loudness	-14.7762
▁misspell	-14.7762
▁mum	-14.7762
▁narrative	-14.7762
▁precede	-14.7762
▁requiem	-14.7762
▁separates	-14.7762
▁sienna	-14.7762
▁stargazer	-14.7762
▁stree	-14.7762
▁suburb	-14.7762
▁supersecret	-14.7762
▁unprintable	-14.7762
▁unsecure	-14.7762
▁unsharp	-14.7762
▁vitals	-14.7762
▁wheezy	-14.7762
▁yummy	-14.7762
▁abnormally	-14.7886
▁albedo	-14.7886
▁appraisal	-14.7886
▁archaeologist	-14.7886
▁arsenal	-14.7886
▁choke	-14.7886
▁collectible	-14.7886
▁concave	-14.7886
▁corrective	-14.7886
▁criminal	-14.7886
▁declination	-14.7886
▁desensitization	-14.7886
▁digger	-14.7886
▁disarm	-14.7886
▁dung	-14.7886
▁flatness	-14.7886
▁foam	-14.7886
▁hairline	-14.7886
▁hin	-14.7886
▁hoe	-14.7886
▁husband	-14.7886
▁hybridize	-14.7886
▁inspire	-14.7886
▁jurisdiction	-14.7886
▁minuscule	-14.7886
▁moonshine	-14.7886
▁occasionally	-14.7886
▁offspring	-14.7886
▁palindromic	-14.7886
▁perturbed	-14.7886
▁posh	-14.7886
▁radical	-14.7886
▁residential	-14.7886
▁scalp	-14.7886
▁siva	-14.7886
▁snail	-14.7886
▁sometime	-14.7886
▁structurally	-14.7886
▁tinder	-14.7886
▁toilet	-14.7886
▁tourist	-14.7886
▁township	-14.7886
▁transverse	-14.7886
▁vintage	-14.7886
▁acquaintance	-14.8012
▁anta	-14.8012
▁bien	-14.8012
▁borrowing	-14.8012
▁chartreuse	-14.8012
▁chronic	-14.8012
▁dags	-14.8012
▁denial	-14.8012
▁dining	-14.8012
▁emerge	-14.8012
▁engage	-14.8012
▁felt	-14.8012
▁fern	-14.8012
▁imitator	-14.8012
▁insure	-14.8012
▁libretto	-14.8012
▁ligature	-14.8012
▁loca	-14.8012
▁neighboring	-14.8012
▁octopi	-14.8012
▁officially	-14.8012
▁penal	-14.8012
▁pineapple	-14.8012
▁politics	-14.8012
▁retransmission	-14.8012
▁sharpshooter	-14.8012
▁staring	-14.8012
▁tendency	-14.8012
▁tomfoolery	-14.8012
▁unfolding	-14.8012
▁unpaired	-14.8012
▁upside	-14.8012
▁assignation	-14.8139
▁aye	-14.8139
▁benny	-14.8139
▁bidder	-14.8139
▁crunch	-14.8139
▁decompressing	-14.8139
▁detachable	-14.8139
▁dire	-14.8139
▁discardable	-14.8139
▁dribble	-14.8139
▁etalon	-14.8139
▁fingerprinting	-14.8139
▁fireball	-14.8139
▁gallop	-14.8139
▁gardener	-14.8139
▁handout	-14.8139
▁hank	-14.8139
▁hurl	-14.8139
▁incept	-14.8139
▁inconclusive	-14.8139
▁krone	-14.8139
▁kyat	-14.8139
▁liquidate	-14.8139
▁mentor	-14.8139
▁neal	-14.8139
▁packable	-14.8139
▁pang	-14.8139
▁reed	-14.8139
▁reproduction	-14.8139
▁reshuffle	-14.8139
▁salad	-14.8139
▁shrimp	-14.8139
▁solely	-14.8139
▁subway	-14.8139
▁tow	-14.8139
▁transplant	-14.8139
▁unioned	-14.8139
▁unpredictable	-14.8139
▁untaint	-14.8139
▁variate	-14.8139
▁anniversary	-14.8268
▁betty	-14.8268
▁blanco	-14.8268
▁burden	-14.8268
▁burp	-14.8268
▁cedilla	-14.8268
▁civics	-14.8268
▁curtain	-14.8268
▁didnt	-14.8268
▁discriminative	-14.8268
▁dispenser	-14.8268
▁doer	-14.8268
▁erect	-14.8268
▁granada	-14.8268
▁hyperplane	-14.8268
▁infinitely	-14.8268
▁joey	-14.8268
▁mustang	-14.8268
▁nameless	-14.8268
▁partly	-14.8268
▁poop	-14.8268
▁prismatic	-14.8268
▁redfish	-14.8268
▁sizeable	-14.8268
▁solidus	-14.8268
▁spoilage	-14.8268
▁stratify	-14.8268
▁stylish	-14.8268
▁ting	-14.8268
▁toady	-14.8268
▁trusting	-14.8268
▁unfixed	-14.8268
▁velo	-14.8268
▁wardrobe	-14.8268
▁advancing	-14.8399
▁advert	-14.8399
▁aha	-14.8399
▁baba	-14.8399
▁barge	-14.8399
▁bilbo	-14.8399
▁conjunctive	-14.8399
▁custodian	-14.8399
▁dedicate	-14.8399
▁defunct	-14.8399
▁digested	-14.8399
▁everyday	-14.8399
▁grantor	-14.8399
▁hairpin	-14.8399
▁handbook	-14.8399
▁headed	-14.8399
▁hieratic	-14.8399
▁indirected	-14.8399
▁infernal	-14.8399
▁junior	-14.8399
▁largely	-14.8399
▁mild	-14.8399
▁nee	-14.8399
▁northwest	-14.8399
▁obey	-14.8399
▁pia	-14.8399
▁questionable	-14.8399
▁reel	-14.8399
▁scat	-14.8399
▁sho	-14.8399
▁spreading	-14.8399
▁sterling	-14.8399
▁sweeping	-14.8399
▁tabella	-14.8399
▁testimonial	-14.8399
▁theorem	-14.8399
▁tired	-14.8399
▁transportation	-14.8399
▁tron	-14.8399
▁undetected	-14.8399
▁unfurl	-14.8399
▁unlikelihood	-14.8399
▁verbosely	-14.8399
▁vivid	-14.8399
▁abu	-14.8531
▁anger	-14.8531
▁antique	-14.8531
▁asci	-14.8531
▁babble	-14.8531
▁bap	-14.8531
▁butler	-14.8531
▁canister	-14.8531
▁challenger	-14.8531
▁collectable	-14.8531
▁elevator	-14.8531
▁equate	-14.8531
▁festival	-14.8531
▁flu	-14.8531
▁gim	-14.8531
▁hao	-14.8531
▁hut	-14.8531
▁incorporated	-14.8531
▁kissy	-14.8531
▁malt	-14.8531
▁microwave	-14.8531
▁nary	-14.8531
▁oft	-14.8531
▁pete	-14.8531
▁retype	-14.8531
▁sapling	-14.8531
▁scrap	-14.8531
▁standout	-14.8531
▁swat	-14.8531
▁theater	-14.8531
▁transported	-14.8531
▁turner	-14.8531
▁ump	-14.8531
▁unattached	-14.8531
▁unmarshaled	-14.8531
▁unrolling	-14.8531
▁unsynchronized	-14.8531
▁waugh	-14.8531
▁addable	-14.8666
▁anticipate	-14.8666
▁anybody	-14.8666
▁barcelona	-14.8666
▁blush	-14.8666
▁bracelet	-14.8666
▁camouflage	-14.8666
▁chessboard	-14.8666
▁clamper	-14.8666
▁colorless	-14.8666
▁concealed	-14.8666
▁corge	-14.8666
▁cryptographer	-14.8666
▁discarder	-14.8666
▁distort	-14.8666
▁distributable	-14.8666
▁diverging	-14.8666
▁drinking	-14.8666
▁drizzle	-14.8666
▁dunder	-14.8666
▁equilibrium	-14.8666
▁externalize	-14.8666
▁froggy	-14.8666
▁functionally	-14.8666
▁graveyard	-14.8666
▁majuscule	-14.8666
▁medio	-14.8666
▁nob	-14.8666
▁overfit	-14.8666
▁personalize	-14.8666
▁pollute	-14.8666
▁preferably	-14.8666
▁purging	-14.8666
▁reconfirmation	-14.8666
▁regrowth	-14.8666
▁stamping	-14.8666
▁stir	-14.8666
▁swot	-14.8666
▁taskmaster	-14.8666
▁thrice	-14.8666
▁unfolded	-14.8666
▁unmocked	-14.8666
▁wee	-14.8666
▁alright	-14.8802
▁archaeology	-14.8802
▁articulate	-14.8802
▁breakout	-14.8802
▁broadway	-14.8802
▁coaching	-14.8802
▁congruence	-14.8802
▁controversial	-14.8802
▁cyrus	-14.8802
▁daddy	-14.8802
▁decree	-14.8802
▁desirable	-14.8802
▁emulative	-14.8802
▁feeling	-14.8802
▁fip	-14.8802
▁fission	-14.8802
▁fossil	-14.8802
▁gar	-14.8802
▁generalization	-14.8802
▁hypervolume	-14.8802
▁hypothetical	-14.8802
▁infrared	-14.8802
▁legalize	-14.8802
▁magma	-14.8802
▁mechanic	-14.8802
▁mil	-14.8802
▁minima	-14.8802
▁octane	-14.8802
▁replenish	-14.8802
▁roadblock	-14.8802
▁sifter	-14.8802
▁skiing	-14.8802
▁strengthen	-14.8802
▁terminology	-14.8802
▁transactionally	-14.8802
▁trapped	-14.8802
▁whit	-14.8802
▁adhere	-14.894
▁axon	-14.894
▁bowl	-14.894
▁calais	-14.894
▁carpet	-14.894
▁certainty	-14.894
▁coke	-14.894
▁concentrated	-14.894
▁connective	-14.894
▁decimate	-14.894
▁evalue	-14.894
▁fabrication	-14.894
▁gobbler	-14.894
▁grounded	-14.894
▁hardening	-14.894
▁headquarters	-14.894
▁indicative	-14.894
▁kyle	-14.894
▁lined	-14.894
▁logbook	-14.894
▁manticore	-14.894
▁marksmanship	-14.894
▁mousetrap	-14.894
▁notably	-14.894
▁redeliver	-14.894
▁reheater	-14.894
▁rhomb	-14.894
▁sled	-14.894
▁sline	-14.894
▁smithy	-14.894
▁snoopy	-14.894
▁standardizer	-14.894
▁stealing	-14.894
▁tabulated	-14.894
▁tae	-14.894
▁timetable	-14.894
▁tutti	-14.894
▁unfrozen	-14.894
▁unravel	-14.894
▁valuation	-14.894
▁vortex	-14.894
▁wacky	-14.894
▁warmed	-14.894
▁wayback	-14.894
▁webster	-14.894
▁wels	-14.894
▁adoption	-14.9079
▁airfoil	-14.9079
▁alabaster	-14.9079
▁apod	-14.9079
▁archery	-14.9079
▁asymptotic	-14.9079
▁bazaar	-14.9079
▁belanda	-14.9079
▁boned	-14.9079
▁borderline	-14.9079
▁choreographer	-14.9079
▁dale	-14.9079
▁damn	-14.9079
▁daughter	-14.9079
▁discerner	-14.9079
▁dispel	-14.9079
▁dominate	-14.9079
▁dynamite	-14.9079
▁elk	-14.9079
▁emerald	-14.9079
▁endomorphism	-14.9079
▁exotic	-14.9079
▁firebrick	-14.9079
▁fluffy	-14.9079
▁haze	-14.9079
▁heavyweight	-14.9079
▁hem	-14.9079
▁incorporate	-14.9079
▁infeasible	-14.9079
▁institute	-14.9079
▁involution	-14.9079
▁kickoff	-14.9079
▁kinetic	-14.9079
▁malice	-14.9079
▁maple	-14.9079
▁monolingual	-14.9079
▁morris	-14.9079
▁notion	-14.9079
▁precursor	-14.9079
▁preliminary	-14.9079
▁premiere	-14.9079
▁raff	-14.9079
▁relaxation	-14.9079
▁rush	-14.9079
▁seize	-14.9079
▁skilled	-14.9079
▁sludge	-14.9079
▁snooper	-14.9079
▁spade	-14.9079
▁swamp	-14.9079
▁swell	-14.9079
▁tack	-14.9079
▁taper	-14.9079
▁uneditable	-14.9079
▁unexecutable	-14.9079
▁unite	-14.9079
▁veto	-14.9079
▁vill	-14.9079
▁welter	-14.9079
▁wield	-14.9079
▁appendage	-14.9221
▁autumn	-14.9221
▁cereal	-14.9221
▁cheesecake	-14.9221
▁clay	-14.9221
▁concerning	-14.9221
▁corse	-14.9221
▁demi	-14.9221
▁emma	-14.9221
▁escribe	-14.9221
▁exploring	-14.9221
▁fortify	-14.9221
▁grumpy	-14.9221
▁includer	-14.9221
▁laugh	-14.9221
▁lawful	-14.9221
▁leash	-14.9221
▁ling	-14.9221
▁logically	-14.9221
▁mace	-14.9221
▁opinionated	-14.9221
▁outbounds	-14.9221
▁overage	-14.9221
▁parry	-14.9221
▁pentagon	-14.9221
▁petition	-14.9221
▁powder	-14.9221
▁pumpkin	-14.9221
▁punishment	-14.9221
▁ranch	-14.9221
▁reauthorize	-14.9221
▁retainable	-14.9221
▁riyal	-14.9221
▁ruble	-14.9221
▁singularization	-14.9221
▁stringency	-14.9221
▁subitem	-14.9221
▁suitcase	-14.9221
▁thieving	-14.9221
▁torn	-14.9221
▁tug	-14.9221
▁unlocalized	-14.9221
▁unweighted	-14.9221
▁vanish	-14.9221
▁veri	-14.9221
▁whisker	-14.9221
▁acrylic	-14.9365
▁anes	-14.9365
▁ascendant	-14.9365
▁beaver	-14.9365
▁blinded	-14.9365
▁boro	-14.9365
▁bury	-14.9365
▁charger	-14.9365
▁clutch	-14.9365
▁complication	-14.9365
▁conic	-14.9365
▁conjoined	-14.9365
▁consulting	-14.9365
▁deliberate	-14.9365
▁deluxe	-14.9365
▁desire	-14.9365
▁determinism	-14.9365
▁dink	-14.9365
▁disapproval	-14.9365
▁freeboard	-14.9365
▁garrison	-14.9365
▁gimp	-14.9365
▁glimpse	-14.9365
▁hygiene	-14.9365
▁ideographic	-14.9365
▁incase	-14.9365
▁includable	-14.9365
▁invertibility	-14.9365
▁lying	-14.9365
▁mnemonics	-14.9365
▁pablo	-14.9365
▁peeled	-14.9365
▁rebroadcast	-14.9365
▁recessive	-14.9365
▁recherche	-14.9365
▁simulacrum	-14.9365
▁smalls	-14.9365
▁sounding	-14.9365
▁subjunctive	-14.9365
▁tabard	-14.9365
▁tommy	-14.9365
▁trier	-14.9365
▁tumble	-14.9365
▁tutu	-14.9365
▁unmerge	-14.9365
▁untie	-14.9365
▁untimed	-14.9365
▁vacuous	-14.9365
▁versor	-14.9365
▁ville	-14.9365
▁yarrow	-14.9365
▁abracadabra	-14.9511
▁adad	-14.9511
▁aho	-14.9511
▁arjun	-14.9511
▁blather	-14.9511
▁bolivar	-14.9511
▁chronological	-14.9511
▁daemonic	-14.9511
▁disapprove	-14.9511
▁duct	-14.9511
▁forte	-14.9511
▁fresnel	-14.9511
▁glossy	-14.9511
▁hypergeometric	-14.9511
▁idiosyncratic	-14.9511
▁inscription	-14.9511
▁insect	-14.9511
▁lexicographical	-14.9511
▁lunes	-14.9511
▁manufacture	-14.9511
▁marble	-14.9511
▁merry	-14.9511
▁necklace	-14.9511
▁nig	-14.9511
▁polyhedron	-14.9511
▁prison	-14.9511
▁proceeds	-14.9511
▁resiliency	-14.9511
▁retainer	-14.9511
▁rhombus	-14.9511
▁sandstone	-14.9511
▁secondly	-14.9511
▁silva	-14.9511
▁soccer	-14.9511
▁stackless	-14.9511
▁teammate	-14.9511
▁torture	-14.9511
▁transmogrification	-14.9511
▁unclaimed	-14.9511
▁unresolve	-14.9511
▁uval	-14.9511
▁widow	-14.9511
▁aberration	-14.9659
▁analogy	-14.9659
▁banning	-14.9659
▁bastion	-14.9659
▁capper	-14.9659
▁cheating	-14.9659
▁classed	-14.9659
▁constabulary	-14.9659
▁correcting	-14.9659
▁cuckoo	-14.9659
▁derivate	-14.9659
▁disrupt	-14.9659
▁emboss	-14.9659
▁excitation	-14.9659
▁fighting	-14.9659
▁fob	-14.9659
▁folium	-14.9659
▁kombu	-14.9659
▁lineal	-14.9659
▁mascot	-14.9659
▁nautical	-14.9659
▁orchard	-14.9659
▁payroll	-14.9659
▁presentational	-14.9659
▁receptive	-14.9659
▁redisplay	-14.9659
▁regret	-14.9659
▁relatedness	-14.9659
▁reviewable	-14.9659
▁slavey	-14.9659
▁suspender	-14.9659
▁tailing	-14.9659
▁thistle	-14.9659
▁tithe	-14.9659
▁unrooted	-14.9659
▁whatsoever	-14.9659
▁whee	-14.9659
▁windmill	-14.9659
▁accident	-14.981
▁arbitration	-14.981
▁bleeding	-14.981
▁borg	-14.981
▁bulletin	-14.981
▁chromatic	-14.981
▁clutter	-14.981
▁cola	-14.981
▁collaborate	-14.981
▁croak	-14.981
▁cupcake	-14.981
▁cuteness	-14.981
▁depressed	-14.981
▁doest	-14.981
▁earn	-14.981
▁engaged	-14.981
▁exposition	-14.981
▁extensive	-14.981
▁fearful	-14.981
▁fennel	-14.981
▁fum	-14.981
▁gauntlet	-14.981
▁hatchet	-14.981
▁hives	-14.981
▁involve	-14.981
▁itchy	-14.981
▁lari	-14.981
▁lingual	-14.981
▁marge	-14.981
▁occupational	-14.981
▁oscillator	-14.981
▁parachute	-14.981
▁poppy	-14.981
▁preprint	-14.981
▁quartic	-14.981
▁seta	-14.981
▁sinker	-14.981
▁soil	-14.981
▁ssu	-14.981
▁sucker	-14.981
▁surfer	-14.981
▁tearing	-14.981
▁toft	-14.981
▁transposition	-14.981
▁tur	-14.981
▁unpark	-14.981
▁unseal	-14.981
▁unsetting	-14.981
▁unsolved	-14.981
▁viking	-14.981
▁amelia	-14.9962
▁bartender	-14.9962
▁beneath	-14.9962
▁boiling	-14.9962
▁celerity	-14.9962
▁chromo	-14.9962
▁coffer	-14.9962
▁conditioned	-14.9962
▁constituency	-14.9962
▁corrente	-14.9962
▁dramatically	-14.9962
▁epos	-14.9962
▁ethical	-14.9962
▁flap	-14.9962
▁forming	-14.9962
▁fot	-14.9962
▁furry	-14.9962
▁jerk	-14.9962
▁jug	-14.9962
▁legitimate	-14.9962
▁luxury	-14.9962
▁michigan	-14.9962
▁overly	-14.9962
▁requisite	-14.9962
▁rewrap	-14.9962
▁sizzle	-14.9962
▁sod	-14.9962
▁solon	-14.9962
▁spicy	-14.9962
▁subregion	-14.9962
▁surely	-14.9962
▁textbook	-14.9962
▁toke	-14.9962
▁trapezoid	-14.9962
▁tsar	-14.9962
▁twinkling	-14.9962
▁underneath	-14.9962
▁unpatched	-14.9962
▁unstick	-14.9962
▁villager	-14.9962
▁whichever	-14.9962
▁alarmed	-15.0117
▁anode	-15.0117
▁buckshot	-15.0117
▁caustic	-15.0117
▁chandler	-15.0117
▁chang	-15.0117
▁comprise	-15.0117
▁cumulate	-15.0117
▁dune	-15.0117
▁employed	-15.0117
▁encourage	-15.0117
▁flavored	-15.0117
▁garlic	-15.0117
▁generational	-15.0117
▁ikey	-15.0117
▁impersonator	-15.0117
▁imprecise	-15.0117
▁imputation	-15.0117
▁johannes	-15.0117
▁jury	-15.0117
▁lair	-15.0117
▁landed	-15.0117
▁marry	-15.0117
▁packbuilder	-15.0117
▁pata	-15.0117
▁phalanx	-15.0117
▁purr	-15.0117
▁reincarnation	-15.0117
▁reissuer	-15.0117
[...]
