<unk>	0
<s>	0
</s>	0
<pad>	0
<endofline>	0
<endoftext>	0
▁.	-0
▁(	-1
▁s	-2
er	-3
▁t	-4
▁i	-5
▁c	-6
▁)	-7
re	-8
on	-9
▁=	-10
▁,	-11
▁"	-12
▁p	-13
at	-14
▁a	-15
or	-16
▁f	-17
▁'	-18
en	-19
▁n	-20
▁:	-21
▁re	-22
▁{	-23
in	-24
▁}	-25
▁d	-26
st	-27
ion	-28
▁m	-29
le	-30
al	-31
ct	-32
▁;	-33
▁b	-34
et	-35
▁l	-36
▁st	-37
▁e	-38
ss	-39
▁-	-40
ic	-41
mp	-42
it	-43
▁()	-44
ro	-45
▁v	-46
se	-47
▁in	-48
▁g	-49
▁o	-50
un	-51
▁1	-52
▁th	-53
ur	-54
ra	-55
ort	-56
▁[	-57
ent	-58
ing	-59
▁co	-60
el	-61
ate	-62
▁/	-63
ce	-64
▁w	-65
me	-66
▁imp	-67
ar	-68
▁0	-69
ut	-70
▁import	-71
ue	-72
▁$	-73
an	-74
▁con	-75
ul	-76
▁te	-77
de	-78
pe	-79
ub	-80
▁]	-81
ri	-82
▁cl	-83
▁h	-84
ag	-85
is	-86
▁);	-87
▁2	-88
▁->	-89
▁ret	-90
▁to	-91
lic	-92
▁ex	-93
urn	-94
▁get	-95
ction	-96
▁return	-97
ck	-98
ch	-99
▁str	-100
▁<	-101
ew	-102
▁pub	-103
▁string	-104
▁#	-105
▁=>	-106
end	-107
▁\	-108
▁de	-109
il	-110
▁test	-111
ame	-112
▁public	-113
▁u	-114
▁',	-115
▁if	-116
▁",	-117
▁lo	-118
ert	-119
ass	-120
▁("	-121
age	-122
▁this	-123
▁name	-124
);	-125
id	-126
ation	-127
▁pro	-128
ot	-129
▁class	-130
▁::	-131
pt	-132
ype	-133
▁>	-134
▁cont	-135
▁res	-136
▁type	-137
▁fun	-138
▁end	-139
▁new	-140
▁fi	-141
od	-142
ist	-143
xt	-144
▁an	-145
▁val	-146
▁ass	-147
ter	-148
▁id	-149
▁pa	-150
▁k	-151
▁sel	-152
▁self	-153
ab	-154
▁3	-155
▁do	-156
▁for	-157
em	-158
▁ma	-159
▁@	-160
err	-161
▁set	-162
▁function	-163
▁err	-164
▁assert	-165
ect	-166
ad	-167
qu	-168
▁*	-169
ver	-170
▁value	-171
▁")	-172
ed	-173
▁is	-174
▁r	-175
ult	-176
▁the	-177
▁se	-178
um	-179
▁('	-180
▁ch	-181
▁dat	-182
ig	-183
ption	-184
able	-185
▁data	-186
ve	-187
ol	-188
▁sh	-189
▁+	-190
▁x	-191
ull	-192
iz	-193
ase	-194
▁stat	-195
▁ar	-196
▁tr	-197
▁list	-198
▁un	-199
lo	-200
ject	-201
▁ad	-202
--	-203
ext	-204
▁null	-205
ath	-206
▁($	-207
▁pri	-208
▁of	-209
▁mod	-210
▁ser	-211
▁();	-212
▁bu	-213
ith	-214
der	-215
▁ke	-216
▁file	-217
▁))	-218
as	-219
▁it	-220
▁key	-221
pp	-222
▁4	-223
▁error	-224
ser	-225
fa	-226
▁not	-227
▁with	-228
▁==	-229
ize	-230
▁on	-231
▁|	-232
▁be	-233
▁true	-234
▁no	-235
vate	-236
▁use	-237
▁path	-238
▁private	-239
▁and	-240
ran	-241
▁col	-242
▁al	-243
and	-244
ment	-245
▁context	-246
▁fro	-247
ity	-248
▁add	-249
▁ob	-250
▁log	-251
que	-252
▁).	-253
▁po	-254
▁),	-255
▁):	-256
▁sy	-257
▁from	-258
▁5	-259
th	-260
put	-261
▁so	-262
▁!	-263
▁pack	-264
▁ti	-265
▁com	-266
▁&	-267
▁8	-268
ice	-269
▁ro	-270
ray	-271
▁vi	-272
oid	-273
▁fin	-274
▁static	-275
▁met	-276
ory	-277
▁exce	-278
▁map	-279
ach	-280
▁comp	-281
▁array	-282
▁void	-283
us	-284
▁le	-285
ine	-286
▁size	-287
ure	-288
▁fa	-289
▁object	-290
▁or	-291
▁loc	-292
▁package	-293
▁sc	-294
▁fal	-295
▁?	-296
▁mo	-297
00	-298
if	-299
▁inter	-300
ay	-301
▁cre	-302
▁exception	-303
▁io	-304
▁sho	-305
atch	-306
ire	-307
▁false	-308
▁out	-309
▁result	-310
▁me	-311
▁')	-312
▁time	-313
▁su	-314
▁6	-315
ient	-316
▁y	-317
quest	-318
urce	-319
▁comm	-320
ive	-321
▁par	-322
▁j	-323
▁request	-324
▁buil	-325
▁view	-326
▁},	-327
vice	-328
▁create	-329
▁text	-330
▁ver	-331
▁client	-332
▁defa	-333
▁default	-334
unt	-335
am	-336
sion	-337
cl	-338
▁user	-339
▁prop	-340
ge	-341
▁state	-342
▁el	-343
ren	-344
▁case	-345
▁model	-346
▁over	-347
per	-348
uld	-349
one	-350
▁resp	-351
▁ev	-352
▁as	-353
▁at	-354
pect	-355
stem	-356
▁fo	-357
▁system	-358
▁he	-359
ly	-360
▁mess	-361
▁sp	-362
▁message	-363
▁should	-364
▁bo	-365
ride	-366
ger	-367
ress	-368
fer	-369
▁local	-370
▁wh	-371
ache	-372
▁respon	-373
▁en	-374
om	-375
▁`	-376
▁node	-377
▁event	-378
rent	-379
ite	-380
▁else	-381
ule	-382
ude	-383
ain	-384
',	-385
▁override	-386
cess	-387
▁response	-388
ener	-389
▁app	-390
▁service	-391
ry	-392
▁final	-393
ore	-394
----	-395
▁inde	-396
ance	-397
clude	-398
▁index	-399
▁":	-400
ute	-401
▁],	-402
▁form	-403
ler	-404
▁base	-405
▁expect	-406
▁act	-407
sc	-408
▁inst	-409
▁[]	-410
▁""	-411
▁--	-412
im	-413
te	-414
ition	-415
qual	-416
▁read	-417
▁code	-418
▁pre	-419
▁())	-420
▁']	-421
▁include	-422
ust	-423
up	-424
rib	-425
▁meth	-426
▁method	-427
ht	-428
ram	-429
und	-430
▁version	-431
ator	-432
lect	-433
▁run	-434
▁equal	-435
eld	-436
▁input	-437
iv	-438
▁:=	-439
▁qu	-440
▁nil	-441
art	-442
▁reg	-443
▁!=	-444
▁table	-445
▁tran	-446
▁rep	-447
▁="	-448
▁ent	-449
▁trans	-450
▁['	-451
▁hand	-452
▁wr	-453
▁%	-454
▁man	-455
int	-456
▁cur	-457
quire	-458
▁count	-459
ial	-460
▁item	-461
▁core	-462
▁content	-463
▁require	-464
ber	-465
▁tra	-466
ack	-467
▁up	-468
▁().	-469
▁sub	-470
ke	-471
ctory	-472
▁dis	-473
mple	-474
orm	-475
▁field	-476
▁conn	-477
▁status	-478
ip	-479
▁source	-480
▁param	-481
eck	-482
▁7	-483
▁stre	-484
▁ran	-485
ty	-486
▁server	-487
▁spe	-488
▁output	-489
ash	-490
ong	-491
▁ref	-492
ord	-493
▁9	-494
all	-495
▁check	-496
▁(),	-497
▁");	-498
▁])	-499
▁ac	-500
▁builder	-501
▁we	-502
ind	-503
▁exp	-504
▁all	-505
▁pl	-506
▁net	-507
▁));	-508
ken	-509
▁stream	-510
",	-511
ery	-512
ign	-513
▁aut	-514
▁per	-515
▁32	-516
▁instance	-517
▁none	-518
▁module	-519
ast	-520
erty	-521
▁property	-522
▁im	-523
▁by	-524
▁z	-525
▁option	-526
▁format	-527
rap	-528
▁sa	-529
▁gener	-530
▁query	-531
▁desc	-532
▁flo	-533
▁token	-534
▁start	-535
▁spec	-536
▁{}	-537
▁fra	-538
ument	-539
▁foo	-540
ader	-541
▁date	-542
co	-543
▁len	-544
▁"""	-545
ssion	-546
roid	-547
▁android	-548
▁command	-549
▁10	-550
ir	-551
▁());	-552
▁ho	-553
gth	-554
▁ra	-555
▁"]	-556
▁action	-557
wn	-558
▁length	-559
▁def	-560
▁long	-561
ager	-562
▁fil	-563
▁then	-564
▁blo	-565
▁match	-566
ence	-567
▁color	-568
▁line	-569
ask	-570
uration	-571
▁jo	-572
▁})	-573
▁hel	-574
▁(:	-575
face	-576
▁emp	-577
▁conf	-578
arg	-579
▁inv	-580
ork	-581
▁sch	-582
▁gro	-583
▁20	-584
▁reso	-585
▁resource	-586
▁mock	-587
▁image	-588
ract	-589
nal	-590
ec	-591
▁manager	-592
▁factory	-593
▁task	-594
▁empty	-595
▁let	-596
▁can	-597
iter	-598
▁&&	-599
▁sec	-600
##	-601
umber	-602
▁prov	-603
▁interface	-604
ary	-605
▁hash	-606
ard	-607
▁ap	-608
ight	-609
▁build	-610
▁ext	-611
▁exec	-612
▁regist	-613
▁');	-614
▁unit	-615
▁12	-616
▁number	-617
rol	-618
▁apache	-619
")	-620
▁chan	-621
▁logger	-622
▁["	-623
ose	-624
..	-625
▁group	-626
out	-627
▁block	-628
▁select	-629
date	-630
lement	-631
▁that	-632
ant	-633
▁buf	-634
▁write	-635
▁fl	-636
▁update	-637
▁att	-638
▁cache	-639
▁common	-640
▁valid	-641
▁rec	-642
▁((	-643
ection	-644
▁<?	-645
▁temp	-646
form	-647
ree	-648
▁handler	-649
▁any	-650
▁filter	-651
▁buffer	-652
mo	-653
lection	-654
ider	-655
▁session	-656
▁page	-657
ark	-658
arget	-659
▁target	-660
ile	-661
row	-662
▁tag	-663
▁contain	-664
▁config	-665
▁lay	-666
▁char	-667
▁bool	-668
▁});	-669
▁ab	-670
▁call	-671
▁address	-672
▁float	-673
▁when	-674
uct	-675
▁element	-676
ema	-677
▁internal	-678
nel	-679
os	-680
▁off	-681
ink	-682
▁};	-683
umn	-684
ib	-685
▁64	-686
▁column	-687
--------	-688
▁next	-689
▁':	-690
▁control	-691
late	-692
▁current	-693
▁pr	-694
▁mem	-695
▁schema	-696
rig	-697
▁00	-698
▁frame	-699
▁provider	-700
ription	-701
ody	-702
▁>(	-703
▁body	-704
▁||	-705
▁const	-706
▁load	-707
▁bar	-708
▁doc	-709
onent	-710
▁entity	-711
▁fir	-712
▁():	-713
lete	-714
▁first	-715
sh	-716
to	-717
ix	-718
▁container	-719
▁parse	-720
▁min	-721
raph	-722
▁header	-723
▁component	-724
▁16	-725
▁..	-726
▁cop	-727
▁connection	-728
set	-729
▁root	-730
ual	-731
▁pass	-732
ense	-733
▁inte	-734
▁([	-735
not	-736
ribute	-737
▁project	-738
ap	-739
▁os	-740
▁last	-741
▁].	-742
ise	-743
es	-744
itle	-745
▁configuration	-746
▁auth	-747
▁but	-748
▁attribute	-749
are	-750
▁';	-751
▁exa	-752
▁cons	-753
▁disp	-754
▁order	-755
▁parser	-756
▁process	-757
ics	-758
▁];	-759
▁title	-760
ait	-761
▁mode	-762
ou	-763
▁post	-764
▁(!	-765
▁find	-766
▁(&	-767
▁wid	-768
▁range	-769
▁";	-770
▁op	-771
▁lab	-772
ft	-773
▁graph	-774
▁width	-775
▁description	-776
ier	-777
pper	-778
▁store	-779
../	-780
▁copy	-781
ace	-782
ep	-783
▁parent	-784
▁syn	-785
lication	-786
▁25	-787
▁execut	-788
▁ins	-789
cy	-790
▁label	-791
▁dire	-792
▁supp	-793
ify	-794
ick	-795
ner	-796
▁super	-797
ton	-798
ific	-799
vel	-800
//	-801
▁oper	-802
▁++	-803
▁100	-804
},	-805
▁[:	-806
▁arg	-807
▁testing	-808
fix	-809
▁layout	-810
▁try	-811
▁example	-812
▁resol	-813
▁application	-814
▁offset	-815
->	-816
▁part	-817
▁defin	-818
▁fe	-819
▁template	-820
alid	-821
ere	-822
read	-823
▁send	-824
ow	-825
▁invalid	-826
right	-827
▁argument	-828
ribe	-829
▁fail	-830
▁channel	-831
▁port	-832
▁scal	-833
▁record	-834
ak	-835
fore	-836
▁pos	-837
▁</	-838
▁"))	-839
▁uns	-840
▁doub	-841
▁before	-842
▁sty	-843
▁ren	-844
op	-845
▁cust	-846
▁open	-847
▁double	-848
▁custom	-849
ative	-850
▁link	-851
▁integer	-852
▁entry	-853
▁some	-854
apt	-855
▁collection	-856
▁top	-857
▁delete	-858
▁style	-859
cket	-860
▁listener	-861
▁append	-862
▁://	-863
▁suc	-864
work	-865
▁remo	-866
▁lic	-867
ill	-868
▁license	-869
ector	-870
▁throw	-871
▁back	-872
ale	-873
▁"),	-874
▁main	-875
▁annot	-876
▁host	-877
▁si	-878
==	-879
▁are	-880
▁annotation	-881
ther	-882
▁div	-883
▁one	-884
▁vis	-885
▁sha	-886
ature	-887
▁web	-888
▁other	-889
▁success	-890
▁]]	-891
ave	-892
sor	-893
▁register	-894
▁controller	-895
▁aw	-896
▁rand	-897
▁row	-898
▁helper	-899
▁print	-900
low	-901
▁ed	-902
▁rel	-903
eter	-904
ression	-905
▁level	-906
▁stri	-907
▁metr	-908
▁button	-909
▁height	-910
▁position	-911
▁proto	-912
▁conv	-913
▁ne	-914
▁({	-915
▁my	-916
▁render	-917
ari	-918
▁close	-919
ifier	-920
▁dep	-921
▁go	-922
▁join	-923
▁tw	-924
▁rece	-925
▁each	-926
▁access	-927
act	-928
▁>>	-929
ail	-930
ference	-931
▁activ	-932
▁dra	-933
ruct	-934
ia	-935
▁](	-936
▁bind	-937
▁stor	-938
▁sw	-939
▁rule	-940
▁bre	-941
▁storage	-942
arch	-943
ell	-944
▁dom	-945
▁bin	-946
▁prefix	-947
▁describe	-948
')	-949
▁document	-950
▁abst	-951
▁you	-952
▁af	-953
▁remove	-954
ization	-955
osit	-956
▁q	-957
▁job	-958
▁abstract	-959
▁handle	-960
▁convert	-961
▁left	-962
con	-963
▁non	-964
▁ag	-965
▁+=	-966
ded	-967
▁thread	-968
ateg	-969
tern	-970
▁meta	-971
▁reposit	-972
▁repository	-973
ild	-974
▁break	-975
▁auto	-976
####	-977
▁define	-978
▁reader	-979
▁tree	-980
▁device	-981
▁cr	-982
ok	-983
gment	-984
▁\\	-985
▁<<	-986
▁construct	-987
▁found	-988
▁scala	-989
io	-990
▁work	-991
▁{"	-992
▁batch	-993
▁active	-994
ope	-995
word	-996
▁password	-997
▁adapt	-998
▁='	-999
▁parameter	-1000
▁11	-1001
▁search	-1002
ld	-1003
use	-1004
▁opt	-1005
▁cle	-1006
▁ident	-1007
▁only	-1008
▁must	-1009
▁have	-1010
ension	-1011
▁after	-1012
umer	-1013
▁random	-1014
▁support	-1015
▁expression	-1016
▁prod	-1017
▁activity	-1018
▁vector	-1019
▁sing	-1020
▁.{	-1021
▁show	-1022
▁author	-1023
▁sign	-1024
▁vari	-1025
▁await	-1026
▁conc	-1027
▁\"	-1028
licit	-1029
▁del	-1030
▁make	-1031
ont	-1032
▁lim	-1033
▁que	-1034
older	-1035
▁mat	-1036
▁location	-1037
▁queue	-1038
code	-1039
▁scope	-1040
own	-1041
ush	-1042
▁adapter	-1043
).	-1044
lay	-1045
▁bl	-1046
▁di	-1047
▁child	-1048
▁right	-1049
▁put	-1050
▁===	-1051
▁insert	-1052
▁single	-1053
▁actual	-1054
action	-1055
▁wind	-1056
ning	-1057
▁init	-1058
her	-1059
▁stack	-1060
▁sum	-1061
▁)',	-1062
ification	-1063
▁subject	-1064
uster	-1065
▁red	-1066
▁").	-1067
▁draw	-1068
▁raise	-1069
▁cluster	-1070
▁spark	-1071
▁generator	-1072
ible	-1073
▁)]	-1074
▁same	-1075
▁pers	-1076
▁apply	-1077
ff	-1078
▁initial	-1079
▁50	-1080
ha	-1081
▁window	-1082
▁writer	-1083
▁generic	-1084
▁play	-1085
▁simple	-1086
▁serial	-1087
count	-1088
▁201	-1089
ical	-1090
▁"$	-1091
▁mon	-1092
▁sl	-1093
▁fut	-1094
▁dec	-1095
▁">	-1096
▁rest	-1097
▁mark	-1098
▁sort	-1099
▁future	-1100
▁domain	-1101
▁socket	-1102
ang	-1103
▁ten	-1104
▁pat	-1105
▁transform	-1106
▁directory	-1107
▁limit	-1108
▁account	-1109
▁sync	-1110
itor	-1111
▁lock	-1112
▁box	-1113
col	-1114
▁la	-1115
▁implicit	-1116
▁concur	-1117
▁norm	-1118
ript	-1119
▁200	-1120
▁protocol	-1121
fe	-1122
▁point	-1123
▁)(	-1124
▁eng	-1125
▁feature	-1126
▁iter	-1127
▁med	-1128
mit	-1129
▁memory	-1130
▁reference	-1131
▁engine	-1132
mb	-1133
ote	-1134
ility	-1135
▁free	-1136
▁:"	-1137
▁pool	-1138
▁}"	-1139
▁change	-1140
bal	-1141
▁math	-1142
ide	-1143
▁pattern	-1144
▁duration	-1145
▁will	-1146
▁glo	-1147
▁(*	-1148
▁shape	-1149
ved	-1150
▁registry	-1151
▁spl	-1152
▁li	-1153
▁(@	-1154
▁!(	-1155
▁'],	-1156
ud	-1157
#{	-1158
▁extension	-1159
▁route	-1160
mary	-1161
▁tot	-1162
▁raw	-1163
▁train	-1164
cker	-1165
\"	-1166
▁global	-1167
▁bund	-1168
----------------	-1169
est	-1170
▁report	-1171
▁icon	-1172
▁optional	-1173
ration	-1174
▁subsc	-1175
▁concurrent	-1176
▁env	-1177
urity	-1178
▁}}	-1179
▁script	-1180
▁transaction	-1181
▁][	-1182
▁total	-1183
▁definition	-1184
▁sk	-1185
cept	-1186
▁save	-1187
▁cor	-1188
▁security	-1189
▁mi	-1190
▁...	-1191
▁".	-1192
</	-1193
▁men	-1194
▁cond	-1195
▁15	-1196
▁ind	-1197
▁display	-1198
▁menu	-1199
▁export	-1200
▁sample	-1201
▁flag	-1202
▁execute	-1203
▁split	-1204
▁dist	-1205
▁fragment	-1206
▁bundle	-1207
▁cal	-1208
▁ca	-1209
▁?(	-1210
lace	-1211
▁01	-1212
xy	-1213
▁role	-1214
▁where	-1215
▁setup	-1216
▁"/	-1217
ole	-1218
igin	-1219
▁origin	-1220
iron	-1221
▁environ	-1222
),	-1223
▁strict	-1224
▁'),	-1225
▁proxy	-1226
aly	-1227
▁network	-1228
▁fix	-1229
▁span	-1230
▁bot	-1231
▁loader	-1232
▁]);	-1233
ency	-1234
ta	-1235
▁war	-1236
leg	-1237
▁operation	-1238
▁kind	-1239
▁obser	-1240
▁replace	-1241
▁variable	-1242
▁dest	-1243
▁ph	-1244
▁head	-1245
ond	-1246
▁)).	-1247
sk	-1248
▁sn	-1249
▁={	-1250
▁own	-1251
▁execution	-1252
bo	-1253
rop	-1254
▁rem	-1255
▁tensor	-1256
round	-1257
▁prog	-1258
▁full	-1259
▁polic	-1260
▁policy	-1261
ret	-1262
▁font	-1263
▁step	-1264
utable	-1265
\\	-1266
▁comment	-1267
▁logg	-1268
igned	-1269
▁tor	-1270
▁","	-1271
▁catch	-1272
▁mer	-1273
▁failure	-1274
wer	-1275
▁may	-1276
▁sequ	-1277
▁)))	-1278
▁us	-1279
▁git	-1280
▁256	-1281
▁receive	-1282
vi	-1283
▁environment	-1284
▁while	-1285
▁prof	-1286
▁13	-1287
▁det	-1288
▁runner	-1289
▁18	-1290
ish	-1291
▁disable	-1292
▁push	-1293
▁*)	-1294
old	-1295
▁member	-1296
inter	-1297
0000	-1298
▁console	-1299
ume	-1300
▁connect	-1301
▁metrics	-1302
▁.*	-1303
▁verify	-1304
▁asset	-1305
▁dri	-1306
▁bet	-1307
▁react	-1308
▁reflect	-1309
ution	-1310
▁allow	-1311
▁19	-1312
▁invo	-1313
▁}.	-1314
▁media	-1315
entic	-1316
ias	-1317
▁now	-1318
mi	-1319
34	-1320
gn	-1321
▁plat	-1322
▁normal	-1323
▁'.	-1324
▁authentic	-1325
▁''	-1326
▁decl	-1327
▁.',	-1328
▁defined	-1329
etch	-1330
▁short	-1331
▁ter	-1332
rid	-1333
▁hello	-1334
▁props	-1335
▁validate	-1336
▁analy	-1337
▁mask	-1338
ground	-1339
▁generate	-1340
▁suite	-1341
▁second	-1342
▁exit	-1343
▁torch	-1344
▁platform	-1345
▁il	-1346
iler	-1347
▁gen	-1348
▁symb	-1349
▁fetch	-1350
▁>=	-1351
▁stop	-1352
▁depend	-1353
▁click	-1354
01	-1355
▁collect	-1356
▁"},	-1357
▁lang	-1358
▁scale	-1359
uage	-1360
▁language	-1361
▁flow	-1362
▁wra	-1363
▁int	-1364
▁."	-1365
▁unsigned	-1366
▁anim	-1367
▁mapper	-1368
▁inf	-1369
▁gra	-1370
▁wait	-1371
▁"}	-1372
lease	-1373
▁logging	-1374
▁secret	-1375
▁term	-1376
▁condition	-1377
▁){	-1378
▁fact	-1379
▁binding	-1380
▁**	-1381
▁dev	-1382
reen	-1383
▁trace	-1384
▁symbol	-1385
▁14	-1386
▁day	-1387
▁framework	-1388
▁pad	-1389
▁art	-1390
resh	-1391
▁matcher	-1392
▁owner	-1393
▁merge	-1394
sent	-1395
▁big	-1396
▁reset	-1397
▁docker	-1398
▁executor	-1399
▁used	-1400
▁pi	-1401
▁operator	-1402
▁remote	-1403
▁resolve	-1404
▁'/	-1405
▁av	-1406
▁resolver	-1407
▁tab	-1408
▁wrapper	-1409
▁ign	-1410
▁${	-1411
▁clear	-1412
▁++)	-1413
▁#{	-1414
▁()).	-1415
▁24	-1416
▁actor	-1417
▁dim	-1418
itch	-1419
▁metric	-1420
▁atom	-1421
▁consumer	-1422
▁player	-1423
▁topic	-1424
▁alp	-1425
▁driver	-1426
▁under	-1427
iven	-1428
cel	-1429
nown	-1430
▁enable	-1431
▁criter	-1432
▁---	-1433
▁tim	-1434
▁down	-1435
▁liter	-1436
▁30	-1437
▁binary	-1438
====	-1439
less	-1440
▁literal	-1441
▁rout	-1442
▁validation	-1443
${	-1444
val	-1445
▁layer	-1446
],	-1447
24	-1448
▁rub	-1449
▁holder	-1450
▁old	-1451
▁categ	-1452
cer	-1453
▁sequence	-1454
▁strateg	-1455
▁extra	-1456
▁given	-1457
▁#[	-1458
▁chain	-1459
▁tri	-1460
di	-1461
▁trait	-1462
▁constructor	-1463
▁'',	-1464
▁profile	-1465
▁ruby	-1466
let	-1467
▁done	-1468
way	-1469
▁strategy	-1470
▁.'	-1471
▁pair	-1472
21	-1473
▁vol	-1474
mission	-1475
ward	-1476
▁switch	-1477
ination	-1478
▁native	-1479
▁product	-1480
▁background	-1481
▁na	-1482
▁region	-1483
▁does	-1484
▁rate	-1485
▁ignore	-1486
very	-1487
ero	-1488
▁ast	-1489
rary	-1490
▁sol	-1491
▁inject	-1492
ug	-1493
imal	-1494
▁ge	-1495
▁dispatch	-1496
▁[$	-1497
()	-1498
▁boot	-1499
▁selector	-1500
▁corre	-1501
▁::{	-1502
cho	-1503
▁ker	-1504
▁login	-1505
▁alpha	-1506
▁space	-1507
▁echo	-1508
▁transp	-1509
▁avail	-1510
▁category	-1511
▁stub	-1512
▁help	-1513
▁dependency	-1514
▁scan	-1515
▁cell	-1516
▁nullable	-1517
▁uni	-1518
▁"\	-1519
▁##	-1520
▁da	-1521
▁classes	-1522
▁alias	-1523
▁bas	-1524
rix	-1525
▁matrix	-1526
▁kernel	-1527
▁mult	-1528
▁eff	-1529
▁pan	-1530
▁wor	-1531
ater	-1532
▁hist	-1533
▁sm	-1534
order	-1535
zy	-1536
▁miss	-1537
ster	-1538
xture	-1539
))	-1540
########	-1541
▁unsa	-1542
▁pe	-1543
▁decode	-1544
▁initialize	-1545
▁wrap	-1546
▁world	-1547
▁agent	-1548
▁>,	-1549
▁("/	-1550
▁<=	-1551
▁authentication	-1552
▁fixture	-1553
▁``	-1554
▁()->	-1555
unter	-1556
▁unsafe	-1557
yment	-1558
▁identifier	-1559
▁encode	-1560
▁atomic	-1561
56	-1562
▁into	-1563
▁commit	-1564
▁aud	-1565
▁counter	-1566
▁cast	-1567
▁beg	-1568
ump	-1569
12	-1570
▁missing	-1571
▁decimal	-1572
▁skip	-1573
ined	-1574
▁effect	-1575
▁identity	-1576
▁persist	-1577
ield	-1578
▁pointer	-1579
▁basic	-1580
▁locale	-1581
mount	-1582
ake	-1583
▁clone	-1584
▁publ	-1585
▁begin	-1586
▁weight	-1587
ision	-1588
▁selected	-1589
▁without	-1590
yn	-1591
▁accept	-1592
▁yo	-1593
▁align	-1594
▁theme	-1595
ich	-1596
▁vert	-1597
▁edit	-1598
▁)),	-1599
▁statement	-1600
▁lazy	-1601
▁drop	-1602
cation	-1603
▁contract	-1604
▁bit	-1605
▁extract	-1606
▁except	-1607
▁bean	-1608
▁zero	-1609
▁contin	-1610
../../	-1611
▁cent	-1612
▁see	-1613
▁original	-1614
▁notification	-1615
▁multip	-1616
▁yield	-1617
▁40	-1618
igh	-1619
▁bran	-1620
▁fake	-1621
▁two	-1622
▁amount	-1623
▁]):	-1624
▁pol	-1625
▁rect	-1626
▁?.	-1627
▁grid	-1628
▁available	-1629
**	-1630
ex	-1631
▁converter	-1632
");	-1633
ift	-1634
▁"],	-1635
▁progress	-1636
▁interval	-1637
▁clean	-1638
▁cursor	-1639
▁got	-1640
▁screen	-1641
▁intent	-1642
▁pip	-1643
ular	-1644
ker	-1645
idd	-1646
▁person	-1647
▁declare	-1648
upp	-1649
▁relation	-1650
▁flat	-1651
▁~	-1652
▁exter	-1653
▁unk	-1654
▁external	-1655
unk	-1656
ting	-1657
▁unknown	-1658
▁)}	-1659
ac	-1660
▁install	-1661
▁ax	-1662
▁customer	-1663
lex	-1664
▁cap	-1665
▁processor	-1666
▁permission	-1667
▁gate	-1668
▁lib	-1669
>(	-1670
deo	-1671
▁once	-1672
▁word	-1673
▁release	-1674
▁primary	-1675
▁loop	-1676
▁dyn	-1677
▁video	-1678
▁dynam	-1679
▁copyright	-1680
▁constant	-1681
▁22	-1682
▁brow	-1683
▁present	-1684
▁arch	-1685
▁sent	-1686
▁like	-1687
icle	-1688
▁folder	-1689
ated	-1690
▁gu	-1691
▁relative	-1692
▁"));	-1693
▁timer	-1694
▁').	-1695
▁unique	-1696
▁library	-1697
▁bad	-1698
80	-1699
▁bro	-1700
▁want	-1701
▁inner	-1702
▁<-	-1703
chan	-1704
▁drawable	-1705
▁inc	-1706
▁trig	-1707
▁real	-1708
▁'\	-1709
▁23	-1710
ding	-1711
rency	-1712
▁enumer	-1713
▁than	-1714
▁calc	-1715
verse	-1716
li	-1717
▁usage	-1718
▁transition	-1719
▁dig	-1720
▁section	-1721
ci	-1722
▁ps	-1723
▁compiler	-1724
▁iss	-1725
▁mig	-1726
▁produ	-1727
▁17	-1728
▁slic	-1729
▁crate	-1730
▁your	-1731
▁more	-1732
▁'))	-1733
▁'{	-1734
▁loss	-1735
itter	-1736
▁42	-1737
▁trigger	-1738
▁warning	-1739
▁ep	-1740
▁card	-1741
▁stand	-1742
▁21	-1743
▁attach	-1744
amb	-1745
▁partition	-1746
inate	-1747
▁transport	-1748
▁>();	-1749
ibility	-1750
▁graphics	-1751
▁high	-1752
000	-1753
▁editor	-1754
▁snap	-1755
▁{},	-1756
▁complete	-1757
▁was	-1758
ost	-1759
▁center	-1760
▁standard	-1761
▁master	-1762
ason	-1763
▁prom	-1764
▁mac	-1765
▁bott	-1766
reg	-1767
▁signature	-1768
▁need	-1769
▁dynamic	-1770
tax	-1771
▁syntax	-1772
my	-1773
▁summary	-1774
▁reflection	-1775
▁dum	-1776
▁unless	-1777
▁twitter	-1778
eline	-1779
▁fore	-1780
▁grad	-1781
▁exchan	-1782
▁browser	-1783
▁agg	-1784
▁router	-1785
ru	-1786
▁correct	-1787
▁move	-1788
▁chunk	-1789
▁padding	-1790
▁}/	-1791
▁diag	-1792
▁continue	-1793
▁exchange	-1794
▁fill	-1795
▁hook	-1796
▁prior	-1797
da	-1798
▁lamb	-1799
▁128	-1800
▁exist	-1801
▁marg	-1802
▁?>	-1803
▁margin	-1804
▁zone	-1805
og	-1806
['	-1807
▁pipeline	-1808
▁site	-1809
▁dummy	-1810
▁1000	-1811
ank	-1812
▁mutable	-1813
roy	-1814
▁worker	-1815
▁deplo	-1816
hing	-1817
20	-1818
▁criteria	-1819
▁destroy	-1820
▁cha	-1821
▁:'	-1822
ful	-1823
▁lambda	-1824
▁dump	-1825
▁zip	-1826
▁compile	-1827
▁which	-1828
▁slice	-1829
11	-1830
▁aggreg	-1831
▁direct	-1832
▁border	-1833
back	-1834
▁py	-1835
▁home	-1836
▁bucket	-1837
▁reason	-1838
▁setting	-1839
▁cancel	-1840
ending	-1841
▁"",	-1842
irect	-1843
▁clou	-1844
▁prob	-1845
▁cloud	-1846
▁modifier	-1847
▁'])	-1848
▁beta	-1849
▁gateway	-1850
ock	-1851
▁deleg	-1852
zen	-1853
▁80	-1854
▁delta	-1855
▁safe	-1856
▁frozen	-1857
▁bottom	-1858
▁delay	-1859
▁configure	-1860
▁edge	-1861
▁watch	-1862
▁retry	-1863
▁history	-1864
view	-1865
▁animation	-1866
▁invoke	-1867
▁game	-1868
▁multiple	-1869
▁"`	-1870
▁inform	-1871
78	-1872
▁stage	-1873
vio	-1874
▁{})	-1875
▁psi	-1876
▁fol	-1877
arator	-1878
▁destination	-1879
▁netty	-1880
▁distrib	-1881
idden	-1882
▁patch	-1883
▁cannot	-1884
["	-1885
▁255	-1886
▁observ	-1887
▁promise	-1888
▁imm	-1889
▁force	-1890
ron	-1891
thon	-1892
▁running	-1893
▁unde	-1894
▁/>	-1895
▁priority	-1896
shot	-1897
▁python	-1898
▁123	-1899
99	-1900
▁visible	-1901
▁{{	-1902
▁volume	-1903
▁snapshot	-1904
▁refresh	-1905
^^	-1906
▁partial	-1907
▁delegate	-1908
▁plan	-1909
▁serialization	-1910
▁shar	-1911
▁pop	-1912
▁cert	-1913
▁authorization	-1914
fined	-1915
▁compare	-1916
roll	-1917
▁prep	-1918
down	-1919
▁branch	-1920
▁assign	-1921
▁note	-1922
▁nav	-1923
▁undefined	-1924
▁<>(	-1925
▁(-	-1926
▁serialize	-1927
▁currency	-1928
▁immutable	-1929
▁navig	-1930
ped	-1931
▁mach	-1932
▁heal	-1933
▁emit	-1934
gle	-1935
▁cat	-1936
▁bound	-1937
▁02	-1938
▁score	-1939
ized	-1940
▁thro	-1941
▁'));	-1942
▁transl	-1943
▁integ	-1944
otype	-1945
ather	-1946
▁issue	-1947
▁saved	-1948
▁spr	-1949
▁")]	-1950
▁sender	-1951
▁(()	-1952
33	-1953
▁\":	-1954
▁information	-1955
▁([]	-1956
▁machine	-1957
▁bal	-1958
▁>()	-1959
▁ill	-1960
▁lower	-1961
▁finish	-1962
▁"{	-1963
▁diction	-1964
▁dictionary	-1965
▁!==	-1966
▁contents	-1967
▁gre	-1968
ling	-1969
ificate	-1970
▁certificate	-1971
▁renderer	-1972
erial	-1973
▁book	-1974
▁scroll	-1975
▁compan	-1976
▁migration	-1977
▁car	-1978
./	-1979
▁material	-1980
▁defer	-1981
mpt	-1982
▁observer	-1983
▁redirect	-1984
▁cla	-1985
▁unw	-1986
▁packet	-1987
▁(['	-1988
▁dif	-1989
▁.",	-1990
▁reply	-1991
▁vir	-1992
▁strip	-1993
▁illeg	-1994
▁illegal	-1995
▁"${	-1996
jection	-1997
▁observable	-1998
▁addition	-1999
▁health	-2000
ential	-2001
pth	-2002
▁depth	-2003
▁many	-2004
▁selection	-2005
izer	-2006
▁prot	-2007
▁late	-2008
▁seed	-2009
eet	-2010
▁illum	-2011
met	-2012
▁times	-2013
▁[];	-2014
▁detail	-2015
▁26	-2016
▁virt	-2017
▁stride	-2018
▁virtual	-2019
▁illuminate	-2020
▁interp	-2021
▁es	-2022
▁forward	-2023
▁]:	-2024
vious	-2025
▁":"	-2026
▁notify	-2027
imum	-2028
▁sin	-2029
▁clock	-2030
racter	-2031
▁character	-2032
▁win	-2033
▁previous	-2034
▁dispatcher	-2035
▁subscription	-2036
▁verb	-2037
we	-2038
ived	-2039
▁texture	-2040
▁constra	-2041
▁shift	-2042
▁inspect	-2043
▁unwrap	-2044
▁)->	-2045
▁price	-2046
▁peer	-2047
▁prepare	-2048
cent	-2049
▁der	-2050
▁[],	-2051
▁hidden	-2052
▁pending	-2053
eme	-2054
▁509	-2055
▁scheme	-2056
▁']);	-2057
ices	-2058
▁.*;	-2059
...	-2060
▁('/	-2061
▁rat	-2062
▁tick	-2063
▁digest	-2064
▁deep	-2065
▁panel	-2066
▁'<	-2067
▁99	-2068
▁60	-2069
▁indent	-2070
▁round	-2071
▁cho	-2072
▁blue	-2073
▁ye	-2074
▁rev	-2075
▁')->	-2076
ens	-2077
▁disabled	-2078
▁additional	-2079
▁sur	-2080
▁room	-2081
▁suppress	-2082
▁31	-2083
▁sep	-2084
▁sharp	-2085
▁"%	-2086
{{	-2087
▁diagn	-2088
▁segment	-2089
itive	-2090
▁compute	-2091
');	-2092
▁"#	-2093
▁'#	-2094
▁integration	-2095
▁fixed	-2096
▁audio	-2097
▁pick	-2098
▁beha	-2099
iver	-2100
▁33	-2101
alle	-2102
▁dot	-2103
?:	-2104
▁constraint	-2105
▁redu	-2106
▁intercept	-2107
▁]).	-2108
oci	-2109
▁geo	-2110
▁scen	-2111
▁month	-2112
▁em	-2113
▁direction	-2114
▁.")	-2115
ship	-2116
sis	-2117
▁associ	-2118
▁trim	-2119
inal	-2120
allel	-2121
sol	-2122
76	-2123
acy	-2124
▁parallel	-2125
▁sig	-2126
fact	-2127
▁prototype	-2128
▁bus	-2129
▁pod	-2130
========	-2131
▁unt	-2132
▁enc	-2133
▁year	-2134
▁compose	-2135
▁subscribe	-2136
▁sle	-2137
▁perform	-2138
irc	-2139
▁diagnost	-2140
▁blob	-2141
red	-2142
ze	-2143
▁alert	-2144
board	-2145
ily	-2146
96	-2147
▁circ	-2148
▁warn	-2149
▁"-	-2150
▁cred	-2151
▁visit	-2152
aded	-2153
▁checker	-2154
▁payment	-2155
▁36	-2156
ca	-2157
▁mail	-2158
▁++;	-2159
})	-2160
ess	-2161
▁confir	-2162
▁dao	-2163
ention	-2164
▁area	-2165
▁()))	-2166
36	-2167
▁capt	-2168
▁comb	-2169
▁chat	-2170
▁poss	-2171
▁assets	-2172
{"	-2173
▁sleep	-2174
▁extend	-2175
▁28	-2176
▁transformer	-2177
▁bra	-2178
▁transfer	-2179
uch	-2180
sure	-2181
▁lint	-2182
▁[[	-2183
▁1234	-2184
▁linear	-2185
isher	-2186
och	-2187
ither	-2188
▁axis	-2189
unch	-2190
▁hex	-2191
▁manif	-2192
▁distance	-2193
▁suf	-2194
▁04	-2195
icate	-2196
▁(/	-2197
74	-2198
▁,"	-2199
▁been	-2200
emb	-2201
ape	-2202
▁>>>	-2203
50	-2204
▁percent	-2205
▁publisher	-2206
ead	-2207
agger	-2208
▁'./	-2209
▁manifest	-2210
▁mag	-2211
ween	-2212
▁between	-2213
▁ensure	-2214
";	-2215
▁mean	-2216
lback	-2217
▁sink	-2218
[]	-2219
▁wal	-2220
▁tool	-2221
▁encry	-2222
ifact	-2223
▁artifact	-2224
▁sheet	-2225
▁track	-2226
▁}")	-2227
▁suffix	-2228
▁latest	-2229
84	-2230
▁tile	-2231
{}	-2232
▁("%	-2233
▁epoch	-2234
▁44	-2235
▁team	-2236
▁rot	-2237
▁received	-2238
▁peri	-2239
▁signal	-2240
▁period	-2241
▁launch	-2242
▁assemb	-2243
▁light	-2244
orted	-2245
▁iterable	-2246
▁ready	-2247
edule	-2248
▁fat	-2249
▁weather	-2250
54	-2251
):	-2252
▁eval	-2253
▁fixer	-2254
strap	-2255
▁bootstrap	-2256
▁><	-2257
▁cam	-2258
▁evalu	-2259
▁shell	-2260
acity	-2261
▁assertion	-2262
▁licensed	-2263
▁(`	-2264
ph	-2265
▁pull	-2266
▁slot	-2267
▁fast	-2268
ural	-2269
22	-2270
riber	-2271
▁[(	-2272
▁03	-2273
▁there	-2274
".	-2275
▁age	-2276
▁possible	-2277
▁spring	-2278
▁here	-2279
▁blank	-2280
90	-2281
▁absol	-2282
gan	-2283
uth	-2284
▁program	-2285
▁article	-2286
▁feed	-2287
ek	-2288
▁either	-2289
70	-2290
▁=(	-2291
▁scalar	-2292
▁`,	-2293
▁visibility	-2294
mitive	-2295
▁primitive	-2296
ready	-2297
▁}",	-2298
▁(\	-2299
▁monitor	-2300
▁already	-2301
▁34	-2302
▁{'	-2303
▁absolute	-2304
ied	-2305
▁country	-2306
verage	-2307
▁visitor	-2308
▁("\	-2309
▁schedule	-2310
▁follow	-2311
▁pipe	-2312
▁subscriber	-2313
▁producer	-2314
ulate	-2315
▁callable	-2316
▁just	-2317
▁specs	-2318
▁invocation	-2319
▁colors	-2320
▁loaded	-2321
▁solution	-2322
ium	-2323
▁pupp	-2324
▁conver	-2325
▁live	-2326
▁leg	-2327
▁receiver	-2328
▁]))	-2329
';	-2330
▁86	-2331
▁dup	-2332
▁puppet	-2333
ided	-2334
▁expand	-2335
▁alg	-2336
vior	-2337
▁persistence	-2338
▁reverse	-2339
▁behavior	-2340
▁decor	-2341
▁loading	-2342
ability	-2343
▁^	-2344
▁algor	-2345
tain	-2346
▁thri	-2347
▁canv	-2348
'.	-2349
▁neg	-2350
▁writ	-2351
▁canvas	-2352
▁obtain	-2353
▁fatal	-2354
▁union	-2355
▁aggregate	-2356
ithm	-2357
▁separator	-2358
▁allo	-2359
▁side	-2360
▁2021	-2361
be	-2362
▁navigation	-2363
rant	-2364
55	-2365
▁lat	-2366
▁incre	-2367
scape	-2368
▁<?>	-2369
▁closed	-2370
▁statist	-2371
▁algorithm	-2372
ies	-2373
▁deployment	-2374
▁until	-2375
▁thresh	-2376
▁"];	-2377
▁analysis	-2378
▁shut	-2379
▁thrift	-2380
▁flu	-2381
▁provided	-2382
▁pred	-2383
▁enumerable	-2384
▁take	-2385
cast	-2386
agle	-2387
▁complex	-2388
################	-2389
30	-2390
▁?:	-2391
▁fam	-2392
▁place	-2393
▁mar	-2394
▁predicate	-2395
▁sorted	-2396
▁[])	-2397
▁publish	-2398
▁confirm	-2399
ten	-2400
▁organ	-2401
▁cause	-2402
▁500	-2403
▁ri	-2404
letion	-2405
▁days	-2406
▁()));	-2407
▁vertex	-2408
72	-2409
▁singleton	-2410
▁000	-2411
▁)));	-2412
▁calend	-2413
▁repe	-2414
▁implement	-2415
▁flush	-2416
▁linked	-2417
▁radi	-2418
▁calendar	-2419
▁touch	-2420
▁since	-2421
▁"--	-2422
▁indices	-2423
bit	-2424
▁family	-2425
▁pur	-2426
ipe	-2427
▁disco	-2428
86	-2429
▁enter	-2430
▁mouse	-2431
▁struct	-2432
ous	-2433
▁ai	-2434
▁samp	-2435
▁qual	-2436
▁connector	-2437
▁coll	-2438
▁chart	-2439
▁differ	-2440
▁keep	-2441
▁manage	-2442
▁predi	-2443
▁unsupp	-2444
▁<>();	-2445
▁unsupported	-2446
▁"#{	-2447
▁()),	-2448
▁dimension	-2449
▁compli	-2450
▁tog	-2451
chron	-2452
▁am	-2453
▁series	-2454
▁every	-2455
▁ta	-2456
▁based	-2457
▁fit	-2458
▁hor	-2459
▁foc	-2460
▁escape	-2461
▁unex	-2462
=>	-2463
▁its	-2464
▁checked	-2465
▁less	-2466
ream	-2467
▁broker	-2468
▁dash	-2469
pping	-2470
▁phone	-2471
▁disc	-2472
▁structure	-2473
▁upper	-2474
▁derive	-2475
▁unp	-2476
▁small	-2477
▁pay	-2478
▁reser	-2479
▁exact	-2480
rine	-2481
▁capture	-2482
▁speed	-2483
▁'}	-2484
▁added	-2485
75	-2486
31	-2487
pected	-2488
▁variant	-2489
▁macro	-2490
::	-2491
▁low	-2492
▁infl	-2493
▁criterion	-2494
▁'];	-2495
▁unexpected	-2496
])	-2497
▁41	-2498
peri	-2499
▁mime	-2500
▁threshold	-2501
▁experi	-2502
▁special	-2503
▁//	-2504
▁focus	-2505
▁compliance	-2506
▁radius	-2507
▁90	-2508
▁tables	-2509
oser	-2510
▁balance	-2511
<<	-2512
▁mount	-2513
▁','	-2514
ipher	-2515
▁'%	-2516
▁)?	-2517
94	-2518
▁512	-2519
▁hide	-2520
▁doct	-2521
▁bul	-2522
osure	-2523
▁organization	-2524
▁disk	-2525
▁prompt	-2526
▁flash	-2527
▁::$	-2528
▁assembly	-2529
stream	-2530
▁factor	-2531
71	-2532
▁)"	-2533
▁hint	-2534
asure	-2535
▁05	-2536
92	-2537
▁shutdown	-2538
▁stro	-2539
umb	-2540
▁stroke	-2541
▁blocking	-2542
▁=$	-2543
▁somet	-2544
▁']['	-2545
▁normalize	-2546
▁archive	-2547
▁slug	-2548
▁}),	-2549
32	-2550
▁plain	-2551
▁verbose	-2552
▁recur	-2553
81	-2554
▁synchron	-2555
▁acc	-2556
▁sus	-2557
▁127	-2558
▁>)	-2559
bon	-2560
used	-2561
▁06	-2562
▁terminal	-2563
▁wire	-2564
▁:`	-2565
uff	-2566
▁creator	-2567
▁tracker	-2568
▁compress	-2569
▁contact	-2570
▁doctrine	-2571
▁45	-2572
▁links	-2573
▁measure	-2574
▁(){	-2575
▁foreign	-2576
▁heap	-2577
▁logical	-2578
▁poly	-2579
lier	-2580
▁preview	-2581
▁commons	-2582
▁~=	-2583
▁cipher	-2584
▁></	-2585
line	-2586
▁?)	-2587
▁susp	-2588
▁=[	-2589
▁tempor	-2590
ellation	-2591
▁est	-2592
▁unlo	-2593
▁collector	-2594
era	-2595
▁cleanup	-2596
▁power	-2597
▁<'	-2598
▁??	-2599
so	-2600
▁}',	-2601
▁(%	-2602
▁#!	-2603
▁respond	-2604
▁experiment	-2605
▁max	-2606
▁translation	-2607
▁'"	-2608
▁too	-2609
▁reporter	-2610
▁?,	-2611
▁instant	-2612
▁1024	-2613
aration	-2614
▁different	-2615
▁modify	-2616
▁"<	-2617
▁backup	-2618
▁something	-2619
ness	-2620
▁calcite	-2621
▁mono	-2622
▁marker	-2623
▁increment	-2624
▁toggle	-2625
▁notice	-2626
▁'';	-2627
ross	-2628
▁streaming	-2629
▁training	-2630
▁trade	-2631
▁asp	-2632
▁completion	-2633
▁fold	-2634
▁tail	-2635
▁alloc	-2636
▁companion	-2637
▁analyt	-2638
▁||=	-2639
▁('./	-2640
▁reduce	-2641
rupt	-2642
▁}).	-2643
▁shad	-2644
▁.$	-2645
▁"].	-2646
▁`.	-2647
91	-2648
▁capacity	-2649
▁horiz	-2650
▁fallback	-2651
▁unity	-2652
▁ratio	-2653
▁compar	-2654
other	-2655
▁35	-2656
▁flex	-2657
▁please	-2658
85	-2659
▁could	-2660
▁`()	-2661
▁adv	-2662
▁stud	-2663
▁quote	-2664
▁distribution	-2665
▁poll	-2666
▁distribut	-2667
▁)",	-2668
led	-2669
▁quest	-2670
▁nothing	-2671
▁inflater	-2672
▁'../	-2673
▁]),	-2674
""	-2675
▁translate	-2676
rint	-2677
▁analytics	-2678
▁interceptor	-2679
▁instead	-2680
35	-2681
▁:{	-2682
▁}'	-2683
▁hi	-2684
▁injection	-2685
▁creation	-2686
▁$(	-2687
▁moment	-2688
▁"])	-2689
▁unused	-2690
▁carbon	-2691
▁registration	-2692
cing	-2693
▁specific	-2694
▁reco	-2695
▁anch	-2696
▁negative	-2697
ified	-2698
▁successful	-2699
▁magic	-2700
▁specification	-2701
▁dispos	-2702
▁shadow	-2703
▁'-	-2704
ee	-2705
▁white	-2706
ugh	-2707
▁about	-2708
▁matching	-2709
▁stripe	-2710
▁declaration	-2711
▁another	-2712
▁tester	-2713
▁canc	-2714
▁alway	-2715
▁attachment	-2716
▁camera	-2717
▁*(	-2718
▁rad	-2719
▁sound	-2720
zer	-2721
▁compos	-2722
▁eas	-2723
▁exclude	-2724
▁cy	-2725
▁always	-2726
▁46	-2727
▁plural	-2728
▁!!	-2729
▁")).	-2730
▁hub	-2731
▁greater	-2732
▁cancellation	-2733
▁maximum	-2734
▁anchor	-2735
ma	-2736
▁56	-2737
▁vertical	-2738
swer	-2739
"))	-2740
▁secure	-2741
▁preference	-2742
▁cost	-2743
▁green	-2744
▁reactive	-2745
bra	-2746
ely	-2747
▁iso	-2748
▁answer	-2749
▁paint	-2750
▁also	-2751
▁spa	-2752
▁foundation	-2753
▁sofa	-2754
ended	-2755
▁visual	-2756
cle	-2757
ational	-2758
▁sun	-2759
▁distributed	-2760
▁pin	-2761
arse	-2762
▁und	-2763
▁hour	-2764
▁twig	-2765
▁ga	-2766
▁share	-2767
ontal	-2768
▁!("	-2769
▁-=	-2770
▁horizontal	-2771
▁removed	-2772
load	-2773
omet	-2774
▁repeat	-2775
aled	-2776
▁black	-2777
▁20210	-2778
olation	-2779
print	-2780
▁registered	-2781
▁ut	-2782
▁functional	-2783
wr	-2784
▁08	-2785
▁tap	-2786
▁07	-2787
rument	-2788
▁instrument	-2789
▁des	-2790
▁don	-2791
▁mut	-2792
▁conversion	-2793
▁implementation	-2794
▁"")	-2795
▁best	-2796
▁mesh	-2797
▁<:	-2798
▁choice	-2799
▁analyzer	-2800
▁)[	-2801
▁48	-2802
▁'')	-2803
▁suspend	-2804
▁clip	-2805
▁mob	-2806
▁fri	-2807
▁surface	-2808
▁cross	-2809
▁through	-2810
▁verification	-2811
▁plot	-2812
▁maybe	-2813
▁returned	-2814
ged	-2815
ether	-2816
▁positive	-2817
go	-2818
▁estim	-2819
▁swagger	-2820
▁indexed	-2821
come	-2822
▁bulk	-2823
▁closure	-2824
ie	-2825
▁prec	-2826
▁discovery	-2827
▁]],	-2828
▁wrong	-2829
▁alt	-2830
▁routing	-2831
▁::*	-2832
ilation	-2833
▁smart	-2834
▁extern	-2835
▁dispose	-2836
▁dense	-2837
▁000000	-2838
▁sealed	-2839
▁.""	-2840
▁27	-2841
▁unlock	-2842
▁|=	-2843
light	-2844
▁city	-2845
▁regular	-2846
▁provide	-2847
▁resolved	-2848
bound	-2849
^^^^	-2850
▁getter	-2851
▁。	-2852
▁wrapped	-2853
arge	-2854
reter	-2855
▁interpreter	-2856
▁submit	-2857
[^	-2858
/,	-2859
▁bias	-2860
arm	-2861
▁rol	-2862
▁alignment	-2863
▁rank	-2864
ula	-2865
▁400	-2866
▁audit	-2867
tle	-2868
▁connected	-2869
▁{};	-2870
▁week	-2871
▁29	-2872
▁drag	-2873
▁resc	-2874
▁sim	-2875
▁75	-2876
▁sil	-2877
▁fee	-2878
▁[-	-2879
▁mix	-2880
▁deploy	-2881
▁=%	-2882
37	-2883
ison	-2884
▁statistics	-2885
▁10000	-2886
▁friend	-2887
▁face	-2888
▁/"	-2889
------	-2890
▁via	-2891
▁sparse	-2892
lem	-2893
▁large	-2894
▁"[	-2895
▁finally	-2896
gra	-2897
▁55	-2898
▁mir	-2899
▁nam	-2900
▁vend	-2901
uit	-2902
"),	-2903
▁general	-2904
▁}`	-2905
▁pact	-2906
88	-2907
▁claim	-2908
▁}]	-2909
▁#!/	-2910
▁0000	-2911
ving	-2912
▁pag	-2913
▁'../../	-2914
▁both	-2915
wise	-2916
(?:	-2917
▁]=	-2918
▁squ	-2919
▁resize	-2920
▁gem	-2921
▁legacy	-2922
▁vendor	-2923
▁arrow	-2924
▁lit	-2925
▁guard	-2926
▁lear	-2927
▁rescue	-2928
sive	-2929
▁reactor	-2930
grade	-2931
▁ordered	-2932
▁association	-2933
▁geomet	-2934
itude	-2935
▁upstream	-2936
ulator	-2937
▁broad	-2938
▁listen	-2939
▁depre	-2940
▁pret	-2941
▁para	-2942
rie	-2943
▁san	-2944
▁202	-2945
▁]*	-2946
▁"'	-2947
▁66	-2948
▁scene	-2949
vers	-2950
▁cra	-2951
▁spawn	-2952
▁documentation	-2953
▁finished	-2954
uge	-2955
▁three	-2956
").	-2957
erry	-2958
▁plus	-2959
write	-2960
▁stret	-2961
▁('../	-2962
▁stretch	-2963
▁."""	-2964
▁:%	-2965
▁truth	-2966
▁interrupt	-2967
▁"(	-2968
▁company	-2969
▁300	-2970
ience	-2971
▁}\	-2972
▁good	-2973
▁explicit	-2974
▁\",	-2975
▁unpack	-2976
▁generation	-2977
▁diagnostics	-2978
▁]}	-2979
▁following	-2980
▁comparison	-2981
****	-2982
otion	-2983
icator	-2984
▁predict	-2985
▁65	-2986
▁angle	-2987
inc	-2988
▁known	-2989
nable	-2990
▁sem	-2991
▁such	-2992
▁alb	-2993
▁precision	-2994
▁disposable	-2995
26	-2996
▁within	-2997
95	-2998
▁management	-2999
▁directive	-3000
▁arc	-3001
licate	-3002
▁tracing	-3003
▁'$	-3004
▁sug	-3005
▁minimum	-3006
▁\'	-3007
book	-3008
▁broadcast	-3009
▁evaluate	-3010
▁dead	-3011
▁(<<	-3012
▁kit	-3013
▁phase	-3014
ys	-3015
astic	-3016
▁setter	-3017
box	-3018
▁501	-3019
▁-*	-3020
▁quant	-3021
▁phys	-3022
nect	-3023
▁thumb	-3024
▁shader	-3025
▁mu	-3026
▁animator	-3027
▁markdown	-3028
clus	-3029
▁extractor	-3030
▁51	-3031
▁compilation	-3032
▁problem	-3033
▁question	-3034
ario	-3035
ble	-3036
▁compat	-3037
▁activation	-3038
▁scenario	-3039
▁bash	-3040
▁dashboard	-3041
▁'].	-3042
▁idle	-3043
▁ce	-3044
▁reserved	-3045
▁formula	-3046
44	-3047
▁credit	-3048
▁sampler	-3049
▁maj	-3050
▁70	-3051
▁]+	-3052
zz	-3053
▁.");	-3054
▁finder	-3055
▁hy	-3056
.*	-3057
▁(",	-3058
▁asci	-3059
▁composer	-3060
▁credential	-3061
▁major	-3062
▁ascii	-3063
▁easy	-3064
▁ace	-3065
▁('../../	-3066
">	-3067
▁devel	-3068
▁restore	-3069
▁restart	-3070
▁ha	-3071
▁recipe	-3072
incip	-3073
▁princip	-3074
▁retrie	-3075
▁composite	-3076
▁equ	-3077
▁never	-3078
▁upgrade	-3079
ony	-3080
alf	-3081
5678	-3082
▁cand	-3083
▁reload	-3084
▁dam	-3085
▁highlight	-3086
▁arbit	-3087
▁principal	-3088
▁review	-3089
resent	-3090
▁*/	-3091
▁61	-3092
▁floor	-3093
▁unre	-3094
▁album	-3095
▁diagnostic	-3096
▁---@	-3097
▁outer	-3098
▁represent	-3099
▁modal	-3100
lated	-3101
▁gl	-3102
▁mic	-3103
▁sever	-3104
▁supplier	-3105
▁(!$	-3106
▁encryption	-3107
▁er	-3108
▁extended	-3109
▁subt	-3110
▁geometry	-3111
▁unset	-3112
▁-*-	-3113
▁what	-3114
ced	-3115
▁}{	-3116
▁damage	-3117
▁'--	-3118
▁offense	-3119
▁.(	-3120
▁('.	-3121
day	-3122
▁starting	-3123
▁::*;	-3124
▁:\	-3125
ridge	-3126
▁deprecation	-3127
▁]|	-3128
▁bold	-3129
▁least	-3130
emon	-3131
▁'@	-3132
min	-3133
▁elastic	-3134
▁mobile	-3135
▁88	-3136
▁fire	-3137
ric	-3138
','	-3139
ruction	-3140
▁did	-3141
40	-3142
▁jerry	-3143
▁vo	-3144
▁specify	-3145
▁unable	-3146
▁phot	-3147
▁2020	-3148
▁altern	-3149
inct	-3150
▁')).	-3151
▁inside	-3152
▁persistent	-3153
▁curr	-3154
}}	-3155
38	-3156
▁orient	-3157
▁}:	-3158
comp	-3159
▁81	-3160
▁...)	-3161
cade	-3162
▁duplicate	-3163
▁compression	-3164
ism	-3165
▁dark	-3166
▁")),	-3167
▁reject	-3168
▁micro	-3169
▁bel	-3170
▁pager	-3171
▁overlay	-3172
▁meter	-3173
▁encrypt	-3174
▁executable	-3175
▁wallet	-3176
▁aa	-3177
▁bug	-3178
▁spy	-3179
▁restri	-3180
▁gue	-3181
▁emb	-3182
▁clause	-3183
▁lite	-3184
▁foot	-3185
▁"):	-3186
▁faker	-3187
▁ba	-3188
▁lea	-3189
98	-3190
ird	-3191
▁retention	-3192
▁/^	-3193
▁pure	-3194
med	-3195
▁(|	-3196
▁arn	-3197
▁{:	-3198
rate	-3199
▁snif	-3200
▁hood	-3201
25	-3202
▁jar	-3203
▁locator	-3204
▁thing	-3205
▁emitter	-3206
▁comparator	-3207
▁>.	-3208
[\	-3209
▁revision	-3210
▁sure	-3211
▁aspect	-3212
▁average	-3213
▁\":\"	-3214
▁[]*	-3215
▁resume	-3216
▁readable	-3217
▁rename	-3218
▁naming	-3219
▁again	-3220
▁corp	-3221
▁54	-3222
▁96	-3223
cause	-3224
▁because	-3225
▁square	-3226
▁38	-3227
▁pagination	-3228
▁unch	-3229
▁embed	-3230
▁[{	-3231
▁una	-3232
▁37	-3233
▁gradient	-3234
▁indicator	-3235
▁skin	-3236
▁whether	-3237
▁flatten	-3238
▁photo	-3239
ulation	-3240
▁()}	-3241
▁brand	-3242
inel	-3243
▁zo	-3244
▁marsh	-3245
▁circuit	-3246
▁cover	-3247
▁hoodie	-3248
omat	-3249
▁minute	-3250
▁(".	-3251
▁09	-3252
▁translator	-3253
▁marshal	-3254
ivery	-3255
▁solid	-3256
▁freeze	-3257
medi	-3258
▁manual	-3259
▁atte	-3260
▁recursive	-3261
▁sentinel	-3262
▁43	-3263
▁jet	-3264
▁daemon	-3265
================	-3266
▁runnable	-3267
▁scanner	-3268
▁related	-3269
▁logic	-3270
00000000	-3271
▁watcher	-3272
▁seek	-3273
▁expan	-3274
▁keyboard	-3275
▁backward	-3276
▁these	-3277
▁sizes	-3278
▁']))	-3279
istic	-3280
▁delivery	-3281
▁vag	-3282
▁eu	-3283
▁presenter	-3284
▁infin	-3285
▁('\	-3286
▁bag	-3287
▁picker	-3288
▁ben	-3289
▁vagrant	-3290
▁("[	-3291
▁commun	-3292
▁(?:	-3293
▁exactly	-3294
▁calculate	-3295
▁resolution	-3296
▁ping	-3297
▁beagle	-3298
▁tar	-3299
▁spat	-3300
ins	-3301
▁thrown	-3302
▁included	-3303
ime	-3304
▁tech	-3305
▁spatial	-3306
angle	-3307
▁nonce	-3308
full	-3309
▁")))	-3310
▁automat	-3311
▁compact	-3312
▁tenant	-3313
▁experimental	-3314
fully	-3315
▁/{	-3316
▁curl	-3317
▁bridge	-3318
▁arm	-3319
▁orientation	-3320
▁br	-3321
▁conditional	-3322
]*	-3323
▁]['	-3324
▁apple	-3325
▁pretty	-3326
▁fre	-3327
▁wo	-3328
▁delim	-3329
▁sock	-3330
iform	-3331
▁>().	-3332
66	-3333
▁authority	-3334
oney	-3335
▁binder	-3336
▁them	-3337
▁appro	-3338
▁'''	-3339
▁coverage	-3340
iny	-3341
▁delimiter	-3342
▁arbitrary	-3343
▁che	-3344
▁inspector	-3345
ogram	-3346
▁cycle	-3347
▁printer	-3348
connect	-3349
▁correctly	-3350
▁most	-3351
▁testify	-3352
▁58	-3353
gest	-3354
▁authorize	-3355
▁distinct	-3356
▁advance	-3357
▁52	-3358
▁ban	-3359
▁74	-3360
olog	-3361
▁assignment	-3362
ically	-3363
▁swap	-3364
▁medium	-3365
▁uniform	-3366
`,	-3367
▁buttons	-3368
▁rotation	-3369
active	-3370
▁balan	-3371
▁hum	-3372
▁allocator	-3373
▁datum	-3374
ror	-3375
▁folly	-3376
▁injector	-3377
▁}},	-3378
▁panic	-3379
▁bill	-3380
▁estimator	-3381
▁expectation	-3382
▁=\"	-3383
▁optim	-3384
▁decorator	-3385
▁mirror	-3386
▁attempt	-3387
▁hit	-3388
▁yes	-3389
77	-3390
▁rating	-3391
▁cataly	-3392
39	-3393
▁synchronized	-3394
▁shard	-3395
","	-3396
▁hive	-3397
▁catalyst	-3398
▁?(:	-3399
aller	-3400
thing	-3401
▁consume	-3402
▁gray	-3403
▁radio	-3404
▁kn	-3405
▁gauge	-3406
ipping	-3407
▁disconnect	-3408
▁detect	-3409
▁combine	-3410
▁star	-3411
▁lead	-3412
▁evaluation	-3413
▁writable	-3414
!!	-3415
▁trail	-3416
▁money	-3417
▁perm	-3418
ender	-3419
▁crop	-3420
▁39	-3421
▁2019	-3422
▁histogram	-3423
10	-3424
▁severity	-3425
▁toast	-3426
▁works	-3427
▁reward	-3428
▁ann	-3429
▁76	-3430
▁projection	-3431
▁kill	-3432
▁mailer	-3433
▁very	-3434
▁partic	-3435
--------------	-3436
▁(<<~	-3437
▁guild	-3438
▁press	-3439
▁2000	-3440
▁latch	-3441
▁probe	-3442
idate	-3443
▁]](	-3444
▁aware	-3445
▁fluent	-3446
▁("{	-3447
▁95	-3448
▁flux	-3449
▁elf	-3450
▁"]["	-3451
▁uncheck	-3452
▁they	-3453
---	-3454
▁temporary	-3455
▁.');	-3456
[[	-3457
▁invent	-3458
▁friendly	-3459
▁otherwise	-3460
▁'(	-3461
▁chip	-3462
▁learning	-3463
▁(...	-3464
▁59	-3465
▁sal	-3466
▁inventory	-3467
▁trust	-3468
▁coin	-3469
▁board	-3470
▁working	-3471
▁"./	-3472
▁turn	-3473
▁:]	-3474
class	-3475
ensitive	-3476
▁2017	-3477
▁prefer	-3478
▁footer	-3479
▁classifier	-3480
▁]->	-3481
▁associated	-3482
▁quick	-3483
▁""".	-3484
▁72	-3485
▁blueprint	-3486
▁replic	-3487
▁}))	-3488
▁detector	-3489
▁unchecked	-3490
▁]])	-3491
▁.,	-3492
▁circle	-3493
▁cour	-3494
▁needs	-3495
▁relationship	-3496
▁"})	-3497
▁effects	-3498
▁successfully	-3499
▁particle	-3500
▁handsh	-3501
▁leaf	-3502
▁weak	-3503
▁finagle	-3504
\/	-3505
▁/*	-3506
──	-3507
▁candidate	-3508
vor	-3509
▁priv	-3510
▁mutation	-3511
▁pict	-3512
▁representation	-3513
▁instruction	-3514
▁?).	-3515
▁abort	-3516
▁()]	-3517
▁interaction	-3518
▁market	-3519
▁trial	-3520
▁contrib	-3521
▁ring	-3522
▁2018	-3523
▁limiter	-3524
▁infra	-3525
▁operand	-3526
▁curve	-3527
ology	-3528
ipp	-3529
▁79	-3530
▁physical	-3531
▁performance	-3532
▁digit	-3533
▁91	-3534
▁hard	-3535
▁("")	-3536
▁001	-3537
▁retrieve	-3538
▁utility	-3539
▁.=	-3540
▁ability	-3541
▁balancer	-3542
▁>>(	-3543
▁('--	-3544
▁markup	-3545
48	-3546
▁soft	-3547
▁85	-3548
▁deferred	-3549
▁built	-3550
▁'):	-3551
ivate	-3552
▁nan	-3553
▁walk	-3554
▁how	-3555
▁motion	-3556
▁cart	-3557
▁accepted	-3558
▁)")	-3559
flow	-3560
▁lif	-3561
▁deter	-3562
▁pause	-3563
lying	-3564
▁ing	-3565
uffle	-3566
rator	-3567
▁chainer	-3568
ara	-3569
▁"+	-3570
▁tracer	-3571
▁authorized	-3572
▁picture	-3573
▁minor	-3574
▁chro	-3575
▁slow	-3576
▁101	-3577
▁declared	-3578
▁national	-3579
ffic	-3580
▁expl	-3581
▁cry	-3582
▁[:,	-3583
60	-3584
▁49	-3585
79	-3586
▁:/	-3587
▁secondary	-3588
]+	-3589
▁logged	-3590
▁leader	-3591
▁<<-	-3592
▁caller	-3593
▁bench	-3594
mar	-3595
▁.\	-3596
?=	-3597
▁'},	-3598
▁purch	-3599
▁]];	-3600
▁even	-3601
▁way	-3602
▁/#{	-3603
▁quantity	-3604
unded	-3605
▁realm	-3606
▁purchase	-3607
▁78	-3608
▁::<	-3609
▁(&:	-3610
▁dagger	-3611
▁"></	-3612
▁bank	-3613
▁undert	-3614
▁grant	-3615
?.	-3616
▁aes	-3617
▁53	-3618
▁undertow	-3619
▁fu	-3620
▁recon	-3621
▁human	-3622
▁slack	-3623
▁{\	-3624
▁locked	-3625
▁{}",	-3626
graph	-3627
▁'][	-3628
▁underlying	-3629
▁sessions	-3630
▁cobra	-3631
uc	-3632
▁bla	-3633
lode	-3634
▁trun	-3635
▁.')	-3636
▁boundary	-3637
▁inher	-3638
mous	-3639
-----	-3640
lict	-3641
▁))]	-3642
▁()[	-3643
▁offer	-3644
▁2010	-3645
28	-3646
utor	-3647
▁(""	-3648
▁/**	-3649
▁404	-3650
▁hot	-3651
ught	-3652
▁{|	-3653
▁accessibility	-3654
▁、	-3655
ropy	-3656
((	-3657
▁dur	-3658
▁inherit	-3659
▁semant	-3660
▁volat	-3661
pection	-3662
zzle	-3663
▁slider	-3664
▁adj	-3665
▁2015	-3666
▁aff	-3667
▁>"	-3668
▁az	-3669
▁excel	-3670
▁feat	-3671
▁news	-3672
▁fork	-3673
▁>("	-3674
▁verifier	-3675
▁third	-3676
chant	-3677
▁dropout	-3678
▁)|	-3679
▁entropy	-3680
▁volatile	-3681
▁84	-3682
▁cake	-3683
▁boost	-3684
▁violation	-3685
ral	-3686
▁sentence	-3687
▁"../	-3688
ograph	-3689
▁sta	-3690
▁alive	-3691
▁letter	-3692
▁conflict	-3693
▁98	-3694
▁profiler	-3695
▁anony	-3696
ceed	-3697
ern	-3698
▁buff	-3699
▁="$	-3700
oper	-3701
▁)'	-3702
▁("./	-3703
▁pac	-3704
▁("",	-3705
▁47	-3706
▁rack	-3707
\.	-3708
▁"*	-3709
▁regression	-3710
▁fr	-3711
▁)):	-3712
▁expir	-3713
▁overflow	-3714
▁pot	-3715
▁}>	-3716
▁nat	-3717
▁cask	-3718
▁expire	-3719
▁anonymous	-3720
▁propos	-3721
▁]("	-3722
▁proper	-3723
▁production	-3724
vie	-3725
▁movie	-3726
▁handshake	-3727
▁iteration	-3728
]]	-3729
▁frequ	-3730
▁smo	-3731
▁:",	-3732
ople	-3733
iness	-3734
▁)},	-3735
▁people	-3736
▁("#	-3737
uous	-3738
▁rotate	-3739
▁tele	-3740
▁="{{	-3741
▁azure	-3742
▁gink	-3743
▁ginkgo	-3744
▁normalizer	-3745
▁leave	-3746
▁shuffle	-3747
▁"..	-3748
▁<*	-3749
▁recorder	-3750
▁scr	-3751
▁proph	-3752
▁*,	-3753
▁instrumentation	-3754
ating	-3755
▁>'	-3756
▁spin	-3757
▁our	-3758
▁`)	-3759
▁inserter	-3760
▁percentage	-3761
▁)\	-3762
61	-3763
clusive	-3764
▁(!(	-3765
▁detach	-3766
ivity	-3767
struct	-3768
▁enumerate	-3769
▁issu	-3770
ippet	-3771
▁snippet	-3772
▁nu	-3773
▁ari	-3774
>>	-3775
▁executed	-3776
011	-3777
▁("-	-3778
▁'<?	-3779
ove	-3780
▁fig	-3781
▁trunc	-3782
▁express	-3783
▁lens	-3784
234	-3785
▁192	-3786
▁suggest	-3787
ecy	-3788
▁prophecy	-3789
mber	-3790
▁diagram	-3791
▁ticker	-3792
▁acquire	-3793
▁qualified	-3794
▁paragraph	-3795
▁aggregation	-3796
▁inflate	-3797
▁mid	-3798
▁biz	-3799
▁----------	-3800
▁tear	-3801
▁notifier	-3802
▁look	-3803
▁>::	-3804
▁above	-3805
▁cult	-3806
▁quality	-3807
41	-3808
▁ask	-3809
eting	-3810
member	-3811
▁midd	-3812
▁)*	-3813
ired	-3814
▁bor	-3815
▁sand	-3816
++	-3817
mediate	-3818
▁aria	-3819
▁skill	-3820
▁150	-3821
▁camp	-3822
51	-3823
▁accessible	-3824
▁remember	-3825
xus	-3826
▁nexus	-3827
oker	-3828
rete	-3829
▁63	-3830
▁92	-3831
▁77	-3832
▁party	-3833
▁(["	-3834
▁('<	-3835
▁strong	-3836
▁permit	-3837
▁tun	-3838
▁risk	-3839
▁noise	-3840
▁(((	-3841
▁culture	-3842
56789	-3843
▁leading	-3844
▁invoker	-3845
▁proposal	-3846
▁temporal	-3847
▁love	-3848
▁cut	-3849
▁brains	-3850
▁68	-3851
▁"";	-3852
▁dumper	-3853
▁"]);	-3854
rect	-3855
▁])(	-3856
▁pie	-3857
▁authenticator	-3858
▁tiny	-3859
▁yel	-3860
▁cas	-3861
$/	-3862
▁trip	-3863
▁'[	-3864
▁&=	-3865
▁57	-3866
▁recip	-3867
▁den	-3868
▁minus	-3869
▁serve	-3870
▁rich	-3871
▁observe	-3872
▁half	-3873
▁][:	-3874
uation	-3875
▁restrict	-3876
▁;\	-3877
▁confirmation	-3878
▁+)	-3879
▁frequency	-3880
▁crit	-3881
}"	-3882
▁incor	-3883
▁expiration	-3884
▁crypt	-3885
▁prepared	-3886
▁hover	-3887
▁trainer	-3888
▁written	-3889
loy	-3890
▁interpol	-3891
▁classification	-3892
▁$"	-3893
▁({"	-3894
▁design	-3895
▁]",	-3896
▁front	-3897
▁unary	-3898
▁transient	-3899
▁))))	-3900
▁"@	-3901
▁pres	-3902
▁]()	-3903
▁being	-3904
uce	-3905
▁recording	-3906
▁soap	-3907
▁sequential	-3908
▁($"	-3909
▁incorrect	-3910
1111	-3911
▁expose	-3912
▁cos	-3913
▁yellow	-3914
▁accur	-3915
▁"=>	-3916
▁subst	-3917
▁curator	-3918
▁sat	-3919
▁invoice	-3920
▁infer	-3921
▁%%	-3922
').	-3923
▁alter	-3924
▁pref	-3925
▁infinity	-3926
▁dia	-3927
▁journ	-3928
▁2016	-3929
▁mixed	-3930
▁during	-3931
emy	-3932
▁led	-3933
▁employ	-3934
▁ae	-3935
▁pet	-3936
▁interrupted	-3937
▁>',	-3938
▁fetcher	-3939
▁authenticate	-3940
▁choose	-3941
ensor	-3942
▁band	-3943
eper	-3944
▁("<	-3945
inger	-3946
▁prel	-3947
&&	-3948
structure	-3949
ga	-3950
▁recent	-3951
▁recipient	-3952
▁ze	-3953
▁pane	-3954
▁71	-3955
▁sniff	-3956
23	-3957
▁guest	-3958
▁waiting	-3959
▁detection	-3960
▁rollback	-3961
▁prote	-3962
▁develop	-3963
▁shop	-3964
46	-3965
▁bat	-3966
▁prelude	-3967
▁compatible	-3968
▁overwrite	-3969
▁infrastructure	-3970
▁vim	-3971
▁unm	-3972
versal	-3973
▁/%	-3974
▁merchant	-3975
▁600	-3976
▁traverse	-3977
get	-3978
nail	-3979
▁thumbnail	-3980
▁("--	-3981
▁produce	-3982
head	-3983
▁dialect	-3984
▁feedback	-3985
uf	-3986
▁employee	-3987
▁=$(	-3988
▁---*	-3989
▁prediction	-3990
▁appli	-3991
▁canon	-3992
▁<<<	-3993
▁handling	-3994
73	-3995
▁swift	-3996
▁heart	-3997
▁reve	-3998
ement	-3999
▁swipe	-4000
▁>\	-4001
▁issuer	-4002
sp	-4003
▁hier	-4004
▁submission	-4005
▁hierarch	-4006
ted	-4007
}",	-4008
▁enumerator	-4009
▁>;	-4010
▁-%	-4011
▁('#	-4012
▁activate	-4013
▁protection	-4014
724	-4015
###	-4016
▁past	-4017
▁"}},	-4018
▁noop	-4019
▁@"	-4020
▁od	-4021
▁rendering	-4022
▁presence	-4023
▁smack	-4024
▁62	-4025
▁transformation	-4026
rier	-4027
▁inbound	-4028
▁2011	-4029
vis	-4030
▁###	-4031
▁69	-4032
▁ticket	-4033
▁timber	-4034
▁applied	-4035
▁ray	-4036
▁gold	-4037
▁allocate	-4038
▁teleg	-4039
sel	-4040
▁pow	-4041
▁telegram	-4042
▁propag	-4043
▁=~	-4044
▁ste	-4045
▁transpa	-4046
irty	-4047
▁unl	-4048
▁;",	-4049
▁today	-4050
▁journal	-4051
▁inverse	-4052
▁colo	-4053
▁120	-4054
ll	-4055
▁potential	-4056
▁("""	-4057
iable	-4058
▁[@	-4059
▁inflect	-4060
▁tint	-4061
▁%>	-4062
▁"><	-4063
▁calling	-4064
▁cascade	-4065
▁\",\"	-4066
▁grain	-4067
▁:!	-4068
▁89	-4069
oy	-4070
▁![	-4071
▁bob	-4072
▁middle	-4073
▁reveal	-4074
▁ingress	-4075
▁semantic	-4076
▁('@	-4077
▁<>	-4078
▁tax	-4079
▁billing	-4080
▁fraction	-4081
mer	-4082
olution	-4083
▁rab	-4084
▁drawer	-4085
▁drawing	-4086
▁studio	-4087
▁tagged	-4088
▁{}{	-4089
▁$',	-4090
▁ey	-4091
▁course	-4092
acing	-4093
▁spacing	-4094
▁!"	-4095
▁rob	-4096
quent	-4097
ident	-4098
(\	-4099
▁accuracy	-4100
▁'=>	-4101
▁canonical	-4102
▁rectangle	-4103
▁latency	-4104
▁87	-4105
▁ide	-4106
▁expanded	-4107
▁ago	-4108
▁82	-4109
▁migrate	-4110
▁sampling	-4111
ancy	-4112
▁trailing	-4113
{$	-4114
▁dog	-4115
▁(',	-4116
▁assume	-4117
▁("$	-4118
▁difference	-4119
ilar	-4120
▁viewer	-4121
▁va	-4122
▁fully	-4123
▁('-	-4124
▁ur	-4125
oming	-4126
▁palet	-4127
▁za	-4128
etic	-4129
unce	-4130
▁>&	-4131
▁palette	-4132
▁rabbit	-4133
▁'",	-4134
▁foreground	-4135
▁similar	-4136
▁ve	-4137
▁blocked	-4138
▁forecast	-4139
▁alternate	-4140
aker	-4141
▁wide	-4142
ane	-4143
mine	-4144
▁attached	-4145
▁]));	-4146
▁outcome	-4147
▁ak	-4148
uck	-4149
▁)/	-4150
▁]"	-4151
▁dirty	-4152
▁'>	-4153
▁launcher	-4154
▁voice	-4155
▁>:	-4156
▁+"	-4157
▁below	-4158
▁mus	-4159
▁intro	-4160
ually	-4161
▁yet	-4162
(\\	-4163
▁consist	-4164
▁well	-4165
▁.'/	-4166
▁dry	-4167
cial	-4168
▁zoom	-4169
'))	-4170
▁ord	-4171
▁stere	-4172
▁polyg	-4173
▁rewrite	-4174
▁94	-4175
▁replacement	-4176
▁cub	-4177
▁rocket	-4178
▁,'	-4179
▁=/	-4180
ging	-4181
▁sandbox	-4182
▁particip	-4183
809	-4184
▁teard	-4185
▁teardown	-4186
▁ownership	-4187
▁timing	-4188
▁}-	-4189
▁around	-4190
▁--[[	-4191
▁,-	-4192
▁>",	-4193
▁sess	-4194
▁comma	-4195
ensity	-4196
▁sph	-4197
▁corner	-4198
erce	-4199
▁drive	-4200
▁slave	-4201
▁sprite	-4202
▁67	-4203
▁desired	-4204
▁contributor	-4205
orph	-4206
▁mism	-4207
▁street	-4208
▁mismatch	-4209
▁ball	-4210
▁elect	-4211
▁currently	-4212
athon	-4213
▁marathon	-4214
▁their	-4215
▁requirement	-4216
▁would	-4217
vey	-4218
▁ang	-4219
hape	-4220
▁reshape	-4221
▁flip	-4222
▁alarm	-4223
▁ा	-4224
▁!")	-4225
▁!',	-4226
▁spir	-4227
▁development	-4228
▁creative	-4229
▁}}</	-4230
▁finger	-4231
▁/.	-4232
▁vertices	-4233
▁elm	-4234
▁gif	-4235
▁pix	-4236
▁assigned	-4237
uffer	-4238
▁opening	-4239
▁care	-4240
▁decay	-4241
▁slash	-4242
▁four	-4243
▁hierarchy	-4244
▁maint	-4245
▁participant	-4246
▁pic	-4247
▁('%	-4248
▁800	-4249
▁seen	-4250
▁monad	-4251
▁music	-4252
ho	-4253
^^^^^^^^	-4254
▁/'	-4255
enge	-4256
▁'^	-4257
▁gam	-4258
▁say	-4259
▁simp	-4260
▁favor	-4261
▁opacity	-4262
▁atl	-4263
oc	-4264
▁badge	-4265
▁replication	-4266
▁fade	-4267
▁statistic	-4268
tter	-4269
▁/$	-4270
▁stuffer	-4271
▁later	-4272
▁equality	-4273
▁veh	-4274
erg	-4275
▁vehicle	-4276
52	-4277
?)	-4278
▁2012	-4279
▁reading	-4280
▁unauth	-4281
▁lift	-4282
▁slide	-4283
▁ground	-4284
▁@@	-4285
▁"\"	-4286
▁wall	-4287
▁prun	-4288
▁chall	-4289
▁dan	-4290
▁finite	-4291
▁stopped	-4292
▁(**	-4293
▁building	-4294
▁'\\	-4295
▁shipping	-4296
▁breaker	-4297
'),	-4298
▁/)	-4299
▁}</	-4300
▁heading	-4301
▁bear	-4302
▁83	-4303
▁epis	-4304
▁traffic	-4305
▁forb	-4306
********	-4307
▁cuc	-4308
▁cucumber	-4309
▁ear	-4310
▁anything	-4311
▁pickle	-4312
▁}));	-4313
▁\.	-4314
▁challenge	-4315
▁ordinal	-4316
▁stable	-4317
ode	-4318
esis	-4319
▁brace	-4320
▁brush	-4321
▁exporter	-4322
▁20210724	-4323
▁preferred	-4324
▁adjust	-4325
vity	-4326
':	-4327
19	-4328
▁office	-4329
""".	-4330
▁-\	-4331
▁incoming	-4332
▁medi	-4333
▁caster	-4334
▁!(:	-4335
▁")(	-4336
▁maker	-4337
▁purp	-4338
▁capability	-4339
▁know	-4340
▁guzzle	-4341
▁peek	-4342
▁salt	-4343
▁raised	-4344
▁conference	-4345
emaph	-4346
▁semaph	-4347
▁semaphore	-4348
▁73	-4349
▁bol	-4350
▁whe	-4351
▁<%	-4352
▁/",	-4353
▁envel	-4354
mark	-4355
▁interse	-4356
▁"==	-4357
▁([[	-4358
▁stick	-4359
▁polygon	-4360
▁gravity	-4361
▁bon	-4362
▁applic	-4363
▁episode	-4364
▁bea	-4365
▁urn	-4366
allow	-4367
ome	-4368
▁}}"	-4369
▁internals	-4370
itect	-4371
▁architect	-4372
▁automatically	-4373
▁craw	-4374
▁able	-4375
ival	-4376
▁spell	-4377
▁quart	-4378
▁stamp	-4379
▁ant	-4380
▁subclass	-4381
▁advanced	-4382
▁consider	-4383
side	-4384
▁`${	-4385
▁artist	-4386
▁sensitive	-4387
▁/,	-4388
▁tur	-4389
▁--;	-4390
▁cool	-4391
▁converted	-4392
▁sequel	-4393
▁til	-4394
▁throt	-4395
▁}(	-4396
▁wheel	-4397
▁critical	-4398
▁ie	-4399
▁envelope	-4400
▁))).	-4401
▁!");	-4402
▁="/	-4403
ensus	-4404
▁bounding	-4405
▁;;	-4406
▁compatibility	-4407
▁ply	-4408
▁otter	-4409
▁aggregator	-4410
00000	-4411
▁]{	-4412
za	-4413
▁.."	-4414
aign	-4415
▁water	-4416
▁campaign	-4417
▁banner	-4418
arable	-4419
▁ea	-4420
▁synth	-4421
▁signer	-4422
64	-4423
▁gamma	-4424
▁correction	-4425
▁("../	-4426
▁2014	-4427
alm	-4428
rena	-4429
▁subset	-4430
▁portal	-4431
beat	-4432
▁truncate	-4433
▁)],	-4434
▁exponent	-4435
tuce	-4436
▁lettuce	-4437
▁,)	-4438
▁quot	-4439
▁optimize	-4440
▁singular	-4441
▁quit	-4442
▁architecture	-4443
▁heartbeat	-4444
▁replay	-4445
▁still	-4446
oug	-4447
▁250	-4448
arate	-4449
▁({})	-4450
▁succeed	-4451
▁}");	-4452
▁combined	-4453
93	-4454
cond	-4455
▁++]	-4456
▁attack	-4457
for	-4458
▁convers	-4459
ka	-4460
▁quad	-4461
▁stateful	-4462
▁97	-4463
▁decomp	-4464
miss	-4465
self	-4466
....	-4467
▁<*>	-4468
▁analyze	-4469
▁axes	-4470
▁spiral	-4471
▁twist	-4472
▁180	-4473
▁'*	-4474
▁-->	-4475
▁topology	-4476
▁conversation	-4477
▁caught	-4478
▁solidity	-4479
▁&[	-4480
▁study	-4481
};	-4482
▁accum	-4483
▁{",	-4484
▁'=	-4485
▁phra	-4486
▁parcel	-4487
▁solver	-4488
▁ship	-4489
ague	-4490
▁{#	-4491
▁&&(	-4492
▁.<	-4493
▁oct	-4494
lev	-4495
oth	-4496
▁developer	-4497
68	-4498
▁qui	-4499
▁equip	-4500
▁quartz	-4501
▁buy	-4502
▁prime	-4503
acle	-4504
▁ko	-4505
▁plane	-4506
▁scratch	-4507
▁consensus	-4508
▁bonus	-4509
▁finalize	-4510
▁paren	-4511
▁)?;	-4512
▁bolt	-4513
~~	-4514
▁}".	-4515
▁160	-4516
▁quiet	-4517
▁264	-4518
▁provision	-4519
▁league	-4520
▁#:	-4521
▁.`	-4522
▁divider	-4523
65	-4524
▁extent	-4525
▁psalm	-4526
▁chrome	-4527
▁]]]	-4528
▁nick	-4529
▁discover	-4530
▁six	-4531
quet	-4532
iry	-4533
▁elo	-4534
▁eloquent	-4535
▁={"	-4536
▁recovery	-4537
▁compressed	-4538
▁charge	-4539
▁fingerprint	-4540
▁arena	-4541
▁equival	-4542
▁mill	-4543
▁[#	-4544
▁determine	-4545
▁localization	-4546
▁parquet	-4547
▁convolution	-4548
▁relic	-4549
05	-4550
ven	-4551
ifiable	-4552
▁latitude	-4553
▁vault	-4554
▁alch	-4555
▁*=	-4556
▁201809	-4557
▁refund	-4558
▁hero	-4559
▁jest	-4560
▁111	-4561
▁stuff	-4562
▁[][]	-4563
▁forbidden	-4564
▁2007	-4565
▁guide	-4566
▁anno	-4567
▁sensor	-4568
▁outbound	-4569
008	-4570
▁inspection	-4571
▁("(	-4572
▁<?=	-4573
▁?):	-4574
▁"../../	-4575
ipse	-4576
▁}}'	-4577
▁rune	-4578
▁presentation	-4579
▁decision	-4580
▁stock	-4581
▁ceil	-4582
▁oracle	-4583
▁supply	-4584
▁tid	-4585
▁song	-4586
cessary	-4587
▁business	-4588
▁son	-4589
▁invalidate	-4590
metry	-4591
▁compo	-4592
▁interactive	-4593
▁/:	-4594
▁au	-4595
▁gather	-4596
▁normalization	-4597
ough	-4598
▁due	-4599
000000	-4600
▁concern	-4601
▁sten	-4602
▁stereotype	-4603
▁outline	-4604
▁longitude	-4605
▁:',	-4606
▁grow	-4607
▁())->	-4608
▁membership	-4609
▁pen	-4610
▁93	-4611
▁pun	-4612
▁vel	-4613
▁floating	-4614
▁invite	-4615
▁']]	-4616
▁]")	-4617
▁gram	-4618
▁("#{	-4619
▁ary	-4620
▁snow	-4621
orth	-4622
▁swing	-4623
▁meeting	-4624
▁")));	-4625
▁concrete	-4626
▁tip	-4627
▁limited	-4628
▁sans	-4629
▁substit	-4630
``	-4631
▁alchemy	-4632
▁8080	-4633
▁deg	-4634
▁were	-4635
▁avoid	-4636
apter	-4637
▁chapter	-4638
▁्	-4639
▁properly	-4640
▁&'	-4641
82	-4642
▁*)(	-4643
▁community	-4644
▁goal	-4645
▁roi	-4646
▁truthy	-4647
▁recover	-4648
▁favorite	-4649
▁decoration	-4650
▁appe	-4651
sec	-4652
▁blend	-4653
ocity	-4654
▁hold	-4655
▁twisted	-4656
▁sugar	-4657
apse	-4658
▁phrase	-4659
▁installation	-4660
']	-4661
▁/><	-4662
▁eager	-4663
▁facade	-4664
▁attention	-4665
ppel	-4666
▁(())	-4667
ppelin	-4668
▁zeppelin	-4669
▁collision	-4670
▁dependent	-4671
▁outside	-4672
▁synthetic	-4673
▁5000	-4674
▁=-	-4675
▁intros	-4676
▁:,	-4677
▁ty	-4678
orized	-4679
▁enfor	-4680
▁"}}	-4681
▁relay	-4682
▁crash	-4683
apon	-4684
▁weapon	-4685
etime	-4686
▁velocity	-4687
▁undo	-4688
vent	-4689
45	-4690
gebra	-4691
▁algebra	-4692
▁unav	-4693
ariant	-4694
▁better	-4695
▁inactive	-4696
▁comput	-4697
by	-4698
▁announce	-4699
▁=!	-4700
▁unavail	-4701
▁derived	-4702
▁those	-4703
▁wel	-4704
▁>?	-4705
▁concurrency	-4706
▁coco	-4707
▁broken	-4708
▁unauthorized	-4709
▁east	-4710
▁}],	-4711
▁?"	-4712
','','	-4713
▁seg	-4714
▁/',	-4715
▁ya	-4716
▁privacy	-4717
▁convention	-4718
▁=${	-4719
▁dock	-4720
▁]["	-4721
▁har	-4722
▁replica	-4723
▁saf	-4724
▁transpose	-4725
▁unavailable	-4726
aque	-4727
▁}";	-4728
▁opaque	-4729
idence	-4730
▁999	-4731
▁nid	-4732
▁wa	-4733
▁']),	-4734
▁atlas	-4735
▁tweet	-4736
raw	-4737
bone	-4738
"));	-4739
▁danger	-4740
([	-4741
▁)-	-4742
▁fla	-4743
▁}}',	-4744
▁backbone	-4745
▁)])	-4746
ormed	-4747
▁downstream	-4748
▁gap	-4749
▁`(	-4750
▁sell	-4751
42	-4752
rance	-4753
▁paper	-4754
▁[]>	-4755
viour	-4756
▁behaviour	-4757
▁sam	-4758
▁depart	-4759
▁terminate	-4760
▁alternative	-4761
9999	-4762
▁animated	-4763
▁dismiss	-4764
▁measurement	-4765
▁malf	-4766
▁mux	-4767
97	-4768
▁notebook	-4769
▁401	-4770
▁{$	-4771
▁social	-4772
▁timed	-4773
▁exclusive	-4774
osity	-4775
?;	-4776
▁)+	-4777
▁[]{	-4778
▁="${	-4779
''	-4780
▁intern	-4781
▁mall	-4782
▁malformed	-4783
▁|}	-4784
▁density	-4785
▁dial	-4786
▁repeated	-4787
▁'/'	-4788
▁spot	-4789
▁decre	-4790
▁die	-4791
▁gender	-4792
▁interpolation	-4793
▁navigate	-4794
▁202105	-4795
▁suggestion	-4796
▁scaling	-4797
▁(;	-4798
▁")}	-4799
▁against	-4800
▁compound	-4801
▁caption	-4802
ledge	-4803
▁.(*	-4804
▁<(	-4805
▁inference	-4806
▁456	-4807
▁224	-4808
▁202102	-4809
▁202011	-4810
minist	-4811
most	-4812
▁administ	-4813
▁glide	-4814
[/	-4815
▁'{{	-4816
▁"/"	-4817
▁passing	-4818
▁interpolator	-4819
▁""")	-4820
▁sto	-4821
▁'})	-4822
▁eye	-4823
▁unlink	-4824
▁blur	-4825
▁lifetime	-4826
alk	-4827
idual	-4828
▁12345	-4829
▁verbosity	-4830
▁$.	-4831
rise	-4832
▁(":	-4833
▁gly	-4834
▁invert	-4835
▁!",	-4836
▁?',	-4837
▁({},	-4838
ivot	-4839
▁beam	-4840
▁mart	-4841
▁pivot	-4842
▁glyph	-4843
inx	-4844
▁great	-4845
▁prevent	-4846
"""	-4847
▁sphinx	-4848
▁door	-4849
▁navigator	-4850
▁spinner	-4851
ately	-4852
▁publication	-4853
▁'+	-4854
ished	-4855
▁student	-4856
▁bearer	-4857
▁guess	-4858
▁helm	-4859
▁replicated	-4860
▁directly	-4861
▁"");	-4862
▁mockery	-4863
name	-4864
▁'#{	-4865
▁")},	-4866
▁(<	-4867
cil	-4868
▁numer	-4869
of	-4870
achable	-4871
▁",{	-4872
aper	-4873
ureka	-4874
▁eureka	-4875
▁think	-4876
▁[%	-4877
▁listing	-4878
▁))),	-4879
shine	-4880
▁[\	-4881
▁raft	-4882
▁punct	-4883
▁workbook	-4884
▁legend	-4885
▁wave	-4886
ergy	-4887
▁storm	-4888
eer	-4889
▁made	-4890
▁little	-4891
▁fif	-4892
▁energy	-4893
▁plumb	-4894
▁ripper	-4895
▁incident	-4896
▁sharper	-4897
▁camel	-4898
▁(/\	-4899
▁silent	-4900
▁]',	-4901
▁calculator	-4902
▁preset	-4903
▁plumbing	-4904
▁angular	-4905
▁discard	-4906
▁jump	-4907
▁sunshine	-4908
▁oc	-4909
▁168	-4910
▁decorated	-4911
▁=""	-4912
▁?></	-4913
(?	-4914
▁implode	-4915
orical	-4916
▁audience	-4917
▁nut	-4918
▁populate	-4919
▁allocation	-4920
▁"',	-4921
▁nar	-4922
▁(("	-4923
▁sniffer	-4924
▁welcome	-4925
▁:[	-4926
▁tang	-4927
▁placement	-4928
▁collapse	-4929
▁("@	-4930
▁(...)	-4931
▁,\	-4932
▁⇒	-4933
▁figure	-4934
▁inserted	-4935
▁hosting	-4936
▁postfix	-4937
▁stan	-4938
▁animate	-4939
▁":{"	-4940
▁stanza	-4941
89	-4942
▁privile	-4943
eta	-4944
▁remain	-4945
▁`:	-4946
▁='%	-4947
▁zir	-4948
▁zircon	-4949
▁slo	-4950
▁>]	-4951
▁>):	-4952
▁"/>	-4953
▁#"	-4954
▁())).	-4955
▁apt	-4956
▁"!	-4957
▁rake	-4958
serve	-4959
iner	-4960
▁rex	-4961
reat	-4962
▁circular	-4963
script	-4964
▁fly	-4965
vement	-4966
▁234	-4967
▁story	-4968
▁purpose	-4969
▁propagation	-4970
sil	-4971
▁draft	-4972
iation	-4973
▁<!	-4974
▁glue	-4975
silon	-4976
▁latex	-4977
▁230	-4978
▁(?	-4979
▁om	-4980
▁ember	-4981
meter	-4982
▁900	-4983
▁give	-4984
▁epsilon	-4985
▁captor	-4986
▁refute	-4987
▁shown	-4988
▁0001	-4989
▁temper	-4990
▁deal	-4991
▁stem	-4992
▁')),	-4993
▁transactional	-4994
▁=['	-4995
▁]\	-4996
itation	-4997
▁"."	-4998
▁>/	-4999
▁confirmed	-5000
▁restriction	-5001
▁temperature	-5002
▁piece	-5003
▁-.	-5004
▁zoo	-5005
▁subtitle	-5006
▁bing	-5007
▁manga	-5008
▁}')	-5009
▁installer	-5010
▁handled	-5011
▁copied	-5012
▁2013	-5013
{\"	-5014
▁discri	-5015
▁ecl	-5016
▁reb	-5017
▁rounded	-5018
▁unb	-5019
▁cheer	-5020
▁gest	-5021
▁leak	-5022
▁>`	-5023
▁204	-5024
▁()(	-5025
▁expiry	-5026
▁']).	-5027
▁)?.	-5028
▁writing	-5029
▁equivalent	-5030
▁202008	-5031
▁iterate	-5032
83	-5033
▁eclipse	-5034
man	-5035
▁explode	-5036
▁fab	-5037
▁bid	-5038
▁canal	-5039
iguous	-5040
▁corresp	-5041
▁%(	-5042
▁spon	-5043
▁gesture	-5044
▁cube	-5045
▁explo	-5046
▁correspond	-5047
▁mass	-5048
fl	-5049
▁blah	-5050
▁>{	-5051
▁preserve	-5052
▁cheerio	-5053
▁reuse	-5054
▁absent	-5055
▁comparable	-5056
ipper	-5057
▁complexity	-5058
▁effective	-5059
▁vote	-5060
▁\/	-5061
clusion	-5062
▁hyper	-5063
▁qualifier	-5064
▁transparent	-5065
▁]].	-5066
▁([],	-5067
▁preced	-5068
▁.#	-5069
▁whole	-5070
▁indirect	-5071
▁might	-5072
▁throttle	-5073
▁chef	-5074
'.$	-5075
▁discrimin	-5076
▁bud	-5077
▁deadline	-5078
▁?("	-5079
▁unh	-5080
▁sigma	-5081
▁keeper	-5082
cher	-5083
▁precedence	-5084
87	-5085
orer	-5086
▁384	-5087
▁narrow	-5088
▁.()	-5089
▁triggered	-5090
▁'::	-5091
▁micrometer	-5092
▁fault	-5093
jo	-5094
▁gin	-5095
▁cleaner	-5096
▁/\	-5097
▁shall	-5098
▁"][	-5099
▁occ	-5100
▁exposed	-5101
▁retain	-5102
▁crawler	-5103
▁.";	-5104
▁chron	-5105
▁multiplier	-5106
▁everything	-5107
▁approval	-5108
rink	-5109
enger	-5110
▁-------	-5111
▁%}	-5112
▁lease	-5113
▁gain	-5114
▁survey	-5115
▁who	-5116
▁"?	-5117
usion	-5118
▁sponsor	-5119
▁wer	-5120
▁flume	-5121
▁=["	-5122
'/	-5123
▁recogn	-5124
▁early	-5125
lation	-5126
*.	-5127
▁(/^	-5128
▁\$	-5129
▁gid	-5130
isf	-5131
▁rook	-5132
62	-5133
arest	-5134
▁nearest	-5135
▁brew	-5136
▁typ	-5137
▁':'	-5138
▁grammar	-5139
▁indexing	-5140
▁awes	-5141
▁:-	-5142
▁borrow	-5143
▁kra	-5144
▁accord	-5145
▁360	-5146
▁immediate	-5147
▁resil	-5148
▁}()	-5149
▁burn	-5150
▁near	-5151
▁deliver	-5152
▁kraken	-5153
(*	-5154
▁!!.	-5155
▁important	-5156
▁\"%	-5157
irection	-5158
▁reducer	-5159
▁clamp	-5160
▁optimization	-5161
▁bracket	-5162
▁far	-5163
▁marten	-5164
mium	-5165
▁sib	-5166
▁indexer	-5167
▁robot	-5168
▁fog	-5169
▁necessary	-5170
▁persister	-5171
▁,[	-5172
▁awesome	-5173
▁amb	-5174
▁caret	-5175
score	-5176
▁coerce	-5177
▁life	-5178
([^	-5179
▁110	-5180
▁240	-5181
▁"=>"	-5182
ally	-5183
▁getting	-5184
▁splitter	-5185
▁modification	-5186
"]	-5187
omm	-5188
▁~>	-5189
▁gas	-5190
▁parenth	-5191
▁multiply	-5192
▁))(	-5193
▁([])	-5194
▁:+	-5195
▁coe	-5196
▁conduct	-5197
▁displayed	-5198
▁exposure	-5199
▁calculation	-5200
▁?",	-5201
▁failing	-5202
▁weighted	-5203
▁>>,	-5204
▁']->	-5205
▁coup	-5206
▁gr	-5207
▁playback	-5208
▁deny	-5209
sm	-5210
.+	-5211
▁]\\	-5212
▁.%	-5213
859	-5214
▁sending	-5215
▁spender	-5216
▁correlation	-5217
▁<<~	-5218
▁personal	-5219
▁insensitive	-5220
▁underscore	-5221
▁division	-5222
▁intermediate	-5223
▁)((	-5224
▁justify	-5225
▁envoy	-5226
ax	-5227
aily	-5228
▁daily	-5229
▁ि	-5230
ny	-5231
enance	-5232
▁colour	-5233
▁consul	-5234
▁"\\	-5235
▁proced	-5236
▁pal	-5237
going	-5238
▁acme	-5239
▁ending	-5240
23456789	-5241
▁pacific	-5242
▁land	-5243
001	-5244
gun	-5245
vy	-5246
▁central	-5247
▁subtract	-5248
▁resilience	-5249
flake	-5250
▁snowflake	-5251
▁reserv	-5252
itize	-5253
▁tilt	-5254
▁fresh	-5255
────	-5256
▁disposed	-5257
}.	-5258
▁invariant	-5259
▁pul	-5260
▁bulkhead	-5261
▁rancher	-5262
▁grou	-5263
▁torrent	-5264
▁department	-5265
▁’	-5266
▁affect	-5267
▁probability	-5268
▁swarm	-5269
ication	-5270
▁collation	-5271
▁enumeration	-5272
▁indentation	-5273
▁discriminator	-5274
▁dol	-5275
'],	-5276
▁triangle	-5277
▁&$	-5278
▁sentry	-5279
▁sym	-5280
▁25519	-5281
▁sanitize	-5282
▁gone	-5283
▁tenancy	-5284
▁{...	-5285
▁hip	-5286
▁*>	-5287
▁beacon	-5288
▁brave	-5289
▁``.	-5290
67	-5291
ware	-5292
ography	-5293
▁3000	-5294
▁superclass	-5295
▁carrier	-5296
▁'..	-5297
.*)	-5298
▁traversal	-5299
▁gran	-5300
▁serving	-5301
400	-5302
\\/	-5303
ned	-5304
▁dont	-5305
▁really	-5306
▁deletion	-5307
▁overl	-5308
▁telemetry	-5309
58	-5310
▁<<<'	-5311
▁quota	-5312
▁lin	-5313
▁travis	-5314
▁taken	-5315
▁procedure	-5316
▁concept	-5317
▁hardware	-5318
▁regard	-5319
▁physics	-5320
▁([$	-5321
ever	-5322
▁reduction	-5323
▁(#	-5324
▁fabric	-5325
▁categorical	-5326
▁sibling	-5327
▁tan	-5328
▁variance	-5329
▁linter	-5330
▁withd	-5331
▁tier	-5332
arance	-5333
▁accumulator	-5334
▁almost	-5335
▁,\"	-5336
▁glow	-5337
▁123456	-5338
▁shogun	-5339
("	-5340
prise	-5341
▁rational	-5342
▁natural	-5343
▁masked	-5344
▁speaker	-5345
|\	-5346
ital	-5347
='	-5348
`)	-5349
▁comparer	-5350
▁beh	-5351
▁>>()	-5352
▁conductor	-5353
▁="<	-5354
key	-5355
▁700	-5356
▁explicitly	-5357
▁continuous	-5358
icient	-5359
▁kud	-5360
▁equipment	-5361
▁availability	-5362
▁?('	-5363
▁eventually	-5364
▁bullet	-5365
ef	-5366
▁composition	-5367
▁:$	-5368
▁filled	-5369
▁kudu	-5370
/)	-5371
▁flask	-5372
▁toler	-5373
},{	-5374
▁closer	-5375
▁extracted	-5376
43	-5377
▁anime	-5378
▁punctuation	-5379
▁%{	-5380
▁shrink	-5381
▁monoid	-5382
▁"=	-5383
▁prefab	-5384
isecond	-5385
▁millisecond	-5386
▁scaled	-5387
▁van	-5388
▁='"	-5389
▁interest	-5390
▁enough	-5391
▁}}">	-5392
▁infinite	-5393
▁roll	-5394
▁hasher	-5395
▁@!	-5396
▁125	-5397
▁;"	-5398
▁neon	-5399
▁whenever	-5400
▁lik	-5401
▁،	-5402
▁/${	-5403
15	-5404
▁simpl	-5405
▁grouped	-5406
69	-5407
▁=").	-5408
▁werf	-5409
▁>(),	-5410
▁prism	-5411
▁inflector	-5412
▁lost	-5413
▁>';	-5414
▁)})	-5415
47	-5416
▁033	-5417
▁bundler	-5418
cest	-5419
ange	-5420
▁unst	-5421
orphic	-5422
▁ancest	-5423
▁'\''	-5424
▁implicitly	-5425
▁prune	-5426
▁universe	-5427
▁tested	-5428
▁bir	-5429
▁smooth	-5430
ym	-5431
▁happ	-5432
▁browse	-5433
▁sticky	-5434
▁.)	-5435
▁recomm	-5436
▁minimal	-5437
▁(${	-5438
▁'?	-5439
▁fiber	-5440
▁memo	-5441
▁rejection	-5442
celer	-5443
▁orange	-5444
▁%"	-5445
▁magn	-5446
▁hyd	-5447
▁655	-5448
▁acceler	-5449
▁>());	-5450
▁maintenance	-5451
▁particular	-5452
▁%.	-5453
▁mutate	-5454
▁}`,	-5455
▁corresponding	-5456
▁overview	-5457
▁withdraw	-5458
▁underline	-5459
{}",	-5460
▁steam	-5461
▁divide	-5462
▁./	-5463
ogue	-5464
reeze	-5465
igher	-5466
▁'=>'	-5467
▁liqu	-5468
▁clustering	-5469
udo	-5470
▁refer	-5471
▁separate	-5472
▁marked	-5473
▁)>	-5474
▁useful	-5475
▁((*	-5476
▁assist	-5477
▁("/")	-5478
▁confidence	-5479
eral	-5480
▁lon	-5481
▁("{\"	-5482
▁002	-5483
▁ease	-5484
▁postal	-5485
▁00000000	-5486
▁,),	-5487
▁unresol	-5488
▁="#	-5489
▁("\\	-5490
▁polym	-5491
▁chai	-5492
▁bookmark	-5493
▁identical	-5494
▁(#{	-5495
hab	-5496
▁|""".	-5497
▁[['	-5498
inator	-5499
▁overlap	-5500
('	-5501
▁"]:	-5502
lee	-5503
▁odd	-5504
▁grouping	-5505
▁```	-5506
▁})(\\	-5507
▁mining	-5508
▁alphab	-5509
enth	-5510
▁indiv	-5511
▁%#	-5512
▁liquid	-5513
ographer	-5514
▁`"	-5515
▁inco	-5516
▁<%=	-5517
▁proof	-5518
===	-5519
▁8859	-5520
▁paste	-5521
▁needle	-5522
0000000000000000	-5523
▁erase	-5524
06	-5525
▁102	-5526
▁techn	-5527
▁{}".	-5528
argo	-5529
▁######	-5530
▁joint	-5531
▁won	-5532
▁neigh	-5533
▁#{@	-5534
▁'")	-5535
▁{{-	-5536
▁purge	-5537
▁assignable	-5538
▁!'	-5539
▁́	-5540
▁('[	-5541
▁higher	-5542
▁authorizer	-5543
▁capital	-5544
▁itself	-5545
▁pulse	-5546
▁$('	-5547
▁planner	-5548
▁birth	-5549
▁({'	-5550
▁*>(	-5551
▁moving	-5552
▁reaction	-5553
atter	-5554
▁cargo	-5555
▁<?>>	-5556
▁um	-5557
▁pse	-5558
▁selen	-5559
▁)$	-5560
▁west	-5561
▁visualizer	-5562
▁ah	-5563
▁(\"	-5564
▁introspection	-5565
▁tell	-5566
▁estimate	-5567
▁>{{	-5568
▁become	-5569
▁longer	-5570
▁ory	-5571
▁fifo	-5572
▁selenium	-5573
▁north	-5574
inder	-5575
▁dolor	-5576
▁tu	-5577
▁summar	-5578
/.	-5579
▁'{}	-5580
▁ell	-5581
▁*)&	-5582
▁bub	-5583
▁│	-5584
53	-5585
?\	-5586
iding	-5587
▁disconnected	-5588
▁universal	-5589
▁corrector	-5590
▁colon	-5591
▁=#{	-5592
▁discord	-5593
▁night	-5594
▁trying	-5595
imize	-5596
▁pseudo	-5597
▁('"	-5598
ipt	-5599
atory	-5600
▁'</	-5601
▁phant	-5602
king	-5603
▁eg	-5604
▁cov	-5605
▁mand	-5606
▁grace	-5607
▁dag	-5608
▁snake	-5609
▁momentum	-5610
▁unf	-5611
16	-5612
▁consistency	-5613
▁('',	-5614
▁phantom	-5615
":	-5616
▁satisf	-5617
▁plate	-5618
▁breeze	-5619
▁prefect	-5620
▁mechan	-5621
▁inclusive	-5622
▁explain	-5623
visor	-5624
▁3600	-5625
▁assembler	-5626
▁supervisor	-5627
57	-5628
▁199	-5629
▁relev	-5630
▁112	-5631
▁protect	-5632
▁"^	-5633
arn	-5634
▁bright	-5635
▁,$	-5636
▁220	-5637
▁(--	-5638
▁barrier	-5639
▁increase	-5640
bor	-5641
▁)&&	-5642
▁importer	-5643
▁busy	-5644
▁}}.	-5645
▁!!}	-5646
▁]+)	-5647
▁shallow	-5648
▁unreachable	-5649
▁302	-5650
▁coupon	-5651
▁'^[\	-5652
▁overload	-5653
▁('../../../	-5654
▁calcul	-5655
▁fish	-5656
▁tunnel	-5657
▁materializer	-5658
ales	-5659
achet	-5660
▁cachet	-5661
▁12345678	-5662
▁mediator	-5663
▁scatter	-5664
▁123456789	-5665
▁pu	-5666
▁("../../	-5667
▁rew	-5668
▁()?.	-5669
▁triple	-5670
oned	-5671
▁rib	-5672
▁polymorphic	-5673
▁"]).	-5674
▁diff	-5675
▁4096	-5676
▁jib	-5677
alesce	-5678
▁rolling	-5679
▁coalesce	-5680
▁actually	-5681
▁sod	-5682
▁travers	-5683
▁flavor	-5684
▁'&	-5685
▁beginning	-5686
]+)	-5687
▁sca	-5688
▁403	-5689
800	-5690
▁carry	-5691
▁orch	-5692
▁>())	-5693
▁shot	-5694
▁edu	-5695
▁inheritance	-5696
▁!$	-5697
▁advert	-5698
▁education	-5699
-----------	-5700
▁cancelable	-5701
▁devise	-5702
▁substitute	-5703
▁incomple	-5704
▁structured	-5705
▁]]):	-5706
▁harness	-5707
@"	-5708
▁--)	-5709
▁'../../../	-5710
▁enterprise	-5711
▁redund	-5712
▁ox	-5713
▁ay	-5714
omial	-5715
atever	-5716
▁dynamo	-5717
▁whatever	-5718
▁manually	-5719
▁া	-5720
▁}};	-5721
▁2048	-5722
▁flowable	-5723
▁"|	-5724
04	-5725
▁%[	-5726
▁hack	-5727
▁>>();	-5728
"+	-5729
▁[*	-5730
▁octet	-5731
rence	-5732
▁}\"	-5733
▁receipt	-5734
▁skipping	-5735
▁bone	-5736
▁benth	-5737
▁benthos	-5738
▁subtype	-5739
▁)");	-5740
▁^=	-5741
▁#![	-5742
▁gn	-5743
▁predictor	-5744
▁100000	-5745
63	-5746
▁()):	-5747
▁belt	-5748
▁male	-5749
▁(':	-5750
▁intr	-5751
▁expansion	-5752
▁ram	-5753
▁sett	-5754
▁-----	-5755
▁scaff	-5756
▁infection	-5757
29	-5758
▁"{\"	-5759
▁[]);	-5760
▁reserve	-5761
▁twe	-5762
▁2006	-5763
▁iron	-5764
▁})(	-5765
27	-5766
▁automatic	-5767
▁individual	-5768
hem	-5769
▁recommend	-5770
aten	-5771
▁characteristic	-5772
▁disposition	-5773
▁neighbor	-5774
▁ephem	-5775
▁104	-5776
▁outgoing	-5777
rity	-5778
ina	-5779
▁ug	-5780
▁movement	-5781
▁theory	-5782
▁ly	-5783
▁exponential	-5784
▁asc	-5785
▁jetty	-5786
▁sodium	-5787
3333	-5788
▁relax	-5789
▁unorder	-5790
▁bubble	-5791
]}	-5792
▁ripp	-5793
▁incomplete	-5794
▁synchronize	-5795
▁contribution	-5796
▁according	-5797
isor	-5798
isible	-5799
ata	-5800
'));	-5801
ris	-5802
▁healthy	-5803
▁mine	-5804
fire	-5805
▁degree	-5806
▁ephemeral	-5807
▁backd	-5808
▁fed	-5809
urer	-5810
▁(@"	-5811
▁descend	-5812
▁enforce	-5813
▁enh	-5814
▁teach	-5815
▁2008	-5816
▁alphabet	-5817
▁'${	-5818
▁continuation	-5819
▁்	-5820
aser	-5821
▁five	-5822
allery	-5823
secure	-5824
▁gallery	-5825
ulary	-5826
▁intersection	-5827
▁stenographer	-5828
▁nth	-5829
▁!\	-5830
▁][]	-5831
▁unordered	-5832
▁("^	-5833
▁poi	-5834
▁intersect	-5835
▁े	-5836
▁furn	-5837
▁unresolved	-5838
▁:`~	-5839
▁twice	-5840
▁electron	-5841
▁lief	-5842
▁`;	-5843
▁/")	-5844
▁revo	-5845
▁{}'.	-5846
▁/(	-5847
▁termination	-5848
▁hun	-5849
▁traversable	-5850
▁flipper	-5851
▁']));	-5852
▁messenger	-5853
▁selectable	-5854
▁genesis	-5855
irl	-5856
▁occur	-5857
▁removing	-5858
▁smaller	-5859
▁2001	-5860
▁]/	-5861
▁'.'	-5862
▁animal	-5863
▁orchest	-5864
▁objective	-5865
▁wrapping	-5866
▁ripple	-5867
onic	-5868
▁saving	-5869
▁regarding	-5870
▁;}	-5871
▁augment	-5872
18	-5873
59	-5874
▁)){	-5875
▁">{{	-5876
ouse	-5877
▁concaten	-5878
▁filtering	-5879
▁}|	-5880
▁learn	-5881
11111111	-5882
▁cyan	-5883
/,"	-5884
▁("*	-5885
▁reflector	-5886
▁appearance	-5887
▁headline	-5888
gro	-5889
▁&(	-5890
▁reservation	-5891
▁subs	-5892
▁{});	-5893
▁polling	-5894
▁scaffold	-5895
ool	-5896
tion	-5897
▁consistent	-5898
▁acceptance	-5899
▁?'	-5900
▁tolerance	-5901
▁{-	-5902
▁inset	-5903
▁teacher	-5904
14	-5905
▁coder	-5906
▁cum	-5907
▁ni	-5908
atable	-5909
▁redundant	-5910
▁<&	-5911
port	-5912
▁^^^^^^^^	-5913
lock	-5914
▁(::	-5915
▁..."	-5916
▁lane	-5917
▁operating	-5918
▁ancestor	-5919
▁'.$	-5920
▁trap	-5921
▁painter	-5922
moid	-5923
▁<!--	-5924
▁sigmoid	-5925
▁distribute	-5926
▁food	-5927
▁lightning	-5928
insic	-5929
▁yarn	-5930
▁knowledge	-5931
▁backing	-5932
▁lag	-5933
▁<()	-5934
▁lean	-5935
▁ado	-5936
▁$/	-5937
▁walker	-5938
▁connectivity	-5939
▁']:	-5940
▁interpolate	-5941
▁(*)	-5942
▁:")	-5943
▁brick	-5944
▁intrinsic	-5945
▁1000000	-5946
▁。',	-5947
▁']],	-5948
aint	-5949
yb	-5950
▁thick	-5951
▁gist	-5952
▁{}.	-5953
▁logistic	-5954
▁("'	-5955
▁}""	-5956
▁']}	-5957
▁[+	-5958
▁')]	-5959
fficient	-5960
▁grey	-5961
▁sile	-5962
▁deriv	-5963
▁prefixed	-5964
▁contra	-5965
▁insecure	-5966
▁partitioner	-5967
▁)];	-5968
▁decompress	-5969
▁proceed	-5970
▁percentile	-5971
▁bloom	-5972
▁negot	-5973
▁voc	-5974
▁"]],	-5975
abulary	-5976
▁210	-5977
▁spread	-5978
▁election	-5979
vable	-5980
▁spider	-5981
▁ka	-5982
▁determin	-5983
eness	-5984
unge	-5985
▁tom	-5986
▁refined	-5987
ybara	-5988
▁capybara	-5989
▁boo	-5990
▁{%	-5991
▁theta	-5992
▁unbind	-5993
ana	-5994
▁canary	-5995
▁]'	-5996
▁decrement	-5997
▁compressor	-5998
umption	-5999
▁linker	-6000
▁"}},[	-6001
▁fer	-6002
▁2005	-6003
▁={{	-6004
▁fetched	-6005
▁evi	-6006
▁zoned	-6007
▁9999	-6008
▁restful	-6009
▁transparency	-6010
▁|(	-6011
▁manip	-6012
▁approve	-6013
});	-6014
▁>')	-6015
▁respect	-6016
▁*")	-6017
▁explorer	-6018
▁simulate	-6019
▁looper	-6020
▁,(	-6021
▁phi	-6022
▁administrator	-6023
▁observation	-6024
▁bread	-6025
▁slick	-6026
▁*):	-6027
zzy	-6028
▁"$(	-6029
▁vocabulary	-6030
▁(.	-6031
atic	-6032
▁dru	-6033
ycle	-6034
▁median	-6035
▁druid	-6036
▁bare	-6037
▁restricted	-6038
▁rewind	-6039
▁0000000000	-6040
ively	-6041
▁="$(	-6042
▁drain	-6043
▁deflate	-6044
010	-6045
▁'`	-6046
iled	-6047
▁applicable	-6048
group	-6049
▁subgroup	-6050
▁lex	-6051
▁melee	-6052
▁immedi	-6053
▁chronicle	-6054
▁immediately	-6055
▁backdrop	-6056
▁-$	-6057
▁rh	-6058
wh	-6059
▁/=	-6060
▁budget	-6061
eep	-6062
▁adaptive	-6063
▁pong	-6064
▁incomp	-6065
▁;',	-6066
▁nest	-6067
▁)`	-6068
▁":[	-6069
▁122	-6070
▁+(	-6071
▁:["	-6072
▁greeting	-6073
▁)')	-6074
▁permitted	-6075
▁responder	-6076
ses	-6077
▁rust	-6078
▁identify	-6079
▁maintain	-6080
▁nice	-6081
▁fitness	-6082
▁infix	-6083
▁–	-6084
▁yard	-6085
▁routine	-6086
▁chroma	-6087
▁covered	-6088
▁science	-6089
▁squared	-6090
▁:${	-6091
▁prem	-6092
\\.	-6093
keeper	-6094
▁#=>	-6095
▁(&(	-6096
▁hal	-6097
▁neo	-6098
](	-6099
▁basis	-6100
oration	-6101
▁slim	-6102
▁talk	-6103
▁140	-6104
stone	-6105
iss	-6106
▁=",	-6107
▁105	-6108
▁awful	-6109
▁corpus	-6110
▁refin	-6111
▁discrete	-6112
▁"};	-6113
ranha	-6114
▁={},	-6115
▁piranha	-6116
▁shopping	-6117
▁???	-6118
▁1305	-6119
▁privilege	-6120
▁010	-6121
▁tup	-6122
▁pose	-6123
"\	-6124
▁scaler	-6125
▁্	-6126
▁incremental	-6127
▁locate	-6128
▁unread	-6129
||	-6130
▁('/')	-6131
▁incompat	-6132
▁voy	-6133
quee	-6134
▁spaceship	-6135
▁('{	-6136
▁synchronous	-6137
▁pink	-6138
▁calculated	-6139
▁communication	-6140
▁hue	-6141
▁reaper	-6142
▁courier	-6143
▁positional	-6144
▁reversed	-6145
▁educational	-6146
▁={'	-6147
****************	-6148
▁skinny	-6149
tery	-6150
▁>")	-6151
▁highest	-6152
▁nickname	-6153
▁referr	-6154
▁ferret	-6155
▁lith	-6156
log	-6157
▁gnu	-6158
▁mention	-6159
▁feign	-6160
▁semi	-6161
▁descending	-6162
ux	-6163
▁periodic	-6164
▁``,	-6165
▁""",	-6166
▁bond	-6167
▁.';	-6168
▁{!!	-6169
▁parallelism	-6170
49	-6171
▁103	-6172
▁ी	-6173
ko	-6174
▁bi	-6175
▁fac	-6176
▁anti	-6177
%=	-6178
▁ske	-6179
▁legal	-6180
▁du	-6181
▁)}"	-6182
▁"</	-6183
▁stren	-6184
▁dem	-6185
▁computation	-6186
du	-6187
aged	-6188
▁pinned	-6189
▁mor	-6190
▁stopping	-6191
▁vot	-6192
▁}})	-6193
▁reconnect	-6194
▁},{	-6195
osen	-6196
▁strength	-6197
▁deb	-6198
▁8601	-6199
[-	-6200
▁,:	-6201
ropri	-6202
▁')}	-6203
emale	-6204
▁...',	-6205
▁female	-6206
aring	-6207
'"	-6208
xim	-6209
jack	-6210
▁sit	-6211
▁<()>	-6212
▁death	-6213
▁dill	-6214
▁renderable	-6215
200	-6216
▁('$	-6217
▁aur	-6218
▁harm	-6219
▁&.	-6220
▁hug	-6221
celot	-6222
▁ocelot	-6223
▁few	-6224
▁chosen	-6225
▁bur	-6226
▁neut	-6227
▁surging	-6228
erc	-6229
▁battery	-6230
▁=>"	-6231
▁####	-6232
▁dr	-6233
]),	-6234
▁116	-6235
▁[](	-6236
▁thre	-6237
▁blade	-6238
▁unreco	-6239
▁applicative	-6240
▁paginate	-6241
▁"":	-6242
▁))->	-6243
▁international	-6244
▁treat	-6245
▁::~	-6246
ala	-6247
▁generating	-6248
▁similarity	-6249
############	-6250
ety	-6251
▁"],[/	-6252
leton	-6253
▁searcher	-6254
▁coeval	-6255
over	-6256
▁simulation	-6257
▁south	-6258
▁listening	-6259
▁{}',	-6260
▁ol	-6261
▁fuzzy	-6262
▁elastica	-6263
▁("\"	-6264
▁advice	-6265
▁"&	-6266
▁serif	-6267
▁wit	-6268
pend	-6269
▁stale	-6270
ior	-6271
▁acceptable	-6272
▁sense	-6273
andled	-6274
▁unhandled	-6275
▁,{	-6276
▁"/",	-6277
▁rio	-6278
▁forest	-6279
▁cryptography	-6280
▁faster	-6281
▁commerce	-6282
▁ow	-6283
▁showing	-6284
▁sor	-6285
▁+:	-6286
▁discount	-6287
▁(<<-	-6288
▁discu	-6289
▁("");	-6290
▁monkey	-6291
▁,%	-6292
▁301	-6293
▁stag	-6294
▁enhance	-6295
▁130	-6296
▁affected	-6297
ailed	-6298
▁\"",	-6299
▁dragon	-6300
▁descendant	-6301
▁=[],	-6302
▁booking	-6303
▁ice	-6304
▁detailed	-6305
▁argo	-6306
▁season	-6307
▁iris	-6308
istent	-6309
▁appropri	-6310
▁blackfire	-6311
▁argon	-6312
▁relaxed	-6313
','','','','	-6314
▁])]	-6315
▁doe	-6316
▁reconc	-6317
▁++,	-6318
▁pend	-6319
▁mailbox	-6320
▁"~	-6321
▁promotion	-6322
▁contiguous	-6323
▁'');	-6324
▁{`	-6325
▁121	-6326
▁partner	-6327
1234	-6328
▁tracked	-6329
▁ascending	-6330
▁compaction	-6331
▁isolation	-6332
▁('')	-6333
▁fine	-6334
▁modular	-6335
▁interact	-6336
▁suit	-6337
▁loose	-6338
▁|\	-6339
▁={})	-6340
)))	-6341
{:	-6342
ulence	-6343
▁("${	-6344
▁genre	-6345
▁);\	-6346
▁girl	-6347
▁stash	-6348
▁gh	-6349
▁fired	-6350
hood	-6351
~~~~	-6352
scope	-6353
▁squee	-6354
▁revert	-6355
▁staging	-6356
▁rounding	-6357
▁thickness	-6358
▁matter	-6359
▁detached	-6360
▁incompatible	-6361
▁teleph	-6362
▁gar	-6363
▁moko	-6364
▁interpret	-6365
▁squeeze	-6366
rend	-6367
▁sax	-6368
▁huge	-6369
▁})"	-6370
▁++){	-6371
▁\">	-6372
▁staff	-6373
▁consent	-6374
▁}=	-6375
▁forced	-6376
▁)..	-6377
▁amt	-6378
▁>(()	-6379
▁ghost	-6380
▁projectile	-6381
▁house	-6382
▁opulence	-6383
▁flap	-6384
▁award	-6385
▁sortable	-6386
▁trend	-6387
pass	-6388
▁morph	-6389
dle	-6390
▁requester	-6391
▁(&$	-6392
▁ammo	-6393
▁together	-6394
▁relevant	-6395
........	-6396
▁skeleton	-6397
▁pom	-6398
▁-"	-6399
▁"},{	-6400
▁cook	-6401
▁mandatory	-6402
▁\"\	-6403
▁$$	-6404
metric	-6405
▁unmod	-6406
▁:"@	-6407
▁boss	-6408
▁recycle	-6409
▁poster	-6410
▁}/#{	-6411
▁bounded	-6412
▁forwarding	-6413
▁unstable	-6414
▁forum	-6415
▁validity	-6416
▁ended	-6417
▁beat	-6418
▁discussion	-6419
illa	-6420
13	-6421
utter	-6422
▁"{{	-6423
▁ो	-6424
ech	-6425
▁']",	-6426
▁`<	-6427
▁reminder	-6428
mos	-6429
▁rebu	-6430
/*	-6431
ince	-6432
▁chi	-6433
▁classic	-6434
▁}[	-6435
▁rain	-6436
▁deterministic	-6437
▁invisible	-6438
ring	-6439
inesis	-6440
▁'!	-6441
▁bil	-6442
▁kinesis	-6443
bed	-6444
▁tabler	-6445
ulum	-6446
sher	-6447
▁hunger	-6448
▁unpo	-6449
▁truncated	-6450
arter	-6451
▁?(@	-6452
▁along	-6453
▁gear	-6454
▁insight	-6455
metic	-6456
▁deposit	-6457
▁yoga	-6458
where	-6459
▁...")	-6460
▁biter	-6461
▁"}")	-6462
▁ি	-6463
}},	-6464
▁2009	-6465
▁443	-6466
▁8000	-6467
oled	-6468
▁isol	-6469
▁unc	-6470
▁corpse	-6471
▁unpooled	-6472
▁speech	-6473
▁sized	-6474
▁sorter	-6475
▁volt	-6476
versity	-6477
▁provisioner	-6478
ette	-6479
▁<?,	-6480
omb	-6481
▁mechanism	-6482
▁್	-6483
enta	-6484
▁ignite	-6485
olic	-6486
▁ir	-6487
▁>");	-6488
▁'/',	-6489
▁magenta	-6490
▁:(	-6491
▁burner	-6492
▁extraction	-6493
▁modern	-6494
▁00000	-6495
▁race	-6496
▁aborted	-6497
▁why	-6498
▁colored	-6499
▁lithium	-6500
ystem	-6501
▁roaring	-6502
▁()",	-6503
▁listed	-6504
pec	-6505
▁shade	-6506
isk	-6507
▁tutor	-6508
▁|:	-6509
▁=[]	-6510
ulative	-6511
▁combust	-6512
▁`{"	-6513
▁silence	-6514
▁-(	-6515
▁across	-6516
▁going	-6517
▁')));	-6518
▁quarter	-6519
▁.*)	-6520
▁namer	-6521
▁neural	-6522
▁{}{"	-6523
▁goods	-6524
▁forget	-6525
ably	-6526
▁///	-6527
▁popular	-6528
▁accent	-6529
▁reflected	-6530
▁recall	-6531
▁passive	-6532
▁tutorial	-6533
▁forger	-6534
▁convey	-6535
▁')))	-6536
▁simulator	-6537
▁0123456789	-6538
▁threaded	-6539
pecified	-6540
▁420	-6541
va	-6542
▁tol	-6543
▁nancy	-6544
▁symbolic	-6545
▁[&	-6546
▁hud	-6547
▁howe	-6548
▁unrecogn	-6549
▁mustache	-6550
▁unbound	-6551
▁nob	-6552
▁neutral	-6553
▁flank	-6554
▁computer	-6555
]",	-6556
▁independ	-6557
▁unspecified	-6558
▁%;	-6559
▁/^(	-6560
▁flexible	-6561
▁unrecognized	-6562
▁="",	-6563
▁sprint	-6564
▁complet	-6565
▁backlog	-6566
▁]-	-6567
viation	-6568
▁stencil	-6569
▁transcript	-6570
▁unman	-6571
alty	-6572
▁-${	-6573
stand	-6574
▁karate	-6575
▁oh	-6576
▁enemy	-6577
▁transact	-6578
▁aura	-6579
▁collected	-6580
▁;">	-6581
▁scrub	-6582
▁003	-6583
▁ess	-6584
▁'/../../	-6585
?>	-6586
▁422	-6587
▁come	-6588
▁integrity	-6589
▁="<?=	-6590
▁unmanaged	-6591
▁cab	-6592
▁],[	-6593
▁pressure	-6594
inity	-6595
▁}'.	-6596
▁vision	-6597
▁/?	-6598
▁**)	-6599
▁:])	-6600
▁idea	-6601
337	-6602
▁。",	-6603
0000000	-6604
▁oam	-6605
verser	-6606
▁[...	-6607
▁ore	-6608
▁disallow	-6609
▁arith	-6610
▁liability	-6611
[^\	-6612
▁zebra	-6613
zor	-6614
▁'/../	-6615
▁razor	-6616
▁doing	-6617
▁regress	-6618
▁monthly	-6619
▁dice	-6620
▁diary	-6621
▁remainder	-6622
▁}/{	-6623
▁fetching	-6624
▁cold	-6625
▁voyager	-6626
▁flapjack	-6627
211	-6628
onal	-6629
▁construction	-6630
▁colorize	-6631
▁slate	-6632
▁mocker	-6633
▁placeable	-6634
?}",	-6635
enue	-6636
ious	-6637
▁affinity	-6638
▁exclusion	-6639
▁orchestrator	-6640
▁elt	-6641
▁arithmetic	-6642
store	-6643
cate	-6644
▁pickup	-6645
▁minimize	-6646
▁bookstore	-6647
▁throughput	-6648
▁visa	-6649
▁packer	-6650
▁unload	-6651
];	-6652
brid	-6653
▁hybrid	-6654
@@	-6655
▁011	-6656
▁spray	-6657
▁combat	-6658
▁pitch	-6659
▁\":{\"	-6660
▁finding	-6661
ulp	-6662
▁omit	-6663
▁chained	-6664
▁thra	-6665
▁revoke	-6666
▁wireless	-6667
abl	-6668
bage	-6669
▁goes	-6670
▁ี	-6671
ception	-6672
▁searchable	-6673
▁ramp	-6674
▁annotate	-6675
▁'][$	-6676
▁appropriate	-6677
▁hat	-6678
▁concatenate	-6679
]*)	-6680
▁propagate	-6681
▁")"	-6682
▁recursion	-6683
▁222	-6684
▁silo	-6685
▁114	-6686
▁144	-6687
nate	-6688
icult	-6689
▁remark	-6690
▁garbage	-6691
▁thrasher	-6692
▁212	-6693
▁existent	-6694
▁chooser	-6695
▁108	-6696
▁214	-6697
rog	-6698
son	-6699
vo	-6700
▁676	-6701
▁difficult	-6702
^\	-6703
▁""},	-6704
▁keyed	-6705
▁hiber	-6706
▁hibernate	-6707
▁laser	-6708
▁wiz	-6709
▁ingest	-6710
▁folding	-6711
▁renew	-6712
▁sip	-6713
▁halt	-6714
▁activator	-6715
▁loot	-6716
▁={}	-6717
▁synchronization	-6718
▁"-"	-6719
▁establ	-6720
▁starter	-6721
▁320	-6722
alogue	-6723
▁fur	-6724
▁([]);	-6725
▁]*='	-6726
▁))));	-6727
▁sonata	-6728
▁indented	-6729
▁independent	-6730
▁beaut	-6731
▁safety	-6732
▁>');	-6733
▁ั	-6734
ecko	-6735
▁}}.'	-6736
▁gecko	-6737
▁dual	-6738
▁chomp	-6739
▁subse	-6740
▁had	-6741
▁('{{	-6742
▁scales	-6743
▁however	-6744
▁163	-6745
▁tub	-6746
▁miner	-6747
▁boom	-6748
▁reorder	-6749
▁decorate	-6750
▁corrupt	-6751
▁('/',	-6752
▁pluck	-6753
▁traverser	-6754
')).	-6755
▁%',	-6756
▁paddle	-6757
nt	-6758
▁smarty	-6759
▁air	-6760
▁imag	-6761
ne	-6762
▁20000	-6763
▁deact	-6764
▁170	-6765
▁parenthesis	-6766
▁.'.	-6767
▁。","	-6768
▁joe	-6769
▁cash	-6770
▁ellip	-6771
'\	-6772
ander	-6773
▁combination	-6774
▁)||	-6775
atern	-6776
▁cable	-6777
▁monot	-6778
▁warran	-6779
▁selective	-6780
▁scannable	-6781
▁:#	-6782
▁')[	-6783
▁quatern	-6784
▁]}"	-6785
▁tour	-6786
ruption	-6787
▁/*.	-6788
▁dilation	-6789
▁registra	-6790
▁splic	-6791
▁})',	-6792
▁་	-6793
▁warranty	-6794
▁}#{	-6795
▁wizard	-6796
▁agre	-6797
▁jane	-6798
▁witness	-6799
▁,))	-6800
▁insertion	-6801
▁'/')	-6802
▁braces	-6803
▁{}).	-6804
▁orc	-6805
▁><?=	-6806
▁"){	-6807
▁forgery	-6808
▁specifier	-6809
▁limitation	-6810
▁prett	-6811
▁pendulum	-6812
▁deform	-6813
▁forever	-6814
▁fall	-6815
▁removal	-6816
▁--------	-6817
▁'-'	-6818
▁censor	-6819
▁quaternion	-6820
▁:)	-6821
▁technology	-6822
▁seat	-6823
▁entire	-6824
▁005	-6825
▁[].	-6826
▁hora	-6827
▁tst	-6828
under	-6829
▁172	-6830
▁vac	-6831
▁reduced	-6832
▁segmentation	-6833
].	-6834
orn	-6835
▁\""	-6836
▁manu	-6837
▁rebuild	-6838
▁124	-6839
▁province	-6840
`.	-6841
▁tapir	-6842
▁&)	-6843
▁"!=	-6844
▁ape	-6845
▁())))	-6846
▁naive	-6847
▁counting	-6848
▁much	-6849
▁sleeping	-6850
▁4000	-6851
\*	-6852
▁eh	-6853
▁splice	-6854
▁director	-6855
sa	-6856
▁('');	-6857
▁spect	-6858
▁"{}	-6859
▁playground	-6860
▁penalty	-6861
▁%+	-6862
▁golden	-6863
▁manufact	-6864
▁turret	-6865
▁contest	-6866
▁consec	-6867
sing	-6868
▁wi	-6869
▁[/	-6870
▁1001	-6871
iate	-6872
▁passport	-6873
▁(",")	-6874
▁migrator	-6875
▁tanh	-6876
▁premake	-6877
"}	-6878
fly	-6879
▁()},	-6880
▁''))	-6881
▁bottle	-6882
▁easing	-6883
▁}".'	-6884
▁consecut	-6885
ample	-6886
▁sketch	-6887
▁`%	-6888
▁>((	-6889
▁unbo	-6890
eses	-6891
▁occurrence	-6892
▁spout	-6893
ota	-6894
iveness	-6895
eration	-6896
▁unbounded	-6897
▁population	-6898
▁`{	-6899
▁tray	-6900
▁condense	-6901
▁uncon	-6902
"#	-6903
anent	-6904
▁fund	-6905
▁permanent	-6906
▁;'	-6907
]);	-6908
▁ligh	-6909
▁,&	-6910
▁([]*	-6911
▁iota	-6912
iser	-6913
▁tube	-6914
▁{}),	-6915
▁igniter	-6916
▁plant	-6917
▁gad	-6918
▁'}';	-6919
▁spawner	-6920
▁?;	-6921
▁slab	-6922
▁functionality	-6923
▁'{"	-6924
▁club	-6925
▁influx	-6926
▁ِ	-6927
2222	-6928
▁attacher	-6929
▁summarizer	-6930
▁regener	-6931
▁'->	-6932
▁explan	-6933
17	-6934
...)	-6935
▁targeted	-6936
▁)";	-6937
▁}${	-6938
▁grab	-6939
▁"""{"	-6940
▁("/",	-6941
▁various	-6942
igo	-6943
▁reconcil	-6944
▁}}{{	-6945
▁sliding	-6946
02	-6947
▁manufacturer	-6948
▁indigo	-6949
▁porter	-6950
▁suspended	-6951
▁/></	-6952
▁ledger	-6953
▁allowance	-6954
▁unca	-6955
▁faction	-6956
▁uncaught	-6957
▁lot	-6958
▁gadget	-6959
▁citation	-6960
▁blake	-6961
▁consecutive	-6962
▁buoy	-6963
ovy	-6964
▁],'	-6965
▁groovy	-6966
ister	-6967
rain	-6968
▁lily	-6969
▁;]*	-6970
▁)\\	-6971
▁impact	-6972
▁bloop	-6973
▁appear	-6974
▁)::	-6975
▁usar	-6976
▁tween	-6977
▁divisor	-6978
▁informer	-6979
lin	-6980
▁ons	-6981
▁])|	-6982
▁upon	-6983
tee	-6984
▁recognizer	-6985
▁capitalize	-6986
▁'|	-6987
▁333	-6988
▁fuel	-6989
▁(||	-6990
▁chass	-6991
▁blink	-6992
▁chassis	-6993
▁ion	-6994
leter	-6995
▁completer	-6996
▁444	-6997
▁signific	-6998
▁":{	-6999
▁.</	-7000
▁burst	-7001
▁iterant	-7002
▁sad	-7003
how	-7004
▁()];	-7005
▁approxim	-7006
haust	-7007
▁်	-7008
▁=&	-7009
▁damages	-7010
▁several	-7011
▁affine	-7012
▁unmodifiable	-7013
▁|*	-7014
icol	-7015
▁reconciliation	-7016
▁()',	-7017
▁tort	-7018
▁buoyant	-7019
▁impro	-7020
▁exhaust	-7021
▁mojo	-7022
ungeon	-7023
▁dungeon	-7024
▁rer	-7025
▁{.	-7026
iper	-7027
▁()],	-7028
▁deactivate	-7029
▁()"	-7030
▁tape	-7031
▁refinery	-7032
mble	-7033
▁")->	-7034
▁gob	-7035
▁ham	-7036
▁happen	-7037
▁374	-7038
▁,)),	-7039
$(	-7040
▁."),	-7041
▁funder	-7042
▁condensed	-7043
▁|{	-7044
▁cow	-7045
▁bases	-7046
ufficient	-7047
▁liveness	-7048
)?	-7049
▁grand	-7050
▁"]}	-7051
▁115	-7052
▁insufficient	-7053
▁mot	-7054
sey	-7055
▁้	-7056
▁999999	-7057
▁bitwise	-7058
▁prim	-7059
▁cro	-7060
▁])->	-7061
▁nobs	-7062
▁whom	-7063
▁registrar	-7064
▁adjac	-7065
▁produced	-7066
▁>%	-7067
▁elev	-7068
▁sweep	-7069
▁clang	-7070
▁subsystem	-7071
semble	-7072
▁joiner	-7073
▁$"{	-7074
▁<::	-7075
▁communicator	-7076
▁(($	-7077
▁simply	-7078
writer	-7079
726	-7080
agged	-7081
\.\	-7082
▁ull	-7083
ingle	-7084
▁raster	-7085
isy	-7086
▁armor	-7087
▁collate	-7088
▁readiness	-7089
▁monster	-7090
▁..-	-7091
▁assistant	-7092
██	-7093
▁*\	-7094
space	-7095
▁('@/	-7096
▁ु	-7097
▁explanation	-7098
▁operate	-7099
▁trained	-7100
▁1234567890	-7101
▁][$	-7102
▁locker	-7103
ynchron	-7104
▁redirection	-7105
▁triv	-7106
▁school	-7107
▁staged	-7108
▁())),	-7109
▁135	-7110
▁hyp	-7111
▁law	-7112
▁osmium	-7113
▁threat	-7114
▁=>'	-7115
eli	-7116
▁",[	-7117
range	-7118
▁/{+	-7119
▁wise	-7120
▁bed	-7121
▁fitted	-7122
▁puzzle	-7123
▁announcement	-7124
▁unname	-7125
123	-7126
elihood	-7127
▁liable	-7128
▁unnamed	-7129
▁++$	-7130
utation	-7131
▁rig	-7132
▁vul	-7133
▁""),	-7134
▁(('	-7135
▁>";	-7136
arden	-7137
▁harmony	-7138
▁outdate	-7139
▁neb	-7140
▁doll	-7141
▁hay	-7142
▁outdated	-7143
▁associate	-7144
|\\	-7145
▁:],	-7146
▁grade	-7147
fu	-7148
▁>(&	-7149
▁shim	-7150
▁(".")	-7151
▁telephone	-7152
---------	-7153
▁`),	-7154
▁bypass	-7155
▁113	-7156
▁gua	-7157
▁travel	-7158
▁('../../../../	-7159
▁133	-7160
▁behave	-7161
▁254	-7162
▁substant	-7163
▁privileged	-7164
▁nose	-7165
▁previously	-7166
▁identification	-7167
"},	-7168
▁-#{	-7169
▁lan	-7170
▁])).	-7171
▁contrast	-7172
▁[`	-7173
kin	-7174
▁chalk	-7175
▁`'	-7176
▁ে	-7177
!=	-7178
▁wish	-7179
▁substantial	-7180
▁mile	-7181
▁fluid	-7182
748	-7183
▁brightness	-7184
now	-7185
[:	-7186
▁\"}	-7187
▁smoke	-7188
▁untagged	-7189
▁"".	-7190
▁gun	-7191
▁reach	-7192
▁saver	-7193
▁electric	-7194
▁hereby	-7195
▁cumulative	-7196
▁backed	-7197
▁away	-7198
▁station	-7199
▁gym	-7200
▁("//	-7201
]],	-7202
▁}}}	-7203
▁doesnt	-7204
▁notation	-7205
▁intuit	-7206
▁stemmer	-7207
▁importance	-7208
▁introspect	-7209
▁sparkling	-7210
interp	-7211
ynchronous	-7212
▁asynchronous	-7213
03	-7214
▁older	-7215
▁admission	-7216
interpret	-7217
ruit	-7218
▁]},	-7219
encer	-7220
▁->{$	-7221
▁<(),	-7222
▁offic	-7223
▁turns	-7224
▁['@	-7225
▁sonar	-7226
▁sphere	-7227
ob	-7228
▁castle	-7229
▁8888	-7230
▁155	-7231
▁solo	-7232
▁salary	-7233
▁?.(	-7234
▁coil	-7235
▁volunt	-7236
▁){"	-7237
cha	-7238
▁raid	-7239
▁consumption	-7240
▁parentheses	-7241
▁critic	-7242
▁ribbon	-7243
thouse	-7244
▁noisy	-7245
▁rewriter	-7246
>=	-7247
▁);",	-7248
▁negate	-7249
▁likelihood	-7250
▁redo	-7251
▁enforced	-7252
▁puppeteer	-7253
▁diversity	-7254
▁)};	-7255
▁lighthouse	-7256
▁emplace	-7257
▁apex	-7258
▁coff	-7259
▁unmount	-7260
▁monotonic	-7261
▁::*,	-7262
▁unli	-7263
▁regressor	-7264
asing	-7265
▁mocha	-7266
▁*.	-7267
#{@	-7268
▁poet	-7269
off	-7270
▁*);	-7271
lla	-7272
license	-7273
▁")]),	-7274
▁(""),	-7275
▁flight	-7276
▁})).	-7277
▁symmetric	-7278
joint	-7279
▁furnished	-7280
▁sublicense	-7281
▁്	-7282
▁disjoint	-7283
▁=\	-7284
▁jack	-7285
▁difficulty	-7286
▁"::	-7287
▁}$	-7288
▁mute	-7289
▁sar	-7290
▁curly	-7291
▁gover	-7292
▁drawee	-7293
▁probably	-7294
aking	-7295
▁[]):	-7296
▁trunk	-7297
▁constellation	-7298
▁fran	-7299
▁sanity	-7300
▁substitution	-7301
));	-7302
▁pump	-7303
▁ensemble	-7304
,##	-7305
clic	-7306
▁"});	-7307
▁8192	-7308
▁rede	-7309
▁solve	-7310
▁fence	-7311
^^^	-7312
▁]?	-7313
▁printed	-7314
▁looking	-7315
▁filer	-7316
▁fid	-7317
▁skew	-7318
rident	-7319
▁grape	-7320
▁:[{	-7321
▁(',')	-7322
▁trick	-7323
▁trident	-7324
▁usually	-7325
rait	-7326
▁'}),	-7327
▁<~	-7328
▁sale	-7329
▁106	-7330
▁resty	-7331
▁[{"	-7332
▁mounted	-7333
▁1111	-7334
balance	-7335
▁referrer	-7336
▁measured	-7337
▁efficient	-7338
;)	-7339
ona	-7340
▁portable	-7341
▁portrait	-7342
ilt	-7343
▁twill	-7344
▁164	-7345
▁sky	-7346
▁('\\	-7347
▁\":[	-7348
▁egress	-7349
▁satisfy	-7350
▁engineer	-7351
125	-7352
▁(*(	-7353
▁(:@	-7354
▁recurring	-7355
▁considered	-7356
land	-7357
▁[:-	-7358
▁1999	-7359
▁buyer	-7360
▁facet	-7361
▁emu	-7362
▁certain	-7363
case	-7364
▁volunteer	-7365
▁}/${	-7366
▁adder	-7367
▁!)	-7368
▁450	-7369
▁craft	-7370
zard	-7371
▁>);	-7372
▁projector	-7373
▁prettifier	-7374
▁126	-7375
▁"))).	-7376
▁radix	-7377
▁metal	-7378
▁dollar	-7379
▁retriever	-7380
▁modul	-7381
▁parallelize	-7382
.+)	-7383
321	-7384
aga	-7385
aky	-7386
▁king	-7387
▁octant	-7388
▁spline	-7389
▁significant	-7390
▁365	-7391
▁fuzz	-7392
▁!')	-7393
▁rid	-7394
▁invitation	-7395
?,	-7396
▁(!\	-7397
vest	-7398
▁bom	-7399
▁residual	-7400
▁decrease	-7401
▁386	-7402
▁""))	-7403
▁lexic	-7404
▁alpine	-7405
▁136	-7406
▁rhe	-7407
▁une	-7408
▁"]),	-7409
▁catalogue	-7410
▁))}	-7411
▁380	-7412
----------	-7413
▁fancy	-7414
▁unqu	-7415
▁('.')	-7416
▁boxing	-7417
▁neck	-7418
icolon	-7419
▁semicolon	-7420
▁'~	-7421
▁unchang	-7422
▁partitioned	-7423
)(	-7424
▁్	-7425
▁din	-7426
▁(`${	-7427
▁anyhow	-7428
cery	-7429
▁anon	-7430
723	-7431
▁*",	-7432
""")	-7433
331	-7434
▁+/	-7435
▁silk	-7436
▁uncomp	-7437
▁"").	-7438
▁estimation	-7439
▁/[	-7440
▁rhea	-7441
rogate	-7442
▁patience	-7443
▁|[	-7444
▁seeder	-7445
▁greeter	-7446
ico	-7447
▁\")	-7448
▁"""|	-7449
▁uniqu	-7450
▁thrott	-7451
▁wake	-7452
▁forge	-7453
▁explosion	-7454
▁{{.	-7455
▁purifier	-7456
ibly	-7457
▁opp	-7458
▁maintainer	-7459
▁)}}	-7460
▁semantics	-7461
▁crawl	-7462
arded	-7463
▁recurse	-7464
▁'-',	-7465
▁locking	-7466
▁popover	-7467
ensive	-7468
▁founding	-7469
▁+.	-7470
▁'.',	-7471
▁formation	-7472
▁relational	-7473
▁remap	-7474
▁watched	-7475
▁())));	-7476
▁integral	-7477
▁=="	-7478
▁"]]	-7479
▁polyn	-7480
▁slope	-7481
▁119	-7482
▁ambiguous	-7483
▁mong	-7484
▁}}",	-7485
▁battle	-7486
▁declined	-7487
▁advertiser	-7488
▁.","	-7489
▁greed	-7490
▁rerun	-7491
▁152	-7492
▁fle	-7493
▁(?:[	-7494
▁purple	-7495
▁fusion	-7496
▁/<	-7497
▁redux	-7498
08	-7499
▁nor	-7500
stack	-7501
▁"}],	-7502
▁haystack	-7503
▁deck	-7504
▁responsive	-7505
▁surrogate	-7506
▁unchanged	-7507
(?:[	-7508
></	-7509
▁assemble	-7510
▁jer	-7511
▁sens	-7512
raction	-7513
▁stress	-7514
▁('(	-7515
▁commander	-7516
▁polynomial	-7517
▁typical	-7518
▁unpacked	-7519
▁elevation	-7520
bow	-7521
▁107	-7522
▁221	-7523
▁warp	-7524
▁locally	-7525
▁maid	-7526
]"	-7527
▁cubic	-7528
▁;&	-7529
▁reinterpret	-7530
▁digital	-7531
▁tal	-7532
▁++);	-7533
▁safari	-7534
▁among	-7535
────────	-7536
▁diagonal	-7537
▁117	-7538
▁translatable	-7539
▁\",\	-7540
▁demand	-7541
ressed	-7542
▁angel	-7543
▁chia	-7544
▁cyclic	-7545
▁refine	-7546
▁walking	-7547
▁tre	-7548
▁indicate	-7549
▁decompose	-7550
▁dimensional	-7551
▁?>"	-7552
aur	-7553
▁official	-7554
▁watermark	-7555
▁adaptor	-7556
▁==>	-7557
iator	-7558
-------------	-7559
▁voter	-7560
▁ami	-7561
▁isolated	-7562
▁321	-7563
▁).'/	-7564
▁spend	-7565
▁graphic	-7566
▁succ	-7567
▁thin	-7568
▁coffee	-7569
▁numerical	-7570
imb	-7571
▁duck	-7572
▁resulting	-7573
▁>>=	-7574
▁bog	-7575
▁succinct	-7576
▁peak	-7577
------------	-7578
▁cutoff	-7579
▁corporation	-7580
368	-7581
▁cad	-7582
▁enhanced	-7583
▁!');	-7584
▁throwing	-7585
▁tablet	-7586
▁saturation	-7587
▁?\	-7588
▁god	-7589
▁rese	-7590
▁milestone	-7591
▁partitioning	-7592
▁ิ	-7593
▁whose	-7594
▁270	-7595
▁bount	-7596
▁shark	-7597
▁merger	-7598
▁.#{	-7599
▁jingle	-7600
▁dragonfly	-7601
▁/#	-7602
▁pusher	-7603
▁+'	-7604
▁venue	-7605
▁extre	-7606
▁corona	-7607
▁arbitrate	-7608
▁ಿ	-7609
▁bounty	-7610
▁driven	-7611
▁shaped	-7612
▁retrieval	-7613
▁004	-7614
▁].[	-7615
cerpt	-7616
▁excerpt	-7617
▁payable	-7618
▁confusion	-7619
▁diss	-7620
▁emerg	-7621
cal	-7622
▁lum	-7623
▁109	-7624
▁!</	-7625
▁()])	-7626
0123456789	-7627
▁emergency	-7628
weight	-7629
▁1337	-7630
▁backwards	-7631
---------------	-7632
ppy	-7633
▁151	-7634
▁sup	-7635
▁َ	-7636
▁jersey	-7637
▁epic	-7638
▁grum	-7639
▁landscape	-7640
▁:{}	-7641
▁farm	-7642
▁checkers	-7643
▁deviation	-7644
▁)');	-7645
aps	-7646
▁permutation	-7647
▁131	-7648
▁stone	-7649
▁magnitude	-7650
▁1500	-7651
▁making	-7652
▁"))))	-7653
▁0008	-7654
▁?.().	-7655
ano	-7656
▁bogus	-7657
▁composed	-7658
our	-7659
▁191	-7660
▁meaning	-7661
▁්	-7662
ffe	-7663
▁%'	-7664
▁"*"	-7665
▁"//	-7666
▁banana	-7667
]\	-7668
▁comf	-7669
▁!@	-7670
▁("|	-7671
▁ி	-7672
▁142	-7673
▁166	-7674
othing	-7675
▁451	-7676
▁likely	-7677
▁agreement	-7678
▁("+	-7679
fill	-7680
▁evict	-7681
▁[^	-7682
▁":["	-7683
══	-7684
▁localize	-7685
▁(`{"	-7686
▁leaves	-7687
▁featured	-7688
table	-7689
▁{}}	-7690
▁obso	-7691
▁obsolete	-7692
▁𞥅	-7693
▁<=>	-7694
▁]|[	-7695
▁(""))	-7696
▁="'	-7697
▁repa	-7698
▁("{}	-7699
▁parity	-7700
▁coerc	-7701
▁splash	-7702
▁symmetry	-7703
]:	-7704
ortion	-7705
▁()`	-7706
▁ellipsis	-7707
▁xi	-7708
▁fruit	-7709
▁)}.	-7710
cor	-7711
pro	-7712
▁)!!	-7713
▁egg	-7714
▁saga	-7715
▁campo	-7716
▁poetry	-7717
▁145	-7718
▁duplex	-7719
▁rather	-7720
600	-7721
▁uncompressed	-7722
▁ever	-7723
▁555	-7724
▁(){}	-7725
▁:///	-7726
▁208	-7727
▁)&	-7728
(?:\	-7729
ilot	-7730
▁...",	-7731
▁exceptionless	-7732
?|	-7733
▁>>>>	-7734
▁unified	-7735
▁65535	-7736
▁formulae	-7737
▁deprecate	-7738
▁derivation	-7739
rable	-7740
▁intention	-7741
▁"===	-7742
▁ja	-7743
▁190	-7744
▁"))),	-7745
▁settable	-7746
▁vat	-7747
oring	-7748
▁"...	-7749
▁129	-7750
▁chance	-7751
▁turtle	-7752
▁-'	-7753
▁shapeless	-7754
▁:#{	-7755
orrow	-7756
got	-7757
▁1970	-7758
▁plug	-7759
▁bam	-7760
▁guarded	-7761
▁cookbook	-7762
▁hey	-7763
▁lexicon	-7764
▁225	-7765
▁]]:	-7766
▁happy	-7767
▁++=	-7768
▁hea	-7769
ortex	-7770
▁()['	-7771
▁robin	-7772
▁stripped	-7773
▁=:	-7774
▁fara	-7775
012	-7776
▁mal	-7777
▁greedy	-7778
▁chest	-7779
▁:\\	-7780
▁`);	-7781
▁smith	-7782
▁regularizer	-7783
$/,	-7784
▁.'/../	-7785
▁[${	-7786
▁]})	-7787
▁headless	-7788
▁suppressed	-7789
▁)==	-7790
▁sorcery	-7791
({	-7792
ouette	-7793
▁simplify	-7794
▁">{	-7795
▁gey	-7796
▁silh	-7797
▁creat	-7798
▁silhouette	-7799
▁specialized	-7800
▁edition	-7801
▁~(	-7802
ructor	-7803
▁faraday	-7804
▁experience	-7805
706	-7806
▁#####	-7807
▁intended	-7808
▁geyser	-7809
▁geometric	-7810
▁:<	-7811
/',	-7812
▁restaur	-7813
▁organizer	-7814
▁fort	-7815
▁further	-7816
▁overall	-7817
▁/')	-7818
01234	-7819
▁restaurant	-7820
ley	-7821
▁fan	-7822
▁denom	-7823
▁gulp	-7824
ife	-7825
▁=`	-7826
▁approach	-7827
uncer	-7828
▁ា	-7829
567	-7830
▁&&"	-7831
▁,.	-7832
▁telescope	-7833
rum	-7834
▁(;;)	-7835
▁tomorrow	-7836
▁myself	-7837
▁("=	-7838
▁tower	-7839
▁</>	-7840
▁mil	-7841
▁testee	-7842
▁")[	-7843
▁marshaler	-7844
▁]')	-7845
▁]");	-7846
▁emulator	-7847
▁existence	-7848
▁smoothing	-7849
iful	-7850
▁completely	-7851
▁leadership	-7852
/*.	-7853
une	-7854
▁ber	-7855
▁accumulate	-7856
▁ි	-7857
▁||(	-7858
▁rotated	-7859
▁recently	-7860
▁->(	-7861
▁ora	-7862
mon	-7863
▁triplet	-7864
▁reachable	-7865
▁keg	-7866
▁stability	-7867
▁132	-7868
▁spotless	-7869
219	-7870
▁warm	-7871
rolled	-7872
▁horizon	-7873
▁lister	-7874
▁balanced	-7875
▁''));	-7876
▁"/")	-7877
▁211	-7878
▁sway	-7879
▁206	-7880
▁sect	-7881
▁beautiful	-7882
▁."))	-7883
▁reconcile	-7884
orum	-7885
▁ack	-7886
▁acknow	-7887
▁growth	-7888
▁inclusion	-7889
▁portability	-7890
▁156	-7891
▁hugging	-7892
▁denominator	-7893
▁chaos	-7894
▁bounce	-7895
'",	-7896
iary	-7897
▁reps	-7898
condition	-7899
▁:}	-7900
▁--]]	-7901
▁345	-7902
▁640	-7903
▁̀	-7904
▁bump	-7905
▁quorum	-7906
▁"#{@	-7907
▁excl	-7908
▁funds	-7909
▁cosine	-7910
▁possibly	-7911
▁quat	-7912
▁inverted	-7913
▁gim	-7914
unction	-7915
▁humanoid	-7916
▁enl	-7917
ffeine	-7918
▁caffeine	-7919
379	-7920
▁)('	-7921
antic	-7922
▁mist	-7923
▁020	-7924
▁350	-7925
▁radar	-7926
▁cortex	-7927
▁([:	-7928
▁bye	-7929
▁(";	-7930
▁sex	-7931
▁sna	-7932
▁[["	-7933
▁notifiable	-7934
▁polar	-7935
iment	-7936
hoo	-7937
fect	-7938
▁lamp	-7939
▁imagine	-7940
▁intensity	-7941
ited	-7942
▁)[:	-7943
▁slogan	-7944
▁sector	-7945
▁251	-7946
▁{:?}",	-7947
▁stubbed	-7948
▁118	-7949
▁''),	-7950
▁'='	-7951
▁->$	-7952
▁umb	-7953
▁whisk	-7954
▁่	-7955
▁,#	-7956
▁"`,	-7957
▁kay	-7958
▁underground	-7959
▁her	-7960
▁opus	-7961
▁('.',	-7962
▁blocker	-7963
▁profit	-7964
746	-7965
▁?>">	-7966
▁unne	-7967
hand	-7968
▁'][]	-7969
▁spire	-7970
inear	-7971
▁belong	-7972
▁birthday	-7973
▁reek	-7974
▁bedro	-7975
▁(++	-7976
111	-7977
▁"]=	-7978
▁eta	-7979
▁owl	-7980
rella	-7981
▁$('.	-7982
▁umbrella	-7983
▁scoring	-7984
▁weed	-7985
▁locality	-7986
▁coefficient	-7987
960	-7988
mpl	-7989
la	-7990
▁480	-7991
▁covid	-7992
▁shiny	-7993
▁ach	-7994
▁styling	-7995
▁pruner	-7996
▁('//	-7997
▁141	-7998
▁\\"	-7999
▁rebalance	-8000
wards	-8001
▁understand	-8002
▁junk	-8003
▁232	-8004
▁($"{	-8005
▁assess	-8006
war	-8007
▁shrine	-8008
▁swiper	-8009
▁dar	-8010
▁diam	-8011
▁pledge	-8012
▁143	-8013
itivity	-8014
▁depending	-8015
\\\\	-8016
▁203	-8017
▁hilt	-8018
▁declar	-8019
▁+\	-8020
▁()")	-8021
▁trash	-8022
>>>>	-8023
rust	-8024
▁boring	-8025
▁disrupt	-8026
▁{}\	-8027
▁sentiment	-8028
car	-8029
corico	-8030
▁candle	-8031
▁cocorico	-8032
▁}])	-8033
▁recommendation	-8034
▁390	-8035
▁fuse	-8036
▁thinking	-8037
▁280	-8038
▁1200	-8039
▁useless	-8040
▁streamlet	-8041
▁optionally	-8042
999	-8043
▁navigable	-8044
alth	-8045
▁esc	-8046
▁opal	-8047
▁brown	-8048
▁expander	-8049
▁yr	-8050
▁nonex	-8051
▁premium	-8052
▁printable	-8053
stal	-8054
amble	-8055
▁9000	-8056
▁['/	-8057
▁('*	-8058
▁viper	-8059
otent	-8060
$$	-8061
*)	-8062
▁tofu	-8063
▁yahoo	-8064
▁waiter	-8065
▁conform	-8066
0101	-8067
zero	-8068
▁nonzero	-8069
▁')],	-8070
▁mixer	-8071
▁fourth	-8072
▁gutter	-8073
![	-8074
▁,,	-8075
▁wea	-8076
▁qua	-8077
▁visualization	-8078
ombie	-8079
▁()?;	-8080
▁()]);	-8081
▁zombie	-8082
-]	-8083
▁~~	-8084
▁!!)	-8085
▁lu	-8086
▁spo	-8087
▁idemp	-8088
▁idempotent	-8089
▁bask	-8090
▁unreal	-8091
▁bedrock	-8092
▁crystal	-8093
lot	-8094
▁lob	-8095
▁bilinear	-8096
▁fae	-8097
▁communicate	-8098
▁suitable	-8099
+\	-8100
▁'"'	-8101
▁typescript	-8102
ian	-8103
▁era	-8104
▁posted	-8105
agon	-8106
▁161	-8107
▁"><?=	-8108
▁'..',	-8109
▁=?	-8110
▁"{$	-8111
▁*(*	-8112
▁govern	-8113
▁)"),	-8114
▁tone	-8115
▁stomp	-8116
▁conflicting	-8117
▁',$	-8118
▁gimel	-8119
▁extreme	-8120
▁205	-8121
▁submar	-8122
▁154	-8123
▁[{}	-8124
122	-8125
▁')(	-8126
▁134	-8127
dog	-8128
▁follower	-8129
▁preamble	-8130
▁"}]	-8131
▁noun	-8132
▁tern	-8133
▁"))]	-8134
▁spew	-8135
▁fleet	-8136
▁(")	-8137
▁ok	-8138
▁235	-8139
ilization	-8140
night	-8141
▁basket	-8142
▁tank	-8143
▁precomp	-8144
▁supporting	-8145
▁!("{}	-8146
▁thank	-8147
▁acceptor	-8148
▁federation	-8149
▁kern	-8150
▁)~	-8151
▁"<?	-8152
▁';'	-8153
768	-8154
▁="{	-8155
▁watchdog	-8156
▁pluralize	-8157
▁153	-8158
▁165	-8159
▁lod	-8160
▁curry	-8161
▁unnecessary	-8162
▁194	-8163
▁424	-8164
▁perfect	-8165
▁>(@"	-8166
▁clue	-8167
▁#%	-8168
▁inception	-8169
▁chee	-8170
atched	-8171
▁prere	-8172
6666	-8173
▁drunk	-8174
▁:@	-8175
▁==(	-8176
▁she	-8177
▁adjustment	-8178
▁materialize	-8179
sto	-8180
ored	-8181
▁{@	-8182
iring	-8183
▁atlantic	-8184
olve	-8185
▁normally	-8186
paper	-8187
▁usable	-8188
▁derivative	-8189
▁vib	-8190
▁cant	-8191
redient	-8192
▁contour	-8193
▁ingredient	-8194
▁uniqueness	-8195
▁dy	-8196
▁allure	-8197
ingu	-8198
▁sidecar	-8199
▁('|	-8200
▁disruptor	-8201
▁contextual	-8202
▁213	-8203
▁his	-8204
▁ahead	-8205
▁consum	-8206
▁tramp	-8207
▁sufficient	-8208
▁conven	-8209
▁30000	-8210
▁filler	-8211
▁overhead	-8212
▁rail	-8213
▁;)	-8214
▁2002	-8215
ured	-8216
▁jas	-8217
▁$('#	-8218
▁rock	-8219
▁enchant	-8220
▁midnight	-8221
▁recognition	-8222
▁'*'	-8223
▁converting	-8224
▁smell	-8225
▁្	-8226
▁caus	-8227
▁transmit	-8228
▁enlist	-8229
▁ً	-8230
▁([{	-8231
▁cull	-8232
isan	-8233
▁sensitivity	-8234
▁`#{	-8235
▁".',	-8236
▁tried	-8237
▁ternary	-8238
]/	-8239
api	-8240
▁(~	-8241
▁"?>	-8242
▁swep	-8243
▁okapi	-8244
▁precompile	-8245
▁analyse	-8246
▁elb	-8247
▁}):	-8248
fit	-8249
▁[,	-8250
▁233	-8251
▁gri	-8252
▁unse	-8253
▁incon	-8254
▁stereo	-8255
▁regenerate	-8256
▁convertor	-8257
▁writeable	-8258
▁+="	-8259
▁china	-8260
\\\"	-8261
ariance	-8262
▁="%	-8263
▁mole	-8264
▁","@	-8265
▁shake	-8266
▁|"	-8267
▁169	-8268
▁clips	-8269
▁vulner	-8270
547	-8271
ising	-8272
▁artisan	-8273
▁2222	-8274
▁lesson	-8275
▁,!	-8276
▁safely	-8277
120	-8278
▁666	-8279
gence	-8280
▁<>()	-8281
'):	-8282
stic	-8283
▁\\\"	-8284
▁hole	-8285
▁latent	-8286
\'	-8287
"..	-8288
▁repair	-8289
▁sharded	-8290
▁starred	-8291
▁centered	-8292
▁%-	-8293
▁ful	-8294
▁assignee	-8295
▁precise	-8296
▁externally	-8297
▁245	-8298
▁<?>[]	-8299
▁aggress	-8300
▁}'"	-8301
)',	-8302
▁cabal	-8303
▁redraw	-8304
0100	-8305
▁longs	-8306
▁jitter	-8307
▁jasmine	-8308
▁committer	-8309
▁suppression	-8310
▁`[	-8311
▁ding	-8312
▁siz	-8313
▁essence	-8314
▁trailer	-8315
▁007	-8316
▁touched	-8317
▁/';	-8318
▁phases	-8319
▁eviction	-8320
▁]`	-8321
▁}.'	-8322
▁transferred	-8323
▁\-	-8324
▁?")	-8325
▁cheese	-8326
▁bravo	-8327
▁mostly	-8328
▁['--	-8329
▁facing	-8330
▁combiner	-8331
▁503	-8332
▁789	-8333
ament	-8334
▁sizer	-8335
inary	-8336
▁volc	-8337
▁convertible	-8338
)/	-8339
▁299	-8340
▁<*>>	-8341
▁doorkeeper	-8342
▁luke	-8343
▁goss	-8344
▁}`)	-8345
▁transporter	-8346
▁rainbow	-8347
%.	-8348
(?<	-8349
▁922	-8350
▁gur	-8351
▁elig	-8352
▁hol	-8353
▁orb	-8354
▁(...$	-8355
▁corruption	-8356
rich	-8357
▁'\'	-8358
▁mesa	-8359
▁strike	-8360
▁constrained	-8361
lia	-8362
▁()})	-8363
▁subp	-8364
rices	-8365
▁went	-8366
▁enlistment	-8367
uma	-8368
oose	-8369
▁}`);	-8370
▁matrices	-8371
▁mongoose	-8372
xil	-8373
▁(">	-8374
▁auxil	-8375
▁eat	-8376
ester	-8377
▁012	-8378
▁awa	-8379
▁seasonal	-8380
▁aggressive	-8381
($	-8382
▁ི	-8383
udge	-8384
▁[--	-8385
▁stateless	-8386
▁volcano	-8387
▁])))	-8388
▁)['	-8389
▁<*>,	-8390
▁exceed	-8391
▁gossip	-8392
▁evidence	-8393
▁puma	-8394
▁discip	-8395
*\	-8396
£',	-8397
▁discipline	-8398
▁mib	-8399
▁}}>	-8400
▁dome	-8401
▁satisfied	-8402
▁browsing	-8403
▁147	-8404
▁relo	-8405
▁flocker	-8406
▁localizer	-8407
▁simplified	-8408
▁manipulation	-8409
▁"}),	-8410
▁`/	-8411
▁plex	-8412
▁}"""	-8413
▁shorthand	-8414
▁%,	-8415
▁han	-8416
▁proportion	-8417
▁hourly	-8418
▁\(	-8419
ctic	-8420
▁intrig	-8421
▁abs	-8422
▁dos	-8423
iving	-8424
▁vamp	-8425
▁intrigue	-8426
?[	-8427
▁"')	-8428
▁;</	-8429
▁gala	-8430
▁'])->	-8431
vil	-8432
matic	-8433
▁reag	-8434
▁seven	-8435
▁roster	-8436
300	-8437
▁260	-8438
▁moon	-8439
▁reagent	-8440
▁transmission	-8441
zing	-8442
sco	-8443
▁saint	-8444
▁copier	-8445
▁fresco	-8446
▁yester	-8447
▁wallpaper	-8448
*"	-8449
▁searching	-8450
▁'()	-8451
▁brie	-8452
▁...$	-8453
▁bang	-8454
▁taxi	-8455
▁yesterday	-8456
▁['$	-8457
▁tabular	-8458
▁pep	-8459
▁tact	-8460
▁acceleration	-8461
dy	-8462
▁157	-8463
▁nonexistent	-8464
▁bow	-8465
▁pig	-8466
▁treatment	-8467
302	-8468
▁"*.	-8469
inerary	-8470
▁itinerary	-8471
▁##########	-8472
▁)("	-8473
letter	-8474
▁anvil	-8475
▁newsletter	-8476
▁>),	-8477
phere	-8478
▁printing	-8479
}\	-8480
gage	-8481
▁024	-8482
▁592	-8483
▁mud	-8484
▁*((*	-8485
▁coercion	-8486
▁:.	-8487
▁"~/	-8488
▁["--	-8489
▁weekly	-8490
▁sri	-8491
▁]]);	-8492
▁leap	-8493
imited	-8494
```	-8495
++++	-8496
▁207	-8497
▁$("#	-8498
▁60000	-8499
▁fulfill	-8500
▁{:.	-8501
?(	-8502
▁("&	-8503
▁",["	-8504
▁4008	-8505
▁piz	-8506
▁sold	-8507
▁knife	-8508
▁scram	-8509
▁termin	-8510
▁175	-8511
▁"]))	-8512
▁unlimited	-8513
▁tiff	-8514
▁pizza	-8515
▁tangram	-8516
▁chronology	-8517
808	-8518
▁-{	-8519
▁domestic	-8520
▁unauthentic	-8521
▁|--	-8522
enity	-8523
▁comet	-8524
============	-8525
▁unauthenticated	-8526
▁<<=	-8527
▁dram	-8528
▁guru	-8529
▁poller	-8530
▁precondition	-8531
*(	-8532
▁payer	-8533
osition	-8534
▁shipment	-8535
▁partially	-8536
▁}><	-8537
▁65536	-8538
pute	-8539
▁('=	-8540
<?	-8541
▁"},"	-8542
▁cropper	-8543
ador	-8544
▁^^^^	-8545
▁gher	-8546
▁brief	-8547
▁gherkin	-8548
▁respons	-8549
▁223	-8550
▁sie	-8551
▁storer	-8552
▁dispute	-8553
*/	-8554
▁}>"	-8555
▁2003	-8556
▁148	-8557
▁432	-8558
▁>>.	-8559
ado	-8560
▁008	-8561
`;	-8562
▁replicate	-8563
▁negotiation	-8564
▁)()	-8565
ptic	-8566
▁248	-8567
▁2004	-8568
▁poco	-8569
▁375	-8570
▁pole	-8571
=========	-8572
minal	-8573
▁calib	-8574
▁incons	-8575
▁turned	-8576
▁granular	-8577
oss	-8578
▁'').	-8579
▁forwards	-8580
▁balancing	-8581
▁226	-8582
ealth	-8583
▁unhealth	-8584
▁soon	-8585
assador	-8586
▁promote	-8587
▁ambassador	-8588
"):	-8589
561	-8590
▁149	-8591
ulder	-8592
▁")])	-8593
▁stra	-8594
▁()-	-8595
▁notary	-8596
▁resample	-8597
▁"*",	-8598
irectional	-8599
▁unwrapped	-8600
ene	-8601
▁demos	-8602
▁trading	-8603
▁290	-8604
▁showcase	-8605
▁rug	-8606
▁)}")	-8607
▁/#{@	-8608
▁====	-8609
▁vanilla	-8610
)\	-8611
▁\\.	-8612
ometer	-8613
▁helium	-8614
▁assured	-8615
(?!	-8616
▁188	-8617
▁debt	-8618
▁unhealthy	-8619
▁/'.	-8620
{%	-8621
▁}"))	-8622
,,	-8623
▁mora	-8624
▁surround	-8625
▁'}}	-8626
▁252	-8627
▁splat	-8628
▁]||	-8629
▁providing	-8630
▁dying	-8631
▁ู	-8632
▁{(	-8633
▁heavy	-8634
▁trader	-8635
▁.+	-8636
▁021	-8637
▁though	-8638
.',	-8639
▁fused	-8640
▁ಾ	-8641
bird	-8642
74836	-8643
▁138	-8644
▁forgot	-8645
▁switcher	-8646
07	-8647
regular	-8648
▁united	-8649
▁catchup	-8650
!--	-8651
▁pimple	-8652
▁304	-8653
▁[:]	-8654
▁();",	-8655
ja	-8656
▁$/,	-8657
▁gift	-8658
▁irregular	-8659
▁}%	-8660
▁mana	-8661
▁{}))	-8662
▁dialogue	-8663
▁gor	-8664
{'	-8665
▁(+	-8666
▁:");	-8667
▁minify	-8668
▁baggage	-8669
▁}`;	-8670
▁...");	-8671
▁behind	-8672
▁bouncer	-8673
▁compens	-8674
▁pruning	-8675
urse	-8676
▁spacer	-8677
▁lockbox	-8678
cat	-8679
▁537	-8680
▁',',	-8681
▁toll	-8682
▁blaze	-8683
▁orderer	-8684
▁'['	-8685
▁duo	-8686
▁.".	-8687
▁'{}'	-8688
▁}").	-8689
▁139	-8690
▁654	-8691
▁vary	-8692
▁<*,	-8693
uloid	-8694
▁tango	-8695
▁})();	-8696
▁celluloid	-8697
▁)$/	-8698
▁006	-8699
▁stay	-8700
▁permute	-8701
1111111111111111	-8702
▁dad	-8703
017	-8704
▁?>>	-8705
▁)].	-8706
▁terrain	-8707
▁">'	-8708
▁shield	-8709
▁thus	-8710
▁rocketeer	-8711
▁mis	-8712
▁ped	-8713
▁...\	-8714
▁utilization	-8715
/>	-8716
.",	-8717
▁?=	-8718
▁gum	-8719
▁handshaker	-8720
344	-8721
▁domin	-8722
▁monocle	-8723
▁smoking	-8724
▁watching	-8725
▁dip	-8726
▁crush	-8727
▁[...,	-8728
▁scored	-8729
▁୍	-8730
¥',	-8731
.*?)	-8732
▁caps	-8733
▁koala	-8734
▁mathem	-8735
▁seller	-8736
▁750	-8737
▁`--	-8738
▁seal	-8739
▁cleaning	-8740
▁176	-8741
▁303	-8742
▁pickler	-8743
▁advertise	-8744
▁chal	-8745
▁someone	-8746
▁21474836	-8747
▁adjacent	-8748
▁̇	-8749
(.*)	-8750
▁*))	-8751
▁--@	-8752
cule	-8753
▁[::	-8754
▁brain	-8755
▁),(	-8756
▁mobility	-8757
814	-8758
oon	-8759
▁'*.	-8760
▁209	-8761
$",	-8762
▁+")	-8763
▁.${	-8764
▁')])	-8765
▁mathemat	-8766
▁('..	-8767
▁----	-8768
▁tagger	-8769
▁('+	-8770
▁weaver	-8771
▁pairwise	-8772
▁{&	-8773
▁dupe	-8774
▁york	-8775
▁frank	-8776
▁"../../../	-8777
▁covariance	-8778
[]).	-8779
inja	-8780
▁721	-8781
▁}.{	-8782
▁jinja	-8783
▁pollution	-8784
▁approximate	-8785
▁scanning	-8786
▁)=	-8787
▁|$	-8788
▁198	-8789
▁tin	-8790
▁capsule	-8791
▁196	-8792
▁520	-8793
▁tuning	-8794
▁=>:	-8795
▁peg	-8796
▁flaky	-8797
▁sides	-8798
rot	-8799
▁corrupted	-8800
▁abb	-8801
▁imposs	-8802
───	-8803
▁[..	-8804
▁acquired	-8805
▁tau	-8806
▁amenity	-8807
▁defense	-8808
▁entrance	-8809
▁fib	-8810
duction	-8811
▁recoil	-8812
▁auction	-8813
▁maximize	-8814
▁`}	-8815
rack	-8816
<>	-8817
▁spent	-8818
▁sticker	-8819
../../../	-8820
▁associative	-8821
inge	-8822
minate	-8823
▁gloss	-8824
▁146	-8825
▁mint	-8826
▁impossible	-8827
elly	-8828
▁/\.	-8829
▁678	-8830
▁handy	-8831
▁nominal	-8832
▁inconsistent	-8833
▁({}	-8834
▁orbit	-8835
▁wagon	-8836
▁summarize	-8837
fol	-8838
▁conj	-8839
▁unlik	-8840
▁:</	-8841
▁goa	-8842
▁scra	-8843
aneous	-8844
▁weekday	-8845
▁unmatched	-8846
▁vanity	-8847
eth	-8848
▁bigger	-8849
▁ellipse	-8850
}")	-8851
▁tit	-8852
▁{}},	-8853
▁!,	-8854
▁310	-8855
▁sport	-8856
vention	-8857
▁marketing	-8858
▁=='	-8859
▁scalding	-8860
▁({:	-8861
▁enrich	-8862
▁additive	-8863
▁withdrawal	-8864
merium	-8865
▁pomerium	-8866
/^	-8867
▁')}}	-8868
▁enroll	-8869
▁tee	-8870
▁")],	-8871
▁{"/	-8872
▁()["	-8873
▁designer	-8874
▁|-	-8875
▁"]";	-8876
arctic	-8877
▁butter	-8878
▁neither	-8879
▁antarctic	-8880
▁opener	-8881
]*[	-8882
▁haw	-8883
▁158	-8884
▁247	-8885
▁{{"	-8886
▁("::	-8887
▁mangle	-8888
▁interior	-8889
▁()+	-8890
▁244	-8891
▁`).	-8892
▁(',',	-8893
766	-8894
▁)""	-8895
▁216	-8896
▁[&](	-8897
▁scrap	-8898
▁yn	-8899
▁directed	-8900
▁graphite	-8901
▁("~	-8902
▁/>);	-8903
▁`")	-8904
velte	-8905
▁rigid	-8906
▁svelte	-8907
▁mission	-8908
▁establish	-8909
▁antarctica	-8910
▁manipulator	-8911
>();	-8912
▁actionable	-8913
oint	-8914
▁"],["	-8915
▁sizing	-8916
~~~~~~~~	-8917
quis	-8918
▁:::	-8919
▁".",	-8920
▁='',	-8921
▁tuner	-8922
▁!("{}",	-8923
▁conduit	-8924
▁numeral	-8925
▁ampl	-8926
▁humid	-8927
▁falcon	-8928
▁variation	-8929
!!.	-8930
[\\	-8931
*",	-8932
folio	-8933
▁})->	-8934
▁portfolio	-8935
??	-8936
▁434	-8937
▁wipe	-8938
▁discovered	-8939
▁ַ	-8940
asis	-8941
▁)*(	-8942
▁0002	-8943
▁|]	-8944
▁nine	-8945
eler	-8946
▁.`,	-8947
▁trivial	-8948
▁eligible	-8949
▁195	-8950
▁raven	-8951
\$	-8952
▁mn	-8953
▁nope	-8954
▁rugged	-8955
▁lexical	-8956
▁ா	-8957
▁022	-8958
pective	-8959
▁mnemon	-8960
▁652	-8961
▁kick	-8962
▁}&	-8963
▁{}{}	-8964
▁":[{"	-8965
▁taking	-8966
▁tweak	-8967
▁passenger	-8968
imen	-8969
▁{[]	-8970
▁specimen	-8971
▁5678	-8972
▁hapt	-8973
-\	-8974
▁์	-8975
▁film	-8976
▁reth	-8977
▁unlocked	-8978
▁215	-8979
▁declarative	-8980
&&(	-8981
sed	-8982
▁themis	-8983
555	-8984
▁.")]	-8985
▁buzz	-8986
▁guaran	-8987
▁||"	-8988
▁magnet	-8989
reate	-8990
(%	-8991
▁441	-8992
▁orph	-8993
▁"}"	-8994
ledged	-8995
▁orphan	-8996
▁'});	-8997
▁&>	-8998
▁236	-8999
▁246	-9000
▁8723	-9001
▁unic	-9002
▁nettle	-9003
▁sometime	-9004
▁filament	-9005
'}	-9006
▁[{'	-9007
▁])),	-9008
▁!!!	-9009
▁239	-9010
▁rod	-9011
▁ult	-9012
▁throttling	-9013
▁]>	-9014
▁leaky	-9015
▁refreshing	-9016
▁"**	-9017
375	-9018
740	-9019
▁[<	-9020
▁)&&(	-9021
▁159	-9022
rantine	-9023
▁hydrator	-9024
▁quarantine	-9025
327	-9026
▁'](	-9027
▁kept	-9028
▁%|	-9029
oted	-9030
▁'#,##	-9031
▁robust	-9032
▁notified	-9033
▁established	-9034
▁077	-9035
▁species	-9036
▁ి	-9037
<<<<	-9038
leman	-9039
▁("").	-9040
▁aster	-9041
▁accident	-9042
707	-9043
▁bios	-9044
▁hant	-9045
▁})),	-9046
▁originally	-9047
▁radial	-9048
▁compass	-9049
▁181	-9050
▁healing	-9051
▁167	-9052
▁178	-9053
▁253	-9054
▁captain	-9055
▁/).	-9056
▁777	-9057
▁auxiliary	-9058
▁'//	-9059
▁bail	-9060
▁numerator	-9061
▁174	-9062
▁ale	-9063
▁nearby	-9064
▁civ	-9065
▁wild	-9066
▁majority	-9067
\/|	-9068
▁"="	-9069
▁229	-9070
▁unicorn	-9071
▁humidity	-9072
▁437	-9073
▁cru	-9074
▁eagle	-9075
▁scape	-9076
▁randomize	-9077
▁=.	-9078
▁162	-9079
rict	-9080
▁dragging	-9081
245	-9082
▁'\\'	-9083
▁road	-9084
▁guesser	-9085
▁$:	-9086
phen	-9087
▁.],	-9088
ferent	-9089
▁interactivity	-9090
olin	-9091
▁saw	-9092
▁591	-9093
▁increasing	-9094
▁reconciler	-9095
▁+,	-9096
▁}?	-9097
aped	-9098
▁hyphen	-9099
▁recomp	-9100
▁globally	-9101
▁→	-9102
▁unesc	-9103
▁imprint	-9104
▁peripher	-9105
▁subsequent	-9106
▁indirection	-9107
▁relocation	-9108
\/(	-9109
▁;")	-9110
▁)]);	-9111
▁straight	-9112
▁middleman	-9113
▁["/	-9114
▁{"-	-9115
▁<?>)	-9116
▁maze	-9117
313	-9118
▁185	-9119
▁]++	-9120
▁crow	-9121
▁took	-9122
ippable	-9123
784	-9124
open	-9125
▁laz	-9126
▁vict	-9127
▁(&[	-9128
▁dotted	-9129
▁spawning	-9130
▁trainable	-9131
▁='\\	-9132
333	-9133
▁[{{	-9134
▁scorer	-9135
▁unescaped	-9136
▁comes	-9137
▁peripheral	-9138
ronym	-9139
▁'.')	-9140
▁dotty	-9141
▁revalid	-9142
▁137	-9143
▁mad	-9144
▁({});	-9145
iff	-9146
▁/-	-9147
▁261	-9148
352	-9149
▁aid	-9150
▁symbolize	-9151
etype	-9152
▁ether	-9153
▁archetype	-9154
▁granularity	-9155
duce	-9156
▁tui	-9157
▁damp	-9158
▁comfy	-9159
▁extens	-9160
▁arrange	-9161
▁firm	-9162
▁exerc	-9163
▁nebula	-9164
▁mnemonic	-9165
▁therefore	-9166
▁assessment	-9167
▁&&!	-9168
242	-9169
▁invest	-9170
▁transit	-9171
iom	-9172
▁(':')	-9173
▁resolvable	-9174
▁,*	-9175
▁administration	-9176
▁241	-9177
▁ு	-9178
/,{	-9179
202	-9180
210	-9181
uate	-9182
▁!["	-9183
▁coral	-9184
osis	-9185
▁);}	-9186
▁earth	-9187
▁unlikely	-9188
▁171	-9189
▁'...	-9190
uccess	-9191
▁rebase	-9192
▁statics	-9193
▁unsuccess	-9194
▁802	-9195
icious	-9196
▁acronym	-9197
▁responsible	-9198
dict	-9199
▁"#,	-9200
▁imper	-9201
▁attacker	-9202
▁976	-9203
▁tec	-9204
▁']")	-9205
▁potion	-9206
{\	-9207
▁?>(	-9208
▁'");	-9209
▁soup	-9210
▁advisor	-9211
house	-9212
▁bower	-9213
▁})}	-9214
▁0100	-9215
▁ways	-9216
▁¥',	-9217
▁blood	-9218
▁often	-9219
odle	-9220
▁haptic	-9221
▁hydrate	-9222
▁|>	-9223
")))	-9224
▁><?	-9225
assemb	-9226
`);	-9227
▁ware	-9228
▁snack	-9229
▁flyweight	-9230
▁programmatic	-9231
cla	-9232
▁taint	-9233
▁#######	-9234
▁mathematics	-9235
mlin	-9236
▁"""\	-9237
▁....	-9238
▁chem	-9239
565	-9240
the	-9241
-------	-9242
▁("/").	-9243
▁tactic	-9244
▁molecule	-9245
([^@	-9246
▁},\	-9247
▁perspective	-9248
▁231	-9249
▁tic	-9250
▁trickster	-9251
note	-9252
▁'-')	-9253
▁wonder	-9254
ifferent	-9255
▁gremlin	-9256
omy	-9257
▁://"	-9258
▁]]("	-9259
▁breed	-9260
▁chunky	-9261
▁revalidate	-9262
ada	-9263
▁lei	-9264
▁{}:	-9265
▁achie	-9266
▁014	-9267
chedule	-9268
▁scribe	-9269
▁sometimes	-9270
▁410	-9271
▁bird	-9272
▁quietly	-9273
544	-9274
▁*"	-9275
▁|@	-9276
▁>[]	-9277
▁pang	-9278
ribution	-9279
▁:')	-9280
▁4444	-9281
▁ິ	-9282
▁.'),	-9283
▁boiler	-9284
▁bidirectional	-9285
▁·	-9286
▁720	-9287
▁`",	-9288
▁hop	-9289
▁furnace	-9290
▁`#	-9291
ming	-9292
▁768	-9293
▁('/^	-9294
▁({['	-9295
▁casting	-9296
▁->>	-9297
▁0101	-9298
▁weird	-9299
▁joining	-9300
▁unquoted	-9301
807	-9302
▁:[[	-9303
▁"""{	-9304
▁hazard	-9305
▁291	-9306
566	-9307
▁)}/	-9308
▁"'],	-9309
▁184	-9310
▁hom	-9311
]")	-9312
]*(	-9313
▁;[	-9314
▁197	-9315
lacer	-9316
767	-9317
▁("$.	-9318
▁("..	-9319
▁5120	-9320
▁='(\\	-9321
▁reflective	-9322
hib	-9323
]");	-9324
▁"["	-9325
▁($(	-9326
▁='/	-9327
ulous	-9328
▁toolbox	-9329
▁263	-9330
▁nag	-9331
▁ranged	-9332
▁(\$	-9333
▁177	-9334
▁kil	-9335
▁scient	-9336
33333333	-9337
▁replacer	-9338
▁compliant	-9339
▁fractional	-9340
▁>>)	-9341
▁lut	-9342
▁ി	-9343
810	-9344
▁#<	-9345
ridor	-9346
▁tomcat	-9347
▁corridor	-9348
▁ু	-9349
oge	-9350
▁<*>)	-9351
▁garden	-9352
▁optimal	-9353
▁)``	-9354
▁/>,	-9355
▁tire	-9356
▁durable	-9357
▁enrollment	-9358
▁statistical	-9359
▁('^	-9360
▁']]);	-9361
▁pouch	-9362
▁delegation	-9363
▁['-	-9364
▁assigner	-9365
▁clustered	-9366
▁submariner	-9367
▁lam	-9368
▁meet	-9369
"],	-9370
▁227	-9371
▁}"]	-9372
▁"]},	-9373
▁421	-9374
▁solar	-9375
▁complement	-9376
▁replaceable	-9377
\\/])	-9378
▁irre	-9379
▁assumed	-9380
▁>>>>>>>>	-9381
▁countable	-9382
)",	-9383
`),	-9384
▁*]]	-9385
arily	-9386
▁nova	-9387
▁lazily	-9388
▁columnar	-9389
▁ာ	-9390
▁296	-9391
▁loll	-9392
▁agency	-9393
▁superv	-9394
▁streamer	-9395
ipop	-9396
▁}':	-9397
▁lollipop	-9398
▁405	-9399
▁636	-9400
▁`))	-9401
▁rap	-9402
warder	-9403
▁recreate	-9404
▁forwarder	-9405
▁“	-9406
goat	-9407
▁kex	-9408
▁=[];	-9409
▁scapegoat	-9410
▁[("	-9411
▁indifferent	-9412
▁193	-9413
<<<<<<	-9414
▁(''	-9415
▁dal	-9416
▁spare	-9417
▁remover	-9418
▁($)	-9419
▁unass	-9420
▁randomly	-9421
▁5555	-9422
▁outlet	-9423
▁moder	-9424
lop	-9425
▁801	-9426
▁eth	-9427
▁{{--	-9428
▁"[]	-9429
▁'?.	-9430
▁wan	-9431
▁explore	-9432
▁502	-9433
▁bio	-9434
▁ist	-9435
▁}:{	-9436
▁(*((	-9437
▁linking	-9438
3030	-9439
▁['.	-9440
▁1975	-9441
▁6379	-9442
▁}"),	-9443
▁'))->	-9444
▁448	-9445
▁~/.	-9446
▁0644	-9447
([^@]*	-9448
\\/]*[	-9449
▁tangent	-9450
▁[^\\/]*[	-9451
996	-9452
▁lose	-9453
\\/])]]	-9454
▁lenient	-9455
▁[[([^@]*	-9456
▁[^\\/]*[\\/])]]	-9457
804	-9458
▁sliced	-9459
▁eight	-9460
▁lumin	-9461
▁doit	-9462
▁ther	-9463
▁footnote	-9464
▁guarantee	-9465
▁242	-9466
ostic	-9467
▁buildable	-9468
[^"	-9469
▁354	-9470
▁graceful	-9471
▁(":")	-9472
▁dither	-9473
▁persona	-9474
▁checkable	-9475
▁typography	-9476
izo	-9477
▁=<	-9478
▁186	-9479
▁\"},	-9480
▁erizo	-9481
▁occup	-9482
▁distributor	-9483
▁absor	-9484
▁learner	-9485
▁179	-9486
erp	-9487
▁![]	-9488
▁)?|	-9489
▁lerp	-9490
▁mutant	-9491
▁convenience	-9492
▁augmentation	-9493
▁189	-9494
gister	-9495
▁decide	-9496
▁flutter	-9497
365	-9498
▁!('	-9499
▁*[]	-9500
▁\".	-9501
▁unblock	-9502
▁/');	-9503
▁<?>,	-9504
▁duff	-9505
▁geode	-9506
▁alphabetical	-9507
▁013	-9508
▁=('	-9509
▁mant	-9510
▁exam	-9511
▁<<<<<<<<	-9512
▁skippable	-9513
▁structural	-9514
oir	-9515
▁torn	-9516
▁scrapy	-9517
▁limiting	-9518
▁corrected	-9519
▁progressive	-9520
862	-9521
▁('{"	-9522
▁repro	-9523
................	-9524
777	-9525
▁*((	-9526
▁})",	-9527
▁reservoir	-9528
▁ු	-9529
▁scro	-9530
▁repeatable	-9531
▁prece	-9532
▁indeter	-9533
\"",	-9534
▁;");	-9535
▁squash	-9536
▁tabulate	-9537
ora	-9538
▁173	-9539
cell	-9540
▁'(\\	-9541
▁wood	-9542
▁+-	-9543
▁chew	-9544
▁swag	-9545
loon	-9546
▁beer	-9547
▁modulus	-9548
▁exhausted	-9549
09	-9550
▁tie	-9551
▁50000	-9552
▁resist	-9553
▁hypoth	-9554
▁prerelease	-9555
902	-9556
▁419	-9557
▁\"")	-9558
▁015	-9559
▁}-{	-9560
claim	-9561
▁amplitude	-9562
▁introduction	-9563
cean	-9564
▁dro	-9565
▁}")]	-9566
▁ocean	-9567
▁diffuse	-9568
▁pangolin	-9569
216	-9570
▁>[	-9571
▁888	-9572
▁booster	-9573
▁regional	-9574
▁attest	-9575
▁inflection	-9576
▁recurrence	-9577
▁414	-9578
▁("[%	-9579
▁[]{"	-9580
eregister	-9581
▁?(::	-9582
▁combinator	-9583
?',	-9584
▁''],	-9585
▁\"}",	-9586
▁newly	-9587
▁nonpro	-9588
▁pocket	-9589
▁referral	-9590
▁unsuccessful	-9591
▁batcher	-9592
▁nonprofit	-9593
▁electronic	-9594
▁unassigned	-9595
ah	-9596
▁([(	-9597
▁352	-9598
▁toto	-9599
▁canada	-9600
▁switching	-9601
.-	-9602
▁271	-9603
▁696	-9604
▁rho	-9605
▁chewy	-9606
▁focal	-9607
▁humanize	-9608
765	-9609
rel	-9610
991	-9611
▁<&'	-9612
▁&[],	-9613
▁snappy	-9614
▁untrust	-9615
▁terminator	-9616
len	-9617
▁electrum	-9618
▁'%{	-9619
▁/">	-9620
▁340	-9621
▁()){	-9622
▁fram	-9623
▁('~	-9624
▁clos	-9625
▁bacon	-9626
▁distingu	-9627
▁),"	-9628
▁planet	-9629
▁10000000	-9630
▁`$	-9631
▁}."	-9632
▁'/');	-9633
▁wiring	-9634
▁balloon	-9635
341	-9636
▁257	-9637
▁411	-9638
uator	-9639
▁==="	-9640
▁raising	-9641
▁calibration	-9642
uter	-9643
▁'=',	-9644
▁verdict	-9645
▁<:<	-9646
▁clipping	-9647
▁lighting	-9648
())	-9649
244	-9650
▁"$@"	-9651
ubsc	-9652
▁237	-9653
▁="-	-9654
▁'+',	-9655
▁(",",	-9656
▁holding	-9657
▁grunt	-9658
▁voting	-9659
▁228	-9660
▁machin	-9661
▁!";	-9662
▁187	-9663
▁504	-9664
(?:\\	-9665
rical	-9666
▁feeder	-9667
$")	-9668
342	-9669
▁fox	-9670
▁*));	-9671
▁bandit	-9672
▁(\'	-9673
▁565	-9674
▁judge	-9675
▁boulder	-9676
▁spanner	-9677
[],	-9678
▁]"),	-9679
▁={}",	-9680
▁scrooge	-9681
616	-9682
▁ger	-9683
▁3339	-9684
▁pand	-9685
▁00001	-9686
irer	-9687
▁("/"))	-9688
▁-",	-9689
▁312	-9690
▁650	-9691
▁autop	-9692
▁utter	-9693
.)	-9694
745	-9695
▁)++	-9696
▁warden	-9697
906	-9698
▁={`	-9699
inthe	-9700
▁chop	-9701
▁alumn	-9702
▁absinthe	-9703
▁visualize	-9704
\",	-9705
▁292	-9706
▁steel	-9707
idential	-9708
▁research	-9709
ung	-9710
▁}]);	-9711
▁indeterminate	-9712
▁('!	-9713
▁406	-9714
▁/");	-9715
▁("""{"	-9716
▁('/');	-9717
▁focusable	-9718
▁recoverable	-9719
▁rouge	-9720
▁ా	-9721
▁="<?	-9722
quence	-9723
▁chemical	-9724
]|	-9725
▁')"	-9726
▁dream	-9727
▁convolutional	-9728
▁)</	-9729
▁internally	-9730
004	-9731
▁tall	-9732
▁ceiling	-9733
▁gorilla	-9734
▁deregister	-9735
▁|<	-9736
▁).'	-9737
▁accidentally	-9738
+)	-9739
▁?|	-9740
▁:/\	-9741
▁[]).	-9742
▁blind	-9743
▁cased	-9744
▁founder	-9745
▁330	-9746
▁402	-9747
▁rely	-9748
▁exclud	-9749
▁glass	-9750
▁tiled	-9751
▁winner	-9752
?"	-9753
▁))[	-9754
▁flake	-9755
▁nucle	-9756
▁backspace	-9757
▁901	-9758
▁mind	-9759
▁:{}",	-9760
▁tong	-9761
▁alumni	-9762
▁autopilot	-9763
▁typically	-9764
+|	-9765
992	-9766
▁sai	-9767
hound	-9768
▁worm	-9769
▁facility	-9770
▁inheritable	-9771
▁+"/	-9772
ilter	-9773
","","	-9774
840	-9775
▁*)"	-9776
▁={()	-9777
izable	-9778
▁confl	-9779
▁forked	-9780
▁tornado	-9781
▁accelerator	-9782
▁(';	-9783
▁]){	-9784
▁...')	-9785
▁/**/*.	-9786
:,	-9787
366	-9788
▁*[	-9789
{}".	-9790
▁370	-9791
▁conflu	-9792
uum	-9793
▁)]]	-9794
▁recognize	-9795
▁historical	-9796
▁acknowledged	-9797
▁')",	-9798
▁hang	-9799
▁(['--	-9800
▁://#{	-9801
%-	-9802
806	-9803
▁}.#{	-9804
▁picked	-9805
▁!!,	-9806
▁)["	-9807
▁183	-9808
▁("{{	-9809
▁}:#{	-9810
▁negotiate	-9811
▁somewhere	-9812
inea	-9813
▁("!	-9814
▁tars	-9815
▁victim	-9816
▁testable	-9817
▁ym	-9818
▁ା	-9819
▁:[[/	-9820
▁\"#{	-9821
▁biti	-9822
nection	-9823
▁emotion	-9824
▁182	-9825
▁308	-9826
▁pes	-9827
▁typeset	-9828
728	-9829
▁^^	-9830
▁()>	-9831
▁pry	-9832
mined	-9833
▁chad	-9834
mate	-9835
▁746	-9836
▁}'")	-9837
▁quill	-9838
▁playbook	-9839
▁accountable	-9840
<%=	-9841
fir	-9842
▁},"	-9843
▁#]*(	-9844
▁fiat	-9845
▁guid	-9846
▁transitive	-9847
▁511	-9848
▁]]),	-9849
▁stap	-9850
▁entering	-9851
▁referential	-9852
▁*',	-9853
▁("</	-9854
▁000001	-9855
▁exercise	-9856
▁preceding	-9857
<=	-9858
▁:*	-9859
▁whiny	-9860
▁asterisk	-9861
▁breaking	-9862
$"	-9863
▁''.	-9864
▁616	-9865
ometry	-9866
▁drake	-9867
▁sorry	-9868
▁:{"	-9869
▁unbox	-9870
itative	-9871
▁238	-9872
▁wat	-9873
▁town	-9874
▁abbre	-9875
▁dialer	-9876
▁spectator	-9877
ique	-9878
▁(%(	-9879
▁016	-9880
▁}';	-9881
▁vacc	-9882
▁flame	-9883
709	-9884
▁inch	-9885
▁shorter	-9886
▁cit	-9887
quirer	-9888
▁patron	-9889
▁"#<	-9890
▁431	-9891
▁']];	-9892
764	-9893
▁("?	-9894
▁jab	-9895
▁kat	-9896
▁tune	-9897
▁'}'	-9898
▁bee	-9899
▁altitude	-9900
▁convergence	-9901
▁01234	-9902
▁onto	-9903
▁771	-9904
▁<>());	-9905
▁poison	-9906
▁excluding	-9907
705	-9908
{},	-9909
▁')")	-9910
▁(".",	-9911
▁scientific	-9912
206	-9913
345	-9914
▁'?'	-9915
▁")})	-9916
ppable	-9917
▁"{}",	-9918
312	-9919
uss	-9920
▁!).	-9921
33720	-9922
leneck	-9923
▁shoot	-9924
▁mixture	-9925
▁bottleneck	-9926
▁([-	-9927
▁]]],	-9928
▁suffer	-9929
▁droplet	-9930
▁lateral	-9931
▁unselect	-9932
304	-9933
▁550	-9934
▁|*|	-9935
▁coarse	-9936
▁`@	-9937
।',	-9938
▁!.	-9939
▁&:	-9940
▁renewal	-9941
imate	-9942
▁jabber	-9943
▁/^\	-9944
▁266	-9945
▁<*>):	-9946
▁awaiter	-9947
▁terminus	-9948
▁initially	-9949
elf	-9950
▁(...,	-9951
▁fraud	-9952
▁;.	-9953
▁249	-9954
▁radiant	-9955
▁district	-9956
▁subsample	-9957
▁mur	-9958
▁eventuate	-9959
▁rethrow	-9960
▁analyser	-9961
━━	-9962
▁vale	-9963
▁([](	-9964
▁0400	-9965
▁\\\\	-9966
▁peter	-9967
▁nebulous	-9968
***	-9969
ramid	-9970
▁1900	-9971
▁]]))	-9972
▁)))))	-9973
33720368	-9974
▁="{{$	-9975
▁freed	-9976
▁meant	-9977
▁ethics	-9978
▁(({	-9979
▁pyramid	-9980
▁filterable	-9981
▁forecaster	-9982
▁ා	-9983
▁601	-9984
▁]==	-9985
▁interle	-9986
▁closable	-9987
▁delegator	-9988
▁"("	-9989
▁coloss	-9990
▁silencer	-9991
▁wed	-9992
arging	-9993
▁extensible	-9994
▁interleave	-9995
▁dissolution	-9996
▁"}))	-9997
▁++];	-9998
▁*:	-9999
▁)))),	-10000
▁86400	-10001
▁compensation	-10002
▁{/	-10003
▁sac	-10004
▁://%	-10005
▁volley	-10006
▁utterance	-10007
▁/@	-10008
roph	-10009
▁726	-10010
▁["-	-10011
▁dil	-10012
▁';',	-10013
▁arms	-10014
208	-10015
▁--}}	-10016
▁2022	-10017
▁synop	-10018
▁landmark	-10019
[^/	-10020
▁.*)'	-10021
▁colossus	-10022
"',	-10023
▁262	-10024
▁275	-10025
▁510	-10026
▁ambient	-10027
▁revocation	-10028
▁(..	-10029
ission	-10030
▁glossary	-10031
330	-10032
▁tck	-10033
▁{"--	-10034
▁pract	-10035
▁silver	-10036
▁commission	-10037
▁attestation	-10038
)/,	-10039
▁701	-10040
▁」	-10041
551	-10042
▁quantize	-10043
944	-10044
inst	-10045
▁!()	-10046
▁['#	-10047
▁wro	-10048
▁}">	-10049
▁huff	-10050
▁joke	-10051
▁"#/	-10052
▁("`	-10053
▁243	-10054
▁cri	-10055
▁sinh	-10056
▁()");	-10057
▁sheep	-10058
▁minable	-10059
▁218	-10060
▁pst	-10061
▁")")	-10062
▁334	-10063
ratic	-10064
▁landing	-10065
▁assumption	-10066
fish	-10067
pent	-10068
tice	-10069
▁reiss	-10070
▁signum	-10071
▁becomes	-10072
▁lattice	-10073
room	-10074
▁(/(	-10075
▁521	-10076
▁toy	-10077
▁)))->	-10078
▁indust	-10079
▁accordion	-10080
▁confidential	-10081
▁\[	-10082
▁ongoing	-10083
▁ਾ	-10084
▁(|(	-10085
▁:+:	-10086
▁0755	-10087
▁1080	-10088
▁risky	-10089
▁touchable	-10090
314	-10091
▁meaningful	-10092
▁ီ	-10093
744	-10094
▁diamond	-10095
▁fillable	-10096
▁unsorted	-10097
▁fulfillment	-10098
)|	-10099
741	-10100
▁'};	-10101
▁486	-10102
▁dart	-10103
▁hawk	-10104
▁}:${	-10105
▁aband	-10106
▁expiring	-10107
▁modality	-10108
▁))},	-10109
▁()}")	-10110
▁("../../../	-10111
▁achievement	-10112
▁ိ	-10113
▁"'"	-10114
▁'/^	-10115
▁ava	-10116
▁sage	-10117
▁truffle	-10118
▁augmented	-10119
725	-10120
▁>>(&	-10121
▁blas	-10122
787	-10123
▁315	-10124
▁destructor	-10125
▁trivia	-10126
▁chromium	-10127
▁iterative	-10128
▁hierarchical	-10129
509	-10130
803	-10131
▁822	-10132
▁?')	-10133
▁cosmos	-10134
▁twitch	-10135
▁`\	-10136
▁|'	-10137
▁knob	-10138
▁doctor	-10139
▁degrade	-10140
▁ು	-10141
002	-10142
332	-10143
▁)\/(	-10144
▁acting	-10145
▁dapper	-10146
▁deeply	-10147
▁effort	-10148
▁wrote	-10149
▁commut	-10150
▁successor	-10151
382	-10152
781	-10153
urb	-10154
▁["\	-10155
▁[[:	-10156
▁]="	-10157
▁loan	-10158
▁reopen	-10159
▁217	-10160
▁guinea	-10161
▁accelerate	-10162
▁&#	-10163
▁panda	-10164
▁cruise	-10165
▁broadcaster	-10166
▁}});	-10167
▁}}\	-10168
▁automata	-10169
241	-10170
▁:"\\	-10171
mitted	-10172
▁",")	-10173
▁dynamically	-10174
▁completeness	-10175
+"	-10176
▁)`,	-10177
▁***	-10178
▁035	-10179
▁[]),	-10180
▁opera	-10181
▁income	-10182
844	-10183
▁']])	-10184
▁1990	-10185
▁modulo	-10186
727	-10187
▁219	-10188
▁}\\	-10189
▁1010	-10190
▁1415	-10191
351	-10192
▁030	-10193
▁roc	-10194
▁'*',	-10195
▁introspector	-10196
▁)%	-10197
rome	-10198
▁1998	-10199
▁”	-10200
ade	-10201
rawn	-10202
▁440	-10203
▁('{{%	-10204
▁accomp	-10205
▁preparation	-10206
=[	-10207
sted	-10208
▁".")	-10209
▁pika	-10210
▁scallop	-10211
▁:`.	-10212
▁1800	-10213
▁!(!	-10214
▁unwind	-10215
="	-10216
▁![],	-10217
▁topo	-10218
▁reliable	-10219
▁equivalence	-10220
aster	-10221
▁guava	-10222
▁tight	-10223
▁interesting	-10224
ey	-10225
na	-10226
▁412	-10227
▁"}";	-10228
iltered	-10229
▁unconfir	-10230
▁relevance	-10231
▁unfiltered	-10232
▁𞥄	-10233
▁()*	-10234
▁=''	-10235
▁gle	-10236
▁")):	-10237
▁|\/|	-10238
▁}\""	-10239
▁plexus	-10240
▁thanks	-10241
▁foldable	-10242
▁`-	-10243
bble	-10244
▁lev	-10245
▁|(/	-10246
▁ally	-10247
▁shading	-10248
▁`]	-10249
""",	-10250
▁911	-10251
ographic	-10252
▁descent	-10253
▁initiate	-10254
▁expensive	-10255
▁sequencer	-10256
▁negotiator	-10257
}]	-10258
abor	-10259
▁/);	-10260
▁=("	-10261
331337	-10262
▁ridge	-10263
▁charging	-10264
▁diagnose	-10265
▁determined	-10266
▁bake	-10267
▁vent	-10268
▁valued	-10269
▁warehouse	-10270
904	-10271
▁'#'	-10272
▁)"))	-10273
▁inert	-10274
▁clearance	-10275
▁.[	-10276
▁fen	-10277
▁shri	-10278
▁binomial	-10279
▁isometry	-10280
▁unconfirmed	-10281
$/)	-10282
▁017	-10283
▁mate	-10284
▁issuing	-10285
▁creativity	-10286
ama	-10287
losure	-10288
▁applier	-10289
▁---------	-10290
▁initiator	-10291
ried	-10292
▁pir	-10293
▁rag	-10294
▁。")	-10295
▁evolve	-10296
▁generalized	-10297
\""	-10298
▁bay	-10299
▁cate	-10300
▁flood	-10301
▁medical	-10302
▁disassemb	-10303
▁hyperspace	-10304
▁()..	-10305
▁adjacency	-10306
▁constrain	-10307
▁oe	-10308
▁534	-10309
▁()"))	-10310
▁chips	-10311
▁tilde	-10312
▁billable	-10313
▁synopsis	-10314
▁&,	-10315
▁"{"	-10316
▁'>=	-10317
▁(:"	-10318
▁]?.	-10319
▁dut	-10320
▁gel	-10321
▁)}</	-10322
▁["#{	-10323
ille	-10324
▁%",	-10325
▁;++	-10326
▁])[	-10327
▁singularize	-10328
▁(?,	-10329
▁/";	-10330
▁untrusted	-10331
▁intervention	-10332
az	-10333
848	-10334
mur	-10335
549	-10336
▁"##	-10337
▁)=>	-10338
▁034	-10339
▁exe	-10340
▁><![	-10341
▁receipts	-10342
▁")";	-10343
▁6000	-10344
▁jelly	-10345
▁centroid	-10346
▁coinmate	-10347
▁insertable	-10348
+]	-10349
▁?.#	-10350
▁])\\	-10351
99999999	-10352
9496	-10353
▁429	-10354
ssive	-10355
▁.."/	-10356
▁drawn	-10357
▁chalice	-10358
▁outlier	-10359
▁vaccination	-10360
▁quantization	-10361
▁($.	-10362
▁fei	-10363
▁lad	-10364
ubscrib	-10365
▁island	-10366
▁unsubscrib	-10367
▁cup	-10368
▁{\"	-10369
▁quiz	-10370
▁beard	-10371
duro	-10372
▁311	-10373
▁folded	-10374
▁maduro	-10375
▁injectable	-10376
805	-10377
▁)}),	-10378
▁="">	-10379
▁framed	-10380
>"	-10381
▁oppos	-10382
▁('\\',	-10383
▁spirit	-10384
▁subsequence	-10385
user	-10386
▁460	-10387
▁shorten	-10388
▁advis	-10389
▁sauce	-10390
▁bey	-10391
▁wow	-10392
▁});\	-10393
33720368547	-10394
961	-10395
ars	-10396
▁.$$	-10397
▁agn	-10398
▁spool	-10399
▁agnostic	-10400
▁mailable	-10401
▁dogs	-10402
▁minim	-10403
▁shutting	-10404
▁commutative	-10405
▁interception	-10406
▁('>	-10407
▁]*)	-10408
▁[]>>	-10409
▁elli	-10410
▁mete	-10411
▁emulate	-10412
mal	-10413
▁(')	-10414
▁biome	-10415
7600	-10416
▁ens	-10417
▁pam	-10418
▁]]()	-10419
▁fair	-10420
▁pony	-10421
▁}}},	-10422
▁vulnerability	-10423
▁્	-10424
▁);',	-10425
▁"..",	-10426
▁('{}	-10427
▁0800	-10428
▁uncom	-10429
▁typecast	-10430
▁winter	-10431
▁gracefully	-10432
▁proceeding	-10433
▁ા	-10434
▁')'	-10435
rif	-10436
▁]())	-10437
▁meteor	-10438
360	-10439
▁)](	-10440
▁")?;	-10441
▁($('	-10442
▁hunk	-10443
▁knot	-10444
▁clump	-10445
▁sympt	-10446
▁dangerous	-10447
788	-10448
▁ink	-10449
▁")?.	-10450
▁0004	-10451
▁born	-10452
▁})")	-10453
567890	-10454
▁forbid	-10455
▁eventual	-10456
▁>}	-10457
▁-")	-10458
▁easier	-10459
▁strongly	-10460
364	-10461
▁,["	-10462
▁009	-10463
▁factorial	-10464
▁greyhound	-10465
014	-10466
760	-10467
▁.:	-10468
▁feel	-10469
▁summer	-10470
▁opposite	-10471
505	-10472
▁'@'	-10473
version	-10474
▁>*	-10475
▁sla	-10476
▁alen	-10477
▁nature	-10478
▁'/';	-10479
▁enchantment	-10480
▁,[-	-10481
izzard	-10482
▁*),	-10483
▁>).	-10484
▁machinery	-10485
875	-10486
▁"},{"	-10487
▁cheat	-10488
▁stoch	-10489
▁doodle	-10490
▁exploration	-10491
504	-10492
▁rarity	-10493
▁advisory	-10494
▁querying	-10495
]',	-10496
▁499	-10497
▁aim	-10498
▁urg	-10499
▁ravel	-10500
▁encore	-10501
etric	-10502
▁sine	-10503
▁beyond	-10504
▁([&	-10505
▁307	-10506
▁<",	-10507
^^^^^^^^^^^^	-10508
&#	-10509
]}"	-10510
▁'%',	-10511
▁...'	-10512
▁0600	-10513
▁bast	-10514
▁coming	-10515
▁lineage	-10516
▁)>>	-10517
▁0777	-10518
▁concatenation	-10519
545	-10520
716	-10521
▁ི་	-10522
▁();\	-10523
▁()}"	-10524
▁titan	-10525
▁escaper	-10526
.."	-10527
▁'+'	-10528
▁])}	-10529
▁...,	-10530
240	-10531
▁[?	-10532
▁/^[	-10533
▁686	-10534
▁]('	-10535
ogene	-10536
▁scept	-10537
▁capable	-10538
$',	-10539
212	-10540
▁={};	-10541
▁\","	-10542
▁]]--	-10543
▁nome	-10544
▁|}""".	-10545
▁".*	-10546
▁{"$	-10547
▁mash	-10548
▁exhaustive	-10549
ves	-10550
▁[]=	-10551
▁sea	-10552
▁awake	-10553
▁multiplic	-10554
▁305	-10555
▁""""	-10556
▁$('<	-10557
azine	-10558
▁)").	-10559
▁8081	-10560
▁enco	-10561
▁till	-10562
▁scepter	-10563
▁stapler	-10564
▁magazine	-10565
▁vertically	-10566
910	-10567
7200	-10568
▁409	-10569
246	-10570
▁libra	-10571
▁advise	-10572
▁prober	-10573
▁hardness	-10574
▁=@	-10575
▁'('	-10576
▁(/^\	-10577
▁.]	-10578
▁531	-10579
▁elliptic	-10580
▁automatization	-10581
▁!(),	-10582
▁()};	-10583
▁redef	-10584
gy	-10585
▁german	-10586
ological	-10587
▁describer	-10588
▁kin	-10589
▁forth	-10590
▁patcher	-10591
▁zeroize	-10592
702	-10593
761	-10594
▁els	-10595
▁((((	-10596
▁)]):	-10597
▁cellular	-10598
▁ov	-10599
▁wy	-10600
rang	-10601
▁?>.	-10602
▁redact	-10603
▁transactor	-10604
##############	-10605
2400	-10606
▁<--	-10607
▁",",	-10608
322	-10609
osed	-10610
▁hair	-10611
▁separation	-10612
756	-10613
▁='.	-10614
▁|${	-10615
▁"))(	-10616
▁}.${	-10617
▁taxon	-10618
▁"()	-10619
▁gos	-10620
▁mas	-10621
izome	-10622
▁1100	-10623
▁fifth	-10624
ometric	-10625
▁absorb	-10626
▁murmur	-10627
22222222	-10628
▁rhizome	-10629
▁friction	-10630
▁ki	-10631
▁lis	-10632
▁unreg	-10633
▁lesser	-10634
ury	-10635
▁+/)	-10636
▁844	-10637
▁]().	-10638
▁asym	-10639
▁fairy	-10640
istered	-10641
▁scrolled	-10642
▁stochastic	-10643
541	-10644
rail	-10645
▁288	-10646
▁"],"	-10647
▁unregistered	-10648
}',	-10649
▁-\\	-10650
▁="";	-10651
▁representer	-10652
▁curd	-10653
▁adopt	-10654
▁redeem	-10655
▁00000001	-10656
▁quadratic	-10657
ops	-10658
shop	-10659
▁"#;	-10660
▁265	-10661
▁)});	-10662
▁apprise	-10663
▁exceptionally	-10664
-"	-10665
▁|/	-10666
vous	-10667
▁."]	-10668
▁parrot	-10669
irt	-10670
▁({{	-10671
▁934	-10672
▁['{	-10673
▁lax	-10674
▁wad	-10675
▁fidd	-10676
▁pill	-10677
▁ີ	-10678
▁%)	-10679
▁nib	-10680
▁."},	-10681
▁3333	-10682
▁dumb	-10683
▁exclus	-10684
362	-10685
▁"「	-10686
ucet	-10687
▁elim	-10688
▁father	-10689
▁snapshotter	-10690
▁{[	-10691
▁unquote	-10692
▁guardrail	-10693
east	-10694
▁]";	-10695
▁finan	-10696
▁watchman	-10697
▁essential	-10698
▁\]	-10699
▁()?	-10700
▁040	-10701
check	-10702
▁mood	-10703
atively	-10704
▁investig	-10705
▁yourself	-10706
▁1000000000	-10707
$%	-10708
][	-10709
816	-10710
▁356	-10711
▁extending	-10712
▁identifiable	-10713
▁[('	-10714
▁selling	-10715
▁descript	-10716
▁financial	-10717
▁',\	-10718
▁066	-10719
▁}-[	-10720
uable	-10721
▁="#"	-10722
846	-10723
926	-10724
▁anom	-10725
▁gogo	-10726
▁sigil	-10727
▁accompan	-10728
▁wearable	-10729
▁recurrent	-10730
▁uncommitted	-10731
851	-10732
eger	-10733
norm	-10734
anine	-10735
▁expert	-10736
▁jaeger	-10737
▁regardless	-10738
▁scoreboard	-10739
([\	-10740
710	-10741
▁<.	-10742
▁rul	-10743
▁drift	-10744
▁presto	-10745
▁bearing	-10746
▁cartridge	-10747
769	-10748
3200	-10749
▁<->	-10750
▁``'	-10751
▁(&["	-10752
▁)}},	-10753
213	-10754
5600	-10755
▁`.`	-10756
▁"{}"	-10757
▁surn	-10758
▁surname	-10759
▁materialistic	-10760
▁rax	-10761
▁outl	-10762
▁queen	-10763
▁isolate	-10764
▁^{	-10765
▁274	-10766
ducer	-10767
▁blame	-10768
546	-10769
▁*/\	-10770
▁derby	-10771
▁shriek	-10772
▁stamper	-10773
▁supervision	-10774
▁authoritative	-10775
306	-10776
▁496	-10777
arsed	-10778
▁<>",	-10779
▁totem	-10780
▁dashed	-10781
▁strictly	-10782
▁unparsed	-10783
▁92233720368547	-10784
▁ं	-10785
▁>@	-10786
▁<=",	-10787
▁march	-10788
▁ू	-10789
▁mezz	-10790
racked	-10791
▁lobby	-10792
▁untracked	-10793
383	-10794
708	-10795
▁294	-10796
▁়	-10797
▁306	-10798
▁pray	-10799
▁fishing	-10800
▁invalidation	-10801
335	-10802
▁+)\	-10803
▁()``	-10804
▁>=",	-10805
▁chev	-10806
standing	-10807
▁mezzanine	-10808
204	-10809
205	-10810
815	-10811
▁()/	-10812
▁941	-10813
▁('::	-10814
▁*/',	-10815
arsity	-10816
▁inhib	-10817
▁retina	-10818
▁anomaly	-10819
▁unsaved	-10820
▁sparsity	-10821
▁instructor	-10822
4444	-10823
▁);"	-10824
▁])',	-10825
▁('..');	-10826
▁delight	-10827
▁scrubbed	-10828
▁unsubscribed	-10829
▁ُ	-10830
316	-10831
<\/	-10832
▁""}	-10833
▁544	-10834
▁inlet	-10835
▁ration	-10836
▁leaving	-10837
▁confluent	-10838
▁surrounding	-10839
/\	-10840
▁756	-10841
▁`):	-10842
▁gan	-10843
▁lime	-10844
▁}).$	-10845
▁adult	-10846
angular	-10847
▁easily	-10848
▁shadowed	-10849
▁diagnosis	-10850
214	-10851
265	-10852
[^\\	-10853
▁kapp	-10854
liament	-10855
▁unlike	-10856
▁caution	-10857
▁parliament	-10858
▁!($	-10859
▁886	-10860
▁"');	-10861
▁alfa	-10862
atchet	-10863
▁paired	-10864
▁complic	-10865
▁damping	-10866
▁anywhere	-10867
▁divisible	-10868
▁justification	-10869
###############	-10870
oline	-10871
▁meas	-10872
▁complicated	-10873
▁abbreviation	-10874
],"	-10875
▁",)	-10876
▁^^^	-10877
▁}::	-10878
▁[@]}	-10879
▁("...	-10880
▁shorts	-10881
▁(!!	-10882
▁spice	-10883
▁morning	-10884
▁committee	-10885
▁badger	-10886
▁reconstruct	-10887
▁emph	-10888
▁nuke	-10889
▁alone	-10890
▁imperson	-10891
▁hypothesis	-10892
▁trampoline	-10893
729	-10894
▁``(	-10895
apped	-10896
rored	-10897
######	-10898
▁kappa	-10899
▁fiddle	-10900
▁mirrored	-10901
▁outstanding	-10902
▁="\	-10903
▁tue	-10904
▁)]),	-10905
▁shap	-10906
▁########	-10907
882	-10908
?=\	-10909
▁0700	-10910
ateral	-10911
▁rector	-10912
▁clipped	-10913
▁workshop	-10914
▁\{	-10915
▁/>;	-10916
▁278	-10917
▁622	-10918
▁blow	-10919
▁slop	-10920
▁960	-10921
▁greet	-10922
▁chevron	-10923
▁resizer	-10924
303	-10925
757	-10926
]*)"	-10927
▁+',	-10928
▁.'));	-10929
▁valve	-10930
▁harvest	-10931
▁frequent	-10932
▁covariant	-10933
|[	-10934
coming	-10935
▁-}}	-10936
▁\\/	-10937
▁young	-10938
▁\":[\"	-10939
▁cellar	-10940
▁synchronizer	-10941
019	-10942
▁,",	-10943
▁/.*	-10944
▁/{}	-10945
▁muss	-10946
▁subplot	-10947
▁copybook	-10948
▁ି	-10949
▁;(	-10950
▁moo	-10951
▁equation	-10952
dez	-10953
7654	-10954
▁"[%	-10955
▁","$	-10956
▁3306	-10957
▁]])(	-10958
second	-10959
▁{}{},	-10960
dezvous	-10961
▁awless	-10962
▁rendezvous	-10963
▁microsecond	-10964
▁permanently	-10965
▁('&	-10966
▁unfin	-10967
▁analyses	-10968
$/',	-10969
5200	-10970
▁366	-10971
▁soot	-10972
▁resend	-10973
▁encounter	-10974
▁491	-10975
▁rent	-10976
▁illusion	-10977
'$	-10978
562	-10979
ball	-10980
▁unroll	-10981
▁concurrently	-10982
do	-10983
▁sixt	-10984
###########	-10985
▁impression	-10986
▁lem	-10987
▁crowd	-10988
▁111111	-10989
▁remind	-10990
")]	-10991
506	-10992
<?=	-10993
?\\	-10994
▁!;	-10995
..."	-10996
▁*],	-10997
▁ome	-10998
selves	-10999
▁divid	-11000
▁latter	-11001
ursement	-11002
▁unfinished	-11003
▁)'],	-11004
▁>>("	-11005
▁baud	-11006
▁serv	-11007
ogeneous	-11008
▁bastille	-11009
▁negation	-11010
olen	-11011
▁hog	-11012
847	-11013
▁--[	-11014
▁)"""	-11015
▁]++;	-11016
▁reass	-11017
▁dazzle	-11018
igence	-11019
▁omega	-11020
▁weave	-11021
ubl	-11022
▁"->	-11023
▁415	-11024
▁']}}	-11025
▁linger	-11026
▁stolen	-11027
▁subscript	-11028
▁decomposition	-11029
▁}--	-11030
▁""));	-11031
▁piped	-11032
?}	-11033
▁766	-11034
▁arri	-11035
▁]]></	-11036
▁consumable	-11037
▁ੀ	-11038
▁fitting	-11039
▁accompanist	-11040
▁ุ	-11041
998	-11042
▁("%.	-11043
▁80211	-11044
▁formed	-11045
▁het	-11046
▁dean	-11047
▁orth	-11048
▁rear	-11049
▁!("{:	-11050
▁griff	-11051
▁slight	-11052
▁exploit	-11053
▁!"))	-11054
▁))?;	-11055
▁assum	-11056
▁dividend	-11057
▁modifiable	-11058
338	-11059
568	-11060
719	-11061
▁\|	-11062
▁("-",	-11063
:"	-11064
arent	-11065
etics	-11066
▁(.*)	-11067
▁.*",	-11068
▁0010	-11069
▁unpin	-11070
▁tooling	-11071
▁consuming	-11072
2800	-11073
▁unco	-11074
▁------	-11075
▁causal	-11076
▁unloaded	-11077
▁?>)	-11078
▁pilot	-11079
223	-11080
703	-11081
888	-11082
▁).."	-11083
▁movable	-11084
▁80000000	-11085
015	-11086
560	-11087
989	-11088
▁"{\	-11089
▁355	-11090
▁tea	-11091
▁)++;	-11092
▁32768	-11093
▁proxim	-11094
▁luminance	-11095
323	-11096
▁([@	-11097
▁']}"	-11098
▁diver	-11099
▁discoverer	-11100
717	-11101
941	-11102
▁277	-11103
▁567	-11104
▁0020	-11105
▁flee	-11106
▁'))).	-11107
▁ো	-11108
▁#-	-11109
omon	-11110
▁"-",	-11111
▁}');	-11112
▁vacuum	-11113
▁descriptive	-11114
uity	-11115
▁267	-11116
▁('<?	-11117
▁speak	-11118
▁pirate	-11119
▁looping	-11120
▁salomon	-11121
▁assuming	-11122
▁exceptional	-11123
eled	-11124
▁\',	-11125
local	-11126
▁motif	-11127
▁nonlocal	-11128
▁interested	-11129
#############	-11130
802	-11131
elo	-11132
▁'{'	-11133
▁1993	-11134
▁unal	-11135
▁steal	-11136
▁pomelo	-11137
▁keeping	-11138
▁compacted	-11139
▁specialization	-11140
325	-11141
vex	-11142
▁\`	-11143
igma	-11144
▁:"",	-11145
▁convex	-11146
▁shoppe	-11147
▁100000000	-11148
.+?)	-11149
▁chess	-11150
▁rough	-11151
▁griffin	-11152
▁everyone	-11153
▁splitting	-11154
===========	-11155
▁416	-11156
▁'/../../../../	-11157
▁િ	-11158
336	-11159
▁ivy	-11160
▁"\""	-11161
▁).',	-11162
▁catching	-11163
▁reconnection	-11164
222	-11165
esth	-11166
▁025	-11167
▁1994	-11168
▁executer	-11169
▁}@	-11170
════	-11171
▁"""<	-11172
▁1002	-11173
▁classified	-11174
714	-11175
▁']'	-11176
▁\";	-11177
ruder	-11178
▁valet	-11179
▁consol	-11180
203	-11181
308	-11182
\/\	-11183
ancer	-11184
▁lake	-11185
▁|```	-11186
▁governance	-11187
704	-11188
▁="+	-11189
▁'£',	-11190
▁.'],	-11191
▁peso	-11192
▁aesth	-11193
▁shaper	-11194
▁unify	-11195
▁proximity	-11196
(",	-11197
215	-11198
▁$?	-11199
0111	-11200
look	-11201
▁337	-11202
▁`',	-11203
▁=$(<	-11204
▁}"}.	-11205
▁abnorm	-11206
ared	-11207
▁322	-11208
▁||!	-11209
stood	-11210
▁refinement	-11211
'])	-11212
951	-11213
▁+%	-11214
▁reh	-11215
▁',),	-11216
▁cite	-11217
▁luck	-11218
▁,...)	-11219
▁anyway	-11220
▁asymmetric	-11221
563	-11222
845	-11223
([^\	-11224
▁aka	-11225
▁("{$	-11226
▁[{}]	-11227
▁rope	-11228
▁taxonomy	-11229
▁conformance	-11230
▁!~	-11231
▁tro	-11232
▁))",	-11233
▁hung	-11234
▁compl	-11235
▁incorrectly	-11236
564	-11237
"},{	-11238
▁!(*	-11239
▁%>.	-11240
▁trad	-11241
▁decline	-11242
▁ancestry	-11243
▁reassign	-11244
////	-11245
▁:/(	-11246
▁].(	-11247
▁omn	-11248
▁)();	-11249
▁maha	-11250
▁taps	-11251
▁stake	-11252
%%	-11253
▁ུ	-11254
asi	-11255
▁258	-11256
▁}`.	-11257
▁=#{@	-11258
▁turk	-11259
▁couch	-11260
310	-11261
▁'€	-11262
▁%>(	-11263
ublic	-11264
▁+\.\	-11265
▁ruler	-11266
▁hammer	-11267
▁ratchet	-11268
▁extruder	-11269
▁unmapped	-11270
▁downgrade	-11271
▁throttler	-11272
}/	-11273
fus	-11274
▁">=	-11275
▁('?	-11276
▁desk	-11277
▁quasi	-11278
▁spinach	-11279
▁collabor	-11280
▁improper	-11281
▁optimistic	-11282
▁truncation	-11283
▁!(&	-11284
▁']';	-11285
▁heat	-11286
▁pert	-11287
▁(*((*	-11288
▁obfus	-11289
▁improve	-11290
quisition	-11291
318	-11292
949	-11293
rian	-11294
▁875	-11295
▁\"{	-11296
▁hon	-11297
▁viol	-11298
▁separ	-11299
▁../	-11300
▁273	-11301
onome	-11302
▁scout	-11303
▁imaginary	-11304
▁metronome	-11305
▁..'	-11306
berry	-11307
▁"}})	-11308
▁park	-11309
▁debit	-11310
▁understood	-11311
785	-11312
940	-11313
945	-11314
▁268	-11315
▁'.';	-11316
▁?.()	-11317
▁emote	-11318
▁©	-11319
!==	-11320
305	-11321
326	-11322
841	-11323
▁()'	-11324
▁272	-11325
▁cud	-11326
")]),	-11327
▁"}).	-11328
▁ാ	-11329
248	-11330
abil	-11331
▁346	-11332
▁364	-11333
▁."));	-11334
▁10001	-11335
▁whence	-11336
▁reality	-11337
▁das	-11338
proof	-11339
▁tomb	-11340
irable	-11341
▁outlook	-11342
▁accurate	-11343
zyme	-11344
▁`{}	-11345
▁{{/	-11346
▁()==	-11347
▁tout	-11348
▁}();	-11349
▁bring	-11350
▁honor	-11351
▁overd	-11352
▁berlin	-11353
▁enzyme	-11354
▁continent	-11355
▁ូ	-11356
▁}!	-11357
▁]&&	-11358
▁sen	-11359
▁).",	-11360
▁'\\')	-11361
▁ideal	-11362
▁indication	-11363
00000000000000	-11364
▁simplification	-11365
966	-11366
▁711	-11367
▁\"$	-11368
▁unpubl	-11369
▁glib	-11370
▁wont	-11371
▁("#{@	-11372
:\	-11373
005	-11374
864	-11375
▁:\/	-11376
▁")}}	-11377
▁exclusively	-11378
▁potentially	-11379
718	-11380
ibus	-11381
▁276	-11382
▁bun	-11383
ortun	-11384
▁",/^	-11385
▁tonga	-11386
865	-11387
▁436	-11388
▁yaw	-11389
▁"---	-11390
▁hope	-11391
▁rationale	-11392
▁transitional	-11393
502	-11394
5555	-11395
▁...]	-11396
▁]],[	-11397
▁undoc	-11398
umented	-11399
▁blazing	-11400
▁helpful	-11401
▁tunable	-11402
▁multiplex	-11403
▁undocumented	-11404
\/\*	-11405
▁324	-11406
▁\\\	-11407
▁pros	-11408
▁429496	-11409
▁technical	-11410
▁interpretation	-11411
315	-11412
786	-11413
818	-11414
▁>?,	-11415
▁[]}	-11416
▁],"	-11417
idding	-11418
217	-11419
▁,@	-11420
▁372	-11421
▁=',	-11422
▁sne	-11423
▁16384	-11424
▁strata	-11425
3600	-11426
▁honey	-11427
▁lemma	-11428
▁intell	-11429
▁segmented	-11430
`))	-11431
issa	-11432
▁285	-11433
▁'=>$	-11434
▁===(	-11435
▁dust	-11436
▁"}}},	-11437
▁...))	-11438
▁whoops	-11439
▁omnibus	-11440
▁mutually	-11441
▁situation	-11442
▁gy	-11443
hole	-11444
▁!({	-11445
▁'%'	-11446
▁£',	-11447
▁]}")	-11448
▁},{"	-11449
▁hydro	-11450
▁silly	-11451
▁(""));	-11452
▁estate	-11453
▁mechanize	-11454
▁}?.	-11455
▁0123	-11456
▁castor	-11457
▁bencher	-11458
▁confine	-11459
▁powered	-11460
▁spelling	-11461
▁°	-11462
▁ै	-11463
▁\"]	-11464
▁clap	-11465
▁grub	-11466
▁polyglot	-11467
713	-11468
▁018	-11469
▁454	-11470
▁jail	-11471
▁jess	-11472
▁emphasis	-11473
▁operational	-11474
742	-11475
987	-11476
▁]}/	-11477
▁}]"	-11478
▁'€',	-11479
▁*(?:	-11480
▁().'/	-11481
▁flint	-11482
▁fixable	-11483
▁unpublished	-11484
▁ັ	-11485
353	-11486
rans	-11487
▁620	-11488
▁{{{	-11489
▁")}"	-11490
▁'"',	-11491
▁forecasting	-11492
((?	-11493
995	-11494
▁cosh	-11495
▁giving	-11496
▁uncount	-11497
^|	-11498
▁$",	-11499
▁[((	-11500
▁dop	-11501
▁tig	-11502
▁tidy	-11503
▁(",");	-11504
();	-11505
309	-11506
751	-11507
▁=)	-11508
▁?))	-11509
▁])*	-11510
▁sao	-11511
▁delve	-11512
▁influ	-11513
▁mutual	-11514
▁prayer	-11515
▁miscell	-11516
▁interview	-11517
▁2500	-11518
▁tera	-11519
▁wine	-11520
▁outbox	-11521
▁supplement	-11522
^(	-11523
▁nix	-11524
▁"><?	-11525
▁motor	-11526
▁galaxy	-11527
▁pretrain	-11528
▁strategic	-11529
olf	-11530
▁██	-11531
▁485	-11532
▁"}`,	-11533
▁+(?:	-11534
▁]").	-11535
▁billy	-11536
▁blending	-11537
▁telephony	-11538
▁miscellaneous	-11539
▁ೆ	-11540
226	-11541
▁$")	-11542
▁)[(	-11543
▁+)?	-11544
▁595	-11545
▁=()	-11546
▁ded	-11547
▁jew	-11548
▁rare	-11549
▁modeling	-11550
▁unaligned	-11551
▁temporarily	-11552
#,	-11553
602	-11554
▁fad	-11555
▁roam	-11556
▁verse	-11557
▁redist	-11558
[%	-11559
006	-11560
urt	-11561
923	-11562
▁357	-11563
▁mage	-11564
▁clearing	-11565
▁settlement	-11566
▁transliter	-11567
"/	-11568
▁%=	-11569
###',	-11570
▁fiction	-11571
▁productivity	-11572
▁distinguished	-11573
016	-11574
▁scalable	-11575
▁librarian	-11576
▁directional	-11577
omot	-11578
▁[#{	-11579
omotive	-11580
▁ballot	-11581
▁enigma	-11582
▁gatherer	-11583
7777	-11584
▁[".	-11585
▁toe	-11586
▁kana	-11587
▁donate	-11588
018	-11589
\\\	-11590
▁=,	-11591
opher	-11592
▁1280	-11593
▁=[])	-11594
▁diameter	-11595
▁populator	-11596
000000000000	-11597
▁-%>	-11598
▁461	-11599
▁:].	-11600
▁ali	-11601
▁ort	-11602
▁rip	-11603
▁pars	-11604
▁"-----	-11605
▁mantissa	-11606
782	-11607
860	-11608
▁332	-11609
▁625	-11610
▁widen	-11611
▁1234567	-11612
▁influence	-11613
▁underflow	-11614
346	-11615
908	-11616
▁highly	-11617
▁inertia	-11618
▁quantum	-11619
003	-11620
307	-11621
▁)**	-11622
▁{{$	-11623
▁"]')	-11624
▁1995	-11625
master	-11626
▁conse	-11627
▁fling	-11628
elerate	-11629
▁decelerate	-11630
▁abstraction	-11631
▁417	-11632
field	-11633
▁pant	-11634
▁casing	-11635
▁endless	-11636
▁imputer	-11637
▁proposition	-11638
▁ื	-11639
▁036	-11640
▁343	-11641
iency	-11642
▁guy	-11643
etary	-11644
▁yang	-11645
▁('-',	-11646
▁posting	-11647
▁guideline	-11648
---+	-11649
▁467	-11650
▁>`,	-11651
▁boat	-11652
▁wast	-11653
▁rolled	-11654
▁textual	-11655
▁commenter	-11656
▁verifiable	-11657
110	-11658
[\]	-11659
ato	-11660
atim	-11661
▁()\	-11662
▁050	-11663
▁784	-11664
▁<<(	-11665
▁99999	-11666
▁unver	-11667
▁immune	-11668
▁reseed	-11669
▁scrape	-11670
▁striped	-11671
▁verbatim	-11672
▁battlefield	-11673
▁publishable	-11674
▁uncountable	-11675
▁}/,	-11676
▁clog	-11677
▁keel	-11678
▁sail	-11679
abeled	-11680
▁unlabeled	-11681
▁attribution	-11682
><	-11683
343	-11684
sun	-11685
▁;/	-11686
▁'.*	-11687
▁+",	-11688
▁empire	-11689
▁shuttle	-11690
▁42949672	-11691
▁horizontally	-11692
▁'../../../../	-11693
▁multiplication	-11694
569	-11695
▁([\	-11696
▁){}	-11697
▁valor	-11698
▁reschedule	-11699
?$	-11700
▁1600	-11701
▁gamb	-11702
▁{...}	-11703
925	-11704
ief	-11705
")).	-11706
],\"	-11707
arma	-11708
▁ine	-11709
▁{--	-11710
▁meson	-11711
▁specialty	-11712
roon	-11713
▁')):	-11714
▁vest	-11715
▁heter	-11716
▁hinge	-11717
irected	-11718
948	-11719
▁\)	-11720
▁]<<	-11721
▁bidding	-11722
▁acquisition	-11723
▁regularization	-11724
▁'{$	-11725
▁295	-11726
▁}];	-11727
▁turf	-11728
▁thermal	-11729
▁thinker	-11730
▁converge	-11731
747	-11732
▁nak	-11733
▁cock	-11734
▁:\/\/	-11735
▁moderation	-11736
▁#'	-11737
▁{}]	-11738
▁']):	-11739
▁/../	-11740
▁talent	-11741
▁remains	-11742
▁improvement	-11743
▁administrate	-11744
▁authorizable	-11745
]+\	-11746
{};	-11747
▁|)	-11748
olved	-11749
▁prawn	-11750
itution	-11751
\[	-11752
{}'.	-11753
▁'.",	-11754
▁*)((	-11755
▁reimb	-11756
▁<?>...	-11757
▁moderator	-11758
965	-11759
990	-11760
>',	-11761
▁((-	-11762
▁`"""	-11763
340	-11764
▁-',	-11765
▁"}",	-11766
▁hong	-11767
▁teal	-11768
▁slightly	-11769
▁acknowledge	-11770
▁regenerator	-11771
266	-11772
866	-11773
soid	-11774
▁ean	-11775
▁econ	-11776
sphere	-11777
▁urgent	-11778
▁ellipsoid	-11779
▁conjunction	-11780
▁80000	-11781
▁sciss	-11782
▁integrate	-11783
715	-11784
▁428	-11785
▁612	-11786
▁980	-11787
▁("**	-11788
ercial	-11789
▁scissor	-11790
▁equatable	-11791
▁generally	-11792
▁commercial	-11793
▁(/[	-11794
▁sweet	-11795
▁abnormal	-11796
▁stringer	-11797
358	-11798
▁484	-11799
▁)}",	-11800
▁strat	-11801
▁truck	-11802
versible	-11803
▁traceable	-11804
▁ေ	-11805
▁">&	-11806
▁395	-11807
▁804	-11808
▁'></	-11809
▁1996	-11810
▁squib	-11811
▁outlined	-11812
▁2147483647	-11813
▁576	-11814
▁him	-11815
▁mim	-11816
▁insp	-11817
▁([][]	-11818
},"	-11819
▁|#	-11820
teen	-11821
▁615	-11822
▁("]");	-11823
▁traject	-11824
▁breakdown	-11825
▁evolution	-11826
328	-11827
▁..=	-11828
▁:";	-11829
▁:{$	-11830
▁;";	-11831
▁[,]	-11832
▁')('	-11833
▁()()	-11834
▁aptly	-11835
▁>())).	-11836
▁540	-11837
▁(*)(	-11838
▁purl	-11839
▁())?;	-11840
▁effectivity	-11841
ino	-11842
▁<$	-11843
▁lyric	-11844
▁======	-11845
arer	-11846
▁',)	-11847
▁062	-11848
▁()!!	-11849
▁="#">	-11850
▁demon	-11851
▁impure	-11852
907	-11853
bang	-11854
▁\')	-11855
▁})\	-11856
▁('"')	-11857
▁10485	-11858
inomial	-11859
▁shebang	-11860
▁unifier	-11861
▁trajectory	-11862
▁transducer	-11863
▁[.	-11864
▁054	-11865
▁293	-11866
variant	-11867
▁portion	-11868
▁complain	-11869
▁contravariant	-11870
────────────────	-11871
[{	-11872
909	-11873
▁>|	-11874
▁987	-11875
▁nul	-11876
▁='')	-11877
reh	-11878
▁"&&	-11879
▁hull	-11880
▁bosun	-11881
▁inact	-11882
▁pants	-11883
▁darken	-11884
▁farmer	-11885
▁exportable	-11886
9600	-11887
▁"``	-11888
▁>?)	-11889
▁{"",	-11890
antage	-11891
▁booted	-11892
▁gatekeeper	-11893
749	-11894
▁043	-11895
▁344	-11896
▁644	-11897
▁]]).	-11898
▁sandw	-11899
▁swash	-11900
▁preflight	-11901
▁wonderland	-11902
▁committable	-11903
858	-11904
▁027	-11905
▁825	-11906
▁("")]	-11907
▁}""")	-11908
▁anyone	-11909
▁optics	-11910
▁stubber	-11911
▁displace	-11912
▁maturity	-11913
▁hydrosphere	-11914
361	-11915
928	-11916
▁'>'	-11917
▁+/,	-11918
▁['',	-11919
▁gens	-11920
▁dinar	-11921
▁comfort	-11922
▁marking	-11923
▁collateral	-11924
▁unverified	-11925
▁multinomial	-11926
▁123456789012	-11927
▁-]	-11928
▁)}(	-11929
▁flog	-11930
▁medic	-11931
▁linkage	-11932
▁designed	-11933
▁impurity	-11934
▁9999999999	-11935
cur	-11936
▁039	-11937
▁cham	-11938
▁pear	-11939
▁axiom	-11940
▁explosive	-11941
▁'\"	-11942
▁las	-11943
ected	-11944
▁=");	-11945
▁fabr	-11946
▁tripper	-11947
▁animating	-11948
▁undirected	-11949
▁("}	-11950
▁')';	-11951
▁().'	-11952
▁wamp	-11953
▁affil	-11954
etition	-11955
pin	-11956
▁:`\	-11957
▁"-")	-11958
▁">',	-11959
▁limb	-11960
claimer	-11961
uristic	-11962
▁university	-11963
▁neighborhood	-11964
▁└	-11965
218	-11966
946	-11967
▁ို	-11968
▁''}	-11969
▁)."	-11970
▁286	-11971
▁cue	-11972
▁())[	-11973
▁7000	-11974
▁fizz	-11975
▁permiss	-11976
▁numerically	-11977
^[	-11978
▁'|'	-11979
▁611	-11980
▁828	-11981
▁')}"	-11982
▁1986	-11983
▁knop	-11984
▁grass	-11985
▁satur	-11986
▁confused	-11987
▁'``	-11988
▁289	-11989
▁642	-11990
▁unn	-11991
▁[]>(	-11992
▁formal	-11993
▁bordered	-11994
▁coverlet	-11995
▁operable	-11996
969	-11997
▁['%	-11998
ulpin	-11999
▁="{$	-12000
▁bike	-12001
▁uncle	-12002
▁sculpin	-12003
▁duplication	-12004
373	-12005
▁}^	-12006
▁'(?:	-12007
▁1980	-12008
▁<*>.	-12009
▁slog	-12010
▁($('#	-12011
▁copper	-12012
▁unfold	-12013
▁=#	-12014
▁brute	-12015
▁200000	-12016
▁contam	-12017
▁aesthetic	-12018
▁^^^^^^^^^^^^	-12019
▁'@/	-12020
▁019	-12021
▁381	-12022
▁408	-12023
▁517	-12024
▁'..'	-12025
▁?>()	-12026
▁evil	-12027
▁profe	-12028
▁torus	-12029
▁feather	-12030
▁surprise	-12031
'];	-12032
▁626	-12033
▁horse	-12034
▁gopher	-12035
▁thunder	-12036
▁weekend	-12037
▁redefine	-12038
▁vulnerable	-12039
?",	-12040
▁。"	-12041
],[/	-12042
▁=>$	-12043
▁>.()	-12044
▁([]),	-12045
▁nibble	-12046
▁(!($	-12047
▁framer	-12048
▁northeast	-12049
▁796	-12050
▁aug	-12051
▁saa	-12052
▁;');	-12053
▁"/../	-12054
itional	-12055
metrical	-12056
▁enhancer	-12057
8800	-12058
▁755	-12059
▁'}',	-12060
▁1985	-12061
▁disclaimer	-12062
▁000000000000	-12063
329	-12064
347	-12065
▁$#	-12066
"></	-12067
▁316	-12068
▁447	-12069
▁:"#	-12070
▁tess	-12071
▁seeded	-12072
348	-12073
903	-12074
}),	-12075
8400	-12076
")));	-12077
losed	-12078
▁>...	-12079
▁}(),	-12080
▁remedi	-12081
▁#########	-12082
▁remediation	-12083
540	-12084
▁455	-12085
▁kan	-12086
▁qualify	-12087
▁contamination	-12088
861	-12089
914	-12090
▁'₪	-12091
asel	-12092
▁martin	-12093
▁weasel	-12094
▁ignition	-12095
▁calculating	-12096
▁respectively	-12097
^.	-12098
▁!]	-12099
▁'₩	-12100
▁044	-12101
▁}}]	-12102
▁'₪',	-12103
▁>>>,	-12104
▁overt	-12105
▁rated	-12106
▁cherry	-12107
▁'₫	-12108
▁:|	-12109
▁>${	-12110
ulner	-12111
▁mike	-12112
▁"))));	-12113
▁invulner	-12114
=]	-12115
▁.@	-12116
▁.*,	-12117
▁376	-12118
▁840	-12119
▁}-\	-12120
▁"*")	-12121
▁'₫',	-12122
▁quer	-12123
▁spill	-12124
▁waker	-12125
roscope	-12126
▁(:[]).	-12127
▁supposed	-12128
▁invulnerable	-12129
(.+)	-12130
▁";"	-12131
▁nap	-12132
▁shi	-12133
▁':')	-12134
▁/'.$	-12135
▁8814	-12136
▁]]]]	-12137
▁vuln	-12138
▁drink	-12139
▁panama	-12140
▁sneaky	-12141
▁269	-12142
▁>>;	-12143
▁["<	-12144
▁ket	-12145
▁'₩',	-12146
▁spook	-12147
▁duplic	-12148
▁inactivity	-12149
▁connectable	-12150
▁>$	-12151
▁))"	-12152
▁:\"	-12153
▁=:=	-12154
▁],\	-12155
▁1992	-12156
▁1997	-12157
▁typer	-12158
▁worst	-12159
▁heuristic	-12160
819	-12161
▁"&#	-12162
▁940	-12163
▁=>{	-12164
▁bis	-12165
ucent	-12166
▁fringe	-12167
▁executive	-12168
▁translucent	-12169
789	-12170
943	-12171
▁').'	-12172
▁said	-12173
▁hound	-12174
▁unpro	-12175
▁":"","	-12176
▁compreh	-12177
▁'<'	-12178
▁259	-12179
▁525	-12180
▁:"[	-12181
▁aft	-12182
▁")("	-12183
▁buddy	-12184
▁contribute	-12185
▁.-	-12186
vour	-12187
▁"/*	-12188
▁axe	-12189
▁sir	-12190
▁sma	-12191
#####	-12192
▁2028	-12193
▁cave	-12194
▁sham	-12195
▁[@]}"	-12196
▁rider	-12197
▁spooky	-12198
▁divided	-12199
▁flavour	-12200
aria	-12201
▁"}',	-12202
▁]').	-12203
▁serf	-12204
▁agreed	-12205
▁yearly	-12206
++++++++	-12207
▁parametric	-12208
▁།	-12209
$')	-12210
>",	-12211
▁']=	-12212
▁353	-12213
▁]]](	-12214
▁chand	-12215
▁comic	-12216
▁transc	-12217
▁zipper	-12218
▁"#"	-12219
▁"{:	-12220
▁}}/	-12221
▁summon	-12222
▁prosody	-12223
▁fireproof	-12224
^^^^^^^^^^^^^^^^	-12225
752	-12226
964	-12227
994	-12228
▁)<	-12229
▁"?"	-12230
▁407	-12231
▁944	-12232
conut	-12233
▁tonic	-12234
▁coconut	-12235
▁rematch	-12236
[$	-12237
▁destruct	-12238
▁biometric	-12239
▁technique	-12240
▁resistance	-12241
▁pluralization	-12242
1280	-12243
▁&>(	-12244
▁(`\	-12245
▁430	-12246
▁656	-12247
▁]+/	-12248
▁bak	-12249
▁.*")	-12250
▁palind	-12251
▁dotless	-12252
▁involved	-12253
207	-12254
▁646	-12255
▁736	-12256
▁}/.	-12257
▁}>{	-12258
▁[`${	-12259
▁pepper	-12260
▁mutability	-12261
▁specifically	-12262
▁og	-12263
▁331	-12264
▁jap	-12265
uckle	-12266
▁1252	-12267
omatic	-12268
▁\"");	-12269
▁advent	-12270
▁pretend	-12271
▁depthwise	-12272
▁comfortable	-12273
007	-12274
▁,}	-12275
▁('`	-12276
▁[\"	-12277
▁="")	-12278
▁pointing	-12279
?/	-12280
▁(%[	-12281
▁styl	-12282
apsack	-12283
▁spacy	-12284
▁knapsack	-12285
▁resident	-12286
▁colorable	-12287
905	-12288
▁]&	-12289
▁\");	-12290
▁zinc	-12291
rative	-12292
▁busted	-12293
▁silently	-12294
"'	-12295
▁‘	-12296
542	-12297
verb	-12298
▁314	-12299
▁]');	-12300
▁isle	-12301
▁worth	-12302
▁expanding	-12303
▁externals	-12304
▁separately	-12305
927	-12306
2424	-12307
onym	-12308
▁2345	-12309
▁chord	-12310
▁maria	-12311
▁spinal	-12312
817	-12313
▁"]"	-12314
▁)';	-12315
▁'$',	-12316
▁(".*	-12317
▁(<<<	-12318
▁outp	-12319
▁40000	-12320
▁workbox	-12321
▁sandwich	-12322
▁056	-12323
▁fis	-12324
▁[*]}	-12325
▁bless	-12326
▁fiscal	-12327
abilistic	-12328
▁unselected	-12329
▁probabilistic	-12330
[{"	-12331
fin	-12332
▁":",	-12333
▁'{{%	-12334
▁("/{	-12335
▁.|	-12336
▁309	-12337
▁slows	-12338
▁living	-12339
759	-12340
▁=")	-12341
▁>{}	-12342
▁6666	-12343
▁://$	-12344
▁"]').	-12345
▁august	-12346
▁polled	-12347
▁annotator	-12348
▁391	-12349
▁`},	-12350
▁hob	-12351
▁8327	-12352
▁}}">{{	-12353
▁causing	-12354
▁expense	-12355
▁plotting	-12356
▁posterior	-12357
▁synchronously	-12358
*',	-12359
868	-12360
▁'฿	-12361
▁060	-12362
▁terr	-12363
▁combin	-12364
▁falling	-12365
243	-12366
249	-12367
▁(?)	-12368
▁flock	-12369
406	-12370
▁'">	-12371
▁342	-12372
▁'฿',	-12373
▁1023	-12374
▁[]],	-12375
▁}'",	-12376
▁aside	-12377
▁claro	-12378
▁gross	-12379
▁auditor	-12380
']);	-12381
▁526	-12382
▁/>',	-12383
▁}=",	-12384
▁().(*	-12385
▁kitten	-12386
▁tranqu	-12387
▁worked	-12388
▁readability	-12389
▁12345678901234	-12390
▁:;	-12391
9200	-12392
▁swashb	-12393
▁querier	-12394
▁preparer	-12395
▁performer	-12396
▁punctuator	-12397
▁strictness	-12398
▁typesetter	-12399
./,	-12400
▁@$	-12401
▁|%	-12402
▁091	-12403
▁566	-12404
▁811	-12405
▁cel	-12406
▁1591	-12407
▁unac	-12408
▁champ	-12409
▁batman	-12410
▁?`	-12411
1200	-12412
otal	-12413
▁$:.	-12414
▁+=(	-12415
▁oes	-12416
▁'"')	-12417
▁fight	-12418
▁rapid	-12419
▁swashbuckle	-12420
▁reimbursement	-12421
zle	-12422
\/\/	-12423
▁+".	-12424
▁426	-12425
▁{}"	-12426
▁"-//	-12427
▁unsat	-12428
'+	-12429
▁??=	-12430
illow	-12431
▁rick	-12432
▁sake	-12433
▁stun	-12434
▁[{{},	-12435
▁quint	-12436
▁radii	-12437
▁('/').	-12438
▁dropping	-12439
▁subtotal	-12440
▁ෙ	-12441
▁"+"	-12442
▁(`<	-12443
▁505	-12444
▁oat	-12445
ercer	-12446
▁coercer	-12447
▁parking	-12448
▁̄	-12449
▁+)/	-12450
▁vin	-12451
▁''):	-12452
▁**)&	-12453
▁9200	-12454
▁nock	-12455
▁japan	-12456
▁cleave	-12457
▁revive	-12458
▁adaptation	-12459
*+	-12460
▁"%.	-12461
▁"}.	-12462
▁(:'	-12463
▁283	-12464
▁373	-12465
▁([['	-12466
▁[:],	-12467
▁\"}}	-12468
▁kitch	-12469
▁killer	-12470
fty	-12471
rus	-12472
▁080	-12473
▁]}}	-12474
▁tent	-12475
▁gauss	-12476
▁induct	-12477
▁pooler	-12478
▁kitchen	-12479
▁towards	-12480
349	-12481
758	-12482
797	-12483
{{.	-12484
▁998	-12485
▁bab	-12486
▁%>(:	-12487
▁1003	-12488
▁['<?	-12489
▁\":[{\"	-12490
▁nightly	-12491
▁composit	-12492
▁—	-12493
▁'∞	-12494
like	-12495
▁)($	-12496
▁).(	-12497
▁[]]	-12498
▁']},	-12499
▁3742	-12500
▁affix	-12501
▁journey	-12502
▁marginal	-12503
128	-12504
507	-12505
887	-12506
▁)}:	-12507
▁(/#{	-12508
▁[::-	-12509
▁[[],	-12510
▁nimb	-12511
▁annoy	-12512
▁bought	-12513
▁deformer	-12514
▁compositor	-12515
▁haven	-12516
▁hooked	-12517
alo	-12518
▁{<	-12519
▁%(<	-12520
▁'."	-12521
▁['<	-12522
▁cod	-12523
▁?://	-12524
▁]]])	-12525
▁wear	-12526
▁reify	-12527
▁scrum	-12528
▁engineering	-12529
▁{^	-12530
▁057	-12531
▁578	-12532
emoth	-12533
▁"=",	-12534
▁0005	-12535
▁1983	-12536
▁curse	-12537
▁behemoth	-12538
▁traditional	-12539
359	-12540
\.[	-12541
▁(/<	-12542
▁jan	-12543
▁oil	-12544
▁tut	-12545
itely	-12546
(?:(?:	-12547
▁27017	-12548
▁stylet	-12549
▁spectral	-12550
▁enforcement	-12551
947	-12552
\"\	-12553
▁'){	-12554
▁351	-12555
▁781	-12556
▁9080	-12557
▁pron	-12558
▁("-")	-12559
iday	-12560
▁।',	-12561
levant	-12562
▁nimbus	-12563
▁holiday	-12564
▁janitor	-12565
▁;|	-12566
0001	-12567
▁279	-12568
▁281	-12569
▁954	-12570
▁]={	-12571
▁blip	-12572
▁"}],[/	-12573
▁vincent	-12574
▁irrelevant	-12575
▁symmetrical	-12576
aw	-12577
balt	-12578
▁/{$	-12579
▁298	-12580
▁560	-12581
▁:".	-12582
▁mae	-12583
▁2029	-12584
▁--[=[	-12585
▁cobalt	-12586
▁spitter	-12587
▁manipulate	-12588
508	-12589
ubi	-12590
▁323	-12591
▁917	-12592
▁=[[	-12593
▁ubi	-12594
▁'?',	-12595
▁1920	-12596
▁:"))	-12597
▁(':',	-12598
▁mover	-12599
*[	-12600
227	-12601
▁#-}	-12602
▁508	-12603
▁621	-12604
▁cay	-12605
▁lun	-12606
▁).(*	-12607
▁7960	-12608
▁unsatisf	-12609
▁everywhere	-12610
▁ี่	-12611
▁("<?	-12612
▁bise	-12613
▁])));	-12614
▁candy	-12615
▁thrifty	-12616
000000000	-12617
962	-12618
▁"](	-12619
▁418	-12620
▁530	-12621
▁880	-12622
▁='{	-12623
▁>>/	-12624
▁'#',	-12625
▁://'	-12626
▁0000000	-12627
▁「	-12628
997	-12629
▁#--	-12630
▁-]+	-12631
▁761	-12632
▁864	-12633
▁='\	-12634
▁="""	-12635
▁surv	-12636
▁bunch	-12637
▁(\\	-12638
▁852	-12639
▁'∞',	-12640
▁obse	-12641
▁stal	-12642
▁}-#{	-12643
▁silex	-12644
▁-----\	-12645
▁interlace	-12646
762	-12647
▁)>,	-12648
▁556	-12649
▁803	-12650
▁?");	-12651
▁steep	-12652
▁taker	-12653
▁collator	-12654
▁ី	-12655
843	-12656
▁$/)	-12657
▁'"%	-12658
▁371	-12659
install	-12660
wi	-12661
743	-12662
▁(,	-12663
▁``"	-12664
▁cyl	-12665
▁9081	-12666
▁sher	-12667
▁666666	-12668
rangement	-12669
▁ultimate	-12670
▁viewable	-12671
▁obsessive	-12672
▁-----------	-12673
}};	-12674
▁!';	-12675
▁)~((	-12676
▁6584	-12677
▁pound	-12678
▁exempt	-12679
=',	-12680
▁je	-12681
▁((!	-12682
▁tai	-12683
▁://{	-12684
7654321	-12685
▁eliminate	-12686
▁enclosure	-12687
>,	-12688
gu	-12689
oo	-12690
▁~/	-12691
▁--,	-12692
▁385	-12693
▁jam	-12694
▁joy	-12695
▁5280	-12696
▁poke	-12697
▁}-${	-12698
▁('|',	-12699
▁decider	-12700
▁orchestration	-12701
.-)	-12702
363	-12703
863	-12704
3040	-12705
▁']"	-12706
▁951	-12707
▁swim	-12708
colate	-12709
▁chise	-12710
▁crazy	-12711
▁mille	-12712
▁million	-12713
-@	-12714
▁]#	-12715
▁(%%	-12716
▁.);	-12717
▁710	-12718
▁'*')	-12719
▁'<%=	-12720
▁hund	-12721
▁agree	-12722
▁('.');	-12723
▁hundred	-12724
▁listable	-12725
▁reviewer	-12726
▁'‰	-12727
▁*'	-12728
▁"].(	-12729
▁'"),	-12730
▁bell	-12731
▁}.")	-12732
▁><!--	-12733
▁buffalo	-12734
▁vibrate	-12735
▁separable	-12736
+',	-12737
,$$	-12738
▁]`,	-12739
▁'‰',	-12740
▁disj	-12741
▁seem	-12742
123456	-12743
▁agile	-12744
▁guardian	-12745
▁arrangement	-12746
▁़	-12747
968	-12748
abb	-12749
▁franc	-12750
▁addend	-12751
▁unmodified	-12752
$/.	-12753
(.*	-12754
982	-12755
▁326	-12756
▁ama	-12757
▁vex	-12758
▁rehash	-12759
▁cylinder	-12760
▁unclosed	-12761
')[	-12762
▁741	-12763
▁snafu	-12764
▁learned	-12765
▁bookkeeper	-12766
▁postmaster	-12767
.\	-12768
952	-12769
▁arb	-12770
▁'").	-12771
▁1440	-12772
▁](),	-12773
▁duty	-12774
▁milk	-12775
▁chisel	-12776
▁cuboid	-12777
▁sherlock	-12778
'$'}	-12779
ofer	-12780
▁590	-12781
▁aqu	-12782
▁"!==	-12783
▁''')	-12784
▁ride	-12785
▁deadlock	-12786
▁mountain	-12787
▁playable	-12788
▁collective	-12789
▁propagator	-12790
uted	-12791
▁")",	-12792
▁"/#{	-12793
▁0003	-12794
▁josh	-12795
▁02219	-12796
▁796033	-12797
▁banker	-12798
▁}}"></	-12799
▁downcast	-12800
260	-12801
▁"%%	-12802
▁))/	-12803
▁023	-12804
▁478	-12805
▁667	-12806
▁706	-12807
▁'}).	-12808
▁borer	-12809
▁reskin	-12810
▁positioned	-12811
-+	-12812
▁{!	-12813
"}),	-12814
size	-12815
▁pap	-12816
▁'}},	-12817
▁())(	-12818
▁1991	-12819
▁acid	-12820
▁regul	-12821
ternoon	-12822
▁stepper	-12823
▁practice	-12824
▁afternoon	-12825
▁sponsorship	-12826
no	-12827
],["	-12828
▁(`"	-12829
▁>{$	-12830
▁2312	-12831
▁]")]	-12832
▁bluebird	-12833
503	-12834
929	-12835
▁).`	-12836
▁)?,	-12837
▁910	-12838
▁pla	-12839
▁gene	-12840
▁sire	-12841
▁oasis	-12842
▁chandu	-12843
▁octave	-12844
▁quickly	-12845
▁sleeper	-12846
▁trackable	-12847
▁affiliation	-12848
126	-12849
▁'**	-12850
▁061	-12851
▁284	-12852
▁\\'	-12853
▁1123	-12854
▁1987	-12855
▁}}")	-12856
▁civic	-12857
▁hence	-12858
▁kingpin	-12859
uplication	-12860
▁ે	-12861
+-]	-12862
116	-12863
▁'₹	-12864
▁<+	-12865
▁358	-12866
▁672	-12867
▁905	-12868
▁}/)	-12869
▁quis	-12870
▁dingo	-12871
iciency	-12872
▁anchored	-12873
▁sharable	-12874
251	-12875
389	-12876
▁`+	-12877
istor	-12878
vered	-12879
▁')['	-12880
▁spher	-12881
▁filling	-12882
918	-12883
gue	-12884
▁423	-12885
==========	-12886
▁clockwork	-12887
▁lightness	-12888
))?	-12889
339	-12890
779	-12891
▁&*	-12892
mbic	-12893
▁722	-12894
▁841	-12895
▁ugl	-12896
▁'₹',	-12897
▁grit	-12898
▁typo	-12899
cessed	-12900
▁benef	-12901
▁diesel	-12902
▁alembic	-12903
▁dynamics	-12904
▁growable	-12905
▁unprocessed	-12906
▁deduplication	-12907
367	-12908
377	-12909
dom	-12910
▁399	-12911
▁950	-12912
▁coo	-12913
▁proofer	-12914
oor	-12915
▁;-	-12916
▁282	-12917
▁="#{	-12918
▁karma	-12919
▁settled	-12920
▁symptom	-12921
▁creature	-12922
▁displayer	-12923
369	-12924
849	-12925
{",	-12926
▁'#/	-12927
▁055	-12928
▁')</	-12929
▁quay	-12930
▁synd	-12931
▁idiom	-12932
▁softly	-12933
▁voyage	-12934
▁foundry	-12935
▁synthes	-12936
▁approximately	-12937
▁090	-12938
▁731	-12939
▁mary	-12940
▁(',');	-12941
▁perturb	-12942
▁inversed	-12943
▁==============	-12944
▁ٖ	-12945
▁)<<	-12946
▁990	-12947
▁[{:	-12948
]"},{	-12949
▁turb	-12950
393	-12951
serv	-12952
stit	-12953
▁'}]	-12954
▁]}.	-12955
▁swa	-12956
▁=>{:	-12957
▁leet	-12958
▁skal	-12959
▁sole	-12960
▁alien	-12961
▁introduce	-12962
▁displayable	-12963
▁)!	-12964
▁"{%	-12965
397	-12966
763	-12967
]*\	-12968
,,,,	-12969
▁824	-12970
▁dod	-12971
▁""):	-12972
▁%}{%	-12973
▁('.$	-12974
▁("{}",	-12975
▁excess	-12976
▁knight	-12977
▁rotating	-12978
▁transistor	-12979
$|	-12980
753	-12981
915	-12982
ulse	-12983
▁"((	-12984
▁$("	-12985
▁'>"	-12986
▁524	-12987
▁cyp	-12988
angha	-12989
▁':',	-12990
▁lots	-12991
▁noon	-12992
▁cream	-12993
▁fader	-12994
▁stocks	-12995
************	-12996
942	-12997
5060	-12998
▁aure	-12999
▁deva	-13000
▁}'],	-13001
imeter	-13002
▁"....	-13003
▁::*)(	-13004
▁dilate	-13005
▁repeater	-13006
'..	-13007
}}}	-13008
▁*>>	-13009
▁--$	-13010
▁|//	-13011
anghai	-13012
▁reput	-13013
▁wither	-13014
▁aurelia	-13015
▁shanghai	-13016
alc	-13017
▁"|"	-13018
▁*).	-13019
▁339	-13020
▁850	-13021
shelf	-13022
▁/"))	-13023
▁='#{	-13024
▁approver	-13025
▁bookshelf	-13026
▁declarator	-13027
▁palindrome	-13028
▁**{	-13029
▁029	-13030
▁906	-13031
▁?>,	-13032
▁sap	-13033
▁(("%	-13034
▁1090	-13035
abbard	-13036
graphy	-13037
▁cloth	-13038
▁flagger	-13039
▁highway	-13040
▁scabbard	-13041
▁reputation	-13042
gin	-13043
▁)^	-13044
enty	-13045
▁!(@	-13046
▁327	-13047
▁413	-13048
▁}":	-13049
▁")");	-13050
▁("*",	-13051
▁river	-13052
▁ranger	-13053
▁spectrum	-13054
▁finishing	-13055
▁profession	-13056
▁&[]	-13057
▁297	-13058
▁eco	-13059
▁{"#	-13060
▁'-';	-13061
▁7200	-13062
▁'\\',	-13063
▁distant	-13064
▁donation	-13065
▁325	-13066
▁",),	-13067
▁'>',	-13068
angible	-13069
▁('.').	-13070
▁collide	-13071
▁kinetics	-13072
▁accessory	-13073
▁intangible	-13074
▁repetition	-13075
▁>(*	-13076
▁hire	-13077
▁}').	-13078
▁crumb	-13079
quisite	-13080
▁(",").	-13081
▁displacement	-13082
▁@%	-13083
▁"(?	-13084
▁alm	-13085
▁hup	-13086
▁1333	-13087
▁glut	-13088
▁civil	-13089
▁}}');	-13090
▁pollable	-13091
▁republic	-13092
▁clockwise	-13093
▁observability	-13094
548	-13095
▁)`.	-13096
▁483	-13097
▁814	-13098
▁"}");	-13099
▁wraith	-13100
▁topological	-13101
793	-13102
mper	-13103
▁'$'	-13104
▁446	-13105
▁535	-13106
▁`{{	-13107
▁gat	-13108
▁[]){	-13109
▁32767	-13110
▁violate	-13111
▁analogue	-13112
▁inductive	-13113
▁olm	-13114
(?:[^	-13115
▁almond	-13116
▁engage	-13117
▁rooted	-13118
▁sacred	-13119
▁yielding	-13120
▁lightweight	-13121
▁׳	-13122
813	-13123
852	-13124
▁",\	-13125
▁"<"	-13126
▁june	-13127
▁evening	-13128
▁roaming	-13129
]+)/	-13130
▁}"}	-13131
▁/"),	-13132
▁1982	-13133
▁ugly	-13134
▁flair	-13135
▁preact	-13136
▁swatch	-13137
▁freedom	-13138
'")	-13139
▁=!!	-13140
▁anc	-13141
▁keb	-13142
ttery	-13143
▁orthog	-13144
▁lottery	-13145
▁3333333333	-13146
▁homogeneous	-13147
▁ོ	-13148
▁&["	-13149
▁>#{	-13150
▁[&]	-13151
▁![];	-13152
▁")||	-13153
▁"}]}	-13154
▁,...	-13155
▁soldier	-13156
*,	-13157
▁048	-13158
▁506	-13159
▁543	-13160
▁732	-13161
▁pup	-13162
▁vet	-13163
▁skey	-13164
▁("/");	-13165
▁orthogonal	-13166
▁"../../../../	-13167
225	-13168
842	-13169
889	-13170
tto	-13171
▁)!=	-13172
▁955	-13173
▁(.+)	-13174
▁:{},	-13175
string	-13176
▁sword	-13177
▁locust	-13178
▁retail	-13179
▁impulse	-13180
▁reissue	-13181
▁superscript	-13182
▁}]}	-13183
▁}}:	-13184
▁)*):	-13185
▁])):	-13186
▁cran	-13187
▁swiz	-13188
357	-13189
543	-13190
rial	-13191
▁425	-13192
▁['*	-13193
▁)","	-13194
▁4326	-13195
▁"}]],	-13196
▁planar	-13197
▁warmer	-13198
▁manifold	-13199
916	-13200
▁'{%	-13201
▁457	-13202
▁ele	-13203
▁"###	-13204
▁"}}}	-13205
▁loge	-13206
▁mali	-13207
▁pour	-13208
▁viny	-13209
▁multi	-13210
▁bankera	-13211
▁switched	-13212
▁>-	-13213
appe	-13214
▁031	-13215
ought	-13216
▁5432	-13217
▁flaw	-13218
▁("--%	-13219
▁vinyl	-13220
▁econom	-13221
▁retract	-13222
317	-13223
958	-13224
{}}	-13225
▁570	-13226
▁589	-13227
▁mop	-13228
▁("*.	-13229
▁9090	-13230
▁exploded	-13231
`},	-13232
▁়া	-13233
▁-$(	-13234
▁]+\	-13235
▁dit	-13236
▁"\\"	-13237
▁brin	-13238
▁()!!.	-13239
▁...);	-13240
▁optic	-13241
▁spine	-13242
▁centrif	-13243
953	-13244
=",	-13245
▁('}	-13246
▁533	-13247
▁]][	-13248
▁jun	-13249
▁###/	-13250
▁/**/	-13251
▁4567	-13252
▁lion	-13253
▁}""".	-13254
\{	-13255
oot	-13256
{}]	-13257
▁389	-13258
▁bip	-13259
▁swizzle	-13260
▁lockable	-13261
(-	-13262
=|	-13263
114	-13264
▁%!	-13265
▁"'.	-13266
▁)':	-13267
▁341	-13268
▁>'.	-13269
▁vie	-13270
▁weld	-13271
minated	-13272
983	-13273
▁'";	-13274
▁!();	-13275
▁1006	-13276
▁2046	-13277
▁=$((	-13278
▁\\\":	-13279
▁simult	-13280
▁inhibit	-13281
▁leverage	-13282
▁pasteboard	-13283
▁simultaneous	-13284
▁!>	-13285
▁"%"	-13286
▁787	-13287
▁"/></	-13288
▁"=>{"	-13289
▁siren	-13290
▁county	-13291
~~~~~~~~~~~~~~~~	-13292
▁958	-13293
▁gip	-13294
optic	-13295
▁]();	-13296
▁inac	-13297
served	-13298
▁[:,:,	-13299
▁kebab	-13300
▁']"}),	-13301
▁dominant	-13302
▁panoptic	-13303
▁regulatory	-13304
▁checkstring	-13305
009	-13306
\\*	-13307
▁#|	-13308
▁ic	-13309
▁}*	-13310
▁.*"	-13311
▁599	-13312
▁?";	-13313
▁!"),	-13314
▁[]))	-13315
▁cone	-13316
▁gleam	-13317
▁beaker	-13318
▁frontier	-13319
▁spherical	-13320
▁disruption	-13321
▁ེ	-13322
▁:/[	-13323
▁'<',	-13324
▁)"));	-13325
▁(","))	-13326
▁attend	-13327
▁icicle	-13328
▁florent	-13329
▁extender	-13330
▁industrial	-13331
▁triangular	-13332
▁multiplicative	-13333
867	-13334
▁<,	-13335
▁861	-13336
▁quo	-13337
▁vow	-13338
▁',')	-13339
▁'][:	-13340
▁:"-"	-13341
▁)))).	-13342
▁conjug	-13343
warf	-13344
▁'/*	-13345
▁452	-13346
▁614	-13347
▁=".	-13348
▁cin	-13349
child	-13350
▁("\$	-13351
▁ecos	-13352
▁(<<~'	-13353
▁amber	-13354
▁dwarf	-13355
▁bipart	-13356
▁pastel	-13357
▁abandon	-13358
▁ecosystem	-13359
▁grandchild	-13360
▁collaborator	-13361
▁dimensionality	-13362
▁581	-13363
▁]</	-13364
▁bib	-13365
block	-13366
▁disappe	-13367
▁thought	-13368
▁ingestion	-13369
▁syndication	-13370
▁├	-13371
▁'':	-13372
▁->{	-13373
▁359	-13374
▁`%<	-13375
force	-13376
▁("'",	-13377
▁amend	-13378
▁dragged	-13379
▁indefin	-13380
▁deformable	-13381
▁accumulation	-13382
247	-13383
963	-13384
967	-13385
▁!(/	-13386
▁680	-13387
▁751	-13388
▁adm	-13389
cator	-13390
▁1989	-13391
▁trump	-13392
▁.###',	-13393
▁...');	-13394
▁capped	-13395
▁former	-13396
▁recalc	-13397
▁fabricate	-13398
▁divergence	-13399
013	-13400
264	-13401
{}.	-13402
▁$;	-13403
rior	-13404
▁(([	-13405
▁377	-13406
▁[()	-13407
itory	-13408
▁"{{.	-13409
▁)(((	-13410
▁))&&	-13411
▁--->	-13412
▁combining	-13413
▁uncovered	-13414
415	-13415
446	-13416
552	-13417
▁dob	-13418
track	-13419
▁0200	-13420
▁ultra	-13421
▁(',').	-13422
▁backtrack	-13423
▁bipartite	-13424
▁territory	-13425
au	-13426
▁287	-13427
▁522	-13428
▁")',	-13429
▁demonst	-13430
▁strange	-13431
▁gettable	-13432
▁medicine	-13433
0000000000	-13434
▁correctness	-13435
▁administrative	-13436
.*?	-13437
558	-13438
773	-13439
853	-13440
▁335	-13441
▁pho	-13442
▁('\'	-13443
▁1025	-13444
▁'...'	-13445
rophone	-13446
▁warrior	-13447
▁smoother	-13448
▁offensive	-13449
▁microphone	-13450
▁intelligence	-13451
"><	-13452
▁)".	-13453
▁336	-13454
▁462	-13455
▁466	-13456
▁goo	-13457
▁"([^	-13458
umable	-13459
▁[...]	-13460
▁foreman	-13461
▁resumable	-13462
▁investigation	-13463
959	-13464
`).	-13465
▁,<	-13466
▁|`	-13467
▁?]]	-13468
▁`("	-13469
▁}].	-13470
alled	-13471
▁/###	-13472
▁chatter	-13473
!/	-13474
▁),)	-13475
▁-{{	-13476
▁474	-13477
▁;&#	-13478
▁2030	-13479
▁hungry	-13480
▁frameless	-13481
▁decompression	-13482
▁070	-13483
▁paran	-13484
▁rogue	-13485
▁pebble	-13486
▁shipped	-13487
▁reaching	-13488
▁!("{:?}",	-13489
▁informative	-13490
(?=	-13491
2110	-13492
▁548	-13493
▁712	-13494
▁='#	-13495
▁))")	-13496
▁>').	-13497
▁porto	-13498
artition	-13499
▁monarch	-13500
▁silenced	-13501
##########	-13502
▁representative	-13503
::-	-13504
▁/~	-13505
?></	-13506
▁$($	-13507
▁(`[	-13508
▁045	-13509
▁378	-13510
▁433	-13511
▁464	-13512
▁604	-13513
▁651	-13514
▁['"	-13515
▁ana	-13516
▁quite	-13517
▁turbine	-13518
▁emission	-13519
▁disjunction	-13520
){	-13521
▁(']	-13522
▁,"%	-13523
▁347	-13524
▁397	-13525
▁ante	-13526
▁(["--	-13527
▁skiff	-13528
▁jeweler	-13529
▁interference	-13530
!\	-13531
▁)(*	-13532
▁**:	-13533
▁338	-13534
▁0080	-13535
▁]"))	-13536
▁alth	-13537
▁unve	-13538
▁15000	-13539
▁commitment	-13540
▁locomotive	-13541
"$	-13542
{}:	-13543
▁'==	-13544
▁(*,	-13545
▁053	-13546
▁602	-13547
▁}={	-13548
▁...).	-13549
▁stead	-13550
▁although	-13551
▁governing	-13552
▁statically	-13553
▁interruption	-13554
387	-13555
▁#@	-13556
▁",-	-13557
▁348	-13558
▁mel	-13559
▁?>',	-13560
▁acute	-13561
▁conter	-13562
▁outsize	-13563
▁vacancy	-13564
404	-13565
▁")?	-13566
▁)/(	-13567
▁465	-13568
▁561	-13569
▁!=="	-13570
▁":")	-13571
▁'"))	-13572
▁(..)	-13573
▁)(\\	-13574
▁kite	-13575
▁lucky	-13576
▁steer	-13577
▁backer	-13578
▁pointed	-13579
","","","","	-13580
262	-13581
▁[++	-13582
▁]};	-13583
▁goon	-13584
▁stuck	-13585
cheduled	-13586
▁analytic	-13587
▁unrelated	-13588
▁unscheduled	-13589
axon	-13590
▁'".	-13591
▁:[]	-13592
▁..")	-13593
▁hill	-13594
ractor	-13595
▁')}}</	-13596
▁fixing	-13597
▁maroon	-13598
▁arrival	-13599
▁cracker	-13600
▁passage	-13601
▁governor	-13602
▁overtime	-13603
▁hydration	-13604
▁subtraction	-13605
▁("../../../../	-13606
#',	-13607
▁/"+	-13608
▁'(',	-13609
▁dang	-13610
ingual	-13611
▁drill	-13612
▁thingy	-13613
▁examine	-13614
▁swallow	-13615
▁inquirer	-13616
▁ordinary	-13617
▁disassemble	-13618
|$	-13619
▁587	-13620
shoot	-13621
▁')',	-13622
▁().(	-13623
▁perp	-13624
▁severe	-13625
▁steady	-13626
▁clearer	-13627
▁eastern	-13628
▁genotype	-13629
▁phrasing	-13630
).*	-13631
ista	-13632
▁362	-13633
▁ruf	-13634
▁}]]	-13635
▁'=')	-13636
▁}]",	-13637
▁finance	-13638
▁servant	-13639
▁'']	-13640
▁=[$	-13641
▁])/	-13642
▁rele	-13643
▁reverb	-13644
▁standardized	-13645
iage	-13646
lime	-13647
▁(*[	-13648
▁032	-13649
▁660	-13650
▁:`"	-13651
▁lac	-13652
▁'}],	-13653
▁bunny	-13654
▁rufus	-13655
▁serpent	-13656
▁sublime	-13657
▁explainer	-13658
(),	-13659
▁@{	-13660
raft	-13661
▁)+"	-13662
▁962	-13663
▁:]:	-13664
▁``:	-13665
▁})#	-13666
▁.").	-13667
▁1984	-13668
▁atmos	-13669
282	-13670
▁"}'	-13671
▁('''	-13672
▁puck	-13673
▁sigh	-13674
▁templ	-13675
allible	-13676
▁[]>();	-13677
▁twenty	-13678
▁blizzard	-13679
▁junction	-13680
▁infallible	-13681
▁speculative	-13682
▁/>)	-13683
▁\.\	-13684
▁)!!.	-13685
▁>>::	-13686
▁pyre	-13687
▁}://	-13688
▁.'/'.$	-13689
▁adject	-13690
▁settle	-13691
615	-13692
\\]	-13693
iral	-13694
▁",(	-13695
▁630	-13696
▁675	-13697
▁?),	-13698
▁yen	-13699
▁}}-	-13700
▁1988	-13701
▁rant	-13702
▁adjective	-13703
▁compactor	-13704
883	-13705
▁827	-13706
▁\';	-13707
\",\"	-13708
▁])],	-13709
▁!!}</	-13710
▁spaced	-13711
▁graphical	-13712
(?!\	-13713
oman	-13714
▁(`{	-13715
▁514	-13716
▁=).	-13717
▁|+|	-13718
\\.\\	-13719
ucker	-13720
apsible	-13721
▁ascend	-13722
▁destructive	-13723
▁specificity	-13724
▁'(?	-13725
▁361	-13726
▁754	-13727
▁][\	-13728
▁(/[\	-13729
▁mango	-13730
▁500000	-13731
▁flawed	-13732
fto	-13733
')))	-13734
izen	-13735
▁078	-13736
▁:`(	-13737
▁;')	-13738
▁2026	-13739
▁grip	-13740
ftover	-13741
▁blast	-13742
▁ribble	-13743
▁inflated	-13744
▁leftover	-13745
▁informational	-13746
enix	-13747
haps	-13748
▁(?<	-13749
▁,"\	-13750
▁624	-13751
▁>"),	-13752
▁kiwi	-13753
▁otto	-13754
▁:'"',	-13755
▁perhaps	-13756
▁phoenix	-13757
▁gi	-13758
\"")	-13759
▁'!'	-13760
▁657	-13761
▁lux	-13762
▁1950	-13763
▁pile	-13764
ordant	-13765
▁atten	-13766
▁charting	-13767
▁gathering	-13768
▁provenance	-13769
phin	-13770
▁"}\	-13771
▁)[-	-13772
▁*--	-13773
▁.*.	-13774
▁/,"	-13775
▁689	-13776
▁)=>{	-13777
▁subd	-13778
▁"[]",	-13779
▁prede	-13780
▁unveil	-13781
▁dolphin	-13782
▁pyroscope	-13783
319	-13784
869	-13785
▁'¤	-13786
▁}<	-13787
inar	-13788
▁067	-13789
▁368	-13790
▁..".	-13791
▁smile	-13792
▁lighten	-13793
▁mordant	-13794
,\	-13795
268	-13796
usk	-13797
▁"';	-13798
▁"@"	-13799
▁+=("	-13800
▁1004	-13801
▁[");	-13802
▁isom	-13803
▁slap	-13804
▁tund	-13805
orable	-13806
▁tiling	-13807
▁elector	-13808
▁fifteen	-13809
▁organized	-13810
▁flashlight	-13811
▁themselves	-13812
▁collapsible	-13813
▁additionally	-13814
559	-13815
▁'<~	-13816
▁470	-13817
▁507	-13818
▁724	-13819
▁}:\	-13820
▁1005	-13821
▁holy	-13822
▁kiss	-13823
▁shaded	-13824
▁titanium	-13825
▁2147483648	-13826
331337331337	-13827
▁prerequisite	-13828
▁#{$	-13829
▁618	-13830
▁957	-13831
▁961	-13832
▁]']	-13833
▁crap	-13834
▁sier	-13835
▁[]...	-13836
▁(")");	-13837
▁undecl	-13838
▁weakly	-13839
▁drunkard	-13840
▁industry	-13841
▁║	-13842
▁313	-13843
▁ate	-13844
icked	-13845
▁1394	-13846
▁>()))	-13847
▁?("#{	-13848
▁helmet	-13849
▁chucker	-13850
▁basically	-13851
▁quotation	-13852
▁templater	-13853
▁undeclared	-13854
118	-13855
▁/+	-13856
#,##	-13857
▁536	-13858
allax	-13859
▁"/";	-13860
▁("[]	-13861
▁<>("	-13862
▁]===	-13863
▁...),	-13864
▁entit	-13865
▁schem	-13866
▁fading	-13867
▁citizen	-13868
▁trumpet	-13869
▁parallax	-13870
▁submarine	-13871
▁entitlement	-13872
▁equivalency	-13873
▁unexpectedly	-13874
8888	-13875
▁'/(	-13876
▁475	-13877
▁[:'	-13878
▁nic	-13879
▁()}.	-13880
▁/").	-13881
▁pico	-13882
▁vast	-13883
▁boliv	-13884
▁poker	-13885
▁unpre	-13886
amation	-13887
▁bisect	-13888
▁sierra	-13889
▁1048576	-13890
▁arbiter	-13891
▁abandoned	-13892
▁alphabetic	-13893
▁confirming	-13894
▁"%{	-13895
▁744	-13896
▁}{{	-13897
▁`{}`	-13898
roller	-13899
▁)...)	-13900
▁lingu	-13901
▁virgin	-13902
▁unresolvable	-13903
$/;	-13904
129	-13905
rit	-13906
▁-⚬	-13907
▁kh	-13908
▁(!*	-13909
▁494	-13910
▁ail	-13911
▁tum	-13912
▁2034	-13913
▁}}`,	-13914
cessor	-13915
▁licensee	-13916
▁recompose	-13917
▁predecessor	-13918
▁")\	-13919
▁;}.	-13920
▁<,>	-13921
▁aba	-13922
▁}"/	-13923
arman	-13924
▁rans	-13925
▁"'");	-13926
▁relat	-13927
▁wired	-13928
▁rubber	-13929
▁admiral	-13930
▁advised	-13931
▁equalizer	-13932
209	-13933
▁))?	-13934
▁469	-13935
▁697	-13936
▁778	-13937
▁904	-13938
▁nit	-13939
▁9092	-13940
▁:[["	-13941
▁})},	-13942
▁conch	-13943
▁dance	-13944
▁economic	-13945
pl	-13946
6800	-13947
▁]||(	-13948
holder	-13949
ao	-13950
|"	-13951
-->	-13952
pole	-13953
▁481	-13954
▁890	-13955
▁902	-13956
▁924	-13957
])]),	-13958
▁tome	-13959
ousand	-13960
▁costa	-13961
▁}')).	-13962
▁celery	-13963
▁tundra	-13964
▁killing	-13965
▁lantern	-13966
▁winning	-13967
▁thousand	-13968
▁accelerated	-13969
▁"">	-13970
▁$@"	-13971
▁041	-13972
▁328	-13973
▁367	-13974
(.*?)	-13975
▁2025	-13976
▁goose	-13977
stitial	-13978
▁).'/'.	-13979
▁freezer	-13980
▁crossing	-13981
▁interstitial	-13982
▁transforming	-13983
)*	-13984
app	-13985
▁"/{	-13986
▁&)>	-13987
▁>`.	-13988
▁"]")	-13989
▁("##	-13990
▁1250	-13991
▁\"><	-13992
▁phon	-13993
▁automaton	-13994
▁tombstone	-13995
▁centrifuge	-13996
▁convenient	-13997
▁###########	-13998
▁interruptible	-13999
857	-14000
▁)}\	-14001
▁541	-14002
▁`]:	-14003
▁"'",	-14004
▁lord	-14005
▁slip	-14006
ainable	-14007
▁actuator	-14008
▁flushing	-14009
▁efficiently	-14010
▁progression	-14011
▁unsatisfied	-14012
gon	-14013
9265	-14014
▁!!(	-14015
▁)}'	-14016
▁)))(	-14017
▁..":	-14018
▁]}",	-14019
▁pawn	-14020
▁shirt	-14021
▁unter	-14022
▁mandate	-14023
▁rebound	-14024
▁daylight	-14025
▁chocolate	-14026
▁decreasing	-14027
▁unterminated	-14028
▁transcription	-14029
▁[**	-14030
rapet	-14031
▁")()	-14032
▁.)',	-14033
▁4321	-14034
▁parapet	-14035
▁touching	-14036
▁emulation	-14037
▁observing	-14038
▁redistribution	-14039
119	-14040
407	-14041
919	-14042
\\"	-14043
uba	-14044
ased	-14045
▁!=(	-14046
▁329	-14047
▁435	-14048
▁639	-14049
▁878	-14050
▁})]	-14051
▁();}	-14052
▁()}}	-14053
▁phony	-14054
▁synonym	-14055
▁recommender	-14056
▁standardize	-14057
%"	-14058
▁+[	-14059
▁*=\	-14060
▁392	-14061
▁821	-14062
▁}/"	-14063
▁)]))	-14064
▁8821	-14065
▁`(){	-14066
▁amass	-14067
▁engagement	-14068
▁attenuation	-14069
#$%	-14070
▁',[	-14071
▁)|(	-14072
▁**=	-14073
▁064	-14074
▁2181	-14075
▁pushing	-14076
▁convolve	-14077
▁.'/../../	-14078
▁submitter	-14079
111111111111	-14080
.*\	-14081
▁-}	-14082
more	-14083
▁098	-14084
▁\(\	-14085
▁inn	-14086
▁("%-	-14087
▁8800	-14088
▁[:])	-14089
▁}.",	-14090
▁annual	-14091
▁cartoon	-14092
▁cardinal	-14093
▁orderable	-14094
228	-14095
iar	-14096
rim	-14097
2200	-14098
▁]*\	-14099
▁"]',	-14100
icycle	-14101
▁70726	-14102
▁hangul	-14103
▁naught	-14104
▁foliage	-14105
▁measurer	-14106
▁supplemental	-14107
-]+	-14108
0002	-14109
▁">"	-14110
▁'&'	-14111
▁728	-14112
▁tox	-14113
▁zar	-14114
▁fant	-14115
▁lifo	-14116
▁pain	-14117
▁>>>()	-14118
▁[*]}{	-14119
▁digraph	-14120
▁3166	-14121
▁baton	-14122
▁thrust	-14123
▁bicycle	-14124
▁paragon	-14125
▁totally	-14126
▁571	-14127
▁834	-14128
▁[/^	-14129
strel	-14130
▁)&&!	-14131
▁0011	-14132
▁hunt	-14133
▁oval	-14134
▁twin	-14135
▁}}')	-14136
▁chuck	-14137
▁shear	-14138
▁kestrel	-14139
▁proposer	-14140
▁disassembly	-14141
913	-14142
5625	-14143
▁()`.	-14144
▁1981	-14145
▁"..."	-14146
▁([&](	-14147
▁://",	-14148
▁minter	-14149
▁oriental	-14150
▁({\	-14151
▁.*/	-14152
▁vou	-14153
▁",".	-14154
▁(");	-14155
▁"/");	-14156
▁12306	-14157
▁hotel	-14158
#######	-14159
▁carter	-14160
▁mother	-14161
ferenced	-14162
▁framing	-14163
▁permissive	-14164
▁unreferenced	-14165
917	-14166
[[:	-14167
▁ུ་	-14168
inky	-14169
▁)"]	-14170
▁)~(	-14171
▁026	-14172
▁953	-14173
▁={:	-14174
ially	-14175
▁bomb	-14176
▁fash	-14177
▁pist	-14178
▁whis	-14179
▁44100	-14180
▁ascent	-14181
▁conserv	-14182
▁stagger	-14183
▁.;	-14184
▁">\	-14185
▁+++	-14186
▁.'"	-14187
▁956	-14188
▁?(&	-14189
▁koi	-14190
smith	-14191
▁".."	-14192
▁0009	-14193
▁})";	-14194
igator	-14195
▁[**--	-14196
▁upcoming	-14197
▁minimizer	-14198
%(	-14199
zel	-14200
▁<@	-14201
@@@@	-14202
▁!".	-14203
▁037	-14204
▁442	-14205
▁={[	-14206
▁loo	-14207
▁"}`)	-14208
▁2100	-14209
▁slinky	-14210
▁appoint	-14211
▁maximal	-14212
▁recipro	-14213
▁opponent	-14214
▁reproduce	-14215
▁sequentially	-14216
▁«	-14217
}],	-14218
▁.''	-14219
▁363	-14220
▁ade	-14221
▁,"\\	-14222
▁.'.$	-14223
-----+	-14224
pecial	-14225
▁61706	-14226
▁>>().	-14227
▁\"}";	-14228
▁clash	-14229
▁lumen	-14230
▁refit	-14231
▁fashion	-14232
▁ransack	-14233
▁exchanger	-14234
▁deliverable	-14235
▁.$(	-14236
▁740	-14237
▁surf	-14238
▁adobe	-14239
▁vista	-14240
▁apparent	-14241
414	-14242
gler	-14243
▁046	-14244
▁866	-14245
▁ara	-14246
▁pon	-14247
ilium	-14248
▁2023	-14249
▁inferno	-14250
▁skipper	-14251
▁applicator	-14252
▁microscope	-14253
▁tranquility	-14254
115	-14255
515	-14256
▁586	-14257
▁`{$	-14258
▁gio	-14259
▁(['/	-14260
▁2045	-14261
▁12000	-14262
▁culling	-14263
▁moderate	-14264
▁algebraic	-14265
▁photograph	-14266
$.	-14267
&'	-14268
957	-14269
|[^	-14270
{});	-14271
▁1977	-14272
▁cape	-14273
▁rene	-14274
▁('-')	-14275
▁}());	-14276
▁cilium	-14277
▁cashier	-14278
▁earning	-14279
▁topping	-14280
▁personalization	-14281
:[	-14282
252	-14283
asma	-14284
▁+')	-14285
▁--{	-14286
▁.':	-14287
▁349	-14288
▁unspent	-14289
▁reinstall	-14290
▁repartition	-14291
▁------------	-14292
▁approximation	-14293
127	-14294
7374	-14295
▁/(?	-14296
▁/{{	-14297
▁528	-14298
▁0625	-14299
▁?)",	-14300
▁myst	-14301
▁flare	-14302
▁shelf	-14303
▁plasma	-14304
blocking	-14305
▁\"},{\"	-14306
▁nuclear	-14307
▁subpass	-14308
▁painting	-14309
▁nonblocking	-14310
{|	-14311
")[	-14312
!!!!	-14313
▁}|[	-14314
▁)]',	-14315
▁cord	-14316
▁isot	-14317
▁poor	-14318
erture	-14319
▁()});	-14320
▁aperture	-14321
▁ridgepole	-14322
▁'/../../../	-14323
▁?]	-14324
▁'[]	-14325
▁926	-14326
▁931	-14327
▁|</	-14328
▁="./	-14329
▁:"-"`	-14330
▁compt	-14331
▁flower	-14332
▁brushes	-14333
▁polarity	-14334
▁conjugate	-14335
▁comptroller	-14336
obu	-14337
▁#(	-14338
▁|^	-14339
▁}#	-14340
0004	-14341
▁'#<	-14342
▁471	-14343
▁838	-14344
▁=%#	-14345
obuoy	-14346
▁glean	-14347
▁nuclei	-14348
▁recheck	-14349
▁publicly	-14350
▁sonobuoy	-14351
▁specular	-14352
ky	-14353
287	-14354
rive	-14355
▁&);	-14356
▁810	-14357
▁995	-14358
▁][-	-14359
▁'"\\	-14360
▁/*",	-14361
▁naughty	-14362
▁coloring	-14363
▁vibrator	-14364
▁exclamation	-14365
$'	-14366
}}"	-14367
▁?}	-14368
orro	-14369
▁396	-14370
▁690	-14371
▁}`}	-14372
▁}-\\	-14373
istics	-14374
▁frost	-14375
▁lucet	-14376
▁zorro	-14377
▁unsust	-14378
▁collins	-14379
▁authenticity	-14380
▁unsustainable	-14381
|'	-14382
xter	-14383
▁!((	-14384
▁617	-14385
▁|\\	-14386
▁1400	-14387
▁misf	-14388
▁muse	-14389
▁perk	-14390
▁?.()?.	-14391
▁uniquely	-14392
▁′	-14393
...'	-14394
fall	-14395
▁={(	-14396
▁cog	-14397
eract	-14398
▁">{$	-14399
▁("(%	-14400
▁}"));	-14401
▁bagging	-14402
▁paranoid	-14403
▁tesseract	-14404
▁fragmentation	-14405
isco	-14406
▁)/,	-14407
▁coh	-14408
▁:[],	-14409
▁\">\	-14410
▁]'],	-14411
▁{:?}	-14412
▁")}")	-14413
▁faucet	-14414
rame	-14415
▁597	-14416
▁och	-14417
▁sah	-14418
▁())}	-14419
▁<<~'	-14420
▁='*.	-14421
▁=/^\	-14422
▁cann	-14423
▁sike	-14424
iative	-14425
richer	-14426
▁couple	-14427
▁dangling	-14428
▁enricher	-14429
▁footprint	-14430
▁occupancy	-14431
▁thumbprint	-14432
>\	-14433
tail	-14434
▁881	-14435
▁:'<	-14436
▁>({	-14437
▁ode	-14438
▁{%-	-14439
▁$(".	-14440
▁hall	-14441
▁grave	-14442
▁reprod	-14443
▁revenue	-14444
▁freshness	-14445
▁spotlight	-14446
+(	-14447
=\	-14448
▁"]/	-14449
▁997	-14450
▁="@	-14451
▁?[]	-14452
▁[{$	-14453
▁";',	-14454
▁")))))	-14455
▁333333	-14456
▁subdiv	-14457
▁unequal	-14458
▁consistently	-14459
0003	-14460
body	-14461
▁"`)	-14462
▁/>'	-14463
▁546	-14464
▁woo	-14465
istle	-14466
▁rage	-14467
▁cannon	-14468
▁doubly	-14469
▁dumping	-14470
.\\	-14471
557	-14472
]+/	-14473
▁<[	-14474
▁490	-14475
▁946	-14476
▁:**	-14477
▁>/<	-14478
▁).")	-14479
▁.'''	-14480
▁6789	-14481
▁=['[	-14482
▁])])	-14483
▁chair	-14484
▁prest	-14485
▁("."))	-14486
▁unitary	-14487
▁possibility	-14488
{}\	-14489
▁>".	-14490
▁{}'	-14491
otely	-14492
▁.([]	-14493
▁'.');	-14494
▁remotely	-14495
▁reproduc	-14496
▁alternatively	-14497
!"	-14498
+/	-14499
=='	-14500
▁.),	-14501
▁@-@	-14502
▁}"'	-14503
▁};\	-14504
01200	-14505
▁braz	-14506
▁dusk	-14507
isting	-14508
▁:]...)	-14509
▁precheck	-14510
▁refresher	-14511
▁efficiency	-14512
▁'.\	-14513
▁382	-14514
▁820	-14515
▁966	-14516
▁978	-14517
▁{{#	-14518
▁'*.{	-14519
▁invoc	-14520
▁polit	-14521
▁breath	-14522
▁axially	-14523
▁crypted	-14524
▁cursive	-14525
▁duplicator	-14526
▁initiative	-14527
]))	-14528
race	-14529
▁495	-14530
▁554	-14531
▁792	-14532
▁::-	-14533
▁3986	-14534
▁(()))	-14535
▁cabin	-14536
▁sided	-14537
▁married	-14538
▁panicked	-14539
283	-14540
▁488	-14541
▁808	-14542
▁826	-14543
▁\''	-14544
▁'"..	-14545
▁');\	-14546
▁((),	-14547
▁0666	-14548
▁8812	-14549
▁flax	-14550
▁vera	-14551
▁(?:\\	-14552
▁apart	-14553
▁century	-14554
rom	-14555
olia	-14556
▁"}:	-14557
▁.]]	-14558
▁075	-14559
▁971	-14560
▁/{}/	-14561
▁goby	-14562
======	-14563
▁dexter	-14564
▁magnolia	-14565
▁',{	-14566
▁584	-14567
▁876	-14568
▁=[(	-14569
▁[({	-14570
▁lark	-14571
▁})))	-14572
▁()]))	-14573
▁sixth	-14574
▁usual	-14575
▁evenly	-14576
▁promot	-14577
▁summed	-14578
▁chamber	-14579
▁gizzard	-14580
▁titanic	-14581
▁prettify	-14582
!.	-14583
405	-14584
elve	-14585
▁))|	-14586
▁668	-14587
▁:'.	-14588
▁=/^	-14589
▁('/\	-14590
▁("//!	-14591
▁(''),	-14592
▁20160	-14593
▁("\\",	-14594
▁unmask	-14595
▁thrower	-14596
▁especial	-14597
▁programmer	-14598
▁subversion	-14599
-#	-14600
boat	-14601
▁".'	-14602
▁#",	-14603
▁):\	-14604
▁318	-14605
▁0007	-14606
▁3002	-14607
▁dude	-14608
▁meat	-14609
▁helix	-14610
▁":{},"	-14611
▁unqual	-14612
▁federal	-14613
▁kingdom	-14614
▁catchall	-14615
▁creatable	-14616
▁suspension	-14617
▁unconfined	-14618
━━━━	-14619
▁"[$	-14620
▁707	-14621
▁''',	-14622
▁)(?:	-14623
▁))::	-14624
▁9178	-14625
▁servo	-14626
▁renegot	-14627
▁reciprocal	-14628
#\	-14629
\)	-14630
.*/	-14631
993	-14632
▁/;	-14633
asso	-14634
lass	-14635
▁".$	-14636
▁)}>	-14637
▁468	-14638
▁479	-14639
▁492	-14640
▁791	-14641
▁]=]	-14642
▁thr	-14643
▁(/\.	-14644
▁###',	-14645
▁cisco	-14646
▁prone	-14647
▁("####	-14648
▁cutout	-14649
▁docket	-14650
▁fortune	-14651
▁076	-14652
▁"[#{	-14653
▁sane	-14654
renade	-14655
▁eject	-14656
▁sling	-14657
▁("")),	-14658
▁123123	-14659
▁grenade	-14660
▁differently	-14661
▁unqualified	-14662
▁*%	-14663
abwe	-14664
▁610	-14665
▁638	-14666
▁]';	-14667
▁paw	-14668
▁))],	-14669
▁\"\"	-14670
▁hurt	-14671
▁zimb	-14672
▁tippy	-14673
▁donkey	-14674
cessible	-14675
▁concent	-14676
cessarily	-14677
▁zimbabwe	-14678
▁`=	-14679
▁。'	-14680
」",	-14681
▁553	-14682
▁='[	-14683
▁}($	-14684
▁]+/,	-14685
▁came	-14686
▁vowel	-14687
▁nicely	-14688
▁quotient	-14689
▁dominated	-14690
▁reasonable	-14691
▁consolidate	-14692
▁irreversible	-14693
▁kl	-14694
▁"\$	-14695
▁%</	-14696
▁)*)	-14697
▁042	-14698
▁671	-14699
▁::%	-14700
state	-14701
▁].(*	-14702
▁unsc	-14703
▁"([^"	-14704
▁::*};	-14705
▁growl	-14706
▁onion	-14707
▁800000	-14708
▁definer	-14709
▁conformity	-14710
▁resettable	-14711
▁accordingly	-14712
▁supportability	-14713
upal	-14714
▁780	-14715
stine	-14716
▁%}{{	-14717
▁squad	-14718
▁\");",	-14719
▁drupal	-14720
▁onetime	-14721
▁parsley	-14722
▁mockable	-14723
▁personality	-14724
▁inaccessible	-14725
▁gyp	-14726
▁}']	-14727
▁:');	-14728
▁!"));	-14729
▁();',	-14730
▁unexp	-14731
1234567	-14732
▁("."),	-14733
▁driving	-14734
▁misfire	-14735
▁entirely	-14736
▁inspired	-14737
▁advantage	-14738
▁inversion	-14739
▁="[	-14740
▁sab	-14741
▁alle	-14742
▁wolf	-14743
▁++));	-14744
▁{}.",	-14745
▁klaxon	-14746
▁6170692	-14747
▁layered	-14748
▁pristine	-14749
▁confirmable	-14750
▁+),	-14751
▁/[\	-14752
▁734	-14753
00101	-14754
▁([["	-14755
▁}}}}	-14756
203040	-14757
▁tiger	-14758
▁mainly	-14759
▁pauser	-14760
▁reclaim	-14761
▁tension	-14762
▁practical	-14763
▁proportional	-14764
▁}»	-14765
})),	-14766
▁398	-14767
▁472	-14768
▁580	-14769
▁885	-14770
▁933	-14771
▁>"]	-14772
▁ted	-14773
iller	-14774
▁.]],	-14775
▁=(),	-14776
▁lack	-14777
▁vers	-14778
▁("---	-14779
▁({}),	-14780
▁parado	-14781
▁resent	-14782
▁thirty	-14783
▁enforcer	-14784
▁announcer	-14785
▁quantifier	-14786
▁impersonate	-14787
553	-14788
})"	-14789
▁$,	-14790
▁*]	-14791
lose	-14792
▁,--	-14793
▁542	-14794
▁681	-14795
▁936	-14796
▁=')	-14797
▁)'),	-14798
▁/^(\	-14799
▁?","	-14800
▁\"${	-14801
▁sick	-14802
▁vill	-14803
▁wren	-14804
▁('|')	-14805
▁glove	-14806
▁niter	-14807
▁discon	-14808
▁refuse	-14809
▁paradox	-14810
▁beautify	-14811
▁valuable	-14812
▁premature	-14813
▁toleration	-14814
▁):(	-14815
riage	-14816
▁---#	-14817
▁2024	-14818
▁>'.$	-14819
▁["",	-14820
▁|---	-14821
▁/>");	-14822
▁16000	-14823
▁ladder	-14824
▁lockout	-14825
▁malicious	-14826
▁stratified	-14827
▁recalculate	-14828
>>>	-14829
▁606	-14830
...",	-14831
▁'."\	-14832
▁=\""	-14833
ernsey	-14834
▁("""\	-14835
▁rescan	-14836
▁guernsey	-14837
▁liquidity	-14838
▁shadowing	-14839
▁advertising	-14840
▁destruction	-14841
isp	-14842
amin	-14843
▁))+	-14844
▁),\	-14845
▁051	-14846
▁527	-14847
▁")){	-14848
▁1300	-14849
▁8245	-14850
▁fame	-14851
▁:"[",	-14852
ivation	-14853
▁aurora	-14854
▁retrans	-14855
▁removable	-14856
▁vibration	-14857
▁*<	-14858
▁=[{	-14859
▁:"(",	-14860
▁titled	-14861
▁relativ	-14862
▁discriminant	-14863
000000000000000	-14864
▁&"	-14865
([^"	-14866
3031	-14867
▁">@	-14868
▁*$/	-14869
▁647	-14870
▁bod	-14871
▁})`	-14872
▁"/><	-14873
oneous	-14874
▁...";	-14875
▁://")	-14876
▁advers	-14877
▁absolut	-14878
▁erroneous	-14879
▁conservative	-14880
606	-14881
666	-14882
▁|,	-14883
▁903	-14884
▁908	-14885
▁[]"	-14886
▁wap	-14887
▁zig	-14888
enary	-14889
▁("".	-14890
▁++))	-14891
▁;"));	-14892
▁donor	-14893
orphism	-14894
▁('.')[	-14895
▁genome	-14896
▁glutin	-14897
▁uninst	-14898
▁adversary	-14899
▁unreadable	-14900
▁uninstalled	-14901
cut	-14902
▁762	-14903
▁='$	-14904
▁sud	-14905
jamin	-14906
▁mayor	-14907
▁{}));	-14908
▁}}{{/	-14909
▁famous	-14910
▁steven	-14911
▁individ	-14912
▁benjamin	-14913
▁accounting	-14914
▁especially	-14915
▁relativize	-14916
▁synthesize	-14917
113	-14918
4800	-14919
▁317	-14920
▁>{'	-14921
▁nei	-14922
▁|@|	-14923
arder	-14924
▁dawn	-14925
▁flic	-14926
▁}}),	-14927
▁stays	-14928
▁(".").	-14929
▁canned	-14930
▁circum	-14931
▁spending	-14932
▁deferrable	-14933
#"	-14934
'')	-14935
ogen	-14936
▁'"{	-14937
▁074	-14938
▁:/^	-14939
▁?><	-14940
▁yer	-14941
glass	-14942
▁2040	-14943
▁<*>?	-14944
▁<>::	-14945
▁doggo	-14946
▁([]));	-14947
▁brazil	-14948
▁declarer	-14949
▁elsewhere	-14950
▁logistics	-14951
▁reissuable	-14952
/",	-14953
ych	-14954
▁1251	-14955
▁2038	-14956
▁reli	-14957
▁psych	-14958
▁whats	-14959
▁(':')[	-14960
▁elapse	-14961
▁pistol	-14962
▁roller	-14963
▁subtle	-14964
▁recompute	-14965
▁transmitter	-14966
!",	-14967
105	-14968
418	-14969
==>	-14970
``.	-14971
",\"	-14972
▁%.'	-14973
▁084	-14974
▁477	-14975
▁boy	-14976
▁bark	-14977
▁cork	-14978
▁}}).	-14979
▁('"',	-14980
▁:"{",	-14981
▁="/">	-14982
▁degra	-14983
▁litho	-14984
▁))))))	-14985
▁optical	-14986
▁voltage	-14987
261	-14988
▁#',	-14989
▁)?)	-14990
▁/>"	-14991
▁058	-14992
▁832	-14993
▁855	-14994
▁<%-	-14995
▁lap	-14996
tower	-14997
▁']()	-14998
▁=\"$	-14999
▁mush	-15000
▁cheap	-15001
▁endor	-15002
▁propose	-15003
▁rootless	-15004
▁watchtower	-15005
269	-15006
408	-15007
657	-15008
▁%/	-15009
▁883	-15010
▁:"+	-15011
▁?>:	-15012
▁pit	-15013
▁1904	-15014
▁2200	-15015
rained	-15016
▁://${	-15017
▁<>(),	-15018
▁indic	-15019
▁munge	-15020
▁beside	-15021
▁blowfish	-15022
▁monetary	-15023
:-	-15024
ba	-15025
"}}	-15026
3232	-15027
maid	-15028
▁383	-15029
▁476	-15030
▁829	-15031
▁887	-15032
▁];\	-15033
31372	-15034
frame	-15035
▁('[%	-15036
▁bulb	-15037
▁("|")	-15038
▁:"'",	-15039
▁chase	-15040
▁^^^^^^	-15041
▁erased	-15042
▁steering	-15043
▁enrichment	-15044
▁successive	-15045
▁individually	-15046
(@	-15047
604	-15048
608	-15049
saic	-15050
▁">%	-15051
▁."\	-15052
▁427	-15053
▁914	-15054
▁"]])	-15055
curial	-15056
▁90000	-15057
▁:{}};	-15058
▁\".\"	-15059
▁mosaic	-15060
▁firebird	-15061
▁opportun	-15062
▁mercurial	-15063
▁throughout	-15064
:(	-15065
})}	-15066
▁#$	-15067
▁}+	-15068
▁"/$	-15069
▁}^{	-15070
▁hell	-15071
▁ours	-15072
▁rise	-15073
▁("}")	-15074
▁[][]{	-15075
▁buggy	-15076
▁cohort	-15077
▁afterwards	-15078
?(@	-15079
▁"'$	-15080
▁605	-15081
▁833	-15082
▁eve	-15083
]+/,"	-15084
▁3001	-15085
▁}.',	-15086
▁"]");	-15087
▁'])).	-15088
ionette	-15089
▁monoch	-15090
▁amazing	-15091
▁shapely	-15092
▁lowering	-15093
▁preorder	-15094
▁marionette	-15095
|<	-15096
*")	-15097
>(&	-15098
▁+\.	-15099
▁exc	-15100
imuth	-15101
shore	-15102
▁"]):	-15103
▁'|',	-15104
▁2050	-15105
▁unsh	-15106
▁('*',	-15107
▁}})),	-15108
▁(''));	-15109
▁outfit	-15110
▁azimuth	-15111
▁offshore	-15112
▁trimming	-15113
▁00000000000000	-15114
▁■	-15115
coon	-15116
▁519	-15117
71992	-15118
▁')},	-15119
▁()')	-15120
▁.'))	-15121
▁/"..	-15122
▁<>))	-15123
▁>"""	-15124
▁>").	-15125
▁drug	-15126
▁'..')	-15127
▁lasso	-15128
▁maxim	-15129
▁explod	-15130
▁grandp	-15131
▁uglify	-15132
▁+(?:\.\	-15133
▁storybook	-15134
229	-15135
boo	-15136
▁/>}	-15137
▁653	-15138
▁959	-15139
▁'"';	-15140
▁("*")	-15141
▁://',	-15142
▁harry	-15143
▁turbo	-15144
▁bamboo	-15145
▁monarchy	-15146
▁expressed	-15147
▁occlusion	-15148
▁isomorphic	-15149
{}/	-15150
rill	-15151
ruce	-15152
▁){|	-15153
▁669	-15154
▁920	-15155
rogen	-15156
▁())]	-15157
▁2037	-15158
▁encl	-15159
▁toon	-15160
▁whit	-15161
......	-15162
▁crack	-15163
▁sieve	-15164
▁']")),	-15165
▁cursed	-15166
▁rental	-15167
▁singer	-15168
▁sports	-15169
▁spruce	-15170
▁14159265	-15171
▁overlord	-15172
▁monochrome	-15173
▁suspicious	-15174
`"	-15175
258	-15176
289	-15177
gen	-15178
8090	-15179
]+)\	-15180
▁(&*	-15181
▁659	-15182
▁>--	-15183
▁ust	-15184
▁()[-	-15185
▁2049	-15186
▁clar	-15187
▁jade	-15188
▁70000	-15189
▁chile	-15190
▁[@]}";	-15191
▁enclave	-15192
▁erasure	-15193
▁appendix	-15194
▁cocktail	-15195
▁trunking	-15196
▁conclusion	-15197
▁floodlight	-15198
rip	-15199
▁"(%	-15200
▁*')	-15201
▁],{	-15202
▁clo	-15203
▁{..	-15204
naire	-15205
▁)||(	-15206
▁."],	-15207
▁rump	-15208
▁hazel	-15209
▁newton	-15210
123456789	-15211
▁commonly	-15212
▁subframe	-15213
▁clearable	-15214
▁questionnaire	-15215
%{	-15216
▁'^'	-15217
▁))\	-15218
▁516	-15219
▁532	-15220
▁596	-15221
▁(['-	-15222
▁kell	-15223
▁illust	-15224
▁sparks	-15225
▁coercible	-15226
horn	-15227
ston	-15228
}));	-15229
▁319	-15230
▁394	-15231
▁594	-15232
▁733	-15233
▁848	-15234
▁870	-15235
▁882	-15236
▁921	-15237
▁992	-15238
▁['\	-15239
▁`.'	-15240
▁2822	-15241
▁rose	-15242
arithm	-15243
▁flora	-15244
▁gated	-15245
7199254	-15246
▁boston	-15247
▁manger	-15248
▁rebind	-15249
▁blessed	-15250
▁survival	-15251
▁logarithm	-15252
▁conditionally	-15253
]/,	-15254
root	-15255
▁*"]	-15256
▁518	-15257
▁523	-15258
▁::=	-15259
75807	-15260
▁"'#{	-15261
▁">';	-15262
▁2047	-15263
▁[]];	-15264
▁swig	-15265
▁}...	-15266
▁('=',	-15267
▁);");	-15268
▁synch	-15269
▁"...",	-15270
▁808080	-15271
▁farming	-15272
▁blinding	-15273
▁colorful	-15274
▁versioner	-15275
00000000000	-15276
**/	-15277
▁$'	-15278
▁?[	-15279
here	-15280
▁..(	-15281
▁984	-15282
▁[':	-15283
▁bop	-15284
▁8822	-15285
▁soul	-15286
▁unan	-15287
▁})?;	-15288
▁".");	-15289
▁tycoon	-15290
▁0000001	-15291
▁mermaid	-15292
▁government	-15293
514	-15294
▁"$$	-15295
▁/(\	-15296
▁086	-15297
▁])\	-15298
▁))])	-15299
▁<>),	-15300
▁}=#{	-15301
▁}}{%	-15302
▁forty	-15303
▁strap	-15304
▁allele	-15305
▁upcast	-15306
▁obvious	-15307
▁speedometer	-15308
>/	-15309
]},	-15310
▁%<	-15311
▁-[	-15312
alls	-15313
comb	-15314
▁453	-15315
▁632	-15316
▁=$?	-15317
(?:"+	-15318
▁**=<	-15319
▁baby	-15320
▁"}"""	-15321
▁)."""	-15322
▁)}");	-15323
▁21600	-15324
▁finch	-15325
▁>()));	-15326
▁dealer	-15327
▁ranked	-15328
▁('../');	-15329
▁alongside	-15330
▁coveralls	-15331
▁honeycomb	-15332
▁9007199254	-15333
▁appropriately	-15334
▁ju	-15335
=","	-15336
▁645	-15337
▁;};	-15338
vester	-15339
▁":[],"	-15340
▁monadic	-15341
ila	-15342
igen	-15343
▁'<!	-15344
▁/*/	-15345
▁609	-15346
▁703	-15347
▁'#')	-15348
▁>"))	-15349
▁?(&:	-15350
▁\"/>	-15351
▁])([	-15352
▁rein	-15353
▁"":""	-15354
▁')");	-15355
▁'{}',	-15356
▁subac	-15357
▁prince	-15358
▁clipper	-15359
--------+	-15360
▁classroom	-15361
▁consequent	-15362
▁subaccount	-15363
▁*$	-15364
▁]%	-15365
ewee	-15366
iker	-15367
rand	-15368
▁547	-15369
▁))):	-15370
▁troll	-15371
▁nobody	-15372
▁peewee	-15373
▁relate	-15374
▁institution	-15375
253	-15376
▁664	-15377
▁1310	-15378
▁2032	-15379
▁kilo	-15380
▁glint	-15381
▁ortho	-15382
▁transm	-15383
▁scraper	-15384
▁backfill	-15385
@\	-15386
+\-	-15387
urp	-15388
olar	-15389
▁765	-15390
▁\"/	-15391
fixed	-15392
▁"]?.	-15393
▁([[:	-15394
▁)=="	-15395
▁cele	-15396
▁pulp	-15397
▁rasp	-15398
▁tide	-15399
▁trop	-15400
[...]
