<unk>	0
<s>	0
</s>	0
<pad>	0
<endofline>	0
<endoftext>	0
▁s	-0
er	-1
▁t	-2
▁i	-3
▁c	-4
re	-5
on	-6
▁p	-7
▁a	-8
at	-9
or	-10
▁f	-11
en	-12
▁n	-13
▁re	-14
in	-15
▁d	-16
st	-17
ion	-18
▁m	-19
le	-20
al	-21
ct	-22
▁b	-23
et	-24
▁l	-25
▁e	-26
▁st	-27
ss	-28
ic	-29
mp	-30
it	-31
▁v	-32
ro	-33
se	-34
▁in	-35
▁g	-36
▁o	-37
un	-38
▁th	-39
ur	-40
ra	-41
ort	-42
ent	-43
ing	-44
▁co	-45
el	-46
ate	-47
▁w	-48
ce	-49
me	-50
ar	-51
▁imp	-52
ut	-53
ue	-54
an	-55
▁import	-56
ul	-57
▁con	-58
▁te	-59
pe	-60
de	-61
ub	-62
ri	-63
▁cl	-64
▁h	-65
is	-66
ag	-67
▁ret	-68
▁to	-69
lic	-70
urn	-71
▁ex	-72
ction	-73
▁return	-74
▁get	-75
ck	-76
ch	-77
▁str	-78
ew	-79
▁string	-80
end	-81
▁pub	-82
▁de	-83
il	-84
ame	-85
▁u	-86
▁if	-87
▁test	-88
▁public	-89
ert	-90
▁lo	-91
▁this	-92
ass	-93
age	-94
▁name	-95
id	-96
ation	-97
ot	-98
▁pro	-99
▁class	-100
ype	-101
pt	-102
▁type	-103
▁res	-104
▁cont	-105
▁fun	-106
▁end	-107
▁fi	-108
▁new	-109
od	-110
ist	-111
xt	-112
▁an	-113
▁ass	-114
▁val	-115
▁id	-116
ter	-117
▁sel	-118
▁pa	-119
▁k	-120
▁self	-121
ab	-122
▁for	-123
▁do	-124
em	-125
▁function	-126
▁ma	-127
err	-128
▁set	-129
▁assert	-130
▁err	-131
ect	-132
ad	-133
qu	-134
▁value	-135
ver	-136
▁r	-137
ed	-138
▁is	-139
ult	-140
▁the	-141
▁x	-142
▁ch	-143
▁se	-144
um	-145
ig	-146
▁dat	-147
▁data	-148
able	-149
ve	-150
ption	-151
ol	-152
▁sh	-153
ull	-154
iz	-155
ase	-156
▁ar	-157
▁stat	-158
▁tr	-159
lo	-160
▁un	-161
▁list	-162
ject	-163
▁ad	-164
▁null	-165
ext	-166
ath	-167
▁of	-168
▁pri	-169
ith	-170
▁mod	-171
▁bu	-172
▁ke	-173
▁ser	-174
der	-175
as	-176
▁file	-177
▁it	-178
▁key	-179
▁error	-180
pp	-181
▁def	-182
ser	-183
▁not	-184
ize	-185
▁with	-186
▁true	-187
▁on	-188
▁be	-189
▁no	-190
▁path	-191
▁and	-192
▁use	-193
vate	-194
ran	-195
▁al	-196
▁private	-197
▁col	-198
and	-199
ment	-200
▁add	-201
ity	-202
▁fro	-203
▁context	-204
▁ob	-205
▁log	-206
que	-207
th	-208
▁po	-209
▁from	-210
▁sy	-211
put	-212
▁so	-213
▁ti	-214
ray	-215
▁pack	-216
▁com	-217
▁ro	-218
ice	-219
oid	-220
▁static	-221
▁array	-222
▁met	-223
▁vi	-224
▁fin	-225
▁map	-226
us	-227
ory	-228
ine	-229
▁void	-230
▁exce	-231
▁size	-232
ach	-233
if	-234
▁comp	-235
▁or	-236
▁le	-237
▁loc	-238
▁fa	-239
ure	-240
▁object	-241
▁fal	-242
▁mo	-243
▁sc	-244
▁package	-245
ay	-246
▁cre	-247
▁inter	-248
▁false	-249
▁sho	-250
atch	-251
▁out	-252
▁exception	-253
ire	-254
▁y	-255
▁result	-256
▁io	-257
▁me	-258
▁time	-259
▁su	-260
ient	-261
▁j	-262
urce	-263
quest	-264
▁comm	-265
ive	-266
▁par	-267
▁request	-268
▁buil	-269
▁view	-270
vice	-271
▁text	-272
▁create	-273
ault	-274
unt	-275
▁el	-276
▁ver	-277
▁default	-278
am	-279
▁client	-280
▁state	-281
sion	-282
▁user	-283
ge	-284
cl	-285
▁prop	-286
▁case	-287
ren	-288
one	-289
▁model	-290
uld	-291
per	-292
▁over	-293
▁resp	-294
▁as	-295
pect	-296
▁at	-297
▁fo	-298
▁he	-299
▁ev	-300
ly	-301
▁sp	-302
▁mess	-303
▁should	-304
▁bo	-305
▁message	-306
stem	-307
▁local	-308
▁system	-309
▁wh	-310
ger	-311
ress	-312
ride	-313
▁en	-314
▁respon	-315
▁else	-316
ache	-317
om	-318
▁node	-319
ite	-320
rent	-321
▁event	-322
ain	-323
ule	-324
ude	-325
▁response	-326
cess	-327
fer	-328
▁override	-329
▁app	-330
ener	-331
ry	-332
▁inde	-333
ore	-334
▁index	-335
▁service	-336
ance	-337
▁final	-338
▁form	-339
clude	-340
ace	-341
▁expect	-342
ute	-343
qual	-344
▁base	-345
im	-346
ler	-347
te	-348
sc	-349
▁act	-350
▁code	-351
▁inst	-352
▁pre	-353
ition	-354
▁read	-355
ust	-356
up	-357
ht	-358
▁include	-359
▁meth	-360
▁method	-361
rib	-362
ram	-363
▁equal	-364
und	-365
lect	-366
▁version	-367
ator	-368
▁input	-369
▁run	-370
eld	-371
iv	-372
▁reg	-373
▁qu	-374
art	-375
▁nil	-376
▁table	-377
▁ent	-378
▁rep	-379
▁tran	-380
▁trans	-381
▁wr	-382
▁hand	-383
▁count	-384
▁cur	-385
int	-386
▁man	-387
ial	-388
ber	-389
quire	-390
▁item	-391
▁content	-392
ack	-393
▁core	-394
▁require	-395
ke	-396
▁up	-397
▁sub	-398
▁tra	-399
▁dis	-400
ctory	-401
▁conn	-402
orm	-403
▁field	-404
▁status	-405
mple	-406
ip	-407
eck	-408
▁param	-409
▁source	-410
▁ran	-411
▁stre	-412
ty	-413
▁server	-414
all	-415
▁spe	-416
ash	-417
▁output	-418
▁check	-419
ong	-420
ord	-421
▁ref	-422
▁z	-423
▁we	-424
▁ac	-425
ind	-426
▁pl	-427
ign	-428
▁all	-429
▁exp	-430
▁builder	-431
ken	-432
▁none	-433
▁per	-434
ery	-435
ast	-436
▁net	-437
▁stream	-438
▁aut	-439
▁by	-440
▁len	-441
▁format	-442
▁instance	-443
▁module	-444
▁im	-445
▁option	-446
erty	-447
▁property	-448
▁sa	-449
▁flo	-450
rap	-451
gth	-452
▁query	-453
▁token	-454
▁start	-455
▁length	-456
▁desc	-457
▁gener	-458
▁foo	-459
▁fra	-460
▁spec	-461
▁date	-462
ument	-463
co	-464
ader	-465
ssion	-466
▁ra	-467
ir	-468
▁command	-469
▁ho	-470
▁then	-471
roid	-472
▁android	-473
wn	-474
▁action	-475
▁fil	-476
▁long	-477
▁blo	-478
▁line	-479
▁color	-480
▁match	-481
ager	-482
ence	-483
▁jo	-484
ask	-485
▁hel	-486
▁inv	-487
uration	-488
▁emp	-489
arg	-490
face	-491
▁conf	-492
▁can	-493
ork	-494
▁gro	-495
▁sch	-496
▁image	-497
▁mock	-498
umber	-499
▁reso	-500
▁resource	-501
▁task	-502
ract	-503
nal	-504
ec	-505
ight	-506
▁empty	-507
iter	-508
▁let	-509
ard	-510
▁sec	-511
▁manager	-512
▁factory	-513
▁number	-514
ary	-515
▁hash	-516
▁ext	-517
▁prov	-518
▁regist	-519
▁interface	-520
▁build	-521
▁exec	-522
▁ap	-523
ant	-524
▁unit	-525
rol	-526
▁block	-527
▁chan	-528
▁group	-529
ose	-530
▁select	-531
▁fl	-532
out	-533
date	-534
▁write	-535
▁that	-536
▁apache	-537
lement	-538
▁logger	-539
▁buf	-540
▁update	-541
▁att	-542
▁valid	-543
ree	-544
▁cache	-545
▁temp	-546
▁rec	-547
ection	-548
form	-549
mo	-550
▁filter	-551
▁common	-552
▁char	-553
▁buffer	-554
▁handler	-555
▁any	-556
▁session	-557
ile	-558
lection	-559
▁tag	-560
ider	-561
▁page	-562
arget	-563
▁target	-564
ark	-565
row	-566
▁float	-567
▁call	-568
▁contain	-569
▁bool	-570
▁lay	-571
▁config	-572
▁address	-573
▁ab	-574
▁when	-575
▁element	-576
uct	-577
ema	-578
nel	-579
▁off	-580
▁internal	-581
▁next	-582
ib	-583
umn	-584
ink	-585
▁column	-586
os	-587
late	-588
▁frame	-589
▁const	-590
▁pr	-591
▁mem	-592
▁current	-593
▁control	-594
rig	-595
▁schema	-596
ody	-597
ription	-598
▁bar	-599
▁body	-600
▁provider	-601
▁load	-602
▁entity	-603
ix	-604
▁fir	-605
▁min	-606
▁doc	-607
lete	-608
sh	-609
▁first	-610
onent	-611
to	-612
▁parse	-613
set	-614
▁container	-615
▁header	-616
raph	-617
▁cop	-618
▁connection	-619
▁pass	-620
▁root	-621
ap	-622
ual	-623
▁inte	-624
▁component	-625
▁last	-626
es	-627
ense	-628
ise	-629
ribute	-630
▁project	-631
itle	-632
▁os	-633
not	-634
▁but	-635
▁auth	-636
are	-637
▁attribute	-638
▁exa	-639
▁order	-640
▁title	-641
▁configuration	-642
▁mode	-643
▁parser	-644
ics	-645
▁disp	-646
▁cons	-647
▁wid	-648
▁process	-649
ait	-650
▁yo	-651
▁post	-652
▁width	-653
▁find	-654
▁range	-655
▁lab	-656
ft	-657
▁op	-658
▁graph	-659
▁description	-660
pper	-661
ier	-662
ep	-663
▁copy	-664
▁parent	-665
▁store	-666
▁ins	-667
▁dire	-668
lication	-669
▁label	-670
ify	-671
cy	-672
▁syn	-673
ific	-674
ick	-675
ton	-676
▁execut	-677
ner	-678
▁supp	-679
vel	-680
fix	-681
▁oper	-682
▁super	-683
▁arg	-684
▁offset	-685
ak	-686
▁testing	-687
alid	-688
▁defin	-689
ow	-690
▁fe	-691
▁example	-692
ere	-693
▁part	-694
▁invalid	-695
act	-696
▁application	-697
▁try	-698
▁template	-699
▁layout	-700
▁resol	-701
▁send	-702
▁uns	-703
read	-704
▁fail	-705
▁port	-706
right	-707
▁argument	-708
fore	-709
▁pos	-710
▁record	-711
ribe	-712
▁channel	-713
▁doub	-714
▁before	-715
▁sty	-716
▁double	-717
op	-718
ative	-719
▁integer	-720
▁scal	-721
▁top	-722
▁open	-723
▁ren	-724
▁link	-725
▁cust	-726
▁entry	-727
▁custom	-728
▁some	-729
▁delete	-730
▁suc	-731
▁style	-732
▁append	-733
▁remo	-734
▁back	-735
apt	-736
ill	-737
cket	-738
▁collection	-739
ale	-740
ector	-741
▁listener	-742
▁si	-743
work	-744
▁are	-745
▁throw	-746
▁main	-747
▁host	-748
▁lic	-749
▁license	-750
▁sha	-751
ave	-752
▁annot	-753
ther	-754
▁div	-755
▁one	-756
▁success	-757
▁register	-758
▁other	-759
▁vis	-760
sor	-761
ature	-762
▁annotation	-763
▁row	-764
▁height	-765
▁aw	-766
▁ne	-767
▁rel	-768
▁web	-769
▁print	-770
low	-771
▁rand	-772
▁controller	-773
▁ed	-774
▁level	-775
▁button	-776
▁metr	-777
ression	-778
eter	-779
▁position	-780
▁helper	-781
▁my	-782
▁stri	-783
▁proto	-784
▁conv	-785
io	-786
▁close	-787
▁render	-788
▁join	-789
▁q	-790
ifier	-791
▁rece	-792
▁bre	-793
▁tw	-794
▁each	-795
▁go	-796
▁dep	-797
ia	-798
▁access	-799
ail	-800
ference	-801
▁dra	-802
▁sw	-803
ud	-804
ruct	-805
▁prefix	-806
▁activ	-807
▁rule	-808
arch	-809
▁bind	-810
▁stor	-811
ell	-812
▁break	-813
▁bin	-814
▁af	-815
▁dom	-816
▁remove	-817
▁you	-818
▁storage	-819
con	-820
▁left	-821
▁document	-822
▁describe	-823
▁handle	-824
ild	-825
▁non	-826
▁define	-827
▁ag	-828
ded	-829
ization	-830
tern	-831
▁convert	-832
▁abst	-833
osit	-834
▁job	-835
▁thread	-836
▁abstract	-837
ateg	-838
▁meta	-839
▁cr	-840
▁tree	-841
use	-842
▁auto	-843
ld	-844
▁device	-845
▁reposit	-846
▁repository	-847
ok	-848
ari	-849
gment	-850
▁found	-851
▁batch	-852
▁construct	-853
▁reader	-854
▁work	-855
▁opt	-856
▁active	-857
▁search	-858
▁cle	-859
word	-860
▁password	-861
ope	-862
▁scala	-863
▁parameter	-864
▁only	-865
▁have	-866
▁must	-867
▁adapt	-868
▁ident	-869
▁after	-870
ension	-871
▁vector	-872
▁sign	-873
▁random	-874
▁show	-875
▁author	-876
▁support	-877
umer	-878
▁expression	-879
▁sing	-880
▁prod	-881
ush	-882
▁make	-883
▁activity	-884
ont	-885
▁lim	-886
▁del	-887
▁await	-888
licit	-889
▁location	-890
▁que	-891
▁mat	-892
▁vari	-893
▁child	-894
code	-895
▁conc	-896
▁queue	-897
own	-898
older	-899
her	-900
▁di	-901
lay	-902
▁bl	-903
▁scope	-904
▁right	-905
▁insert	-906
▁adapter	-907
▁wind	-908
▁put	-909
▁sum	-910
▁single	-911
▁raise	-912
▁stack	-913
▁actual	-914
▁red	-915
ning	-916
action	-917
▁init	-918
ha	-919
▁subject	-920
▁same	-921
▁apply	-922
uster	-923
▁draw	-924
ification	-925
ible	-926
▁cluster	-927
▁window	-928
ff	-929
ang	-930
▁pers	-931
▁sl	-932
▁play	-933
▁initial	-934
▁dec	-935
ical	-936
▁generator	-937
▁mon	-938
count	-939
▁mark	-940
▁spark	-941
▁simple	-942
▁serial	-943
▁sort	-944
▁pat	-945
▁writer	-946
▁generic	-947
▁rest	-948
▁fut	-949
▁domain	-950
▁limit	-951
▁future	-952
▁ten	-953
▁transform	-954
▁socket	-955
▁directory	-956
▁lock	-957
▁box	-958
▁account	-959
▁la	-960
ript	-961
itor	-962
▁free	-963
▁norm	-964
▁sync	-965
▁point	-966
mb	-967
col	-968
mit	-969
▁implicit	-970
▁iter	-971
▁protocol	-972
▁med	-973
fe	-974
▁eng	-975
▁memory	-976
ide	-977
▁engine	-978
ote	-979
▁change	-980
▁concur	-981
▁feature	-982
ility	-983
bal	-984
▁reference	-985
▁li	-986
▁math	-987
▁pool	-988
▁shape	-989
▁will	-990
▁pattern	-991
▁glo	-992
▁spl	-993
ved	-994
▁duration	-995
mary	-996
▁icon	-997
▁global	-998
▁tot	-999
▁ca	-1000
▁optional	-1001
▁script	-1002
▁route	-1003
▁extension	-1004
▁registry	-1005
▁raw	-1006
▁train	-1007
est	-1008
▁report	-1009
cker	-1010
▁total	-1011
▁save	-1012
▁subsc	-1013
▁sk	-1014
ration	-1015
▁transaction	-1016
▁ind	-1017
▁mi	-1018
▁cor	-1019
cept	-1020
lace	-1021
▁env	-1022
▁bund	-1023
▁definition	-1024
▁flag	-1025
urity	-1026
▁cond	-1027
▁men	-1028
▁concurrent	-1029
▁display	-1030
▁span	-1031
▁dist	-1032
▁split	-1033
▁fix	-1034
▁menu	-1035
▁security	-1036
▁export	-1037
▁execute	-1038
▁sample	-1039
▁where	-1040
▁role	-1041
igin	-1042
▁origin	-1043
xy	-1044
▁cal	-1045
▁setup	-1046
▁replace	-1047
ole	-1048
▁fragment	-1049
sk	-1050
▁bundle	-1051
▁bot	-1052
▁war	-1053
▁proxy	-1054
iron	-1055
▁environ	-1056
▁strict	-1057
▁network	-1058
igned	-1059
ta	-1060
aly	-1061
▁operation	-1062
▁ph	-1063
ency	-1064
▁loader	-1065
round	-1066
▁head	-1067
▁variable	-1068
ond	-1069
▁dest	-1070
▁kind	-1071
leg	-1072
▁own	-1073
rop	-1074
▁full	-1075
▁obser	-1076
bo	-1077
▁sn	-1078
▁rem	-1079
▁git	-1080
▁font	-1081
wer	-1082
▁step	-1083
▁comment	-1084
ret	-1085
▁push	-1086
▁while	-1087
▁prog	-1088
▁tensor	-1089
▁execution	-1090
▁mer	-1091
▁clo	-1092
▁us	-1093
▁tor	-1094
▁failure	-1095
▁polic	-1096
▁receive	-1097
▁prof	-1098
▁policy	-1099
▁may	-1100
▁dri	-1101
utable	-1102
▁catch	-1103
▁logg	-1104
vi	-1105
▁sequ	-1106
old	-1107
▁disable	-1108
ish	-1109
▁det	-1110
▁environment	-1111
▁member	-1112
▁runner	-1113
ume	-1114
▁connect	-1115
inter	-1116
▁verify	-1117
▁console	-1118
▁bet	-1119
▁mask	-1120
ution	-1121
▁metrics	-1122
ias	-1123
▁asset	-1124
▁allow	-1125
erm	-1126
▁now	-1127
▁defined	-1128
▁unsigned	-1129
▁short	-1130
gn	-1131
▁invo	-1132
▁lang	-1133
▁plat	-1134
▁media	-1135
▁normal	-1136
uage	-1137
▁react	-1138
▁language	-1139
ground	-1140
▁reflect	-1141
entic	-1142
mi	-1143
▁hello	-1144
▁symb	-1145
▁exit	-1146
etch	-1147
▁validate	-1148
rid	-1149
▁second	-1150
▁decl	-1151
▁authentic	-1152
▁torch	-1153
▁gen	-1154
▁platform	-1155
▁scale	-1156
▁generate	-1157
▁props	-1158
▁analy	-1159
▁stop	-1160
▁suite	-1161
iler	-1162
▁gra	-1163
▁term	-1164
▁fetch	-1165
▁flow	-1166
▁il	-1167
▁symbol	-1168
▁dev	-1169
▁inf	-1170
▁wra	-1171
▁click	-1172
▁depend	-1173
▁wait	-1174
▁collect	-1175
▁secret	-1176
lease	-1177
▁anim	-1178
reen	-1179
▁day	-1180
▁condition	-1181
▁reset	-1182
▁int	-1183
▁pad	-1184
▁mapper	-1185
▁fact	-1186
▁logging	-1187
resh	-1188
▁used	-1189
itch	-1190
▁art	-1191
▁trace	-1192
▁merge	-1193
▁binding	-1194
▁big	-1195
▁owner	-1196
▁pi	-1197
▁operator	-1198
sent	-1199
▁clear	-1200
▁alp	-1201
▁criter	-1202
▁framework	-1203
▁ign	-1204
▁tab	-1205
▁matcher	-1206
ug	-1207
▁av	-1208
▁docker	-1209
▁remote	-1210
▁wrapper	-1211
▁dim	-1212
▁resolve	-1213
▁resolver	-1214
▁executor	-1215
▁player	-1216
▁metric	-1217
nown	-1218
▁enable	-1219
▁old	-1220
▁tim	-1221
iven	-1222
▁actor	-1223
▁extra	-1224
▁driver	-1225
▁topic	-1226
cel	-1227
▁layer	-1228
▁down	-1229
▁atom	-1230
▁under	-1231
▁binary	-1232
▁consumer	-1233
less	-1234
▁switch	-1235
▁liter	-1236
way	-1237
val	-1238
▁validation	-1239
▁rub	-1240
▁literal	-1241
▁tri	-1242
▁na	-1243
▁rout	-1244
▁profile	-1245
ward	-1246
▁background	-1247
▁constructor	-1248
▁given	-1249
▁done	-1250
di	-1251
▁chain	-1252
▁ruby	-1253
▁categ	-1254
▁sequence	-1255
cer	-1256
▁holder	-1257
let	-1258
▁strateg	-1259
ero	-1260
▁native	-1261
▁region	-1262
▁does	-1263
imal	-1264
▁alpha	-1265
▁strategy	-1266
▁rate	-1267
▁vol	-1268
▁trait	-1269
▁ignore	-1270
ination	-1271
▁pair	-1272
mission	-1273
rary	-1274
▁product	-1275
▁ast	-1276
▁ge	-1277
▁corre	-1278
▁da	-1279
very	-1280
▁sol	-1281
▁space	-1282
cho	-1283
▁ker	-1284
▁wor	-1285
▁dispatch	-1286
▁selector	-1287
▁boot	-1288
▁echo	-1289
▁login	-1290
▁help	-1291
▁inject	-1292
▁mult	-1293
▁stub	-1294
▁transp	-1295
▁cell	-1296
▁avail	-1297
rix	-1298
▁matrix	-1299
▁uni	-1300
▁bas	-1301
▁scan	-1302
▁classes	-1303
▁pan	-1304
▁world	-1305
▁alias	-1306
▁category	-1307
▁nullable	-1308
order	-1309
▁kernel	-1310
▁pe	-1311
▁miss	-1312
▁dependency	-1313
▁eff	-1314
▁hist	-1315
▁sm	-1316
ster	-1317
▁agent	-1318
zy	-1319
▁wrap	-1320
▁decode	-1321
xture	-1322
▁constant	-1323
▁initialize	-1324
unter	-1325
ater	-1326
▁decimal	-1327
▁unsa	-1328
▁cast	-1329
▁commit	-1330
▁beg	-1331
▁encode	-1332
▁into	-1333
▁aud	-1334
▁fixture	-1335
yment	-1336
ump	-1337
▁missing	-1338
▁authentication	-1339
▁identifier	-1340
ift	-1341
▁counter	-1342
▁skip	-1343
igh	-1344
▁unsafe	-1345
▁weight	-1346
ined	-1347
mount	-1348
▁bit	-1349
▁clone	-1350
ield	-1351
▁effect	-1352
▁atomic	-1353
▁align	-1354
▁locale	-1355
ake	-1356
▁begin	-1357
ision	-1358
▁identity	-1359
▁accept	-1360
▁basic	-1361
▁contin	-1362
▁pointer	-1363
▁zero	-1364
ich	-1365
▁persist	-1366
▁without	-1367
▁selected	-1368
▁multip	-1369
▁publ	-1370
▁vert	-1371
▁drop	-1372
▁cent	-1373
▁pol	-1374
yn	-1375
▁theme	-1376
▁edit	-1377
▁amount	-1378
▁original	-1379
▁see	-1380
▁statement	-1381
▁rect	-1382
▁except	-1383
▁two	-1384
▁yield	-1385
▁extract	-1386
cation	-1387
▁lazy	-1388
▁fake	-1389
▁bran	-1390
idd	-1391
▁notification	-1392
ex	-1393
▁cursor	-1394
▁contract	-1395
▁grid	-1396
▁available	-1397
▁bean	-1398
▁screen	-1399
▁person	-1400
▁relation	-1401
▁ax	-1402
▁interval	-1403
▁progress	-1404
▁clean	-1405
▁gate	-1406
▁got	-1407
▁pip	-1408
▁unk	-1409
upp	-1410
lex	-1411
ular	-1412
▁cap	-1413
▁converter	-1414
▁unknown	-1415
ker	-1416
▁exter	-1417
ting	-1418
▁external	-1419
▁flat	-1420
ac	-1421
unk	-1422
▁install	-1423
▁intent	-1424
▁like	-1425
▁gu	-1426
▁lib	-1427
▁declare	-1428
▁word	-1429
▁loop	-1430
▁primary	-1431
▁release	-1432
▁once	-1433
▁sent	-1434
deo	-1435
▁customer	-1436
▁timer	-1437
▁arch	-1438
▁inner	-1439
▁video	-1440
▁dyn	-1441
icle	-1442
▁dynam	-1443
▁permission	-1444
ated	-1445
▁bad	-1446
▁brow	-1447
▁present	-1448
▁library	-1449
▁unique	-1450
▁folder	-1451
▁processor	-1452
▁want	-1453
▁copyright	-1454
▁relative	-1455
▁real	-1456
▁high	-1457
▁bro	-1458
▁inc	-1459
▁dig	-1460
▁trig	-1461
▁than	-1462
rency	-1463
▁section	-1464
ding	-1465
verse	-1466
otype	-1467
▁card	-1468
ci	-1469
▁usage	-1470
▁drawable	-1471
▁enumer	-1472
▁your	-1473
amb	-1474
▁iss	-1475
chan	-1476
▁loss	-1477
▁slic	-1478
li	-1479
▁calc	-1480
▁stand	-1481
▁graphics	-1482
▁warning	-1483
▁more	-1484
▁compiler	-1485
▁transition	-1486
▁trigger	-1487
▁produ	-1488
▁ep	-1489
▁mac	-1490
▁ps	-1491
▁mig	-1492
▁was	-1493
▁prot	-1494
▁standard	-1495
▁editor	-1496
▁crate	-1497
▁partition	-1498
itter	-1499
ibility	-1500
▁attach	-1501
▁transport	-1502
▁snap	-1503
▁complete	-1504
▁grad	-1505
inate	-1506
▁bott	-1507
ason	-1508
▁center	-1509
▁dum	-1510
▁continue	-1511
▁need	-1512
my	-1513
▁prior	-1514
▁master	-1515
▁summary	-1516
▁move	-1517
▁prom	-1518
▁zone	-1519
▁criteria	-1520
ost	-1521
▁dynamic	-1522
▁signature	-1523
▁fore	-1524
▁fill	-1525
▁lamb	-1526
ful	-1527
▁unless	-1528
reg	-1529
da	-1530
tax	-1531
▁syntax	-1532
▁correct	-1533
▁padding	-1534
eline	-1535
ru	-1536
▁hook	-1537
▁chunk	-1538
▁dummy	-1539
▁cha	-1540
▁browser	-1541
▁exist	-1542
hing	-1543
▁site	-1544
▁agg	-1545
ank	-1546
▁reflection	-1547
▁lambda	-1548
▁router	-1549
▁twitter	-1550
▁marg	-1551
▁margin	-1552
▁exchan	-1553
▁which	-1554
▁border	-1555
▁diag	-1556
▁dump	-1557
roy	-1558
▁pipeline	-1559
▁gateway	-1560
▁destroy	-1561
▁exchange	-1562
▁compile	-1563
▁direct	-1564
▁py	-1565
▁worker	-1566
▁deplo	-1567
▁bucket	-1568
back	-1569
▁slice	-1570
▁zip	-1571
ending	-1572
og	-1573
▁mutable	-1574
▁delta	-1575
▁prob	-1576
▁bottom	-1577
irect	-1578
▁reason	-1579
▁setting	-1580
▁multiple	-1581
▁cancel	-1582
▁aggreg	-1583
▁home	-1584
▁beta	-1585
▁watch	-1586
▁delay	-1587
▁safe	-1588
▁modifier	-1589
▁history	-1590
▁patch	-1591
▁prototype	-1592
▁cloud	-1593
▁priority	-1594
▁animation	-1595
▁configure	-1596
▁edge	-1597
vio	-1598
▁invoke	-1599
▁game	-1600
view	-1601
▁retry	-1602
▁deleg	-1603
zen	-1604
idden	-1605
▁inform	-1606
▁frozen	-1607
▁stage	-1608
▁cannot	-1609
arator	-1610
thon	-1611
▁fol	-1612
▁distrib	-1613
▁python	-1614
▁force	-1615
▁pop	-1616
▁destination	-1617
▁unde	-1618
▁partial	-1619
▁cert	-1620
▁promise	-1621
▁running	-1622
▁compare	-1623
▁visible	-1624
▁assign	-1625
roll	-1626
▁volume	-1627
▁refresh	-1628
▁plan	-1629
▁imm	-1630
▁psi	-1631
▁note	-1632
ron	-1633
shot	-1634
fined	-1635
▁observ	-1636
▁netty	-1637
▁snapshot	-1638
▁emit	-1639
▁branch	-1640
▁authorization	-1641
▁undefined	-1642
▁prep	-1643
▁currency	-1644
▁bound	-1645
down	-1646
▁delegate	-1647
▁serialization	-1648
gle	-1649
▁shar	-1650
▁score	-1651
ped	-1652
▁nav	-1653
▁shift	-1654
▁heal	-1655
▁stride	-1656
▁mach	-1657
▁serialize	-1658
▁cat	-1659
▁immutable	-1660
▁navig	-1661
ized	-1662
▁lower	-1663
▁thro	-1664
▁es	-1665
▁car	-1666
▁transl	-1667
▁issue	-1668
▁bal	-1669
▁saved	-1670
ificate	-1671
▁certificate	-1672
ather	-1673
▁information	-1674
▁finish	-1675
▁machine	-1676
▁integ	-1677
▁gre	-1678
▁scroll	-1679
ling	-1680
▁sender	-1681
▁reply	-1682
▁spr	-1683
▁contents	-1684
▁defer	-1685
▁renderer	-1686
▁diction	-1687
▁dictionary	-1688
▁ill	-1689
▁dif	-1690
▁book	-1691
erial	-1692
▁redirect	-1693
pth	-1694
▁depth	-1695
mpt	-1696
▁compan	-1697
▁cla	-1698
▁packet	-1699
▁many	-1700
▁unw	-1701
▁migration	-1702
▁vir	-1703
▁forward	-1704
▁strip	-1705
met	-1706
▁material	-1707
▁sin	-1708
▁observer	-1709
▁selection	-1710
ential	-1711
racter	-1712
▁character	-1713
▁times	-1714
we	-1715
▁health	-1716
jection	-1717
▁seed	-1718
▁addition	-1719
▁illeg	-1720
▁illegal	-1721
izer	-1722
▁clock	-1723
▁late	-1724
▁fixed	-1725
vious	-1726
imum	-1727
▁detail	-1728
▁verb	-1729
▁observable	-1730
▁virt	-1731
▁interp	-1732
▁virtual	-1733
eet	-1734
▁previous	-1735
▁notify	-1736
▁win	-1737
▁inspect	-1738
cent	-1739
ived	-1740
▁illum	-1741
▁texture	-1742
▁hidden	-1743
▁illuminate	-1744
▁subscription	-1745
▁ye	-1746
▁pending	-1747
▁peer	-1748
▁dispatcher	-1749
▁constra	-1750
▁indent	-1751
▁price	-1752
ices	-1753
▁panel	-1754
▁unwrap	-1755
eme	-1756
▁scheme	-1757
▁prepare	-1758
▁cho	-1759
▁sur	-1760
▁rat	-1761
▁tick	-1762
▁digest	-1763
▁der	-1764
▁rev	-1765
▁deep	-1766
▁direction	-1767
▁disabled	-1768
▁round	-1769
▁segment	-1770
▁sep	-1771
ens	-1772
▁blue	-1773
▁month	-1774
▁audio	-1775
▁additional	-1776
▁em	-1777
itive	-1778
▁suppress	-1779
▁compute	-1780
▁room	-1781
alle	-1782
▁pick	-1783
▁redu	-1784
▁dot	-1785
▁sharp	-1786
▁year	-1787
▁beha	-1788
▁diagn	-1789
▁sig	-1790
oci	-1791
▁scen	-1792
iver	-1793
▁integration	-1794
inal	-1795
ship	-1796
allel	-1797
▁constraint	-1798
red	-1799
▁intercept	-1800
▁parallel	-1801
▁associ	-1802
▁trim	-1803
sol	-1804
▁unt	-1805
sis	-1806
▁geo	-1807
cle	-1808
▁cred	-1809
▁mail	-1810
acy	-1811
▁enc	-1812
▁blob	-1813
▁alert	-1814
▁warn	-1815
▁bus	-1816
▁area	-1817
▁sle	-1818
▁pod	-1819
▁poss	-1820
▁cir	-1821
▁subscribe	-1822
ze	-1823
ily	-1824
▁perform	-1825
uch	-1826
ca	-1827
▁checker	-1828
board	-1829
▁capt	-1830
aded	-1831
ess	-1832
▁axis	-1833
▁chat	-1834
▁payment	-1835
▁bra	-1836
▁diagnost	-1837
▁ens	-1838
▁comb	-1839
▁compose	-1840
▁confir	-1841
ention	-1842
▁sleep	-1843
▁linear	-1844
▁visit	-1845
och	-1846
▁extend	-1847
▁distance	-1848
▁assets	-1849
▁percent	-1850
ape	-1851
▁hex	-1852
ither	-1853
▁transfer	-1854
▁suf	-1855
ween	-1856
▁between	-1857
▁transformer	-1858
▁been	-1859
▁dao	-1860
▁mag	-1861
▁lint	-1862
isher	-1863
▁ensure	-1864
unch	-1865
▁manif	-1866
▁mean	-1867
ead	-1868
lback	-1869
icate	-1870
▁publisher	-1871
▁wal	-1872
▁slot	-1873
emb	-1874
▁encry	-1875
▁manifest	-1876
▁suffix	-1877
▁track	-1878
▁fat	-1879
▁epoch	-1880
▁team	-1881
▁rot	-1882
▁received	-1883
▁sink	-1884
▁peri	-1885
▁tile	-1886
▁tool	-1887
agger	-1888
▁period	-1889
uth	-1890
▁signal	-1891
▁artif	-1892
▁artifact	-1893
▁latest	-1894
▁possible	-1895
▁sheet	-1896
▁iterable	-1897
▁fast	-1898
ph	-1899
▁there	-1900
edule	-1901
orted	-1902
▁scalar	-1903
ek	-1904
▁light	-1905
▁cam	-1906
strap	-1907
▁bootstrap	-1908
▁ready	-1909
▁pull	-1910
▁launch	-1911
▁shell	-1912
▁assertion	-1913
▁here	-1914
▁age	-1915
ural	-1916
▁assemb	-1917
acity	-1918
▁eval	-1919
▁country	-1920
▁article	-1921
▁evalu	-1922
▁weather	-1923
ium	-1924
gan	-1925
▁absol	-1926
ready	-1927
▁either	-1928
▁blank	-1929
▁program	-1930
▁colors	-1931
▁feed	-1932
▁already	-1933
▁fixer	-1934
ulate	-1935
▁licensed	-1936
▁pupp	-1937
riber	-1938
mitive	-1939
▁just	-1940
▁primitive	-1941
ied	-1942
▁follow	-1943
▁visibility	-1944
▁puppet	-1945
▁dup	-1946
▁absolute	-1947
verage	-1948
▁schedule	-1949
▁callable	-1950
▁spring	-1951
▁union	-1952
▁loaded	-1953
▁pipe	-1954
▁leg	-1955
▁reverse	-1956
▁thri	-1957
▁monitor	-1958
▁neg	-1959
▁ta	-1960
▁live	-1961
▁expand	-1962
ided	-1963
▁decor	-1964
▁solution	-1965
▁mar	-1966
▁specs	-1967
▁flu	-1968
ability	-1969
▁conver	-1970
▁visitor	-1971
▁fatal	-1972
▁writ	-1973
▁separator	-1974
scape	-1975
▁am	-1976
▁receiver	-1977
be	-1978
▁producer	-1979
▁invocation	-1980
▁alg	-1981
▁side	-1982
▁subscriber	-1983
▁loading	-1984
▁canv	-1985
vior	-1986
▁algor	-1987
▁thresh	-1988
▁behavior	-1989
▁canvas	-1990
▁incre	-1991
▁thrift	-1992
▁complex	-1993
▁lat	-1994
▁allo	-1995
▁place	-1996
ugh	-1997
▁until	-1998
ithm	-1999
ies	-2000
▁aggregate	-2001
rant	-2002
▁persistence	-2003
▁closed	-2004
tain	-2005
▁navigation	-2006
▁statist	-2007
cast	-2008
▁provided	-2009
▁algorithm	-2010
▁shut	-2011
▁obtain	-2012
▁fam	-2013
ten	-2014
▁deployment	-2015
▁pur	-2016
▁take	-2017
▁analysis	-2018
▁ri	-2019
▁enumerable	-2020
▁confirm	-2021
▁sorted	-2022
▁radi	-2023
▁pred	-2024
▁flush	-2025
▁publish	-2026
▁repe	-2027
▁days	-2028
▁mouse	-2029
▁vertex	-2030
▁enter	-2031
▁since	-2032
▁ai	-2033
▁touch	-2034
▁implement	-2035
letion	-2036
▁predicate	-2037
▁phone	-2038
▁organ	-2039
▁family	-2040
▁upper	-2041
ipher	-2042
▁cause	-2043
▁indices	-2044
▁keep	-2045
▁fit	-2046
▁singleton	-2047
agle	-2048
▁struct	-2049
▁coll	-2050
▁differ	-2051
▁qual	-2052
▁tog	-2053
▁samp	-2054
▁linked	-2055
▁foc	-2056
▁escape	-2057
▁chart	-2058
ipe	-2059
bit	-2060
▁calend	-2061
▁disco	-2062
▁calendar	-2063
▁connector	-2064
▁series	-2065
▁hor	-2066
▁speed	-2067
▁unex	-2068
▁criterion	-2069
▁predi	-2070
▁unsupp	-2071
▁based	-2072
▁dimension	-2073
▁manage	-2074
▁unsupported	-2075
▁every	-2076
▁unp	-2077
▁less	-2078
▁disc	-2079
▁its	-2080
▁dash	-2081
▁checked	-2082
chron	-2083
▁low	-2084
▁added	-2085
▁capture	-2086
ream	-2087
▁small	-2088
▁compli	-2089
pping	-2090
▁structure	-2091
▁broker	-2092
pected	-2093
▁cipher	-2094
▁exact	-2095
▁focus	-2096
▁reser	-2097
▁unexpected	-2098
▁special	-2099
▁threshold	-2100
▁tables	-2101
▁radius	-2102
▁derive	-2103
rine	-2104
▁hide	-2105
▁macro	-2106
▁variant	-2107
▁pay	-2108
peri	-2109
▁experi	-2110
▁hint	-2111
▁mount	-2112
▁mime	-2113
▁balance	-2114
▁plain	-2115
▁bul	-2116
▁factor	-2117
▁flash	-2118
▁infl	-2119
▁verbose	-2120
▁somet	-2121
▁disk	-2122
ous	-2123
▁poly	-2124
osure	-2125
▁doct	-2126
▁prompt	-2127
stream	-2128
asure	-2129
▁compliance	-2130
▁stro	-2131
era	-2132
▁organization	-2133
▁stroke	-2134
▁archive	-2135
▁normalize	-2136
umb	-2137
▁slug	-2138
uff	-2139
▁power	-2140
▁shutdown	-2141
▁terminal	-2142
ational	-2143
▁assembly	-2144
▁wire	-2145
▁blocking	-2146
▁heap	-2147
▁logical	-2148
▁sus	-2149
used	-2150
▁compress	-2151
▁unlo	-2152
▁recur	-2153
▁acc	-2154
▁hi	-2155
bon	-2156
▁shad	-2157
▁foreign	-2158
▁links	-2159
so	-2160
▁synchron	-2161
line	-2162
▁measure	-2163
▁est	-2164
▁tracker	-2165
▁doctrine	-2166
▁fold	-2167
▁cleanup	-2168
▁contact	-2169
▁too	-2170
▁creator	-2171
▁tempor	-2172
▁preview	-2173
▁max	-2174
▁something	-2175
▁translation	-2176
▁susp	-2177
▁different	-2178
▁respond	-2179
▁marker	-2180
lier	-2181
▁modify	-2182
▁experiment	-2183
ness	-2184
▁compo	-2185
▁collector	-2186
▁increment	-2187
▁commons	-2188
ross	-2189
▁toggle	-2190
▁backup	-2191
▁tail	-2192
ellation	-2193
aration	-2194
▁shadow	-2195
▁instant	-2196
▁reporter	-2197
▁reduce	-2198
▁notice	-2199
▁mono	-2200
▁moment	-2201
▁training	-2202
▁flex	-2203
▁ratio	-2204
▁could	-2205
▁alloc	-2206
▁completion	-2207
▁fallback	-2208
▁horiz	-2209
other	-2210
▁calcite	-2211
▁streaming	-2212
rupt	-2213
▁please	-2214
▁quest	-2215
▁distribution	-2216
▁successful	-2217
▁iso	-2218
▁poll	-2219
▁adv	-2220
▁unity	-2221
▁anch	-2222
▁companion	-2223
▁trade	-2224
▁analyt	-2225
▁ga	-2226
▁asp	-2227
▁nothing	-2228
▁quote	-2229
▁specific	-2230
▁compar	-2231
▁translate	-2232
▁negative	-2233
▁capacity	-2234
▁distribut	-2235
▁instead	-2236
▁stud	-2237
▁rad	-2238
▁cost	-2239
▁cy	-2240
▁magic	-2241
led	-2242
rint	-2243
▁unused	-2244
▁white	-2245
▁anchor	-2246
▁sound	-2247
fa	-2248
ified	-2249
ee	-2250
▁carbon	-2251
ma	-2252
▁matching	-2253
▁analytics	-2254
▁interceptor	-2255
▁alway	-2256
▁creation	-2257
▁about	-2258
▁injection	-2259
▁inflater	-2260
▁greater	-2261
cing	-2262
▁another	-2263
▁always	-2264
▁specification	-2265
▁camera	-2266
▁registration	-2267
▁exclude	-2268
▁reco	-2269
arse	-2270
▁hour	-2271
▁maximum	-2272
▁also	-2273
▁green	-2274
▁spa	-2275
▁vertical	-2276
ely	-2277
▁dispos	-2278
▁declaration	-2279
▁plural	-2280
▁tester	-2281
▁attachment	-2282
swer	-2283
▁removed	-2284
▁eas	-2285
▁pin	-2286
▁compos	-2287
▁preference	-2288
▁secure	-2289
▁stripe	-2290
▁circ	-2291
▁answer	-2292
▁mob	-2293
▁paint	-2294
▁mir	-2295
zer	-2296
ontal	-2297
ended	-2298
▁canc	-2299
▁horizontal	-2300
▁visual	-2301
▁hub	-2302
load	-2303
▁share	-2304
▁repeat	-2305
▁distributed	-2306
▁surface	-2307
▁mesh	-2308
▁sun	-2309
▁cancellation	-2310
▁black	-2311
ether	-2312
▁reactive	-2313
▁und	-2314
olation	-2315
▁des	-2316
▁ut	-2317
omet	-2318
▁foundation	-2319
▁don	-2320
bra	-2321
▁registered	-2322
▁alt	-2323
▁plot	-2324
▁choice	-2325
wr	-2326
▁twig	-2327
▁sofa	-2328
▁clip	-2329
print	-2330
▁implementation	-2331
▁functional	-2332
light	-2333
rument	-2334
▁instrument	-2335
▁maybe	-2336
▁tap	-2337
▁unlock	-2338
▁fri	-2339
aled	-2340
▁best	-2341
▁mut	-2342
▁cross	-2343
▁returned	-2344
▁prec	-2345
▁conversion	-2346
come	-2347
▁bias	-2348
▁rank	-2349
▁through	-2350
▁positive	-2351
▁dense	-2352
▁estim	-2353
▁wrong	-2354
▁suspend	-2355
ged	-2356
▁bulk	-2357
▁verification	-2358
▁city	-2359
ario	-2360
ie	-2361
▁extern	-2362
▁analyzer	-2363
▁week	-2364
▁closure	-2365
arge	-2366
▁mix	-2367
▁indexed	-2368
go	-2369
ilation	-2370
▁routing	-2371
▁regular	-2372
▁swagger	-2373
bound	-2374
▁provide	-2375
▁fee	-2376
▁smart	-2377
▁drag	-2378
▁discovery	-2379
▁sparse	-2380
▁dispose	-2381
▁submit	-2382
▁sim	-2383
ric	-2384
▁connected	-2385
▁general	-2386
▁resolved	-2387
▁sealed	-2388
▁para	-2389
▁rol	-2390
▁wrapped	-2391
▁audit	-2392
▁getter	-2393
▁alignment	-2394
▁large	-2395
▁resc	-2396
reter	-2397
▁interpreter	-2398
▁sil	-2399
tle	-2400
▁squ	-2401
lem	-2402
arm	-2403
▁friend	-2404
▁via	-2405
ison	-2406
▁arrow	-2407
ula	-2408
▁both	-2409
▁deploy	-2410
▁face	-2411
▁statistics	-2412
▁finally	-2413
▁pag	-2414
itude	-2415
▁vend	-2416
wise	-2417
▁resize	-2418
▁lit	-2419
▁ba	-2420
▁ce	-2421
ving	-2422
gra	-2423
▁san	-2424
▁nam	-2425
uit	-2426
erry	-2427
▁claim	-2428
▁plus	-2429
▁vendor	-2430
▁spawn	-2431
▁lear	-2432
▁guard	-2433
▁legacy	-2434
▁listen	-2435
▁pret	-2436
▁gem	-2437
▁rescue	-2438
▁ordered	-2439
sive	-2440
▁broad	-2441
▁aa	-2442
▁upstream	-2443
▁reactor	-2444
▁geomet	-2445
▁pact	-2446
rie	-2447
▁association	-2448
grade	-2449
▁unpack	-2450
ulator	-2451
▁documentation	-2452
▁finished	-2453
▁depre	-2454
▁three	-2455
write	-2456
▁ace	-2457
uge	-2458
▁ha	-2459
▁cra	-2460
▁truth	-2461
vers	-2462
▁explicit	-2463
▁good	-2464
▁scene	-2465
▁interrupt	-2466
▁mu	-2467
▁precision	-2468
▁angle	-2469
▁following	-2470
▁within	-2471
▁credit	-2472
licate	-2473
▁known	-2474
ience	-2475
▁stret	-2476
▁company	-2477
▁directive	-2478
▁stretch	-2479
▁comparison	-2480
icator	-2481
otion	-2482
▁alb	-2483
▁generation	-2484
▁such	-2485
▁predict	-2486
▁minimum	-2487
box	-2488
▁sem	-2489
▁diagnostics	-2490
inc	-2491
▁broadcast	-2492
▁arc	-2493
astic	-2494
▁phase	-2495
nect	-2496
▁scenario	-2497
book	-2498
▁evaluate	-2499
▁quant	-2500
▁asci	-2501
▁compat	-2502
▁sug	-2503
alf	-2504
nable	-2505
▁er	-2506
▁highlight	-2507
▁kit	-2508
▁management	-2509
▁dead	-2510
▁ascii	-2511
ys	-2512
▁activation	-2513
▁idle	-2514
▁thumb	-2515
▁setter	-2516
▁disposable	-2517
▁hy	-2518
▁outer	-2519
▁phys	-2520
clus	-2521
▁tracing	-2522
▁reserved	-2523
▁finder	-2524
▁question	-2525
▁mobile	-2526
▁sampler	-2527
▁restore	-2528
▁markdown	-2529
ble	-2530
▁problem	-2531
▁modal	-2532
▁shader	-2533
▁restart	-2534
▁equ	-2535
ony	-2536
▁compilation	-2537
▁maj	-2538
▁dashboard	-2539
▁bash	-2540
▁never	-2541
▁floor	-2542
▁cand	-2543
▁credential	-2544
▁major	-2545
▁animator	-2546
▁extractor	-2547
▁reload	-2548
▁retrie	-2549
▁formula	-2550
▁devel	-2551
▁composer	-2552
zz	-2553
▁dam	-2554
lated	-2555
▁what	-2556
▁vo	-2557
▁easy	-2558
incip	-2559
▁princip	-2560
▁upgrade	-2561
▁composite	-2562
▁review	-2563
▁orient	-2564
▁recipe	-2565
▁unset	-2566
▁album	-2567
resent	-2568
▁arn	-2569
▁unre	-2570
▁principal	-2571
▁represent	-2572
▁jerry	-2573
▁subt	-2574
▁damage	-2575
▁curr	-2576
▁mic	-2577
▁unable	-2578
▁arbit	-2579
min	-2580
▁extended	-2581
▁encryption	-2582
▁geometry	-2583
▁sever	-2584
▁altern	-2585
▁gl	-2586
▁offense	-2587
▁starting	-2588
▁fire	-2589
▁specify	-2590
▁least	-2591
ced	-2592
▁diagnostic	-2593
day	-2594
▁bug	-2595
▁elastic	-2596
▁bold	-2597
▁did	-2598
ridge	-2599
▁supplier	-2600
▁inside	-2601
ruction	-2602
▁duplicate	-2603
▁deprecation	-2604
emon	-2605
comp	-2606
inct	-2607
cade	-2608
▁persistent	-2609
▁phot	-2610
ird	-2611
▁emb	-2612
▁infin	-2613
▁bel	-2614
▁encrypt	-2615
▁square	-2616
▁reject	-2617
▁restri	-2618
▁compression	-2619
▁foot	-2620
ism	-2621
▁pager	-2622
▁spy	-2623
▁overlay	-2624
▁clause	-2625
▁micro	-2626
▁again	-2627
▁dark	-2628
▁lea	-2629
▁lite	-2630
▁thing	-2631
med	-2632
▁wallet	-2633
▁executable	-2634
▁backward	-2635
▁gradient	-2636
▁gue	-2637
▁sure	-2638
▁rename	-2639
▁pagination	-2640
cause	-2641
▁because	-2642
▁faker	-2643
▁meter	-2644
▁arm	-2645
▁whether	-2646
▁resume	-2647
▁embed	-2648
▁revision	-2649
▁minute	-2650
▁average	-2651
rate	-2652
▁corp	-2653
▁emitter	-2654
▁pure	-2655
▁locator	-2656
▁marsh	-2657
▁aspect	-2658
▁retention	-2659
▁eu	-2660
▁marshal	-2661
▁hood	-2662
▁indicator	-2663
▁jar	-2664
▁readable	-2665
▁cover	-2666
▁unch	-2667
▁comparator	-2668
▁snif	-2669
▁ben	-2670
▁zo	-2671
▁una	-2672
▁skin	-2673
▁flatten	-2674
omat	-2675
▁naming	-2676
medi	-2677
▁related	-2678
ulation	-2679
▁these	-2680
▁photo	-2681
▁freeze	-2682
▁watcher	-2683
▁manual	-2684
▁circuit	-2685
▁wo	-2686
▁expan	-2687
▁brand	-2688
▁spat	-2689
istic	-2690
▁seek	-2691
inel	-2692
▁keyboard	-2693
▁sizes	-2694
▁atte	-2695
▁solid	-2696
▁spatial	-2697
▁curl	-2698
▁recursive	-2699
▁ban	-2700
▁lead	-2701
▁translator	-2702
▁cycle	-2703
▁hoodie	-2704
▁daemon	-2705
ivery	-2706
▁apple	-2707
▁calculate	-2708
▁sentinel	-2709
▁tar	-2710
▁vag	-2711
▁logic	-2712
▁bag	-2713
full	-2714
▁medium	-2715
▁vagrant	-2716
fully	-2717
▁included	-2718
▁commun	-2719
▁nonce	-2720
▁exactly	-2721
▁runnable	-2722
▁orientation	-2723
▁resolution	-2724
▁jet	-2725
▁scanner	-2726
▁ping	-2727
▁delivery	-2728
▁automat	-2729
▁picker	-2730
oney	-2731
angle	-2732
ime	-2733
▁thrown	-2734
▁tech	-2735
▁conditional	-2736
▁pretty	-2737
▁assignment	-2738
iform	-2739
▁presenter	-2740
▁inspector	-2741
▁compact	-2742
ins	-2743
▁authorize	-2744
▁fre	-2745
▁them	-2746
▁tenant	-2747
▁sock	-2748
▁br	-2749
▁beagle	-2750
ically	-2751
▁advance	-2752
▁national	-2753
▁bridge	-2754
▁appro	-2755
▁hit	-2756
▁buttons	-2757
▁delim	-2758
▁coverage	-2759
▁experimental	-2760
ogram	-2761
▁most	-2762
connect	-2763
▁datum	-2764
▁correctly	-2765
▁distinct	-2766
▁swap	-2767
▁che	-2768
▁delimiter	-2769
▁star	-2770
▁authority	-2771
▁rotation	-2772
▁radio	-2773
▁printer	-2774
▁arbitrary	-2775
iny	-2776
olog	-2777
gest	-2778
▁yes	-2779
▁uniform	-2780
active	-2781
▁binder	-2782
▁perm	-2783
▁toast	-2784
▁bill	-2785
▁expectation	-2786
ror	-2787
▁panic	-2788
▁testify	-2789
▁detect	-2790
▁aes	-2791
ll	-2792
ern	-2793
▁mirror	-2794
▁money	-2795
▁hum	-2796
▁balan	-2797
▁estimator	-2798
thing	-2799
▁optim	-2800
aller	-2801
▁attempt	-2802
▁prefer	-2803
▁allocator	-2804
ipping	-2805
▁decorator	-2806
▁disconnect	-2807
▁rating	-2808
▁nan	-2809
▁folly	-2810
▁combine	-2811
▁gauge	-2812
▁consume	-2813
▁guild	-2814
▁sal	-2815
▁works	-2816
▁gray	-2817
▁hive	-2818
▁kn	-2819
▁injector	-2820
▁kill	-2821
▁histogram	-2822
▁board	-2823
▁crop	-2824
▁shard	-2825
▁synchronized	-2826
▁writable	-2827
▁trail	-2828
idate	-2829
▁cataly	-2830
▁reward	-2831
▁projection	-2832
▁ann	-2833
▁evaluation	-2834
▁they	-2835
▁catalyst	-2836
▁probe	-2837
ender	-2838
▁fluent	-2839
▁press	-2840
▁severity	-2841
▁partic	-2842
▁sto	-2843
▁temporary	-2844
▁otherwise	-2845
class	-2846
▁very	-2847
▁circle	-2848
▁flux	-2849
▁mailer	-2850
▁latch	-2851
▁elf	-2852
▁relationship	-2853
▁coin	-2854
▁turn	-2855
ensitive	-2856
▁friendly	-2857
▁classifier	-2858
▁curve	-2859
▁uncheck	-2860
▁working	-2861
▁successfully	-2862
▁footer	-2863
▁invent	-2864
▁learning	-2865
▁operand	-2866
▁digit	-2867
▁associated	-2868
▁needs	-2869
▁chip	-2870
▁aware	-2871
▁inventory	-2872
▁handsh	-2873
▁trust	-2874
▁pict	-2875
▁candidate	-2876
▁cour	-2877
▁effects	-2878
▁quick	-2879
▁leaf	-2880
▁abort	-2881
▁ring	-2882
▁deferred	-2883
▁infra	-2884
▁unchecked	-2885
▁replic	-2886
▁purch	-2887
▁blueprint	-2888
flow	-2889
vor	-2890
▁mutation	-2891
▁markup	-2892
▁instruction	-2893
▁weak	-2894
▁purchase	-2895
▁representation	-2896
▁bank	-2897
▁detector	-2898
▁interaction	-2899
▁retrieve	-2900
uf	-2901
ology	-2902
▁priv	-2903
▁how	-2904
ipp	-2905
▁pause	-2906
▁walk	-2907
▁ability	-2908
▁performance	-2909
▁letter	-2910
▁particle	-2911
▁cry	-2912
▁hard	-2913
▁authorized	-2914
▁accepted	-2915
▁contrib	-2916
ffic	-2917
▁market	-2918
▁deter	-2919
▁trial	-2920
▁finagle	-2921
▁physical	-2922
▁limiter	-2923
▁picture	-2924
lying	-2925
▁minor	-2926
▁utility	-2927
▁soft	-2928
▁lif	-2929
uffle	-2930
▁slow	-2931
▁chro	-2932
ivate	-2933
▁balancer	-2934
▁chainer	-2935
▁built	-2936
ral	-2937
▁tracer	-2938
▁expl	-2939
▁cart	-2940
▁motion	-2941
▁even	-2942
ara	-2943
▁secondary	-2944
▁pac	-2945
▁ing	-2946
▁way	-2947
▁caller	-2948
ught	-2949
rator	-2950
▁declared	-2951
▁leader	-2952
▁bench	-2953
▁quantity	-2954
ropy	-2955
▁elect	-2956
mar	-2957
▁logged	-2958
lict	-2959
▁locked	-2960
▁grant	-2961
▁trun	-2962
▁dropout	-2963
▁recon	-2964
▁fu	-2965
unded	-2966
▁feat	-2967
ho	-2968
graph	-2969
▁realm	-2970
▁inher	-2971
▁entropy	-2972
▁underlying	-2973
▁aff	-2974
▁boundary	-2975
mous	-2976
▁adj	-2977
uation	-2978
▁smo	-2979
▁slack	-2980
▁leading	-2981
▁overflow	-2982
▁human	-2983
▁bla	-2984
▁slider	-2985
▁inherit	-2986
uc	-2987
▁sessions	-2988
▁dur	-2989
lode	-2990
▁midd	-2991
▁fork	-2992
▁volat	-2993
▁third	-2994
chant	-2995
▁dagger	-2996
▁hot	-2997
▁nat	-2998
▁undert	-2999
▁sentence	-3000
▁conflict	-3001
utor	-3002
▁undertow	-3003
▁tele	-3004
▁buff	-3005
▁ae	-3006
▁semant	-3007
▁cake	-3008
▁offer	-3009
▁volatile	-3010
▁cobra	-3011
▁accessibility	-3012
ople	-3013
▁news	-3014
▁profiler	-3015
▁people	-3016
▁az	-3017
▁regression	-3018
▁proph	-3019
▁anony	-3020
▁handshake	-3021
▁ari	-3022
▁excel	-3023
▁leave	-3024
▁violation	-3025
pection	-3026
▁verifier	-3027
▁alive	-3028
zzle	-3029
▁expire	-3030
▁propos	-3031
▁iteration	-3032
ceed	-3033
▁infinity	-3034
uous	-3035
oper	-3036
▁fr	-3037
▁anonymous	-3038
▁proper	-3039
▁rack	-3040
▁scr	-3041
▁boost	-3042
▁expir	-3043
▁sta	-3044
▁our	-3045
▁frequ	-3046
▁shuffle	-3047
▁mid	-3048
vie	-3049
▁movie	-3050
ograph	-3051
▁nu	-3052
▁pot	-3053
ating	-3054
ecy	-3055
▁rotate	-3056
▁prophecy	-3057
▁issu	-3058
▁production	-3059
▁enumerate	-3060
▁spin	-3061
▁detach	-3062
▁aria	-3063
ove	-3064
▁look	-3065
clusive	-3066
iness	-3067
▁fig	-3068
▁cask	-3069
▁percentage	-3070
▁trunc	-3071
▁azure	-3072
▁above	-3073
▁recorder	-3074
▁normalizer	-3075
ippet	-3076
▁snippet	-3077
▁den	-3078
▁lens	-3079
▁quality	-3080
▁half	-3081
ired	-3082
ivity	-3083
▁minus	-3084
▁gink	-3085
▁ginkgo	-3086
▁sand	-3087
▁executed	-3088
▁instrumentation	-3089
struct	-3090
▁paragraph	-3091
▁inserter	-3092
▁suggest	-3093
▁express	-3094
▁cut	-3095
▁bor	-3096
▁aggregation	-3097
▁band	-3098
▁party	-3099
▁noise	-3100
▁acquire	-3101
mber	-3102
mediate	-3103
▁strong	-3104
▁cas	-3105
▁qualified	-3106
▁skill	-3107
▁crypt	-3108
▁proposal	-3109
▁serve	-3110
▁ticker	-3111
rete	-3112
▁diagram	-3113
▁notifier	-3114
▁tear	-3115
▁ask	-3116
▁inflate	-3117
▁biz	-3118
▁love	-3119
member	-3120
▁za	-3121
xus	-3122
▁nexus	-3123
▁cult	-3124
▁mixed	-3125
rect	-3126
▁camp	-3127
▁crit	-3128
▁sat	-3129
▁accessible	-3130
eting	-3131
▁pet	-3132
▁remember	-3133
▁pie	-3134
▁trip	-3135
▁restrict	-3136
▁permit	-3137
▁recip	-3138
▁hover	-3139
▁written	-3140
▁tun	-3141
▁yel	-3142
▁being	-3143
▁authenticator	-3144
▁dumper	-3145
▁risk	-3146
▁classification	-3147
oker	-3148
▁dia	-3149
▁incor	-3150
▁middle	-3151
▁culture	-3152
▁design	-3153
▁temporal	-3154
loy	-3155
▁frequency	-3156
▁trainer	-3157
▁unary	-3158
▁recording	-3159
▁cos	-3160
▁bat	-3161
rier	-3162
▁invoker	-3163
▁sequential	-3164
▁od	-3165
▁rich	-3166
▁tiny	-3167
▁expiration	-3168
▁soap	-3169
▁choose	-3170
▁brains	-3171
▁front	-3172
▁confirmation	-3173
▁alter	-3174
▁observe	-3175
▁incorrect	-3176
▁subst	-3177
▁wide	-3178
▁interpol	-3179
▁pres	-3180
▁yellow	-3181
▁pref	-3182
▁expose	-3183
▁prepared	-3184
▁employ	-3185
▁during	-3186
▁dialect	-3187
▁accur	-3188
▁transient	-3189
uce	-3190
▁journ	-3191
eper	-3192
▁infer	-3193
emy	-3194
▁invoice	-3195
inger	-3196
▁past	-3197
▁recipient	-3198
▁merchant	-3199
ensor	-3200
olution	-3201
▁unm	-3202
▁compatible	-3203
▁authenticate	-3204
▁rollback	-3205
▁recent	-3206
▁led	-3207
▁overwrite	-3208
▁ey	-3209
▁issuer	-3210
ement	-3211
▁curator	-3212
▁interrupted	-3213
▁rob	-3214
▁employee	-3215
nail	-3216
▁thumbnail	-3217
sp	-3218
▁pane	-3219
▁tint	-3220
ga	-3221
▁guest	-3222
▁develop	-3223
▁fetcher	-3224
▁shop	-3225
▁ticket	-3226
get	-3227
▁ste	-3228
▁waiting	-3229
▁produce	-3230
▁detection	-3231
▁prel	-3232
structure	-3233
▁vim	-3234
▁feedback	-3235
▁pow	-3236
▁prote	-3237
▁prediction	-3238
▁handling	-3239
ted	-3240
▁canon	-3241
head	-3242
▁appli	-3243
versal	-3244
▁traverse	-3245
▁ak	-3246
irty	-3247
▁reve	-3248
▁ur	-3249
▁ze	-3250
▁heart	-3251
▁unl	-3252
▁submission	-3253
▁hier	-3254
▁sniff	-3255
▁ea	-3256
▁palet	-3257
▁swift	-3258
▁palette	-3259
▁infrastructure	-3260
▁transformation	-3261
▁prelude	-3262
▁allocate	-3263
▁activate	-3264
▁gold	-3265
▁hierarch	-3266
▁ray	-3267
sel	-3268
▁transpa	-3269
▁calling	-3270
▁cascade	-3271
▁propag	-3272
▁cub	-3273
▁rendering	-3274
▁noop	-3275
▁enumerator	-3276
▁presence	-3277
▁colo	-3278
▁applied	-3279
▁protection	-3280
▁inbound	-3281
▁viewer	-3282
ident	-3283
▁swipe	-3284
▁teleg	-3285
▁bob	-3286
▁tax	-3287
▁drawing	-3288
▁telegram	-3289
▁inverse	-3290
▁journal	-3291
acing	-3292
▁spacing	-3293
▁billing	-3294
ane	-3295
vis	-3296
▁fraction	-3297
▁tagged	-3298
uck	-3299
▁course	-3300
▁smack	-3301
▁reveal	-3302
mer	-3303
▁expanded	-3304
▁today	-3305
etic	-3306
▁timber	-3307
iable	-3308
▁semantic	-3309
▁dirty	-3310
▁potential	-3311
▁ie	-3312
▁difference	-3313
▁outcome	-3314
▁sess	-3315
▁inflect	-3316
▁ide	-3317
▁ve	-3318
▁ingress	-3319
▁assume	-3320
▁canonical	-3321
ilar	-3322
▁below	-3323
▁sampling	-3324
▁rectangle	-3325
▁rab	-3326
▁trailing	-3327
oming	-3328
▁dog	-3329
▁ago	-3330
▁accuracy	-3331
▁blocked	-3332
▁latency	-3333
cial	-3334
oy	-3335
hape	-3336
▁studio	-3337
▁reshape	-3338
▁slave	-3339
▁timing	-3340
▁grain	-3341
quent	-3342
▁similar	-3343
▁drawer	-3344
▁foreground	-3345
▁polyg	-3346
ually	-3347
▁alternate	-3348
▁migrate	-3349
▁voice	-3350
mine	-3351
▁pix	-3352
▁fully	-3353
▁zoom	-3354
▁yet	-3355
▁well	-3356
unce	-3357
ancy	-3358
▁forecast	-3359
▁around	-3360
▁consist	-3361
▁later	-3362
erg	-3363
▁street	-3364
▁preferred	-3365
▁currently	-3366
aker	-3367
▁rabbit	-3368
▁gam	-3369
▁rewrite	-3370
▁mus	-3371
▁attached	-3372
▁would	-3373
▁requirement	-3374
vey	-3375
▁desired	-3376
orph	-3377
▁replacement	-3378
▁decay	-3379
▁teard	-3380
▁intro	-3381
▁teardown	-3382
▁care	-3383
▁flip	-3384
▁sandbox	-3385
▁their	-3386
▁dry	-3387
▁launcher	-3388
oc	-3389
▁particip	-3390
▁ord	-3391
▁comma	-3392
▁simp	-3393
▁mism	-3394
▁mismatch	-3395
▁mining	-3396
▁vertices	-3397
uffer	-3398
▁ownership	-3399
▁stere	-3400
▁corner	-3401
▁assigned	-3402
ging	-3403
▁ang	-3404
ensity	-3405
erce	-3406
▁drive	-3407
▁pun	-3408
▁sph	-3409
▁rocket	-3410
▁opening	-3411
▁finger	-3412
▁seen	-3413
athon	-3414
▁reading	-3415
▁marathon	-3416
▁traffic	-3417
▁slash	-3418
▁contributor	-3419
▁atl	-3420
▁opacity	-3421
▁four	-3422
▁alarm	-3423
▁fade	-3424
▁ball	-3425
▁pic	-3426
enge	-3427
▁development	-3428
▁ko	-3429
▁stuffer	-3430
▁veh	-3431
▁vehicle	-3432
▁sprite	-3433
▁replication	-3434
▁gif	-3435
▁building	-3436
▁participant	-3437
▁heading	-3438
▁creative	-3439
▁statistic	-3440
▁chall	-3441
▁stopped	-3442
▁maint	-3443
▁spir	-3444
▁hierarchy	-3445
▁elm	-3446
▁pickle	-3447
▁music	-3448
▁say	-3449
▁brace	-3450
▁wall	-3451
▁favor	-3452
▁ear	-3453
▁shipping	-3454
▁adjust	-3455
▁slide	-3456
▁badge	-3457
▁ant	-3458
▁capability	-3459
▁challenge	-3460
▁monad	-3461
▁raised	-3462
▁dan	-3463
▁stable	-3464
▁lift	-3465
▁ground	-3466
▁caster	-3467
▁finite	-3468
▁prun	-3469
▁unauth	-3470
▁stick	-3471
▁equality	-3472
▁forb	-3473
▁anything	-3474
▁subclass	-3475
▁whe	-3476
▁polygon	-3477
▁tur	-3478
▁conference	-3479
▁interse	-3480
esis	-3481
tter	-3482
▁incoming	-3483
vity	-3484
▁peek	-3485
▁epis	-3486
▁medi	-3487
▁purp	-3488
▁envel	-3489
▁spell	-3490
▁brush	-3491
▁paren	-3492
▁bear	-3493
▁automatically	-3494
▁breaker	-3495
▁cuc	-3496
▁cucumber	-3497
ode	-3498
▁sequel	-3499
▁ordinal	-3500
▁critical	-3501
▁know	-3502
▁salt	-3503
▁able	-3504
▁bea	-3505
▁wa	-3506
▁gravity	-3507
▁bol	-3508
▁exporter	-3509
▁advanced	-3510
allow	-3511
▁office	-3512
▁wheel	-3513
▁maker	-3514
▁artist	-3515
▁converted	-3516
ival	-3517
▁applic	-3518
▁exponent	-3519
ome	-3520
▁urn	-3521
▁bon	-3522
▁gamma	-3523
▁convolution	-3524
▁envelope	-3525
oth	-3526
▁consider	-3527
side	-3528
cond	-3529
▁ply	-3530
alm	-3531
▁episode	-3532
▁sensitive	-3533
orth	-3534
emaph	-3535
ensus	-3536
▁semaph	-3537
▁semaphore	-3538
▁guzzle	-3539
za	-3540
▁compatibility	-3541
▁east	-3542
▁correction	-3543
rena	-3544
itect	-3545
▁architect	-3546
▁cool	-3547
▁craw	-3548
▁replay	-3549
▁internals	-3550
▁signer	-3551
▁stamp	-3552
▁banner	-3553
for	-3554
▁intern	-3555
▁subset	-3556
▁still	-3557
▁bounding	-3558
▁quot	-3559
▁attack	-3560
▁quart	-3561
▁til	-3562
▁truncate	-3563
▁throt	-3564
▁combined	-3565
▁axes	-3566
▁twist	-3567
▁oct	-3568
▁quit	-3569
arable	-3570
▁stateful	-3571
▁punct	-3572
▁singular	-3573
aign	-3574
beat	-3575
▁campaign	-3576
▁portal	-3577
self	-3578
▁aggregator	-3579
▁plane	-3580
▁synth	-3581
▁solver	-3582
arate	-3583
▁succeed	-3584
▁optimize	-3585
▁topology	-3586
acle	-3587
▁heartbeat	-3588
▁refund	-3589
▁otter	-3590
▁decomp	-3591
▁analyze	-3592
▁nick	-3593
▁quad	-3594
▁equip	-3595
▁architecture	-3596
▁consensus	-3597
tuce	-3598
▁lettuce	-3599
lev	-3600
▁prime	-3601
▁relic	-3602
▁finalize	-3603
▁accum	-3604
▁scratch	-3605
miss	-3606
▁phra	-3607
▁developer	-3608
▁qui	-3609
▁ship	-3610
▁latitude	-3611
▁compressed	-3612
▁six	-3613
▁ya	-3614
▁convers	-3615
▁ceil	-3616
ka	-3617
▁caught	-3618
▁bonus	-3619
▁decoration	-3620
▁mill	-3621
▁quiet	-3622
▁chrome	-3623
▁buy	-3624
▁provision	-3625
▁conversation	-3626
iry	-3627
▁spiral	-3628
▁discover	-3629
▁study	-3630
▁tip	-3631
▁solidity	-3632
▁psalm	-3633
▁arena	-3634
ague	-3635
▁parcel	-3636
▁seg	-3637
▁stuff	-3638
▁decision	-3639
▁son	-3640
ough	-3641
▁fingerprint	-3642
▁outline	-3643
▁determine	-3644
▁equival	-3645
▁quartz	-3646
▁bolt	-3647
▁oracle	-3648
▁vel	-3649
▁longitude	-3650
▁charge	-3651
▁extent	-3652
▁divider	-3653
▁league	-3654
quet	-3655
▁normalization	-3656
ven	-3657
▁floating	-3658
▁gram	-3659
▁due	-3660
▁sensor	-3661
▁forbidden	-3662
▁snow	-3663
▁localization	-3664
▁deg	-3665
▁dependent	-3666
ocity	-3667
▁invalidate	-3668
▁recovery	-3669
▁fif	-3670
▁truthy	-3671
▁elo	-3672
▁anno	-3673
▁tid	-3674
▁jest	-3675
▁eloquent	-3676
▁ary	-3677
▁outbound	-3678
▁hold	-3679
ifiable	-3680
▁nar	-3681
cessary	-3682
▁die	-3683
▁parquet	-3684
▁sam	-3685
▁grow	-3686
▁avoid	-3687
▁alch	-3688
▁stock	-3689
▁blend	-3690
▁gather	-3691
▁were	-3692
▁guide	-3693
▁goal	-3694
▁substit	-3695
▁vault	-3696
▁interactive	-3697
▁au	-3698
▁velocity	-3699
▁hero	-3700
▁presentation	-3701
▁twisted	-3702
apse	-3703
▁pen	-3704
▁attention	-3705
▁rune	-3706
▁enfor	-3707
▁inspection	-3708
ipse	-3709
metry	-3710
▁supply	-3711
▁business	-3712
▁limited	-3713
▁swing	-3714
▁invite	-3715
▁membership	-3716
▁sten	-3717
apon	-3718
▁song	-3719
▁weapon	-3720
▁concrete	-3721
▁collision	-3722
sec	-3723
▁sans	-3724
▁properly	-3725
▁roi	-3726
▁installation	-3727
▁appe	-3728
▁concern	-3729
vent	-3730
▁ty	-3731
▁relay	-3732
▁undo	-3733
▁transpose	-3734
▁crash	-3735
▁alchemy	-3736
▁phrase	-3737
▁outside	-3738
▁stereotype	-3739
aque	-3740
▁facade	-3741
▁inactive	-3742
▁better	-3743
▁opaque	-3744
▁wel	-3745
▁alternative	-3746
▁favorite	-3747
▁recover	-3748
▁community	-3749
most	-3750
vail	-3751
▁gly	-3752
▁meeting	-3753
apter	-3754
▁chapter	-3755
▁convention	-3756
▁mux	-3757
▁glyph	-3758
▁comput	-3759
▁derived	-3760
▁saf	-3761
▁eager	-3762
▁nid	-3763
▁broken	-3764
▁unavail	-3765
▁sugar	-3766
▁those	-3767
▁intros	-3768
orized	-3769
▁gap	-3770
etime	-3771
▁synthetic	-3772
▁social	-3773
ppel	-3774
ppelin	-3775
▁zeppelin	-3776
▁unavailable	-3777
▁measurement	-3778
viour	-3779
▁behaviour	-3780
▁fla	-3781
▁har	-3782
▁announce	-3783
ariant	-3784
ormed	-3785
by	-3786
▁unauthorized	-3787
▁narrow	-3788
▁coco	-3789
gebra	-3790
▁algebra	-3791
▁notebook	-3792
idence	-3793
▁concurrency	-3794
▁interpolation	-3795
▁malf	-3796
▁replica	-3797
▁dock	-3798
▁terminate	-3799
▁exclusive	-3800
▁decre	-3801
▁danger	-3802
▁depart	-3803
▁privacy	-3804
▁against	-3805
▁atlas	-3806
▁unlink	-3807
▁tweet	-3808
▁malformed	-3809
▁paper	-3810
raw	-3811
▁sell	-3812
▁scaling	-3813
▁downstream	-3814
▁dial	-3815
bone	-3816
rance	-3817
▁repeated	-3818
▁om	-3819
▁dismiss	-3820
▁backbone	-3821
▁eye	-3822
▁remain	-3823
▁passing	-3824
osity	-3825
▁oc	-3826
▁mart	-3827
▁blur	-3828
▁beam	-3829
▁animated	-3830
▁caption	-3831
▁density	-3832
▁timed	-3833
minist	-3834
▁spot	-3835
▁administ	-3836
▁door	-3837
▁prevent	-3838
▁inference	-3839
▁mall	-3840
▁jump	-3841
▁gender	-3842
▁invert	-3843
▁suggestion	-3844
▁student	-3845
▁navigate	-3846
ately	-3847
idual	-3848
▁great	-3849
▁spinner	-3850
ished	-3851
ledge	-3852
ergy	-3853
▁tang	-3854
rise	-3855
▁directly	-3856
▁nut	-3857
cil	-3858
▁ripper	-3859
ivot	-3860
▁pivot	-3861
▁compound	-3862
▁rex	-3863
▁legend	-3864
▁energy	-3865
▁mockery	-3866
▁lifetime	-3867
▁wave	-3868
alk	-3869
▁navigator	-3870
▁punctuation	-3871
▁glide	-3872
▁verbosity	-3873
of	-3874
▁publication	-3875
▁interpolator	-3876
▁little	-3877
▁silent	-3878
▁numer	-3879
▁collapse	-3880
▁inserted	-3881
name	-3882
inx	-3883
▁sphinx	-3884
▁think	-3885
▁guess	-3886
▁made	-3887
▁cube	-3888
▁replicated	-3889
▁angular	-3890
▁listing	-3891
▁audience	-3892
achable	-3893
▁populate	-3894
aper	-3895
▁bearer	-3896
▁discard	-3897
▁preset	-3898
▁helm	-3899
▁stan	-3900
orical	-3901
▁animate	-3902
▁allocation	-3903
▁stanza	-3904
vement	-3905
▁incident	-3906
▁placement	-3907
▁pacific	-3908
▁welcome	-3909
▁reb	-3910
▁workbook	-3911
reat	-3912
ureka	-3913
▁eureka	-3914
▁neon	-3915
▁camel	-3916
shine	-3917
▁raft	-3918
▁storm	-3919
serve	-3920
▁figure	-3921
eer	-3922
▁calculator	-3923
eta	-3924
▁give	-3925
▁plumb	-3926
▁implode	-3927
▁apt	-3928
▁decorated	-3929
▁sharper	-3930
▁postfix	-3931
▁plumbing	-3932
▁temper	-3933
▁gain	-3934
▁sunshine	-3935
iation	-3936
script	-3937
▁sib	-3938
▁temperature	-3939
▁shown	-3940
▁sniffer	-3941
▁slo	-3942
▁privile	-3943
▁writing	-3944
▁purpose	-3945
▁sigma	-3946
▁occ	-3947
▁hosting	-3948
▁draft	-3949
▁stem	-3950
▁refute	-3951
iguous	-3952
sil	-3953
▁story	-3954
▁central	-3955
▁propagation	-3956
▁captor	-3957
▁fly	-3958
mark	-3959
silon	-3960
▁expiry	-3961
▁corresp	-3962
▁carrier	-3963
▁circular	-3964
▁correspond	-3965
▁discri	-3966
iner	-3967
▁zir	-3968
▁zircon	-3969
▁explo	-3970
▁vote	-3971
▁latex	-3972
▁epsilon	-3973
▁rake	-3974
▁copied	-3975
▁handled	-3976
▁deal	-3977
▁glue	-3978
▁preserve	-3979
▁electric	-3980
fl	-3981
▁iterate	-3982
▁equivalent	-3983
▁whole	-3984
▁restriction	-3985
itation	-3986
▁installer	-3987
▁gest	-3988
▁unb	-3989
▁might	-3990
▁leak	-3991
▁ember	-3992
▁rounded	-3993
▁indirect	-3994
▁mass	-3995
▁pal	-3996
meter	-3997
▁transactional	-3998
▁piece	-3999
▁confirmed	-4000
▁spon	-4001
▁personal	-4002
▁triggered	-4003
▁gesture	-4004
▁who	-4005
▁near	-4006
▁fab	-4007
▁blah	-4008
▁hyper	-4009
▁explode	-4010
▁transparent	-4011
▁effective	-4012
▁absent	-4013
▁subtitle	-4014
▁zoo	-4015
▁everything	-4016
▁discrimin	-4017
▁bid	-4018
▁important	-4019
▁multiply	-4020
▁complexity	-4021
▁bing	-4022
▁reuse	-4023
▁manga	-4024
▁canal	-4025
mium	-4026
▁ecl	-4027
▁comparable	-4028
▁preced	-4029
▁unh	-4030
▁multiplier	-4031
▁cheer	-4032
▁bud	-4033
▁early	-4034
clusion	-4035
▁indexing	-4036
▁eclipse	-4037
▁survey	-4038
▁fault	-4039
▁caret	-4040
▁precedence	-4041
▁bracket	-4042
rink	-4043
▁robot	-4044
ipper	-4045
▁qualifier	-4046
▁cheerio	-4047
lation	-4048
▁deadline	-4049
▁keeper	-4050
▁gas	-4051
▁retain	-4052
▁throttle	-4053
▁shall	-4054
▁awes	-4055
▁sponsor	-4056
▁approval	-4057
▁immediate	-4058
usion	-4059
▁chef	-4060
▁grammar	-4061
▁water	-4062
enger	-4063
orer	-4064
arest	-4065
▁nearest	-4066
jo	-4067
▁life	-4068
irection	-4069
▁typ	-4070
▁exposed	-4071
▁far	-4072
isf	-4073
▁crawler	-4074
▁accord	-4075
▁gin	-4076
▁micrometer	-4077
▁gid	-4078
▁cleaner	-4079
▁clamp	-4080
▁awesome	-4081
▁lease	-4082
▁fifo	-4083
▁chron	-4084
▁optimization	-4085
▁parenth	-4086
▁necessary	-4087
▁recogn	-4088
▁wer	-4089
▁borrow	-4090
▁amb	-4091
▁reducer	-4092
▁rook	-4093
▁brew	-4094
▁flume	-4095
▁burn	-4096
▁coerce	-4097
▁joe	-4098
▁deliver	-4099
▁justify	-4100
sm	-4101
omm	-4102
▁weighted	-4103
▁kra	-4104
flake	-4105
▁snowflake	-4106
▁getting	-4107
score	-4108
▁failing	-4109
▁splitter	-4110
▁modification	-4111
▁fresh	-4112
▁almost	-4113
▁subtract	-4114
▁kraken	-4115
▁insensitive	-4116
▁indexer	-4117
▁lin	-4118
▁colour	-4119
▁playback	-4120
▁resil	-4121
▁sibling	-4122
▁exposure	-4123
▁displayed	-4124
ally	-4125
▁north	-4126
▁deny	-4127
▁coup	-4128
▁conduct	-4129
▁persister	-4130
▁fog	-4131
▁consul	-4132
▁sending	-4133
▁calculation	-4134
▁coe	-4135
▁marten	-4136
▁correlation	-4137
cher	-4138
ny	-4139
▁gr	-4140
▁division	-4141
▁reserv	-4142
going	-4143
▁ending	-4144
▁underscore	-4145
▁really	-4146
▁land	-4147
▁proced	-4148
▁acme	-4149
▁um	-4150
▁triangle	-4151
▁collation	-4152
▁affect	-4153
ital	-4154
vy	-4155
aily	-4156
▁daily	-4157
▁intermediate	-4158
ned	-4159
▁department	-4160
▁tan	-4161
ax	-4162
▁discriminator	-4163
▁dont	-4164
▁grou	-4165
▁fabric	-4166
▁gran	-4167
enance	-4168
▁envoy	-4169
▁pul	-4170
itize	-4171
▁probability	-4172
▁beh	-4173
▁spender	-4174
▁indentation	-4175
▁enumeration	-4176
▁taken	-4177
▁sym	-4178
▁beacon	-4179
▁dol	-4180
ication	-4181
gun	-4182
▁disposed	-4183
▁invariant	-4184
key	-4185
▁masked	-4186
▁rational	-4187
▁reduction	-4188
▁overl	-4189
aint	-4190
▁sanitize	-4191
▁torrent	-4192
▁tilt	-4193
ware	-4194
▁resilience	-4195
▁variance	-4196
▁deletion	-4197
▁superclass	-4198
▁natural	-4199
▁simpl	-4200
▁swarm	-4201
▁rancher	-4202
▁gone	-4203
▁bulkhead	-4204
▁enough	-4205
▁smooth	-4206
▁procedure	-4207
▁west	-4208
isecond	-4209
▁millisecond	-4210
▁categorical	-4211
▁sentry	-4212
▁telemetry	-4213
▁hip	-4214
▁equipment	-4215
▁extracted	-4216
▁flask	-4217
▁steam	-4218
▁concept	-4219
▁hardware	-4220
prise	-4221
ography	-4222
▁tenancy	-4223
▁regard	-4224
▁serving	-4225
▁traversal	-4226
▁brave	-4227
ever	-4228
▁quota	-4229
▁availability	-4230
▁physics	-4231
icient	-4232
arance	-4233
▁accumulator	-4234
▁travis	-4235
▁sticky	-4236
▁van	-4237
▁ug	-4238
▁tier	-4239
▁fiber	-4240
▁explicitly	-4241
▁odd	-4242
▁continuous	-4243
▁scaled	-4244
▁speaker	-4245
ef	-4246
orphic	-4247
▁ah	-4248
▁eventually	-4249
▁lik	-4250
▁glow	-4251
▁withd	-4252
▁conductor	-4253
▁paste	-4254
▁bullet	-4255
▁shrink	-4256
▁linter	-4257
▁filled	-4258
udo	-4259
▁toler	-4260
▁shogun	-4261
▁lost	-4262
▁browse	-4263
▁composition	-4264
▁interest	-4265
▁comparer	-4266
▁divide	-4267
▁corresponding	-4268
▁infinite	-4269
▁useful	-4270
▁grouped	-4271
▁minimal	-4272
▁closer	-4273
▁hasher	-4274
ange	-4275
▁kud	-4276
▁anime	-4277
▁prefab	-4278
▁happ	-4279
▁roll	-4280
▁authorizer	-4281
▁kudu	-4282
▁whenever	-4283
▁grouping	-4284
▁bir	-4285
cest	-4286
▁monoid	-4287
ym	-4288
▁ancest	-4289
▁magn	-4290
▁capital	-4291
▁drill	-4292
▁polym	-4293
▁orange	-4294
hab	-4295
▁underline	-4296
▁recomm	-4297
▁mand	-4298
▁marked	-4299
igher	-4300
▁tested	-4301
▁identical	-4302
▁inflector	-4303
▁particular	-4304
▁separate	-4305
▁alphab	-4306
▁universe	-4307
celer	-4308
▁implicitly	-4309
▁prune	-4310
▁ka	-4311
▁unst	-4312
▁acceler	-4313
▁bundler	-4314
▁lon	-4315
▁pse	-4316
▁prism	-4317
▁rejection	-4318
man	-4319
▁memo	-4320
▁tu	-4321
▁werf	-4322
▁mutate	-4323
▁confidence	-4324
▁refer	-4325
eral	-4326
▁south	-4327
▁inco	-4328
▁won	-4329
inator	-4330
▁maintenance	-4331
▁clustering	-4332
▁liqu	-4333
▁estimate	-4334
▁ease	-4335
▁overlap	-4336
▁hyd	-4337
▁pseudo	-4338
▁bookmark	-4339
▁neigh	-4340
▁withdraw	-4341
▁overview	-4342
ogue	-4343
▁ay	-4344
▁indiv	-4345
reeze	-4346
▁explain	-4347
▁purge	-4348
▁postal	-4349
▁higher	-4350
lee	-4351
ana	-4352
▁itself	-4353
▁unresol	-4354
▁assist	-4355
▁chai	-4356
atter	-4357
▁moving	-4358
▁planner	-4359
▁selen	-4360
▁pu	-4361
▁become	-4362
▁liquid	-4363
▁tell	-4364
▁joint	-4365
▁proof	-4366
▁erase	-4367
▁prefect	-4368
▁longer	-4369
▁protect	-4370
▁selenium	-4371
▁reaction	-4372
▁pulse	-4373
▁ly	-4374
▁unf	-4375
▁techn	-4376
▁ell	-4377
▁international	-4378
▁birth	-4379
▁eg	-4380
ipt	-4381
imize	-4382
▁disconnected	-4383
▁assignable	-4384
argo	-4385
▁needle	-4386
ographer	-4387
atory	-4388
▁cov	-4389
▁diff	-4390
enth	-4391
▁trying	-4392
▁colon	-4393
bor	-4394
▁polymorphic	-4395
▁triple	-4396
▁bright	-4397
▁introspection	-4398
▁sod	-4399
▁cargo	-4400
▁visualizer	-4401
iding	-4402
▁busy	-4403
▁calcul	-4404
▁increase	-4405
▁discord	-4406
▁exponential	-4407
▁satisf	-4408
▁universal	-4409
▁carry	-4410
▁bub	-4411
inder	-4412
▁dolor	-4413
king	-4414
▁night	-4415
▁overload	-4416
▁momentum	-4417
▁actually	-4418
▁consistency	-4419
▁scatter	-4420
▁importer	-4421
▁grace	-4422
▁summar	-4423
▁inclusive	-4424
▁relev	-4425
▁ory	-4426
ina	-4427
▁gn	-4428
▁asc	-4429
▁barrier	-4430
▁octet	-4431
▁shallow	-4432
▁plate	-4433
▁incomple	-4434
▁sett	-4435
▁dag	-4436
▁assembler	-4437
omial	-4438
▁jib	-4439
▁cancelable	-4440
▁corrector	-4441
▁rew	-4442
▁mechan	-4443
arn	-4444
▁phant	-4445
▁snake	-4446
▁travers	-4447
▁flavor	-4448
▁unreachable	-4449
▁substitute	-4450
▁ni	-4451
oned	-4452
▁fish	-4453
▁coupon	-4454
▁beginning	-4455
visor	-4456
▁supervisor	-4457
▁mediator	-4458
▁enforce	-4459
▁phantom	-4460
▁breeze	-4461
▁tunnel	-4462
▁inheritance	-4463
▁materializer	-4464
gro	-4465
ales	-4466
▁backd	-4467
▁redund	-4468
▁degree	-4469
▁awful	-4470
▁hack	-4471
▁rolling	-4472
alesce	-4473
▁coalesce	-4474
▁manually	-4475
▁sodium	-4476
▁lag	-4477
iss	-4478
ool	-4479
▁skipping	-4480
▁structured	-4481
▁twe	-4482
▁shot	-4483
▁neighbor	-4484
▁male	-4485
▁hun	-4486
rence	-4487
achet	-4488
▁cachet	-4489
▁receipt	-4490
▁ox	-4491
▁advert	-4492
▁edu	-4493
atever	-4494
▁subtype	-4495
▁whatever	-4496
▁harness	-4497
▁rib	-4498
▁education	-4499
▁incomplete	-4500
▁sca	-4501
▁expansion	-4502
▁ram	-4503
▁devise	-4504
aten	-4505
▁orch	-4506
▁movement	-4507
▁automatic	-4508
▁intr	-4509
▁outgoing	-4510
▁reserve	-4511
hem	-4512
▁according	-4513
▁recommend	-4514
▁enterprise	-4515
▁lane	-4516
▁individual	-4517
▁ephem	-4518
▁flowable	-4519
▁intersect	-4520
▁dynamo	-4521
▁intersection	-4522
▁disposition	-4523
rity	-4524
aser	-4525
▁bone	-4526
▁twice	-4527
ris	-4528
▁selectable	-4529
▁iron	-4530
▁nth	-4531
▁predictor	-4532
▁theory	-4533
▁benth	-4534
▁benthos	-4535
isor	-4536
▁smaller	-4537
▁ephemeral	-4538
▁synchronize	-4539
▁belt	-4540
▁five	-4541
▁scaff	-4542
▁unorder	-4543
secure	-4544
▁relax	-4545
▁descend	-4546
urer	-4547
▁continuation	-4548
▁painter	-4549
▁teach	-4550
▁tup	-4551
▁infection	-4552
▁phi	-4553
▁mine	-4554
allery	-4555
▁bubble	-4556
▁gallery	-4557
group	-4558
▁subgroup	-4559
▁healthy	-4560
ata	-4561
isible	-4562
▁fed	-4563
▁subs	-4564
▁deflate	-4565
▁traversable	-4566
▁characteristic	-4567
▁occur	-4568
▁removing	-4569
▁revo	-4570
▁operating	-4571
▁contribution	-4572
ulary	-4573
▁enh	-4574
▁jetty	-4575
▁unordered	-4576
▁lief	-4577
fire	-4578
oser	-4579
▁alphabet	-4580
▁reservation	-4581
pple	-4582
▁filtering	-4583
▁furn	-4584
▁concaten	-4585
▁learn	-4586
▁augment	-4587
▁unresolved	-4588
▁saving	-4589
▁consistent	-4590
▁deriv	-4591
▁termination	-4592
irl	-4593
▁thick	-4594
moid	-4595
▁sigmoid	-4596
▁polling	-4597
▁stenographer	-4598
▁objective	-4599
▁electron	-4600
▁poi	-4601
tion	-4602
▁wrapping	-4603
onic	-4604
▁headline	-4605
▁cyan	-4606
▁redundant	-4607
▁appearance	-4608
▁dem	-4609
▁inset	-4610
lock	-4611
▁animal	-4612
▁genesis	-4613
▁trap	-4614
▁coder	-4615
▁food	-4616
▁tolerance	-4617
▁teacher	-4618
▁flipper	-4619
▁backdrop	-4620
▁messenger	-4621
▁cum	-4622
▁ancestor	-4623
▁interpolate	-4624
▁logistic	-4625
insic	-4626
▁regarding	-4627
▁determin	-4628
▁orchest	-4629
▁lightning	-4630
▁ado	-4631
▁acceptance	-4632
▁ripple	-4633
▁walker	-4634
▁intrinsic	-4635
eness	-4636
atable	-4637
▁distribute	-4638
zzy	-4639
▁contra	-4640
fficient	-4641
▁simulate	-4642
atic	-4643
▁scaffold	-4644
▁observation	-4645
▁canary	-4646
▁insecure	-4647
▁transparency	-4648
port	-4649
▁reflector	-4650
▁du	-4651
▁grey	-4652
▁brick	-4653
stone	-4654
▁decompress	-4655
▁gist	-4656
▁percentile	-4657
▁knowledge	-4658
▁fetched	-4659
▁backing	-4660
▁connectivity	-4661
yb	-4662
umption	-4663
▁lean	-4664
▁identify	-4665
unge	-4666
▁yarn	-4667
▁approve	-4668
▁respect	-4669
ses	-4670
▁zoned	-4671
▁unbind	-4672
▁median	-4673
▁sor	-4674
▁bread	-4675
▁negot	-4676
▁chroma	-4677
▁prefixed	-4678
▁decrement	-4679
▁bloom	-4680
▁spread	-4681
▁boo	-4682
▁voc	-4683
abulary	-4684
▁restricted	-4685
▁applicable	-4686
▁administrator	-4687
vable	-4688
▁season	-4689
▁manip	-4690
eep	-4691
▁sile	-4692
▁sit	-4693
▁proceed	-4694
▁partitioner	-4695
▁tom	-4696
ybara	-4697
▁immedi	-4698
▁incomp	-4699
▁capybara	-4700
▁immediately	-4701
▁nest	-4702
▁theta	-4703
keeper	-4704
▁rewind	-4705
▁linker	-4706
wh	-4707
ively	-4708
▁nob	-4709
▁spider	-4710
▁election	-4711
▁nice	-4712
▁refined	-4713
▁fer	-4714
▁gnu	-4715
▁melee	-4716
▁compressor	-4717
▁vocabulary	-4718
▁evi	-4719
▁routine	-4720
▁incremental	-4721
ycle	-4722
▁voy	-4723
iled	-4724
▁drain	-4725
▁lex	-4726
▁bare	-4727
▁pink	-4728
▁looper	-4729
▁scaler	-4730
▁restful	-4731
▁explorer	-4732
▁adaptive	-4733
▁hal	-4734
▁rust	-4735
▁squared	-4736
▁stren	-4737
▁slick	-4738
▁yard	-4739
▁budget	-4740
▁infix	-4741
▁biter	-4742
aged	-4743
▁covered	-4744
▁responder	-4745
▁incompat	-4746
▁calculated	-4747
▁discrete	-4748
▁rh	-4749
▁strength	-4750
▁basis	-4751
rend	-4752
▁dru	-4753
▁positional	-4754
▁pong	-4755
▁druid	-4756
▁prem	-4757
▁fitness	-4758
▁permitted	-4759
▁maintain	-4760
▁greeting	-4761
▁reversed	-4762
▁deb	-4763
arter	-4764
log	-4765
quee	-4766
▁neo	-4767
▁locate	-4768
▁pinned	-4769
▁trend	-4770
▁chronicle	-4771
tery	-4772
▁mailbox	-4773
▁talk	-4774
▁hue	-4775
▁showing	-4776
▁synchronous	-4777
▁descending	-4778
▁highest	-4779
▁slim	-4780
▁shopping	-4781
▁unread	-4782
▁science	-4783
oration	-4784
▁corpus	-4785
▁bi	-4786
▁privilege	-4787
erc	-4788
▁communication	-4789
▁mor	-4790
▁death	-4791
xim	-4792
osen	-4793
ropri	-4794
▁pose	-4795
▁periodic	-4796
▁semi	-4797
▁quarter	-4798
▁anti	-4799
▁neut	-4800
▁refin	-4801
▁educational	-4802
▁reconnect	-4803
emale	-4804
▁female	-4805
▁battery	-4806
ranha	-4807
▁piranha	-4808
▁spaceship	-4809
▁parallelism	-4810
▁sense	-4811
▁referr	-4812
▁chosen	-4813
▁computation	-4814
▁lith	-4815
▁nickname	-4816
du	-4817
▁courier	-4818
ior	-4819
▁legal	-4820
▁fac	-4821
▁reaper	-4822
ko	-4823
ux	-4824
▁ske	-4825
▁few	-4826
▁mention	-4827
▁skinny	-4828
▁ferret	-4829
▁bur	-4830
▁contiguous	-4831
ala	-4832
▁corpse	-4833
▁unreco	-4834
▁acceptable	-4835
▁aur	-4836
▁vot	-4837
▁listening	-4838
▁simulation	-4839
▁fuzzy	-4840
▁bond	-4841
▁ow	-4842
▁feign	-4843
▁stopping	-4844
▁wat	-4845
▁rio	-4846
▁revert	-4847
▁treat	-4848
▁ion	-4849
▁monkey	-4850
▁compaction	-4851
▁generating	-4852
▁renderable	-4853
▁genre	-4854
▁harm	-4855
▁suit	-4856
▁folding	-4857
pend	-4858
▁stale	-4859
ety	-4860
▁searcher	-4861
▁applicative	-4862
▁dr	-4863
aring	-4864
▁affected	-4865
▁paginate	-4866
▁hug	-4867
▁discount	-4868
▁faster	-4869
▁thre	-4870
▁air	-4871
▁appropri	-4872
celot	-4873
▁blade	-4874
▁ocelot	-4875
▁ol	-4876
jack	-4877
leton	-4878
▁argon	-4879
▁dill	-4880
▁serif	-4881
istent	-4882
▁discu	-4883
bed	-4884
▁ice	-4885
▁similarity	-4886
▁chi	-4887
▁surging	-4888
▁cook	-4889
▁interpret	-4890
▁wit	-4891
▁forest	-4892
▁ascending	-4893
▁incompatible	-4894
▁fine	-4895
▁descendant	-4896
▁advice	-4897
▁iris	-4898
▁forced	-4899
▁promotion	-4900
▁unhand	-4901
ailed	-4902
▁unhandled	-4903
▁doe	-4904
▁loose	-4905
▁detached	-4906
▁elastica	-4907
▁isolation	-4908
▁shade	-4909
▁coeval	-4910
▁fluid	-4911
▁enhance	-4912
▁detailed	-4913
▁stag	-4914
▁amt	-4915
▁isol	-4916
ception	-4917
▁commerce	-4918
▁reconc	-4919
▁house	-4920
▁thickness	-4921
▁squee	-4922
hood	-4923
▁ended	-4924
▁dragon	-4925
▁cryptography	-4926
▁rounding	-4927
▁relaxed	-4928
metric	-4929
▁forwarding	-4930
▁along	-4931
▁stash	-4932
▁boss	-4933
▁squeeze	-4934
▁argo	-4935
▁huge	-4936
▁sortable	-4937
ech	-4938
▁bil	-4939
▁girl	-4940
▁pend	-4941
▁ammo	-4942
▁race	-4943
▁together	-4944
▁booking	-4945
▁unc	-4946
▁remainder	-4947
▁matter	-4948
▁mandatory	-4949
▁deterministic	-4950
▁tracked	-4951
▁gar	-4952
▁interact	-4953
▁morph	-4954
▁modular	-4955
illa	-4956
▁relevant	-4957
▁staging	-4958
▁gh	-4959
▁partner	-4960
▁blackfire	-4961
▁passive	-4962
▁elt	-4963
ince	-4964
▁fired	-4965
▁projectile	-4966
metic	-4967
utter	-4968
scope	-4969
▁pitch	-4970
▁staff	-4971
▁discussion	-4972
pass	-4973
▁nobs	-4974
▁goes	-4975
▁speech	-4976
▁truncated	-4977
▁sax	-4978
ulence	-4979
▁poster	-4980
▁ghost	-4981
▁rebu	-4982
mos	-4983
ystem	-4984
▁hud	-4985
▁why	-4986
▁skeleton	-4987
▁teleph	-4988
▁convey	-4989
▁oh	-4990
▁consent	-4991
▁validity	-4992
▁requester	-4993
▁rain	-4994
▁unmod	-4995
▁award	-4996
▁recycle	-4997
▁placeable	-4998
▁moko	-4999
where	-5000
▁unman	-5001
▁howe	-5002
▁fur	-5003
▁sized	-5004
▁bounded	-5005
olic	-5006
dle	-5007
▁eh	-5008
inesis	-5009
▁scrub	-5010
▁kinesis	-5011
▁unstable	-5012
▁unmanaged	-5013
▁classic	-5014
omb	-5015
▁flap	-5016
va	-5017
▁unbound	-5018
▁opulence	-5019
▁ignite	-5020
▁pom	-5021
ring	-5022
▁modern	-5023
▁provisioner	-5024
▁yoga	-5025
▁invisible	-5026
▁ir	-5027
▁beat	-5028
ulum	-5029
▁forum	-5030
▁across	-5031
▁going	-5032
▁reminder	-5033
ably	-5034
▁listed	-5035
▁gear	-5036
▁hunger	-5037
enta	-5038
▁colored	-5039
▁forget	-5040
▁magenta	-5041
▁neutral	-5042
▁voyager	-5043
▁simulator	-5044
▁tutor	-5045
▁aborted	-5046
▁symbolic	-5047
▁tabler	-5048
▁unpo	-5049
versity	-5050
▁reflected	-5051
ette	-5052
son	-5053
sher	-5054
▁among	-5055
▁ess	-5056
▁insight	-5057
▁mechanism	-5058
▁extraction	-5059
▁volt	-5060
pec	-5061
▁come	-5062
over	-5063
▁sad	-5064
▁enemy	-5065
▁deposit	-5066
▁tol	-5067
▁sorter	-5068
▁silence	-5069
▁tutorial	-5070
oled	-5071
▁visa	-5072
▁unrecogn	-5073
▁unpooled	-5074
▁mocker	-5075
▁computer	-5076
▁lithium	-5077
▁mustache	-5078
ulative	-5079
▁independ	-5080
▁recall	-5081
alty	-5082
▁unrecognized	-5083
isk	-5084
▁stencil	-5085
inity	-5086
viation	-5087
▁pressure	-5088
▁arith	-5089
▁splic	-5090
▁hat	-5091
▁cold	-5092
▁popular	-5093
▁cab	-5094
pecified	-5095
▁goods	-5096
▁burner	-5097
▁backlog	-5098
▁transcript	-5099
▁complet	-5100
ious	-5101
▁roaring	-5102
▁collected	-5103
▁arithmetic	-5104
▁propagate	-5105
▁accent	-5106
▁unspecified	-5107
abl	-5108
▁doing	-5109
▁neural	-5110
▁disallow	-5111
▁namer	-5112
▁combust	-5113
▁had	-5114
▁affinity	-5115
▁fetching	-5116
▁aura	-5117
▁threaded	-5118
▁annotate	-5119
▁forger	-5120
▁flexible	-5121
stand	-5122
▁combat	-5123
onal	-5124
▁transact	-5125
▁construction	-5126
▁vision	-5127
▁minimize	-5128
▁reorder	-5129
▁nancy	-5130
▁splice	-5131
▁idea	-5132
▁omit	-5133
▁integrity	-5134
▁sprint	-5135
cate	-5136
▁establ	-5137
▁concatenate	-5138
▁laser	-5139
▁flank	-5140
▁finding	-5141
▁appropriate	-5142
▁liability	-5143
▁loot	-5144
▁however	-5145
land	-5146
sey	-5147
▁karate	-5148
brid	-5149
ecko	-5150
▁dice	-5151
▁gecko	-5152
▁hybrid	-5153
▁regress	-5154
▁unload	-5155
▁halt	-5156
▁monthly	-5157
▁colorize	-5158
▁throughput	-5159
▁oam	-5160
▁ore	-5161
rog	-5162
bage	-5163
▁diary	-5164
▁subse	-5165
▁slate	-5166
▁beaut	-5167
verser	-5168
▁keyed	-5169
▁recursion	-5170
▁sip	-5171
▁packer	-5172
enue	-5173
▁zebra	-5174
▁revoke	-5175
▁existent	-5176
zor	-5177
▁razor	-5178
icult	-5179
▁wireless	-5180
▁ull	-5181
▁dilation	-5182
▁ramp	-5183
▁pickup	-5184
▁exclusion	-5185
store	-5186
▁flapjack	-5187
▁bookstore	-5188
▁difficult	-5189
▁garbage	-5190
▁miner	-5191
▁searchable	-5192
▁chained	-5193
▁chooser	-5194
▁orchestrator	-5195
▁tst	-5196
▁spray	-5197
vo	-5198
▁remark	-5199
▁independent	-5200
▁renew	-5201
nt	-5202
ulp	-5203
▁activator	-5204
▁safety	-5205
▁thra	-5206
▁indented	-5207
▁wiz	-5208
▁chomp	-5209
ruption	-5210
▁cable	-5211
▁corrupt	-5212
▁combination	-5213
ne	-5214
▁tub	-5215
▁dual	-5216
▁scales	-5217
▁pluck	-5218
▁starter	-5219
eses	-5220
nate	-5221
▁silo	-5222
▁ellip	-5223
▁wi	-5224
▁imag	-5225
▁ingest	-5226
▁much	-5227
▁entire	-5228
▁thrasher	-5229
▁boom	-5230
▁hiber	-5231
▁contest	-5232
▁turret	-5233
▁hibernate	-5234
▁saint	-5235
▁warran	-5236
▁removal	-5237
▁fall	-5238
mble	-5239
▁synchronization	-5240
▁vac	-5241
▁segmentation	-5242
▁warranty	-5243
▁insertion	-5244
▁monot	-5245
iate	-5246
▁deact	-5247
alogue	-5248
▁sonata	-5249
▁registra	-5250
leter	-5251
▁decorate	-5252
▁completer	-5253
▁cash	-5254
▁parenthesis	-5255
▁smarty	-5256
▁specifier	-5257
▁cad	-5258
▁agre	-5259
▁tanh	-5260
semble	-5261
▁prett	-5262
under	-5263
▁jane	-5264
sa	-5265
▁forever	-5266
▁traverser	-5267
▁paddle	-5268
▁rebuild	-5269
ample	-5270
▁tour	-5271
▁province	-5272
atern	-5273
▁penalty	-5274
▁braces	-5275
▁school	-5276
ander	-5277
▁quatern	-5278
▁wizard	-5279
▁consec	-5280
▁orc	-5281
▁scannable	-5282
▁limitation	-5283
ufact	-5284
▁manufact	-5285
▁spect	-5286
▁witness	-5287
▁selective	-5288
utive	-5289
▁deform	-5290
▁reduced	-5291
arious	-5292
▁seat	-5293
▁censor	-5294
▁forgery	-5295
▁golden	-5296
▁hyp	-5297
▁easing	-5298
orn	-5299
▁quaternion	-5300
▁naive	-5301
▁ape	-5302
▁director	-5303
▁sleeping	-5304
▁functionality	-5305
▁counting	-5306
▁various	-5307
▁technology	-5308
▁hora	-5309
▁pendulum	-5310
iser	-5311
▁lot	-5312
anent	-5313
▁premake	-5314
▁reconcil	-5315
▁tween	-5316
▁uncon	-5317
▁approxim	-5318
▁permanent	-5319
▁occurrence	-5320
▁playground	-5321
ister	-5322
▁grab	-5323
▁tube	-5324
▁faction	-5325
▁spawner	-5326
▁manufacturer	-5327
▁tapir	-5328
▁consecutive	-5329
▁nose	-5330
sing	-5331
▁slab	-5332
▁fund	-5333
▁explan	-5334
fly	-5335
▁ons	-5336
▁suspended	-5337
▁impact	-5338
▁shim	-5339
▁appear	-5340
▁threat	-5341
▁flight	-5342
▁subsystem	-5343
▁bases	-5344
▁club	-5345
▁unbo	-5346
▁bottle	-5347
eration	-5348
▁regener	-5349
▁migrator	-5350
▁population	-5351
iveness	-5352
▁sliding	-5353
igo	-5354
lin	-5355
▁sweep	-5356
▁passport	-5357
▁tray	-5358
▁blink	-5359
▁unbounded	-5360
▁condense	-5361
▁sketch	-5362
▁indigo	-5363
▁influx	-5364
▁redirection	-5365
▁divisor	-5366
ota	-5367
▁reconciliation	-5368
▁gua	-5369
▁mot	-5370
▁ligh	-5371
▁plant	-5372
▁spout	-5373
▁grand	-5374
▁iota	-5375
▁clang	-5376
▁targeted	-5377
▁porter	-5378
▁capitalize	-5379
▁upon	-5380
▁usar	-5381
▁igniter	-5382
▁several	-5383
▁gad	-5384
haust	-5385
▁signific	-5386
▁summarizer	-5387
▁station	-5388
▁happen	-5389
▁ledger	-5390
tee	-5391
▁elev	-5392
▁raid	-5393
how	-5394
▁cow	-5395
▁cro	-5396
▁blake	-5397
▁burst	-5398
▁law	-5399
▁attacher	-5400
▁ensemble	-5401
▁exhaust	-5402
▁citation	-5403
▁communicator	-5404
ovy	-5405
▁groovy	-5406
▁tort	-5407
▁ham	-5408
▁unca	-5409
▁behave	-5410
▁uncaught	-5411
▁chass	-5412
rain	-5413
▁buoy	-5414
▁simply	-5415
▁chassis	-5416
▁impro	-5417
ufficient	-5418
▁damages	-5419
kin	-5420
▁insufficient	-5421
▁lily	-5422
▁allowance	-5423
▁affine	-5424
▁gadget	-5425
▁prim	-5426
▁deactivate	-5427
▁trained	-5428
▁bloop	-5429
▁collate	-5430
▁informer	-5431
ungeon	-5432
▁dungeon	-5433
▁notation	-5434
▁adjac	-5435
iper	-5436
▁redo	-5437
▁parentheses	-5438
▁fuel	-5439
▁doll	-5440
▁recognizer	-5441
▁whom	-5442
▁registrar	-5443
ouse	-5444
▁din	-5445
icol	-5446
▁iterant	-5447
▁unmodifiable	-5448
▁bitwise	-5449
▁produced	-5450
eli	-5451
▁rer	-5452
range	-5453
▁previously	-5454
▁salary	-5455
▁explanation	-5456
elihood	-5457
▁mojo	-5458
▁armor	-5459
▁buoyant	-5460
▁gob	-5461
▁brightness	-5462
▁gun	-5463
▁staged	-5464
▁tape	-5465
▁condensed	-5466
▁fitted	-5467
▁unname	-5468
▁refinery	-5469
▁funder	-5470
▁unnamed	-5471
arden	-5472
▁liveness	-5473
▁associate	-5474
agged	-5475
▁bed	-5476
▁mute	-5477
▁vul	-5478
▁emerg	-5479
▁lan	-5480
▁emergency	-5481
▁peg	-5482
ynchron	-5483
space	-5484
▁away	-5485
▁contrast	-5486
isy	-5487
▁triv	-5488
▁monster	-5489
▁raster	-5490
▁joiner	-5491
▁mile	-5492
utation	-5493
off	-5494
ingle	-5495
▁identification	-5496
▁hay	-5497
writer	-5498
▁operate	-5499
▁liable	-5500
▁travel	-5501
▁assistant	-5502
▁readiness	-5503
▁mong	-5504
▁wise	-5505
▁puzzle	-5506
▁bypass	-5507
▁outdate	-5508
▁rig	-5509
▁coff	-5510
▁outdated	-5511
▁locker	-5512
▁announcement	-5513
la	-5514
ruit	-5515
▁wish	-5516
rait	-5517
▁doesnt	-5518
▁privileged	-5519
▁substant	-5520
▁portrait	-5521
▁smoke	-5522
▁stemmer	-5523
interp	-5524
▁osmium	-5525
▁sphere	-5526
▁likelihood	-5527
interpret	-5528
▁negate	-5529
fill	-5530
▁offic	-5531
▁grade	-5532
▁turns	-5533
▁substantial	-5534
▁unli	-5535
▁harmony	-5536
▁solo	-5537
▁neb	-5538
▁gover	-5539
▁hereby	-5540
▁refine	-5541
▁untagged	-5542
▁consumption	-5543
fu	-5544
case	-5545
▁saver	-5546
▁telephone	-5547
▁reach	-5548
▁cumulative	-5549
▁admission	-5550
now	-5551
▁older	-5552
▁sup	-5553
asing	-5554
▁sale	-5555
▁introspect	-5556
ynchronous	-5557
▁asynchronous	-5558
▁emu	-5559
▁jer	-5560
▁backed	-5561
▁probably	-5562
▁substitution	-5563
▁chalk	-5564
▁anon	-5565
▁emplace	-5566
▁monotonic	-5567
▁usually	-5568
▁skew	-5569
▁shaped	-5570
▁jack	-5571
▁castle	-5572
▁partitioned	-5573
▁symmetric	-5574
clic	-5575
▁une	-5576
lla	-5577
▁gym	-5578
encer	-5579
▁engineer	-5580
▁enforced	-5581
▁fid	-5582
▁importance	-5583
▁coil	-5584
▁unqu	-5585
▁sparkling	-5586
▁critic	-5587
▁decrease	-5588
▁apex	-5589
▁intuit	-5590
▁unmount	-5591
▁diversity	-5592
▁sar	-5593
▁solve	-5594
aking	-5595
▁poet	-5596
▁sanity	-5597
rident	-5598
▁curly	-5599
▁noisy	-5600
▁sonar	-5601
▁dollar	-5602
▁looking	-5603
cha	-5604
▁trident	-5605
▁wake	-5606
license	-5607
▁rid	-5608
▁volunt	-5609
▁certain	-5610
▁difficulty	-5611
▁printed	-5612
▁furnished	-5613
▁sublicense	-5614
▁ribbon	-5615
▁rede	-5616
▁rewriter	-5617
▁considered	-5618
▁efficient	-5619
▁trunk	-5620
thouse	-5621
▁fran	-5622
joint	-5623
▁puppeteer	-5624
▁twill	-5625
▁xi	-5626
▁disjoint	-5627
aga	-5628
▁mocha	-5629
▁unchang	-5630
▁measured	-5631
▁regressor	-5632
▁lighthouse	-5633
▁tablet	-5634
▁isolated	-5635
▁mounted	-5636
▁ach	-5637
▁portable	-5638
▁explosion	-5639
▁radix	-5640
▁parallelize	-5641
▁fan	-5642
▁ber	-5643
▁declined	-5644
▁peak	-5645
▁formation	-5646
vest	-5647
othing	-5648
▁pump	-5649
▁fence	-5650
cery	-5651
▁jersey	-5652
▁trick	-5653
▁referrer	-5654
imb	-5655
▁sky	-5656
▁boxing	-5657
ibly	-5658
▁residual	-5659
▁metal	-5660
▁resty	-5661
▁modul	-5662
balance	-5663
▁chance	-5664
▁drawee	-5665
▁opp	-5666
▁grape	-5667
▁safari	-5668
▁king	-5669
▁uncomp	-5670
▁unpacked	-5671
▁constellation	-5672
▁satisfy	-5673
▁facet	-5674
▁recurring	-5675
ilt	-5676
ona	-5677
▁egress	-5678
▁filer	-5679
▁unchanged	-5680
▁invitation	-5681
▁bom	-5682
▁neck	-5683
▁significant	-5684
▁recurse	-5685
▁nor	-5686
▁polyn	-5687
▁retriever	-5688
▁adder	-5689
zard	-5690
▁tre	-5691
aky	-5692
▁lexic	-5693
▁purple	-5694
▁waterm	-5695
▁warp	-5696
▁cubic	-5697
▁buyer	-5698
▁craft	-5699
▁elevation	-5700
▁prettifier	-5701
▁remap	-5702
▁slope	-5703
▁silk	-5704
▁volunteer	-5705
▁polynomial	-5706
▁dimensional	-5707
▁mil	-5708
▁projector	-5709
▁estimation	-5710
▁mal	-5711
▁fuzz	-5712
▁rese	-5713
▁cutoff	-5714
▁spline	-5715
▁uniqu	-5716
▁anyhow	-5717
rogate	-5718
ensive	-5719
▁banana	-5720
▁octant	-5721
▁typical	-5722
▁battle	-5723
▁ambiguous	-5724
▁integral	-5725
▁fancy	-5726
▁alpine	-5727
ressed	-5728
icolon	-5729
▁semicolon	-5730
▁coffee	-5731
▁semantics	-5732
▁rhe	-5733
▁bount	-5734
raction	-5735
▁cyclic	-5736
▁thrott	-5737
▁lum	-5738
▁catalogue	-5739
▁bounty	-5740
▁indicate	-5741
▁fusion	-5742
▁maintainer	-5743
▁relational	-5744
▁patience	-5745
▁premium	-5746
▁smoothing	-5747
▁reinterpret	-5748
▁deck	-5749
▁locking	-5750
▁diagonal	-5751
▁rhea	-5752
▁saturation	-5753
ico	-5754
▁demand	-5755
▁seeder	-5756
▁assemble	-5757
▁surrogate	-5758
arded	-5759
▁forge	-5760
▁greed	-5761
▁sens	-5762
▁bog	-5763
▁spend	-5764
▁greeter	-5765
▁locally	-5766
stic	-5767
▁watched	-5768
▁ami	-5769
▁purifier	-5770
▁resulting	-5771
ano	-5772
▁decompose	-5773
▁responsive	-5774
▁crawl	-5775
▁chia	-5776
▁official	-5777
▁dar	-5778
▁popover	-5779
▁backwards	-5780
▁tal	-5781
▁adaptor	-5782
▁founding	-5783
▁digital	-5784
ili	-5785
▁fle	-5786
▁magnitude	-5787
bow	-5788
▁inception	-5789
▁rerun	-5790
▁milestone	-5791
stack	-5792
▁stress	-5793
▁haystack	-5794
▁repa	-5795
cal	-5796
antic	-5797
▁redux	-5798
▁advertiser	-5799
▁translatable	-5800
▁coerc	-5801
une	-5802
▁walking	-5803
▁graphic	-5804
▁watermark	-5805
▁whose	-5806
▁transmit	-5807
▁parity	-5808
▁thin	-5809
▁seasonal	-5810
▁moon	-5811
▁commander	-5812
▁likely	-5813
iator	-5814
▁maid	-5815
▁confusion	-5816
table	-5817
ob	-5818
▁deviation	-5819
▁dome	-5820
▁voter	-5821
▁partitioning	-5822
▁numerical	-5823
▁god	-5824
▁bogus	-5825
▁shark	-5826
▁egg	-5827
ortion	-5828
▁angel	-5829
▁leaves	-5830
▁unified	-5831
aur	-5832
▁settable	-5833
aps	-5834
▁han	-5835
▁corporation	-5836
▁payable	-5837
▁landscape	-5838
▁rather	-5839
▁throwing	-5840
▁extre	-5841
▁retrieval	-5842
▁enhanced	-5843
▁ter	-5844
▁saga	-5845
weight	-5846
▁duck	-5847
▁succ	-5848
▁making	-5849
▁stone	-5850
▁driven	-5851
▁meaning	-5852
▁permutation	-5853
▁succinct	-5854
▁uncompressed	-5855
▁checkers	-5856
▁ellipsis	-5857
▁agreement	-5858
cerpt	-5859
▁excerpt	-5860
▁dragonfly	-5861
▁diss	-5862
▁fruit	-5863
▁era	-5864
ppy	-5865
▁localize	-5866
▁jingle	-5867
▁merger	-5868
▁overall	-5869
▁venue	-5870
▁epic	-5871
▁corona	-5872
▁bye	-5873
▁domestic	-5874
▁pusher	-5875
▁creat	-5876
▁radar	-5877
▁fara	-5878
▁arbitrate	-5879
our	-5880
▁grum	-5881
▁featured	-5882
▁simplify	-5883
▁ever	-5884
▁composed	-5885
▁ful	-5886
▁farm	-5887
▁sorcery	-5888
▁duplex	-5889
rable	-5890
▁faraday	-5891
▁headless	-5892
▁derivation	-5893
▁bam	-5894
▁hea	-5895
▁campo	-5896
oring	-5897
▁splash	-5898
▁obso	-5899
▁smith	-5900
▁obsolete	-5901
▁comf	-5902
▁fort	-5903
▁evict	-5904
ructor	-5905
▁deprecate	-5906
▁hant	-5907
ffe	-5908
mon	-5909
▁chest	-5910
▁vat	-5911
▁stripped	-5912
iful	-5913
▁exceptionless	-5914
got	-5915
▁robin	-5916
▁happy	-5917
▁symmetry	-5918
▁ja	-5919
▁rotated	-5920
▁dy	-5921
▁plug	-5922
uette	-5923
▁further	-5924
▁marshaler	-5925
cor	-5926
▁hey	-5927
▁beautiful	-5928
▁her	-5929
pro	-5930
▁turtle	-5931
▁lexicon	-5932
▁emulator	-5933
ctic	-5934
▁intended	-5935
orrow	-5936
rum	-5937
▁poetry	-5938
▁intention	-5939
hand	-5940
▁atlantic	-5941
▁formulae	-5942
▁suppressed	-5943
▁yr	-5944
ilot	-5945
ingu	-5946
▁possibly	-5947
ley	-5948
▁greedy	-5949
▁experience	-5950
ortex	-5951
▁tower	-5952
uncer	-5953
▁reps	-5954
▁denom	-5955
▁shapeless	-5956
▁regularizer	-5957
▁gur	-5958
▁guarded	-5959
▁completely	-5960
▁edition	-5961
▁awa	-5962
inear	-5963
▁leadership	-5964
▁eta	-5965
▁balanced	-5966
▁reconcile	-5967
▁accumulate	-5968
▁chaos	-5969
▁approach	-5970
▁cookbook	-5971
▁recently	-5972
▁specialized	-5973
▁excl	-5974
▁fulfill	-5975
▁geometric	-5976
▁tone	-5977
▁myself	-5978
▁testee	-5979
▁growth	-5980
▁silho	-5981
▁stubbed	-5982
▁silhouette	-5983
ife	-5984
▁sex	-5985
▁tomorrow	-5986
▁bounce	-5987
▁cosine	-5988
▁lister	-5989
▁existence	-5990
▁gey	-5991
iment	-5992
▁restaur	-5993
▁humanoid	-5994
▁inclusion	-5995
▁ora	-5996
▁mist	-5997
rolled	-5998
condition	-5999
▁restaurant	-6000
▁denominator	-6001
▁tried	-6002
▁organizer	-6003
▁telescope	-6004
▁geyser	-6005
unction	-6006
▁convertor	-6007
▁va	-6008
▁imagine	-6009
▁gulp	-6010
▁horizon	-6011
▁intensity	-6012
▁funds	-6013
fect	-6014
▁umb	-6015
orum	-6016
▁bump	-6017
▁warm	-6018
▁declar	-6019
▁inverted	-6020
▁stability	-6021
▁triplet	-6022
▁fuse	-6023
▁depending	-6024
▁quat	-6025
▁quorum	-6026
▁ack	-6027
▁acknow	-6028
▁reachable	-6029
▁keg	-6030
▁opal	-6031
▁enl	-6032
▁clue	-6033
▁polar	-6034
▁recommendation	-6035
▁opus	-6036
▁sect	-6037
▁coefficient	-6038
ited	-6039
▁spotless	-6040
rella	-6041
▁umbrella	-6042
▁scoring	-6043
▁cortex	-6044
▁notifiable	-6045
▁portability	-6046
▁sway	-6047
▁brown	-6048
▁rail	-6049
▁guru	-6050
▁hugging	-6051
▁she	-6052
▁toll	-6053
▁profit	-6054
wards	-6055
▁birthday	-6056
▁visualization	-6057
▁gim	-6058
▁useless	-6059
▁derivative	-6060
▁optionally	-6061
▁sector	-6062
▁nonex	-6063
▁belong	-6064
▁trash	-6065
▁blocker	-6066
▁bilinear	-6067
hoo	-6068
▁unne	-6069
ffeine	-6070
▁caffeine	-6071
▁govern	-6072
zero	-6073
▁slogan	-6074
▁nonzero	-6075
▁sentiment	-6076
alth	-6077
▁sna	-6078
▁waiter	-6079
rust	-6080
▁qua	-6081
itivity	-6082
▁diam	-6083
▁lamp	-6084
▁kay	-6085
▁tank	-6086
▁locality	-6087
war	-6088
▁owl	-6089
▁tern	-6090
▁whisk	-6091
▁understand	-6092
▁china	-6093
▁conflicting	-6094
▁pruner	-6095
▁pledge	-6096
▁styling	-6097
▁underground	-6098
▁rebalance	-6099
ombie	-6100
▁filler	-6101
▁shrine	-6102
▁zombie	-6103
▁mib	-6104
▁spo	-6105
▁fourth	-6106
▁spire	-6107
▁reek	-6108
▁simplified	-6109
▁bedro	-6110
▁doorkeeper	-6111
▁weed	-6112
▁posted	-6113
mpl	-6114
▁gutter	-6115
stal	-6116
▁precomp	-6117
▁duo	-6118
▁noun	-6119
ariance	-6120
▁supporting	-6121
▁covid	-6122
▁shiny	-6123
▁boring	-6124
▁bask	-6125
▁junk	-6126
▁fae	-6127
▁assess	-6128
▁suitable	-6129
▁chee	-6130
▁thinking	-6131
▁lob	-6132
▁goss	-6133
▁swiper	-6134
▁printable	-6135
sto	-6136
▁sri	-6137
▁his	-6138
▁mixer	-6139
▁crystal	-6140
amble	-6141
otent	-6142
▁candle	-6143
▁conform	-6144
▁expander	-6145
▁hilt	-6146
▁kern	-6147
▁disrupt	-6148
car	-6149
▁esc	-6150
▁navigable	-6151
ian	-6152
paper	-6153
dog	-6154
corico	-6155
▁idemp	-6156
▁basket	-6157
▁robust	-6158
▁usable	-6159
▁cocorico	-6160
▁idempotent	-6161
▁sie	-6162
▁gossip	-6163
▁gor	-6164
▁follower	-6165
▁yahoo	-6166
▁streamlet	-6167
▁communicate	-6168
▁lod	-6169
▁thank	-6170
▁ternary	-6171
lot	-6172
ored	-6173
▁tofu	-6174
▁perfect	-6175
▁watchdog	-6176
▁viper	-6177
▁contextual	-6178
▁lu	-6179
▁wea	-6180
▁unreal	-6181
▁precompile	-6182
arctic	-6183
▁antarctic	-6184
▁typescript	-6185
▁overhead	-6186
▁ahead	-6187
▁normally	-6188
▁writeable	-6189
▁vib	-6190
▁extreme	-6191
olve	-6192
▁cant	-6193
ilization	-6194
agon	-6195
▁bedrock	-6196
▁conven	-6197
▁antarctica	-6198
▁gri	-6199
▁scram	-6200
atched	-6201
▁centered	-6202
▁caus	-6203
▁preamble	-6204
▁rock	-6205
▁ok	-6206
▁unnecessary	-6207
▁repair	-6208
ured	-6209
▁materialize	-6210
▁adjustment	-6211
uming	-6212
▁spew	-6213
▁stomp	-6214
▁pluralize	-6215
▁gimel	-6216
▁incon	-6217
▁tramp	-6218
▁assignee	-6219
night	-6220
▁prere	-6221
▁submar	-6222
▁uniqueness	-6223
▁siz	-6224
lia	-6225
▁fleet	-6226
▁ale	-6227
▁eat	-6228
▁stereo	-6229
▁sufficient	-6230
▁acceptor	-6231
▁touched	-6232
▁cheese	-6233
▁federation	-6234
ising	-6235
▁converting	-6236
▁corruption	-6237
▁shake	-6238
▁curry	-6239
▁vulner	-6240
▁drunk	-6241
▁facing	-6242
▁analyse	-6243
▁enchant	-6244
▁contour	-6245
inea	-6246
▁hol	-6247
▁shorthand	-6248
▁dying	-6249
▁ether	-6250
▁cleave	-6251
▁sensitivity	-6252
iring	-6253
▁cull	-6254
▁gala	-6255
▁hole	-6256
▁mole	-6257
isan	-6258
▁recognition	-6259
▁haw	-6260
▁precise	-6261
▁proportion	-6262
gence	-6263
redient	-6264
▁ingredient	-6265
rices	-6266
▁allure	-6267
▁replicate	-6268
▁regenerate	-6269
▁sidecar	-6270
▁matrices	-6271
▁clips	-6272
▁safely	-6273
▁midnight	-6274
▁dos	-6275
▁sizer	-6276
▁disruptor	-6277
fit	-6278
▁vamp	-6279
▁flocker	-6280
▁constrained	-6281
▁splat	-6282
▁aggress	-6283
▁orb	-6284
▁phases	-6285
▁jas	-6286
api	-6287
▁okapi	-6288
▁mostly	-6289
▁unse	-6290
▁latent	-6291
▁artisan	-6292
▁smell	-6293
▁starred	-6294
▁trailer	-6295
▁sharded	-6296
▁elb	-6297
▁germ	-6298
▁elig	-6299
▁swep	-6300
▁enlist	-6301
▁strike	-6302
▁redraw	-6303
▁pep	-6304
▁german	-6305
▁longs	-6306
inary	-6307
▁subp	-6308
▁committer	-6309
▁suppression	-6310
▁went	-6311
▁externally	-6312
▁lesson	-6313
▁bravo	-6314
▁convertible	-6315
▁combiner	-6316
▁searching	-6317
▁aggressive	-6318
▁wallpaper	-6319
▁cabal	-6320
▁jitter	-6321
phere	-6322
▁rainbow	-6323
▁transferred	-6324
▁yest	-6325
▁ding	-6326
▁exceed	-6327
▁jasmine	-6328
▁bang	-6329
▁essence	-6330
▁printing	-6331
▁mana	-6332
▁eviction	-6333
▁nonexistent	-6334
ament	-6335
xili	-6336
▁auxili	-6337
iving	-6338
oss	-6339
▁luke	-6340
▁guinea	-6341
fish	-6342
udge	-6343
▁volc	-6344
▁satisfied	-6345
oose	-6346
▁mongoose	-6347
▁kex	-6348
▁tau	-6349
▁stra	-6350
▁copier	-6351
▁coercion	-6352
▁transporter	-6353
▁stateless	-6354
rich	-6355
▁rebase	-6356
▁mesa	-6357
▁united	-6358
▁manipulation	-6359
▁transmission	-6360
▁brie	-6361
▁calib	-6362
ado	-6363
▁seven	-6364
▁partially	-6365
dy	-6366
uma	-6367
▁resample	-6368
▁enlistment	-6369
▁acceleration	-6370
▁vanilla	-6371
▁bow	-6372
▁promote	-6373
▁relo	-6374
▁evidence	-6375
▁mad	-6376
▁volcano	-6377
▁discip	-6378
▁discipline	-6379
▁puma	-6380
▁tong	-6381
▁browsing	-6382
▁permute	-6383
gin	-6384
▁roster	-6385
matic	-6386
imited	-6387
▁weekly	-6388
▁leap	-6389
▁plex	-6390
▁localizer	-6391
▁hourly	-6392
▁abs	-6393
▁mis	-6394
▁forwards	-6395
▁tiff	-6396
zing	-6397
▁sold	-6398
▁treatment	-6399
ealth	-6400
▁unhealth	-6401
▁unlimited	-6402
▁tact	-6403
▁covariance	-6404
vil	-6405
▁taxi	-6406
▁yester	-6407
▁incons	-6408
▁intrig	-6409
▁though	-6410
▁intrigue	-6411
▁yesterday	-6412
ja	-6413
▁pig	-6414
▁reag	-6415
▁tabular	-6416
sco	-6417
▁fresco	-6418
▁poller	-6419
▁reagent	-6420
▁civ	-6421
▁mud	-6422
minal	-6423
▁guaran	-6424
▁unhealthy	-6425
▁dad	-6426
▁brief	-6427
▁heavy	-6428
pute	-6429
▁payer	-6430
▁precondition	-6431
▁piz	-6432
letter	-6433
▁termin	-6434
▁newsletter	-6435
▁shield	-6436
▁anvil	-6437
▁respons	-6438
▁pizza	-6439
▁dispute	-6440
ene	-6441
inerary	-6442
▁itinerary	-6443
gage	-6444
▁tai	-6445
▁unauthentic	-6446
▁gift	-6447
▁pole	-6448
▁turned	-6449
▁unauthenticated	-6450
▁assured	-6451
▁dram	-6452
▁soon	-6453
▁knife	-6454
▁vary	-6455
▁lam	-6456
▁wipe	-6457
osition	-6458
▁aid	-6459
▁trading	-6460
emat	-6461
▁surround	-6462
hern	-6463
▁negotiation	-6464
ometer	-6465
ador	-6466
▁ped	-6467
▁shipment	-6468
aneous	-6469
enity	-6470
▁debt	-6471
▁tangram	-6472
▁chronology	-6473
▁comet	-6474
▁balancing	-6475
▁island	-6476
irectional	-6477
▁gher	-6478
▁gherkin	-6479
▁scient	-6480
▁mathemat	-6481
▁thus	-6482
ptic	-6483
▁storer	-6484
▁imposs	-6485
▁pollution	-6486
▁poco	-6487
▁cropper	-6488
▁fused	-6489
assador	-6490
▁ambassador	-6491
ada	-6492
▁approximate	-6493
bird	-6494
▁granular	-6495
▁abb	-6496
▁behind	-6497
▁forgot	-6498
▁providing	-6499
▁impossible	-6500
regular	-6501
inja	-6502
▁jinja	-6503
▁unwrapped	-6504
ulder	-6505
▁stay	-6506
▁switcher	-6507
▁york	-6508
▁rap	-6509
▁watching	-6510
▁irregular	-6511
▁demos	-6512
▁tit	-6513
▁catchup	-6514
▁chal	-6515
▁rug	-6516
▁notary	-6517
▁showcase	-6518
cat	-6519
asis	-6520
urse	-6521
▁crush	-6522
▁yn	-6523
▁mora	-6524
▁dip	-6525
▁helium	-6526
▁casting	-6527
▁tee	-6528
▁compens	-6529
▁trader	-6530
▁pruning	-6531
▁blaze	-6532
▁healing	-6533
▁tagger	-6534
▁someone	-6535
▁seal	-6536
▁pairwise	-6537
▁adjacent	-6538
▁kat	-6539
▁unlik	-6540
▁advertise	-6541
▁dialogue	-6542
▁lockbox	-6543
▁testable	-6544
▁pimple	-6545
▁spacer	-6546
▁tangent	-6547
▁utilization	-6548
▁conj	-6549
▁minify	-6550
▁scored	-6551
uloid	-6552
▁baggage	-6553
▁celluloid	-6554
▁corrupted	-6555
cule	-6556
▁gum	-6557
▁maximize	-6558
▁gloss	-6559
▁bouncer	-6560
▁pickler	-6561
▁domin	-6562
▁mobility	-6563
▁brain	-6564
▁orderer	-6565
▁sticker	-6566
▁passenger	-6567
▁fib	-6568
▁tango	-6569
▁inconsistent	-6570
minate	-6571
▁sides	-6572
▁nominal	-6573
▁cleaning	-6574
▁frank	-6575
▁declarative	-6576
▁spent	-6577
▁terrain	-6578
▁handshaker	-6579
▁associative	-6580
▁smoking	-6581
▁nope	-6582
▁flaky	-6583
▁rocketeer	-6584
▁established	-6585
▁dupe	-6586
▁seller	-6587
▁weekday	-6588
fol	-6589
▁monocle	-6590
▁orbit	-6591
▁caps	-6592
▁tin	-6593
▁mangle	-6594
▁koala	-6595
▁bigger	-6596
oon	-6597
▁hop	-6598
oted	-6599
▁maze	-6600
▁neither	-6601
▁unmatched	-6602
▁tuning	-6603
rack	-6604
▁scanning	-6605
duction	-6606
▁additive	-6607
▁kick	-6608
▁auction	-6609
▁defense	-6610
▁acquired	-6611
quis	-6612
▁weaver	-6613
elly	-6614
▁establish	-6615
rot	-6616
umable	-6617
▁sport	-6618
▁capsule	-6619
rict	-6620
▁ellipse	-6621
▁sizing	-6622
▁interior	-6623
▁huff	-6624
▁entrance	-6625
▁mint	-6626
▁achie	-6627
▁butter	-6628
▁amenity	-6629
▁sometime	-6630
▁summarize	-6631
folio	-6632
▁film	-6633
▁recoil	-6634
▁eligible	-6635
▁portfolio	-6636
▁opener	-6637
▁wild	-6638
▁handy	-6639
▁wagon	-6640
eth	-6641
inge	-6642
▁ist	-6643
▁leaky	-6644
▁goa	-6645
▁vanity	-6646
▁mission	-6647
▁manipulator	-6648
merium	-6649
▁pomerium	-6650
▁mn	-6651
▁scra	-6652
▁mnemon	-6653
▁trivial	-6654
▁rigid	-6655
vention	-6656
▁tweak	-6657
▁marketing	-6658
oint	-6659
▁falcon	-6660
▁withdrawal	-6661
▁enrich	-6662
▁scalding	-6663
▁enroll	-6664
▁taking	-6665
▁designer	-6666
ferent	-6667
▁discovered	-6668
▁variation	-6669
sed	-6670
▁ult	-6671
▁nine	-6672
▁blood	-6673
▁lexical	-6674
▁sai	-6675
▁scrap	-6676
house	-6677
▁orph	-6678
▁bail	-6679
▁orphan	-6680
▁directed	-6681
▁radial	-6682
▁blow	-6683
▁numeral	-6684
pective	-6685
velte	-6686
▁svelte	-6687
▁graphite	-6688
▁subsequent	-6689
▁fulfillment	-6690
▁actionable	-6691
▁canada	-6692
▁tuner	-6693
▁conduit	-6694
eler	-6695
▁ampl	-6696
reate	-6697
▁humid	-6698
▁sinh	-6699
▁unlocked	-6700
▁refreshing	-6701
▁species	-6702
▁spawning	-6703
▁throttling	-6704
urb	-6705
▁kept	-6706
▁reth	-6707
▁straight	-6708
▁buzz	-6709
▁hapt	-6710
▁dragging	-6711
▁raven	-6712
▁taint	-6713
▁magnet	-6714
▁scientific	-6715
▁rugged	-6716
▁rod	-6717
ique	-6718
assemb	-6719
▁globally	-6720
imen	-6721
▁notified	-6722
▁specimen	-6723
▁unquoted	-6724
ledged	-6725
▁increasing	-6726
▁themis	-6727
▁numerator	-6728
aped	-6729
▁damp	-6730
▁dotted	-6731
▁unlikely	-6732
▁originally	-6733
▁road	-6734
▁unesc	-6735
▁imprint	-6736
▁aster	-6737
▁extens	-6738
▁accident	-6739
ifferent	-6740
▁compass	-6741
▁saw	-6742
▁coral	-6743
▁scape	-6744
▁unic	-6745
▁majority	-6746
▁nova	-6747
▁ware	-6748
▁nettle	-6749
▁diffuse	-6750
▁filament	-6751
phen	-6752
▁comes	-6753
▁auxiliary	-6754
duce	-6755
▁firm	-6756
▁unescaped	-6757
▁hyphen	-6758
▁therefore	-6759
▁bios	-6760
▁administration	-6761
open	-6762
rantine	-6763
▁hydrator	-6764
▁quarantine	-6765
▁laz	-6766
▁eagle	-6767
▁nearby	-6768
▁wonder	-6769
▁mnemonic	-6770
▁cru	-6771
leman	-6772
▁cham	-6773
▁exerc	-6774
▁pam	-6775
etype	-6776
▁took	-6777
▁archetype	-6778
▁sometimes	-6779
▁captain	-6780
▁transit	-6781
▁randomize	-6782
▁lut	-6783
▁optimal	-6784
▁revalid	-6785
▁invest	-6786
▁interactivity	-6787
cell	-6788
▁vict	-6789
▁crow	-6790
uccess	-6791
▁unsuccess	-6792
▁complement	-6793
iom	-6794
▁often	-6795
hib	-6796
▁bird	-6797
▁unicorn	-6798
▁humidity	-6799
▁trainable	-6800
osis	-6801
▁lad	-6802
ming	-6803
▁symbolize	-6804
▁indirection	-6805
▁assigner	-6806
ippable	-6807
▁potion	-6808
▁guesser	-6809
▁peripher	-6810
▁recomp	-6811
olin	-6812
icious	-6813
▁hypoth	-6814
▁reconciler	-6815
▁lose	-6816
▁earth	-6817
▁indifferent	-6818
note	-6819
▁relocation	-6820
ribution	-6821
▁responsible	-6822
▁limiting	-6823
▁middleman	-6824
▁ways	-6825
▁scorer	-6826
▁hang	-6827
▁dotty	-6828
▁replaceable	-6829
lop	-6830
▁soup	-6831
▁imper	-6832
▁arrange	-6833
▁peripheral	-6834
iff	-6835
▁flyweight	-6836
▁absor	-6837
ronym	-6838
▁molecule	-6839
▁granularity	-6840
▁hom	-6841
▁tec	-6842
cla	-6843
▁assessment	-6844
▁comfy	-6845
▁weird	-6846
▁resist	-6847
▁delegation	-6848
uate	-6849
▁advisor	-6850
▁compliant	-6851
▁tui	-6852
arily	-6853
▁nebula	-6854
▁sliced	-6855
▁attacker	-6856
▁joining	-6857
▁revalidate	-6858
▁linking	-6859
omy	-6860
▁resolvable	-6861
▁tic	-6862
chedule	-6863
the	-6864
▁breed	-6865
▁research	-6866
▁acronym	-6867
▁perspective	-6868
lacer	-6869
▁countable	-6870
dict	-6871
▁haptic	-6872
▁statics	-6873
▁augmentation	-6874
▁programmatic	-6875
▁bidirectional	-6876
loon	-6877
▁toolbox	-6878
cean	-6879
▁ocean	-6880
▁dal	-6881
▁chem	-6882
▁replacer	-6883
uss	-6884
mlin	-6885
odle	-6886
▁bower	-6887
▁eight	-6888
▁tactic	-6889
▁meet	-6890
▁decide	-6891
▁hydrate	-6892
▁snack	-6893
▁gremlin	-6894
▁chunky	-6895
▁trickster	-6896
▁ranged	-6897
▁mathematics	-6898
▁fractional	-6899
▁repro	-6900
▁hazard	-6901
len	-6902
▁kil	-6903
▁lei	-6904
▁assumed	-6905
▁moder	-6906
▁randomly	-6907
ora	-6908
▁pang	-6909
▁quietly	-6910
▁scribe	-6911
▁remover	-6912
▁therm	-6913
▁lazily	-6914
▁furnace	-6915
▁regional	-6916
▁explore	-6917
▁reflective	-6918
ah	-6919
▁boiler	-6920
▁footnote	-6921
▁dither	-6922
▁recreate	-6923
ulous	-6924
▁pand	-6925
▁breaking	-6926
▁irre	-6927
▁outlet	-6928
▁statistical	-6929
▁tomcat	-6930
▁lighting	-6931
▁tire	-6932
▁garden	-6933
uum	-6934
▁clustered	-6935
▁nag	-6936
▁unass	-6937
▁mant	-6938
▁guarantee	-6939
▁convenience	-6940
▁doit	-6941
▁streamer	-6942
▁solar	-6943
▁corrected	-6944
ridor	-6945
▁corridor	-6946
oge	-6947
▁chad	-6948
▁enrollment	-6949
▁durable	-6950
▁sla	-6951
▁pouch	-6952
▁superv	-6953
▁structural	-6954
▁submariner	-6955
erp	-6956
▁rho	-6957
▁lerp	-6958
▁tonga	-6959
▁checkable	-6960
▁switching	-6961
ostic	-6962
▁agency	-6963
▁buildable	-6964
▁lumin	-6965
▁prece	-6966
▁columnar	-6967
▁terminator	-6968
▁bio	-6969
▁occup	-6970
ama	-6971
▁modulus	-6972
room	-6973
▁loll	-6974
▁spare	-6975
▁squash	-6976
▁holding	-6977
ipop	-6978
warder	-6979
▁lollipop	-6980
▁forwarder	-6981
▁torn	-6982
▁electrum	-6983
goat	-6984
▁scapegoat	-6985
▁eth	-6986
▁progressive	-6987
▁toto	-6988
ublic	-6989
▁lenient	-6990
▁mas	-6991
▁unblock	-6992
irer	-6993
▁dro	-6994
▁wan	-6995
▁graceful	-6996
▁repeatable	-6997
▁recurrence	-6998
▁wood	-6999
▁interle	-7000
▁tie	-7001
▁exam	-7002
▁warden	-7003
▁distributor	-7004
▁interleave	-7005
▁swag	-7006
▁unsuccessful	-7007
gister	-7008
▁combinator	-7009
▁alphabetical	-7010
▁newly	-7011
▁flutter	-7012
▁persona	-7013
▁indeter	-7014
▁typography	-7015
izo	-7016
▁erizo	-7017
▁poison	-7018
▁skippable	-7019
▁learner	-7020
▁untrust	-7021
▁utter	-7022
▁mutant	-7023
▁raising	-7024
claim	-7025
▁glass	-7026
▁tabulate	-7027
▁duff	-7028
▁dialer	-7029
▁wed	-7030
▁geode	-7031
▁beer	-7032
▁scrapy	-7033
▁exhausted	-7034
▁introduction	-7035
oir	-7036
▁mind	-7037
▁blind	-7038
▁clipping	-7039
▁focal	-7040
nection	-7041
▁reservoir	-7042
▁unassigned	-7043
▁achievement	-7044
▁dut	-7045
▁fram	-7046
rical	-7047
▁scro	-7048
▁pocket	-7049
▁planet	-7050
▁winner	-7051
▁calibration	-7052
fin	-7053
mined	-7054
▁chew	-7055
▁electronic	-7056
▁internally	-7057
▁tall	-7058
▁prerelease	-7059
▁ym	-7060
▁alen	-7061
▁forked	-7062
▁distingu	-7063
▁inflection	-7064
eregister	-7065
▁broadcaster	-7066
▁voting	-7067
▁ceiling	-7068
▁reiss	-7069
▁typically	-7070
▁attest	-7071
▁humanize	-7072
▁amplitude	-7073
rel	-7074
▁district	-7075
▁pangolin	-7076
leneck	-7077
▁booster	-7078
▁bottleneck	-7079
ubsc	-7080
▁chop	-7081
▁clos	-7082
▁focusable	-7083
▁referral	-7084
▁steel	-7085
quirer	-7086
▁nonpro	-7087
▁bacon	-7088
▁sorry	-7089
▁batcher	-7090
▁nonprofit	-7091
▁bay	-7092
▁sud	-7093
▁chewy	-7094
▁exclud	-7095
uter	-7096
▁snappy	-7097
▁balloon	-7098
▁lateral	-7099
▁visualize	-7100
▁shoot	-7101
▁machin	-7102
▁fox	-7103
▁town	-7104
▁wiring	-7105
uator	-7106
▁cased	-7107
ung	-7108
▁og	-7109
▁rely	-7110
▁verdict	-7111
▁indeterminate	-7112
▁judge	-7113
▁typecast	-7114
▁somewhere	-7115
▁accelerator	-7116
▁oe	-7117
▁grunt	-7118
▁dream	-7119
▁tornado	-7120
▁backspace	-7121
▁tiled	-7122
quence	-7123
▁feeder	-7124
idential	-7125
▁negotiate	-7126
▁bandit	-7127
▁playbook	-7128
▁boulder	-7129
▁spanner	-7130
▁recoverable	-7131
▁rouge	-7132
▁twitch	-7133
▁scrooge	-7134
▁chemical	-7135
▁exercise	-7136
▁transitive	-7137
▁preceding	-7138
▁recognize	-7139
▁historical	-7140
▁referential	-7141
▁convolutional	-7142
▁freed	-7143
▁stap	-7144
▁alumn	-7145
▁autop	-7146
▁deregister	-7147
▁accidentally	-7148
inthe	-7149
▁worm	-7150
▁absinthe	-7151
▁nucle	-7152
▁droplet	-7153
▁shorter	-7154
▁signum	-7155
▁inheritable	-7156
▁gorilla	-7157
imate	-7158
▁onto	-7159
▁entering	-7160
▁pes	-7161
▁emotion	-7162
▁cri	-7163
▁fiat	-7164
▁typeset	-7165
▁altitude	-7166
▁facility	-7167
ramid	-7168
▁picked	-7169
▁victim	-7170
▁founder	-7171
▁destructor	-7172
▁bee	-7173
▁cit	-7174
ilter	-7175
ometry	-7176
▁flake	-7177
izable	-7178
▁pyramid	-7179
▁excluding	-7180
▁peter	-7181
▁flame	-7182
▁alumni	-7183
▁coarse	-7184
▁autopilot	-7185
▁jab	-7186
hound	-7187
ratic	-7188
▁abbre	-7189
▁initially	-7190
▁acknowledged	-7191
▁revocation	-7192
▁asterisk	-7193
▁confl	-7194
▁accountable	-7195
▁mur	-7196
▁fraud	-7197
inst	-7198
▁dil	-7199
▁conflu	-7200
▁utterance	-7201
itative	-7202
▁zeroize	-7203
▁extensible	-7204
▁pry	-7205
fir	-7206
▁tars	-7207
▁rax	-7208
▁biti	-7209
▁inch	-7210
▁unbox	-7211
▁convergence	-7212
▁awaiter	-7213
▁tune	-7214
▁drake	-7215
▁opera	-7216
▁quill	-7217
▁eastern	-7218
mate	-7219
roph	-7220
mitted	-7221
▁subsample	-7222
sted	-7223
▁guid	-7224
▁jabber	-7225
ission	-7226
▁constrain	-7227
▁commission	-7228
▁whiny	-7229
▁das	-7230
▁nome	-7231
▁silver	-7232
▁meant	-7233
▁terminus	-7234
▁spectator	-7235
▁vacc	-7236
▁becomes	-7237
▁aim	-7238
▁fen	-7239
▁hung	-7240
▁patron	-7241
▁mixture	-7242
elf	-7243
▁suffer	-7244
ppable	-7245
▁unselect	-7246
▁filterable	-7247
▁sage	-7248
▁binomial	-7249
▁pst	-7250
▁lesser	-7251
▁diamond	-7252
▁renewal	-7253
▁thermal	-7254
▁delegator	-7255
▁minable	-7256
▁rethrow	-7257
▁dynamically	-7258
▁arms	-7259
▁vale	-7260
▁pract	-7261
▁glossary	-7262
▁closable	-7263
▁hierarchical	-7264
▁tig	-7265
arging	-7266
▁warehouse	-7267
▁ambient	-7268
▁radiant	-7269
▁unwind	-7270
▁eventuate	-7271
▁ava	-7272
aster	-7273
▁analyser	-7274
ade	-7275
▁toy	-7276
▁nebulous	-7277
pent	-7278
▁sac	-7279
▁demon	-7280
▁ethics	-7281
▁oppos	-7282
▁quantize	-7283
▁forecaster	-7284
▁spool	-7285
▁indust	-7286
▁landmark	-7287
▁unsorted	-7288
▁wro	-7289
▁coloss	-7290
▁silencer	-7291
▁compensation	-7292
▁synop	-7293
▁dissolution	-7294
▁urg	-7295
▁effort	-7296
▁augmented	-7297
▁assumption	-7298
▁meaningful	-7299
▁tck	-7300
▁volley	-7301
▁disassemb	-7302
▁joke	-7303
▁determined	-7304
▁attestation	-7305
na	-7306
▁dart	-7307
▁colossus	-7308
▁aband	-7309
▁advis	-7310
▁reopen	-7311
▁tue	-7312
▁iterative	-7313
▁sheep	-7314
▁confidential	-7315
tice	-7316
▁roc	-7317
▁lattice	-7318
▁landing	-7319
▁pau	-7320
▁drawn	-7321
▁opposite	-7322
▁successor	-7323
▁cup	-7324
▁blas	-7325
▁chalice	-7326
▁generalized	-7327
ars	-7328
▁flood	-7329
▁ongoing	-7330
▁accordion	-7331
▁hawk	-7332
▁kana	-7333
▁expiring	-7334
▁fillable	-7335
▁interesting	-7336
▁risky	-7337
▁touchable	-7338
▁folded	-7339
▁income	-7340
▁commut	-7341
▁deeply	-7342
▁expensive	-7343
▁lev	-7344
▁topo	-7345
▁acting	-7346
▁modality	-7347
▁completeness	-7348
▁wrote	-7349
▁cruise	-7350
▁doctor	-7351
rome	-7352
▁ally	-7353
▁issuing	-7354
▁truffle	-7355
▁him	-7356
▁born	-7357
▁knob	-7358
▁bake	-7359
▁uncom	-7360
▁modulo	-7361
▁trivia	-7362
▁loan	-7363
▁chromium	-7364
▁continent	-7365
▁minim	-7366
▁cosmos	-7367
▁wy	-7368
abor	-7369
▁degrade	-7370
▁scrubbed	-7371
▁equivalence	-7372
▁panda	-7373
▁dapper	-7374
▁advisory	-7375
▁accelerate	-7376
▁tilde	-7377
▁thanks	-7378
▁fair	-7379
▁tight	-7380
▁untrusted	-7381
▁preparation	-7382
▁pika	-7383
▁accomp	-7384
▁automata	-7385
▁mate	-7386
ried	-7387
▁adjacency	-7388
▁wow	-7389
second	-7390
▁emulate	-7391
▁shading	-7392
▁microsecond	-7393
mur	-7394
▁valued	-7395
▁reliable	-7396
ey	-7397
rawn	-7398
▁feel	-7399
▁initiate	-7400
▁centroid	-7401
▁charging	-7402
▁initiator	-7403
▁introspector	-7404
los	-7405
bble	-7406
iltered	-7407
▁descent	-7408
▁unfiltered	-7409
▁inert	-7410
▁unconfir	-7411
az	-7412
losure	-7413
▁scallop	-7414
▁diagnose	-7415
▁dangerous	-7416
▁negotiator	-7417
▁gle	-7418
▁ridge	-7419
▁medical	-7420
▁hong	-7421
▁vent	-7422
▁guava	-7423
▁plexus	-7424
▁cay	-7425
▁rag	-7426
▁cate	-7427
▁relevance	-7428
ographic	-7429
▁trad	-7430
▁rarity	-7431
▁nap	-7432
▁easier	-7433
▁paired	-7434
▁foldable	-7435
▁unconfirmed	-7436
▁beard	-7437
▁evolve	-7438
▁cartridge	-7439
▁creativity	-7440
▁gel	-7441
▁limb	-7442
ubscrib	-7443
▁sequencer	-7444
▁unsubscrib	-7445
▁agn	-7446
▁clearance	-7447
▁agnostic	-7448
▁fei	-7449
▁chips	-7450
▁quantization	-7451
▁ink	-7452
▁pir	-7453
▁shri	-7454
▁isometry	-7455
▁hyperspace	-7456
▁singularize	-7457
▁synopsis	-7458
▁bey	-7459
▁exe	-7460
▁titan	-7461
▁applier	-7462
asi	-7463
ille	-7464
▁march	-7465
▁absorb	-7466
▁keel	-7467
▁asym	-7468
▁quasi	-7469
▁stoch	-7470
▁spirit	-7471
▁outlier	-7472
▁billable	-7473
▁factorial	-7474
▁interception	-7475
▁aka	-7476
ogene	-7477
uable	-7478
▁jelly	-7479
▁forbid	-7480
▁querying	-7481
▁receipts	-7482
▁intervention	-7483
etric	-7484
ssive	-7485
version	-7486
▁framed	-7487
▁sea	-7488
▁ravel	-7489
▁shutting	-7490
▁lis	-7491
▁shorten	-7492
▁eventual	-7493
▁dogs	-7494
▁coinmate	-7495
▁insertable	-7496
▁trio	-7497
▁commutative	-7498
lain	-7499
▁sauce	-7500
▁reality	-7501
▁vaccination	-7502
inet	-7503
▁mete	-7504
▁subsequence	-7505
▁quiz	-7506
▁gracefully	-7507
▁enchantment	-7508
duro	-7509
▁els	-7510
check	-7511
▁maduro	-7512
▁injectable	-7513
▁elli	-7514
▁sma	-7515
▁pony	-7516
▁vertically	-7517
ves	-7518
▁meteor	-7519
▁winter	-7520
▁mailable	-7521
▁sine	-7522
▁forth	-7523
ological	-7524
▁chev	-7525
▁shap	-7526
▁biome	-7527
▁capable	-7528
▁fitting	-7529
▁vulnerability	-7530
rif	-7531
▁nature	-7532
▁proceeding	-7533
do	-7534
▁knot	-7535
▁summer	-7536
▁strongly	-7537
▁uncommitted	-7538
▁clump	-7539
▁beyond	-7540
▁coming	-7541
▁hunk	-7542
izzard	-7543
▁sympt	-7544
▁republic	-7545
▁unify	-7546
▁concatenation	-7547
▁vacuum	-7548
▁machinery	-7549
east	-7550
▁cheat	-7551
▁stochastic	-7552
osed	-7553
▁greyhound	-7554
▁exploration	-7555
istor	-7556
▁elim	-7557
▁unquote	-7558
▁nib	-7559
▁till	-7560
▁encore	-7561
stern	-7562
arsity	-7563
▁chevron	-7564
▁cellular	-7565
▁sparsity	-7566
▁multiplic	-7567
▁shi	-7568
▁bast	-7569
ducer	-7570
▁hair	-7571
▁complic	-7572
▁western	-7573
▁pill	-7574
▁doodle	-7575
▁exhaustive	-7576
▁hypothesis	-7577
▁complicated	-7578
gy	-7579
norm	-7580
▁deva	-7581
▁emph	-7582
▁fidd	-7583
▁rear	-7584
▁martin	-7585
▁murmur	-7586
▁lineage	-7587
▁patcher	-7588
▁yourself	-7589
▁enco	-7590
▁fifth	-7591
▁regardless	-7592
▁transistor	-7593
▁advise	-7594
irt	-7595
ury	-7596
▁ki	-7597
▁het	-7598
▁transactor	-7599
▁surn	-7600
▁awake	-7601
▁surname	-7602
▁quadratic	-7603
▁escaper	-7604
▁scept	-7605
▁identifiable	-7606
azine	-7607
▁taxon	-7608
▁unpro	-7609
▁equation	-7610
▁magazine	-7611
▁scrolled	-7612
▁mash	-7613
▁father	-7614
▁friction	-7615
▁gos	-7616
▁sandw	-7617
▁elliptic	-7618
▁prober	-7619
▁retina	-7620
ops	-7621
▁libra	-7622
▁scepter	-7623
▁essential	-7624
▁sigil	-7625
▁stapler	-7626
anine	-7627
▁unreg	-7628
ometric	-7629
▁lax	-7630
▁outl	-7631
istered	-7632
▁hardness	-7633
▁ov	-7634
rang	-7635
▁sao	-7636
▁unregistered	-7637
rail	-7638
▁unsaved	-7639
▁automatization	-7640
▁redact	-7641
▁bencher	-7642
▁tut	-7643
▁gamb	-7644
▁lime	-7645
▁reass	-7646
▁describer	-7647
▁separation	-7648
▁redeem	-7649
▁blowfish	-7650
▁ort	-7651
oline	-7652
▁fairy	-7653
▁descript	-7654
▁imperson	-7655
▁mezz	-7656
▁gan	-7657
▁unal	-7658
▁resizer	-7659
▁dumb	-7660
▁easily	-7661
▁expert	-7662
▁harvest	-7663
▁leaving	-7664
▁guardrail	-7665
izome	-7666
▁adopt	-7667
atively	-7668
▁rhizome	-7669
▁mezzanine	-7670
▁trampoline	-7671
▁representer	-7672
arsed	-7673
▁mood	-7674
▁presto	-7675
▁isolate	-7676
▁unparsed	-7677
▁kapp	-7678
▁apprise	-7679
▁strictly	-7680
shop	-7681
vous	-7682
▁frequent	-7683
▁investig	-7684
▁extending	-7685
▁curd	-7686
▁exclus	-7687
▁exceptionally	-7688
▁wad	-7689
▁finan	-7690
▁parrot	-7691
▁inlet	-7692
▁fiddle	-7693
▁recurrent	-7694
ucet	-7695
arent	-7696
standing	-7697
▁financial	-7698
▁surrounding	-7699
▁snapshotter	-7700
▁anom	-7701
▁park	-7702
▁unlike	-7703
▁authoritative	-7704
▁rul	-7705
racked	-7706
▁kappa	-7707
▁queen	-7708
▁dashed	-7709
▁bearing	-7710
▁watchman	-7711
▁untracked	-7712
uity	-7713
▁drift	-7714
▁damping	-7715
eger	-7716
angular	-7717
▁jaeger	-7718
▁pid	-7719
▁vin	-7720
▁rent	-7721
▁pidgin	-7722
ogeneous	-7723
▁fishing	-7724
▁selling	-7725
anist	-7726
▁oriental	-7727
fine	-7728
▁gogo	-7729
▁inhib	-7730
▁wearable	-7731
▁pray	-7732
▁ration	-7733
▁unroll	-7734
▁scoreboard	-7735
▁moo	-7736
▁alone	-7737
itional	-7738
▁panama	-7739
▁subscript	-7740
▁blame	-7741
▁totem	-7742
▁clipped	-7743
▁abbreviation	-7744
▁unsubscribed	-7745
▁materialistic	-7746
▁soot	-7747
▁mille	-7748
▁outstanding	-7749
▁unfin	-7750
▁impure	-7751
▁anywhere	-7752
▁shadowed	-7753
ici	-7754
▁meas	-7755
▁adult	-7756
▁derby	-7757
▁shriek	-7758
▁stamper	-7759
▁supervision	-7760
▁invalidation	-7761
▁greet	-7762
▁anomaly	-7763
▁baud	-7764
▁lobby	-7765
▁caution	-7766
▁morning	-7767
▁divisible	-7768
▁asymmetric	-7769
▁pap	-7770
▁orth	-7771
selves	-7772
▁piped	-7773
▁demonst	-7774
▁negation	-7775
▁reconstruct	-7776
▁causal	-7777
▁cellar	-7778
▁unfinished	-7779
coming	-7780
▁justification	-7781
atchet	-7782
▁diver	-7783
▁speak	-7784
▁slight	-7785
▁subplot	-7786
▁sandwich	-7787
▁diagnosis	-7788
▁instructor	-7789
ball	-7790
omon	-7791
▁delight	-7792
▁pla	-7793
▁alfa	-7794
▁salomon	-7795
▁confluent	-7796
apped	-7797
local	-7798
▁shorts	-7799
▁nonlocal	-7800
liament	-7801
▁parliament	-7802
▁consol	-7803
▁miscell	-7804
▁assuming	-7805
▁latter	-7806
▁keeping	-7807
▁analyses	-7808
▁las	-7809
▁nuke	-7810
▁spice	-7811
▁young	-7812
▁badger	-7813
▁cherry	-7814
▁committee	-7815
▁miscellaneous	-7816
▁muss	-7817
▁puck	-7818
▁divid	-7819
▁resend	-7820
▁everyone	-7821
rored	-7822
▁arri	-7823
▁mirrored	-7824
▁permanently	-7825
▁slop	-7826
▁steal	-7827
▁workshop	-7828
ateral	-7829
▁qualify	-7830
▁encounter	-7831
▁rector	-7832
▁ome	-7833
▁crowd	-7834
▁reh	-7835
▁sixt	-7836
▁valve	-7837
▁galaxy	-7838
ubl	-7839
▁covariant	-7840
▁synchronizer	-7841
▁weave	-7842
▁remind	-7843
▁consuming	-7844
▁impression	-7845
▁concurrently	-7846
dez	-7847
▁sen	-7848
irable	-7849
▁omega	-7850
dezvous	-7851
▁rendezvous	-7852
▁hup	-7853
▁copybook	-7854
olen	-7855
▁looping	-7856
▁dividend	-7857
▁illusion	-7858
▁awless	-7859
▁splitting	-7860
▁interested	-7861
etary	-7862
normal	-7863
▁lem	-7864
▁rope	-7865
▁stolen	-7866
▁turk	-7867
igence	-7868
▁luminance	-7869
▁unaligned	-7870
▁modifiable	-7871
▁decomposition	-7872
▁unco	-7873
▁dazzle	-7874
▁exploit	-7875
▁serv	-7876
▁movable	-7877
▁formed	-7878
ursement	-7879
fus	-7880
▁hog	-7881
▁luck	-7882
▁linger	-7883
▁bastille	-7884
▁obfus	-7885
▁consumable	-7886
▁fad	-7887
▁proxim	-7888
▁vincent	-7889
▁descriptive	-7890
atim	-7891
▁dean	-7892
▁verbatim	-7893
▁bun	-7894
▁bring	-7895
▁debit	-7896
▁anyway	-7897
▁tea	-7898
▁casing	-7899
▁unpin	-7900
▁affil	-7901
▁griff	-7902
▁reassign	-7903
▁unloaded	-7904
▁accompanist	-7905
▁separ	-7906
eled	-7907
▁nort	-7908
cessed	-7909
▁tooling	-7910
▁unprocessed	-7911
▁rare	-7912
▁chess	-7913
▁pilot	-7914
▁berlin	-7915
▁strata	-7916
▁tro	-7917
▁exceptional	-7918
▁cite	-7919
berry	-7920
▁lake	-7921
▁peso	-7922
▁rough	-7923
▁settlement	-7924
ared	-7925
▁decline	-7926
quisition	-7927
▁surprise	-7928
▁specialization	-7929
▁mutually	-7930
▁discoverer	-7931
▁incorrectly	-7932
▁flee	-7933
▁pert	-7934
▁catching	-7935
▁proximity	-7936
▁heat	-7937
▁pirate	-7938
▁collabor	-7939
▁taxonomy	-7940
▁hon	-7941
▁motif	-7942
▁estate	-7943
igma	-7944
▁ivy	-7945
ional	-7946
▁traditional	-7947
elo	-7948
vex	-7949
look	-7950
▁convex	-7951
▁pomelo	-7952
▁griffin	-7953
▁compacted	-7954
▁truncation	-7955
▁ideal	-7956
▁shoppe	-7957
▁reconnection	-7958
▁tout	-7959
▁improve	-7960
▁accurate	-7961
▁executer	-7962
▁northern	-7963
▁emphasis	-7964
▁classified	-7965
olf	-7966
esth	-7967
▁glib	-7968
▁improper	-7969
▁refinement	-7970
abil	-7971
rans	-7972
▁downgrade	-7973
▁potentially	-7974
▁cosh	-7975
▁hope	-7976
▁shaper	-7977
▁ali	-7978
ortun	-7979
ruder	-7980
stood	-7981
▁valet	-7982
ancer	-7983
▁aesth	-7984
▁ancestry	-7985
▁governance	-7986
▁pros	-7987
▁honor	-7988
▁viol	-7989
idding	-7990
▁transitional	-7991
ino	-7992
issa	-7993
master	-7994
▁honey	-7995
▁powered	-7996
▁unmapped	-7997
▁ket	-7998
▁ruler	-7999
▁imaginary	-8000
▁pars	-8001
▁unpubl	-8002
▁whence	-8003
▁conformance	-8004
▁cud	-8005
▁desk	-8006
▁stake	-8007
▁undoc	-8008
umented	-8009
▁empire	-8010
▁ratchet	-8011
▁undocumented	-8012
▁omn	-8013
▁taps	-8014
▁couch	-8015
▁heter	-8016
▁hammer	-8017
▁indication	-8018
▁temporarily	-8019
▁maha	-8020
▁tomb	-8021
▁wont	-8022
▁civic	-8023
▁situation	-8024
rian	-8025
▁emote	-8026
▁aug	-8027
▁giving	-8028
▁extruder	-8029
▁throttler	-8030
▁optimistic	-8031
▁understood	-8032
urt	-8033
hole	-8034
▁outlook	-8035
▁spinach	-8036
▁whoops	-8037
▁helpful	-8038
▁aft	-8039
onome	-8040
proof	-8041
▁unfold	-8042
▁metronome	-8043
▁vest	-8044
▁scout	-8045
▁overd	-8046
scription	-8047
▁clearing	-8048
▁simplification	-8049
▁urgent	-8050
▁interpretation	-8051
ba	-8052
zyme	-8053
▁yaw	-8054
▁motor	-8055
▁enzyme	-8056
▁rip	-8057
▁dust	-8058
▁isle	-8059
▁mali	-8060
▁wast	-8061
▁verse	-8062
▁jail	-8063
▁tidy	-8064
▁textual	-8065
▁segmented	-8066
▁unpublished	-8067
▁dop	-8068
▁rationale	-8069
▁technical	-8070
▁attribution	-8071
▁outbox	-8072
▁modeling	-8073
▁multiplex	-8074
▁exclusively	-8075
▁bike	-8076
▁mutual	-8077
▁multiplication	-8078
ibus	-8079
▁jap	-8080
▁vex	-8081
▁intell	-8082
▁remedi	-8083
▁mantissa	-8084
▁transliter	-8085
▁remediation	-8086
▁sne	-8087
▁tunable	-8088
▁gy	-8089
▁influ	-8090
▁silly	-8091
▁redist	-8092
▁yang	-8093
▁lemma	-8094
▁blazing	-8095
▁supplement	-8096
▁roam	-8097
▁spelling	-8098
▁underflow	-8099
▁pretrain	-8100
▁nix	-8101
▁clog	-8102
▁costa	-8103
▁kh	-8104
▁flint	-8105
▁confine	-8106
▁fixable	-8107
▁omnibus	-8108
▁operational	-8109
▁tum	-8110
▁ballot	-8111
▁prayer	-8112
▁horizontally	-8113
▁wine	-8114
▁gross	-8115
▁hydro	-8116
▁widen	-8117
▁polyglot	-8118
▁generally	-8119
▁mechanize	-8120
▁castor	-8121
▁strategic	-8122
▁forecasting	-8123
▁nak	-8124
▁pon	-8125
olved	-8126
▁clap	-8127
▁grub	-8128
▁jess	-8129
▁wamp	-8130
ercial	-8131
▁inact	-8132
▁thunder	-8133
▁commercial	-8134
▁toe	-8135
uristic	-8136
▁blending	-8137
▁transducer	-8138
▁directional	-8139
▁anc	-8140
▁billy	-8141
▁donate	-8142
▁uncount	-8143
▁scalable	-8144
ato	-8145
▁ded	-8146
▁jew	-8147
▁boat	-8148
▁tera	-8149
▁delve	-8150
▁fiction	-8151
▁influence	-8152
▁interview	-8153
▁rolled	-8154
▁bidding	-8155
▁guy	-8156
▁mage	-8157
▁conse	-8158
▁unver	-8159
▁complain	-8160
▁inertia	-8161
▁telephony	-8162
▁mike	-8163
▁wear	-8164
▁sciss	-8165
▁remains	-8166
▁gatherer	-8167
▁slightly	-8168
▁sham	-8169
etition	-8170
▁pah	-8171
▁pant	-8172
▁teal	-8173
▁japan	-8174
▁august	-8175
▁scissor	-8176
▁librarian	-8177
▁productivity	-8178
▁distinguished	-8179
▁quantum	-8180
▁diameter	-8181
▁abstraction	-8182
roon	-8183
▁highly	-8184
▁reskin	-8185
▁verifiable	-8186
▁endless	-8187
▁explosive	-8188
omot	-8189
opher	-8190
omotive	-8191
▁enigma	-8192
▁immune	-8193
▁posting	-8194
▁unifier	-8195
arma	-8196
▁imputer	-8197
▁shuttle	-8198
▁fling	-8199
▁populator	-8200
▁reschedule	-8201
▁ine	-8202
▁striped	-8203
ief	-8204
▁reseed	-8205
▁converge	-8206
▁outlined	-8207
▁vulnerable	-8208
field	-8209
▁valor	-8210
elerate	-8211
itution	-8212
▁octave	-8213
▁decelerate	-8214
▁bunch	-8215
▁traject	-8216
▁acquisition	-8217
▁regularization	-8218
▁sail	-8219
▁moderation	-8220
▁improvement	-8221
▁reimb	-8222
▁guideline	-8223
▁heuristic	-8224
▁conjunction	-8225
▁terr	-8226
▁scrape	-8227
▁commenter	-8228
▁integrate	-8229
▁battlefield	-8230
lavi	-8231
▁pahlavi	-8232
bang	-8233
irected	-8234
▁shebang	-8235
▁resistance	-8236
▁trajectory	-8237
▁publishable	-8238
▁uncountable	-8239
▁nul	-8240
conut	-8241
▁pear	-8242
abeled	-8243
▁coconut	-8244
▁unlabeled	-8245
sun	-8246
▁econ	-8247
▁booted	-8248
▁displace	-8249
▁acknowledge	-8250
▁talent	-8251
▁inactivity	-8252
▁gens	-8253
▁horse	-8254
▁truck	-8255
▁moderator	-8256
▁traceable	-8257
▁proposition	-8258
▁hinge	-8259
▁meson	-8260
▁abnormal	-8261
▁specialty	-8262
▁pour	-8263
▁axiom	-8264
▁fight	-8265
▁sweet	-8266
▁cock	-8267
▁uncle	-8268
verb	-8269
▁mim	-8270
▁sah	-8271
▁turf	-8272
▁strat	-8273
▁nibble	-8274
▁thinker	-8275
▁administrate	-8276
▁ean	-8277
akana	-8278
▁prawn	-8279
▁katakana	-8280
▁evolution	-8281
▁authorizable	-8282
▁insp	-8283
▁grass	-8284
▁busted	-8285
▁summon	-8286
▁feather	-8287
▁breakdown	-8288
soid	-8289
▁dinar	-8290
▁ellipsoid	-8291
▁equatable	-8292
▁regenerator	-8293
▁sout	-8294
sphere	-8295
▁phony	-8296
▁darken	-8297
versible	-8298
▁permiss	-8299
▁southern	-8300
▁unverified	-8301
▁unn	-8302
inomial	-8303
▁anyone	-8304
metrical	-8305
▁bak	-8306
▁linkage	-8307
▁portion	-8308
▁stal	-8309
▁lingu	-8310
▁stringer	-8311
cur	-8312
variant	-8313
▁contravariant	-8314
teen	-8315
▁brute	-8316
▁pants	-8317
▁squib	-8318
▁maturity	-8319
▁northeast	-8320
▁pasteboard	-8321
ected	-8322
▁evil	-8323
reh	-8324
▁purl	-8325
▁aptly	-8326
▁multinomial	-8327
onym	-8328
▁kan	-8329
▁maya	-8330
▁sier	-8331
antage	-8332
▁lyric	-8333
▁impurity	-8334
▁animating	-8335
▁preflight	-8336
▁university	-8337
▁effectivity	-8338
▁designed	-8339
angha	-8340
▁hull	-8341
▁sierra	-8342
▁auditor	-8343
▁confused	-8344
emoth	-8345
anghai	-8346
▁flock	-8347
▁formal	-8348
▁behemoth	-8349
▁shanghai	-8350
▁bis	-8351
▁gauss	-8352
▁farmer	-8353
▁exportable	-8354
▁calculating	-8355
▁bosun	-8356
▁drink	-8357
▁spill	-8358
claimer	-8359
▁cue	-8360
▁swash	-8361
▁comfort	-8362
▁marking	-8363
▁stubber	-8364
▁bordered	-8365
▁gatekeeper	-8366
▁undirected	-8367
▁wonderland	-8368
▁monarch	-8369
▁redefine	-8370
▁supposed	-8371
▁collective	-8372
▁committable	-8373
▁fizz	-8374
▁satur	-8375
▁optics	-8376
▁hydrosphere	-8377
▁numerically	-8378
▁flog	-8379
▁medic	-8380
▁framer	-8381
▁collateral	-8382
▁neighborhood	-8383
pin	-8384
▁spectral	-8385
▁respectively	-8386
▁copper	-8387
▁tripper	-8388
▁weekend	-8389
▁duplication	-8390
losed	-8391
▁said	-8392
▁profe	-8393
▁rated	-8394
▁involved	-8395
▁alphabetic	-8396
▁cod	-8397
▁knop	-8398
▁bless	-8399
▁divided	-8400
▁slog	-8401
▁operable	-8402
▁chord	-8403
▁coverlet	-8404
▁disclaimer	-8405
ulpin	-8406
▁virgin	-8407
▁prosody	-8408
▁sculpin	-8409
▁torus	-8410
▁contam	-8411
▁aesthetic	-8412
▁technique	-8413
▁specifically	-8414
▁cave	-8415
▁vuln	-8416
▁maria	-8417
▁worth	-8418
▁gopher	-8419
size	-8420
▁aure	-8421
▁tess	-8422
▁aside	-8423
ulner	-8424
▁combin	-8425
▁aurelia	-8426
▁spitter	-8427
▁invulner	-8428
▁worst	-8429
▁pointing	-8430
▁invulnerable	-8431
▁rans	-8432
▁destruct	-8433
▁separately	-8434
▁saa	-8435
▁sir	-8436
▁tho	-8437
▁bell	-8438
▁seeded	-8439
▁enhancer	-8440
asel	-8441
▁bab	-8442
▁weasel	-8443
▁expanding	-8444
▁contribute	-8445
▁axe	-8446
▁swim	-8447
▁hound	-8448
▁overt	-8449
▁parametric	-8450
▁strictness	-8451
like	-8452
▁typer	-8453
▁dotless	-8454
▁pretend	-8455
▁connectable	-8456
▁contamination	-8457
▁advent	-8458
▁ignition	-8459
▁duplic	-8460
▁june	-8461
▁sneaky	-8462
▁yearly	-8463
▁compreh	-8464
▁oat	-8465
▁quer	-8466
▁buddy	-8467
▁curse	-8468
▁waker	-8469
roscope	-8470
▁silently	-8471
▁worked	-8472
▁resident	-8473
▁executive	-8474
ucent	-8475
▁styl	-8476
▁spook	-8477
▁agreed	-8478
▁falling	-8479
▁translucent	-8480
gana	-8481
▁hira	-8482
▁oasis	-8483
abilistic	-8484
▁hiragana	-8485
▁pluralization	-8486
▁probabilistic	-8487
rative	-8488
▁fringe	-8489
omatic	-8490
▁zipper	-8491
vour	-8492
▁rider	-8493
▁flavour	-8494
▁marginal	-8495
▁outp	-8496
colate	-8497
▁champ	-8498
▁comic	-8499
install	-8500
▁spooky	-8501
mbic	-8502
▁serf	-8503
▁chand	-8504
▁alembic	-8505
▁fireproof	-8506
arer	-8507
▁causing	-8508
▁rematch	-8509
▁depthwise	-8510
uckle	-8511
▁mover	-8512
▁tonic	-8513
▁externals	-8514
▁mutability	-8515
▁kore	-8516
▁sake	-8517
▁plotting	-8518
▁unac	-8519
▁manifold	-8520
▁biometric	-8521
▁synchronously	-8522
▁hooked	-8523
▁palind	-8524
▁pepper	-8525
▁posterior	-8526
▁comfortable	-8527
▁readability	-8528
▁tent	-8529
▁spacy	-8530
▁collator	-8531
▁poke	-8532
▁living	-8533
▁polled	-8534
▁disturb	-8535
▁filling	-8536
▁ransack	-8537
▁dropping	-8538
▁symmetrical	-8539
▁zinc	-8540
apsack	-8541
▁knapsack	-8542
▁colorable	-8543
▁explainer	-8544
illow	-8545
▁towards	-8546
▁preparer	-8547
▁unselected	-8548
▁fis	-8549
▁fiscal	-8550
▁lun	-8551
itely	-8552
▁haven	-8553
▁slows	-8554
▁spinal	-8555
▁manipulate	-8556
▁claro	-8557
▁workbox	-8558
▁annotator	-8559
▁hob	-8560
▁hangul	-8561
▁rehash	-8562
▁postmaster	-8563
▁killer	-8564
▁performer	-8565
otal	-8566
▁oes	-8567
▁candy	-8568
▁expense	-8569
▁cel	-8570
▁flair	-8571
▁quint	-8572
▁unsat	-8573
▁kitten	-8574
▁oil	-8575
▁boliv	-8576
▁daylight	-8577
▁tranqu	-8578
▁subtotal	-8579
▁jam	-8580
▁bise	-8581
▁hund	-8582
▁rick	-8583
▁porto	-8584
▁batman	-8585
▁hundred	-8586
▁adaptation	-8587
▁annoy	-8588
▁rapid	-8589
▁swashb	-8590
zle	-8591
▁ady	-8592
▁sap	-8593
▁phon	-8594
▁pooler	-8595
▁revive	-8596
▁querier	-8597
▁mountain	-8598
▁smoother	-8599
▁interlace	-8600
▁punctuator	-8601
▁typesetter	-8602
ixir	-8603
▁crazy	-8604
▁elixir	-8605
▁swashbuckle	-8606
rus	-8607
▁radii	-8608
▁unmodified	-8609
▁affiliation	-8610
▁reimbursement	-8611
iday	-8612
▁stun	-8613
▁kitch	-8614
▁pound	-8615
▁stocks	-8616
▁holiday	-8617
▁parking	-8618
▁affix	-8619
▁kitchen	-8620
alo	-8621
ercer	-8622
▁bought	-8623
▁coercer	-8624
▁settled	-8625
▁eliminate	-8626
ao	-8627
▁nock	-8628
▁decider	-8629
fty	-8630
▁blip	-8631
levant	-8632
▁nightly	-8633
▁cyp	-8634
▁beng	-8635
▁agree	-8636
▁induct	-8637
▁irrelevant	-8638
uted	-8639
▁pron	-8640
▁seem	-8641
▁journey	-8642
▁composit	-8643
▁million	-8644
▁deformer	-8645
▁engineering	-8646
▁nimb	-8647
▁compositor	-8648
▁everywhere	-8649
▁enforcement	-8650
▁acid	-8651
▁surv	-8652
▁repetition	-8653
▁demonstration	-8654
itory	-8655
▁sher	-8656
▁reify	-8657
▁scrum	-8658
▁unsatisf	-8659
▁mae	-8660
▁dell	-8661
▁disj	-8662
served	-8663
▁alien	-8664
▁anchored	-8665
▁reviewer	-8666
▁accessory	-8667
▁aqu	-8668
▁jan	-8669
▁stylet	-8670
▁gettable	-8671
aw	-8672
▁territory	-8673
ubi	-8674
balt	-8675
▁soc	-8676
▁ubi	-8677
▁cobalt	-8678
▁nimbus	-8679
▁janitor	-8680
▁duty	-8681
▁steep	-8682
▁learned	-8683
▁guardian	-8684
▁cape	-8685
▁taker	-8686
iciency	-8687
no	-8688
▁cyl	-8689
▁tale	-8690
▁ama	-8691
▁franc	-8692
▁ultimate	-8693
▁unclosed	-8694
▁enclosure	-8695
▁je	-8696
▁iba	-8697
▁thrifty	-8698
▁josh	-8699
ernsey	-8700
▁exempt	-8701
▁guernsey	-8702
▁practice	-8703
wi	-8704
▁vibrate	-8705
▁sherlock	-8706
▁joy	-8707
▁obse	-8708
▁agile	-8709
▁hence	-8710
▁silex	-8711
▁viewable	-8712
gu	-8713
ulse	-8714
▁dilate	-8715
▁quickly	-8716
dom	-8717
abwe	-8718
▁zimb	-8719
▁chise	-8720
▁river	-8721
▁freedom	-8722
▁zimbabwe	-8723
▁ante	-8724
▁kinet	-8725
▁regul	-8726
▁buffalo	-8727
rangement	-8728
▁creature	-8729
▁kinetics	-8730
▁obsessive	-8731
▁orchestration	-8732
▁gene	-8733
▁reissue	-8734
▁swa	-8735
▁ride	-8736
▁separable	-8737
▁positioned	-8738
oo	-8739
▁ugly	-8740
▁benef	-8741
▁spher	-8742
▁sleeper	-8743
▁cylinder	-8744
▁deadlock	-8745
▁listable	-8746
▁quis	-8747
▁addend	-8748
▁distant	-8749
▁collide	-8750
abb	-8751
▁dod	-8752
▁nog	-8753
alled	-8754
▁lots	-8755
▁mary	-8756
▁milk	-8757
▁orthog	-8758
▁sponsorship	-8759
▁perturb	-8760
▁arrangement	-8761
▁cuboid	-8762
▁orthogonal	-8763
ofer	-8764
serv	-8765
▁karma	-8766
▁highway	-8767
▁growable	-8768
▁propagator	-8769
▁approximately	-8770
▁snafu	-8771
▁helmet	-8772
▁downcast	-8773
▁introduce	-8774
▁bookkeeper	-8775
gue	-8776
ternoon	-8777
▁chisel	-8778
▁playable	-8779
▁repeater	-8780
▁afternoon	-8781
▁displacement	-8782
▁cloth	-8783
▁templ	-8784
▁synthes	-8785
▁coo	-8786
▁borer	-8787
▁banker	-8788
▁stepper	-8789
rit	-8790
▁sword	-8791
▁trackable	-8792
ali	-8793
▁displayer	-8794
▁sole	-8795
▁typo	-8796
▁impulse	-8797
▁bluebird	-8798
▁homogeneous	-8799
▁superscript	-8800
vered	-8801
▁sire	-8802
▁chandu	-8803
▁planar	-8804
▁inversed	-8805
uplication	-8806
▁lightness	-8807
▁atmos	-8808
▁indefin	-8809
▁kingpin	-8810
alc	-8811
▁synd	-8812
▁dingo	-8813
quisite	-8814
▁excess	-8815
▁sharable	-8816
sho	-8817
▁jun	-8818
block	-8819
▁crumb	-8820
▁paran	-8821
▁dynamics	-8822
▁clockwork	-8823
oor	-8824
▁ugl	-8825
▁skey	-8826
▁diesel	-8827
▁deduplication	-8828
▁vie	-8829
▁grit	-8830
▁reput	-8831
▁knight	-8832
▁ele	-8833
▁hill	-8834
graphy	-8835
▁idiom	-8836
▁reverb	-8837
▁softly	-8838
▁proofer	-8839
▁symptom	-8840
▁yielding	-8841
▁gat	-8842
▁cream	-8843
▁spine	-8844
▁conjug	-8845
▁reputation	-8846
▁quay	-8847
▁turb	-8848
▁optic	-8849
▁voyage	-8850
▁foundry	-8851
▁rotating	-8852
▁clockwise	-8853
▁finishing	-8854
fto	-8855
enty	-8856
stit	-8857
▁aba	-8858
▁noon	-8859
ftover	-8860
▁timor	-8861
▁wither	-8862
▁chamber	-8863
▁leftover	-8864
ttery	-8865
artition	-8866
▁lottery	-8867
▁displayable	-8868
▁hire	-8869
▁leet	-8870
▁skal	-8871
▁correctness	-8872
▁dit	-8873
▁cone	-8874
▁lina	-8875
▁flagger	-8876
▁switched	-8877
▁bip	-8878
▁gez	-8879
▁fader	-8880
▁locust	-8881
▁roaming	-8882
▁spectrum	-8883
▁templater	-8884
▁profession	-8885
child	-8886
imeter	-8887
▁civil	-8888
minated	-8889
▁grandchild	-8890
▁dak	-8891
shelf	-8892
▁dragged	-8893
▁donation	-8894
▁bookshelf	-8895
▁resumable	-8896
mper	-8897
warf	-8898
string	-8899
▁dwarf	-8900
▁evening	-8901
▁approver	-8902
▁declarator	-8903
▁palindrome	-8904
▁eco	-8905
▁yen	-8906
abbard	-8907
▁ranger	-8908
▁finance	-8909
▁scabbard	-8910
▁alm	-8911
▁grip	-8912
▁quite	-8913
▁multi	-8914
angible	-8915
▁soldier	-8916
▁intangible	-8917
▁lightweight	-8918
▁retract	-8919
▁thought	-8920
▁violate	-8921
▁topological	-8922
▁mop	-8923
▁pho	-8924
▁pup	-8925
▁glut	-8926
▁former	-8927
▁pollable	-8928
▁observability	-8929
▁viny	-8930
▁almond	-8931
▁engage	-8932
▁wraith	-8933
▁analogue	-8934
uba	-8935
▁keb	-8936
▁vinyl	-8937
▁rooted	-8938
▁simult	-8939
▁lockable	-8940
▁inductive	-8941
▁informative	-8942
▁simultaneous	-8943
▁olm	-8944
▁econom	-8945
▁sacred	-8946
▁divergence	-8947
▁kos	-8948
▁vet	-8949
▁swatch	-8950
tto	-8951
▁lion	-8952
artite	-8953
▁dutch	-8954
▁preact	-8955
▁retail	-8956
▁bipartite	-8957
▁spherical	-8958
appe	-8959
▁bunny	-8960
▁breath	-8961
▁settle	-8962
▁strange	-8963
▁regulatory	-8964
rial	-8965
▁alth	-8966
▁cran	-8967
rophone	-8968
▁attend	-8969
▁inhibit	-8970
▁dominant	-8971
▁microphone	-8972
▁checkstring	-8973
wed	-8974
▁swiz	-8975
▁although	-8976
▁combining	-8977
ista	-8978
user	-8979
▁inac	-8980
▁county	-8981
▁collaborator	-8982
▁loge	-8983
▁weld	-8984
▁exploded	-8985
▁frontier	-8986
rior	-8987
▁vow	-8988
▁swiss	-8989
▁spaced	-8990
▁warmer	-8991
▁leverage	-8992
▁disassemble	-8993
▁ogam	-8994
▁amber	-8995
▁bankera	-8996
▁decompression	-8997
▁bod	-8998
▁goo	-8999
▁koi	-9000
▁recalc	-9001
▁abandon	-9002
▁quo	-9003
cator	-9004
▁brin	-9005
▁warrior	-9006
▁ingestion	-9007
▁gip	-9008
▁centrif	-9009
▁swizzle	-9010
▁dimensionality	-9011
▁cin	-9012
▁bali	-9013
▁ultra	-9014
▁adject	-9015
▁silenced	-9016
▁graphical	-9017
▁chile	-9018
▁capped	-9019
▁extender	-9020
▁classroom	-9021
▁disjunction	-9022
optic	-9023
▁triangular	-9024
▁accumulation	-9025
▁multiplicative	-9026
▁ana	-9027
▁perp	-9028
holder	-9029
▁amend	-9030
▁kebab	-9031
▁onion	-9032
▁disappe	-9033
▁industrial	-9034
▁administrative	-9035
au	-9036
cra	-9037
▁gi	-9038
▁ic	-9039
▁bib	-9040
▁siren	-9041
▁panoptic	-9042
▁deformable	-9043
▁disruption	-9044
▁representative	-9045
state	-9046
▁beaker	-9047
▁icicle	-9048
▁clin	-9049
▁gleam	-9050
▁pointed	-9051
▁swallow	-9052
▁inquirer	-9053
▁ecos	-9054
▁subd	-9055
▁stuck	-9056
▁pastel	-9057
▁florent	-9058
▁shipped	-9059
▁chocolate	-9060
▁ecosystem	-9061
▁adm	-9062
force	-9063
track	-9064
▁sept	-9065
▁backtrack	-9066
▁syndication	-9067
▁mel	-9068
▁outsize	-9069
▁holy	-9070
▁whis	-9071
▁rogue	-9072
▁trump	-9073
▁maroon	-9074
▁freezer	-9075
▁adjective	-9076
▁uncovered	-9077
▁fabr	-9078
▁hungry	-9079
▁fabricate	-9080
▁dob	-9081
▁dang	-9082
▁braz	-9083
▁swig	-9084
▁lucky	-9085
▁intelligence	-9086
app	-9087
▁fixing	-9088
▁ancient	-9089
cheduled	-9090
▁medicine	-9091
▁reaching	-9092
▁unscheduled	-9093
▁standardized	-9094
▁investigation	-9095
▁emission	-9096
▁offensive	-9097
▁interruption	-9098
▁supportability	-9099
enix	-9100
▁prede	-9101
▁steer	-9102
▁foreman	-9103
▁phoenix	-9104
▁ordinary	-9105
▁governing	-9106
▁statically	-9107
▁subtraction	-9108
izen	-9109
▁lac	-9110
▁nit	-9111
▁nub	-9112
▁chatter	-9113
▁examine	-9114
▁yap	-9115
▁hunt	-9116
▁lord	-9117
ingual	-9118
amation	-9119
▁backer	-9120
▁cursive	-9121
▁jeweler	-9122
▁passage	-9123
▁frameless	-9124
▁destructive	-9125
▁pebble	-9126
▁tiling	-9127
▁stead	-9128
▁analytic	-9129
▁basically	-9130
▁unrelated	-9131
▁serpent	-9132
▁turbine	-9133
▁specificity	-9134
▁gay	-9135
▁kali	-9136
▁unve	-9137
▁skiff	-9138
▁hydration	-9139
▁commitment	-9140
▁interference	-9141
▁tome	-9142
▁conch	-9143
▁conter	-9144
▁clearer	-9145
▁vacancy	-9146
▁apparent	-9147
▁locomotive	-9148
▁footprint	-9149
iage	-9150
▁kite	-9151
▁sigh	-9152
ractor	-9153
▁acute	-9154
▁blizzard	-9155
▁inflated	-9156
rame	-9157
▁shaw	-9158
cessor	-9159
▁steady	-9160
▁citizen	-9161
▁cracker	-9162
▁predecessor	-9163
▁additionally	-9164
▁wen	-9165
▁goon	-9166
▁pyre	-9167
▁arrival	-9168
▁unequal	-9169
▁governor	-9170
axon	-9171
▁indic	-9172
▁bisect	-9173
▁overtime	-9174
▁themselves	-9175
haps	-9176
lime	-9177
▁ascend	-9178
▁severe	-9179
▁thingy	-9180
▁perhaps	-9181
▁sublime	-9182
▁winning	-9183
▁prerequisite	-9184
▁ade	-9185
▁nic	-9186
shoot	-9187
▁pist	-9188
idental	-9189
▁twenty	-9190
▁genotype	-9191
▁junction	-9192
▁phrasing	-9193
▁equalizer	-9194
▁speculative	-9195
▁ruf	-9196
▁sind	-9197
▁surf	-9198
▁servant	-9199
▁monetary	-9200
▁reinstall	-9201
oman	-9202
▁och	-9203
▁rele	-9204
▁goose	-9205
▁mandate	-9206
▁convolve	-9207
▁industry	-9208
▁occidental	-9209
▁arb	-9210
▁lux	-9211
▁rufus	-9212
▁schem	-9213
▁quotation	-9214
▁decreasing	-9215
▁raj	-9216
▁accelerated	-9217
iral	-9218
ousand	-9219
▁smile	-9220
▁unter	-9221
allible	-9222
▁killing	-9223
▁thousand	-9224
▁infallible	-9225
▁unterminated	-9226
▁pain	-9227
▁rant	-9228
▁slap	-9229
▁undecl	-9230
blocking	-9231
▁nonblocking	-9232
▁informational	-9233
▁ate	-9234
▁gon	-9235
▁adobe	-9236
▁flawed	-9237
▁concent	-9238
▁compactor	-9239
▁undeclared	-9240
▁disturbance	-9241
inar	-9242
▁teng	-9243
▁blast	-9244
▁mango	-9245
▁vista	-9246
▁lighten	-9247
▁unexpectedly	-9248
ucker	-9249
▁otto	-9250
apsible	-9251
▁gambia	-9252
▁recipro	-9253
ially	-9254
▁kiwi	-9255
▁pile	-9256
▁sane	-9257
▁atten	-9258
▁brazil	-9259
rim	-9260
▁kiss	-9261
▁wired	-9262
▁ribble	-9263
▁shaded	-9264
▁charting	-9265
▁gathering	-9266
usk	-9267
phin	-9268
rale	-9269
▁isom	-9270
▁russ	-9271
orable	-9272
▁entit	-9273
▁dolphin	-9274
▁elector	-9275
▁centrale	-9276
▁prettify	-9277
▁provenance	-9278
▁entitlement	-9279
icked	-9280
ordant	-9281
▁shear	-9282
▁fading	-9283
▁unveil	-9284
▁organized	-9285
▁apa	-9286
allax	-9287
▁tund	-9288
▁vast	-9289
▁dance	-9290
▁fifteen	-9291
▁asserter	-9292
▁parallax	-9293
▁observing	-9294
▁pyroscope	-9295
▁sike	-9296
▁mordant	-9297
▁pushing	-9298
▁touching	-9299
▁convenient	-9300
▁government	-9301
▁disassembly	-9302
▁ail	-9303
▁crap	-9304
▁flashlight	-9305
▁collapsible	-9306
▁pico	-9307
▁sided	-9308
▁drunkard	-9309
▁phonetic	-9310
▁titanium	-9311
▁conjugate	-9312
▁progression	-9313
▁unresolvable	-9314
▁interruptible	-9315
▁clinic	-9316
▁doubly	-9317
▁weakly	-9318
▁crossing	-9319
▁precheck	-9320
▁abandoned	-9321
▁tombstone	-9322
▁permissive	-9323
▁relat	-9324
▁shirt	-9325
▁unpre	-9326
▁chucker	-9327
▁moderate	-9328
▁reproduce	-9329
▁submarine	-9330
▁reissuable	-9331
renade	-9332
ferenced	-9333
▁advised	-9334
▁grenade	-9335
▁trumpet	-9336
▁equivalency	-9337
▁standardize	-9338
▁unreferenced	-9339
▁approximation	-9340
▁ara	-9341
▁mun	-9342
arman	-9343
▁cord	-9344
▁poker	-9345
▁naught	-9346
▁thrust	-9347
▁arbiter	-9348
▁confirming	-9349
▁fash	-9350
roller	-9351
▁lantern	-9352
▁titanic	-9353
▁efficiently	-9354
▁inn	-9355
▁fant	-9356
icycle	-9357
pecial	-9358
▁admiral	-9359
▁economic	-9360
▁licensee	-9361
▁recompose	-9362
▁exclamation	-9363
▁cog	-9364
▁zar	-9365
▁rubber	-9366
▁minimizer	-9367
▁pawn	-9368
▁celery	-9369
▁subdiv	-9370
▁summed	-9371
▁tundra	-9372
▁bicycle	-9373
▁fashion	-9374
▁flushing	-9375
▁unsatisfied	-9376
▁transforming	-9377
pl	-9378
▁russia	-9379
▁conserv	-9380
▁synonym	-9381
more	-9382
pole	-9383
▁rene	-9384
▁clash	-9385
▁hotel	-9386
▁automaton	-9387
▁transcription	-9388
▁personalization	-9389
gon	-9390
gler	-9391
▁sog	-9392
▁lark	-9393
▁slip	-9394
▁passe	-9395
ainable	-9396
stitial	-9397
▁digraph	-9398
▁totally	-9399
▁preorder	-9400
▁interstitial	-9401
▁tox	-9402
▁oval	-9403
▁rose	-9404
▁foliage	-9405
▁centrifuge	-9406
▁recommender	-9407
▁supplemental	-9408
▁redistribution	-9409
ased	-9410
imuth	-9411
▁bomb	-9412
▁annual	-9413
▁azimuth	-9414
▁framing	-9415
▁rebound	-9416
▁actuator	-9417
▁subf	-9418
▁orderable	-9419
▁submitter	-9420
rapet	-9421
▁flower	-9422
▁minter	-9423
▁parapet	-9424
▁emulation	-9425
▁attenuation	-9426
▁repartition	-9427
stine	-9428
▁palm	-9429
▁twin	-9430
▁amass	-9431
▁imperial	-9432
▁engagement	-9433
saic	-9434
▁gio	-9435
▁kea	-9436
▁mani	-9437
▁mosaic	-9438
▁cartoon	-9439
▁stagger	-9440
▁cardinal	-9441
▁upcoming	-9442
▁sequentially	-9443
▁sab	-9444
▁ascent	-9445
▁maximal	-9446
▁personality	-9447
▁muse	-9448
▁poor	-9449
▁lumen	-9450
▁refit	-9451
▁shelf	-9452
▁axially	-9453
▁bolivia	-9454
▁recheck	-9455
▁pristine	-9456
body	-9457
▁carter	-9458
▁paragon	-9459
▁measurer	-9460
▁hall	-9461
▁lifo	-9462
▁unsc	-9463
isting	-9464
▁couple	-9465
▁mother	-9466
▁coloring	-9467
▁exchanger	-9468
▁syre	-9469
▁baton	-9470
▁announcer	-9471
▁efficiency	-9472
▁reciprocal	-9473
▁loo	-9474
strel	-9475
▁rage	-9476
▁chuck	-9477
▁creek	-9478
▁flare	-9479
▁kestrel	-9480
▁naughty	-9481
▁proposer	-9482
zel	-9483
▁appoint	-9484
▁inferno	-9485
▁myst	-9486
▁vouch	-9487
▁nuclear	-9488
▁opponent	-9489
inky	-9490
smith	-9491
igator	-9492
▁dangling	-9493
▁occupancy	-9494
▁gee	-9495
▁reprod	-9496
▁polarity	-9497
riage	-9498
▁mero	-9499
erture	-9500
▁slinky	-9501
▁skipper	-9502
▁aperture	-9503
▁coercible	-9504
asso	-9505
▁ode	-9506
▁crypted	-9507
▁subframe	-9508
▁deliverable	-9509
xter	-9510
▁helix	-9511
▁cutout	-9512
▁earning	-9513
▁microscope	-9514
▁tranquility	-9515
ky	-9516
ilium	-9517
▁artific	-9518
▁reproduc	-9519
▁algebraic	-9520
▁applicator	-9521
▁photograph	-9522
▁fragmentation	-9523
fall	-9524
▁brushes	-9525
▁culling	-9526
▁unspent	-9527
▁specular	-9528
▁uniquely	-9529
asma	-9530
▁isot	-9531
▁perk	-9532
▁cilium	-9533
▁cashier	-9534
▁century	-9535
▁topping	-9536
▁especial	-9537
▁painting	-9538
▁programmer	-9539
▁impersonate	-9540
rive	-9541
rained	-9542
▁chair	-9543
▁frost	-9544
▁plasma	-9545
▁vibration	-9546
▁thumbprint	-9547
▁possibility	-9548
elve	-9549
▁usual	-9550
▁subpass	-9551
▁freshness	-9552
isco	-9553
▁cayman	-9554
▁classical	-9555
▁ridgepole	-9556
▁consistently	-9557
▁woo	-9558
▁compt	-9559
▁ladder	-9560
▁retrans	-9561
▁revenue	-9562
▁suspension	-9563
▁comptroller	-9564
▁differently	-9565
▁authenticity	-9566
obu	-9567
▁zig	-9568
obuoy	-9569
istics	-9570
▁apart	-9571
▁glean	-9572
▁prest	-9573
▁nuclei	-9574
▁pistol	-9575
▁collins	-9576
▁kingdom	-9577
▁publicly	-9578
▁sonobuoy	-9579
▁stationary	-9580
ock	-9581
lass	-9582
▁yer	-9583
istle	-9584
▁cann	-9585
▁khar	-9586
▁unmask	-9587
▁unsust	-9588
▁dumping	-9589
▁vibrator	-9590
▁spotlight	-9591
▁unsustainable	-9592
orro	-9593
otely	-9594
▁lucet	-9595
▁zorro	-9596
▁bagging	-9597
▁paranoid	-9598
▁remotely	-9599
▁atmosphere	-9600
▁misf	-9601
usible	-9602
▁elsewhere	-9603
eract	-9604
▁vill	-9605
▁eject	-9606
▁grave	-9607
▁faucet	-9608
▁capstone	-9609
▁tesseract	-9610
▁alternatively	-9611
▁coh	-9612
▁glove	-9613
▁nicely	-9614
▁quotient	-9615
boat	-9616
tail	-9617
▁came	-9618
▁hypo	-9619
richer	-9620
▁munge	-9621
▁polit	-9622
▁tiger	-9623
▁cannon	-9624
▁polish	-9625
cessarily	-9626
▁enricher	-9627
iative	-9628
▁mainly	-9629
▁renegot	-9630
▁premature	-9631
▁artificial	-9632
▁subversion	-9633
race	-9634
▁creole	-9635
▁dexter	-9636
▁evenly	-9637
▁accordingly	-9638
▁servo	-9639
▁definer	-9640
▁federal	-9641
▁duplicator	-9642
▁paw	-9643
▁wap	-9644
▁fame	-9645
▁prone	-9646
▁unitary	-9647
▁panicked	-9648
▁consolidate	-9649
amin	-9650
rogen	-9651
▁flax	-9652
▁vera	-9653
▁discon	-9654
▁married	-9655
▁refresher	-9656
▁dusk	-9657
▁entirely	-9658
rom	-9659
▁gal	-9660
▁guz	-9661
▁kell	-9662
▁wren	-9663
▁invoc	-9664
▁sixth	-9665
▁torso	-9666
▁unexp	-9667
▁vowel	-9668
▁initiative	-9669
▁nei	-9670
▁meat	-9671
▁cisco	-9672
▁rescan	-9673
▁fortune	-9674
▁thrower	-9675
▁creatable	-9676
olia	-9677
jamin	-9678
▁sift	-9679
▁reclaim	-9680
▁benjamin	-9681
▁catchall	-9682
▁magnolia	-9683
▁spending	-9684
▁cardholder	-9685
▁reasonable	-9686
▁thr	-9687
▁goby	-9688
▁hurt	-9689
▁sick	-9690
▁unqual	-9691
▁resettable	-9692
▁discriminant	-9693
▁donkey	-9694
▁parado	-9695
▁promot	-9696
▁gizzard	-9697
▁mockable	-9698
▁removable	-9699
▁dude	-9700
▁refuse	-9701
cessible	-9702
▁individ	-9703
ila	-9704
upal	-9705
▁wolf	-9706
▁niter	-9707
▁drupal	-9708
▁tension	-9709
▁inspired	-9710
▁staleness	-9711
▁especially	-9712
▁unconfined	-9713
▁advertising	-9714
▁recalculate	-9715
▁unqualified	-9716
▁conservative	-9717
▁proportional	-9718
lose	-9719
glass	-9720
▁lack	-9721
▁endor	-9722
▁smote	-9723
▁thirty	-9724
▁advantage	-9725
▁sling	-9726
▁docket	-9727
▁titled	-9728
▁paradox	-9729
▁inversion	-9730
▁plausible	-9731
▁accounting	-9732
▁inaccessible	-9733
▁irreversible	-9734
▁gyp	-9735
▁wae	-9736
▁vers	-9737
▁tippy	-9738
▁layered	-9739
▁unreadable	-9740
gen	-9741
tower	-9742
▁absolut	-9743
▁dominated	-9744
▁watchtower	-9745
▁eve	-9746
▁ted	-9747
▁barra	-9748
▁squad	-9749
▁steven	-9750
▁representable	-9751
▁kl	-9752
horn	-9753
▁ust	-9754
▁rise	-9755
▁growl	-9756
▁aurora	-9757
▁sparks	-9758
▁driving	-9759
▁lowering	-9760
▁liquidity	-9761
▁conformity	-9762
▁individually	-9763
▁unsh	-9764
▁onetime	-9765
▁parsley	-9766
▁darkness	-9767
▁valuable	-9768
▁destruction	-9769
icken	-9770
▁alle	-9771
▁uninst	-9772
▁misfire	-9773
▁practical	-9774
▁synthesize	-9775
▁uninstalled	-9776
iller	-9777
▁baby	-9778
▁stays	-9779
▁klaxon	-9780
▁resent	-9781
▁lockout	-9782
▁shadowing	-9783
▁quantifier	-9784
▁stratified	-9785
▁confirmable	-9786
▁dive	-9787
oneous	-9788
▁outfit	-9789
▁pauser	-9790
▁erroneous	-9791
▁malicious	-9792
isp	-9793
▁bush	-9794
▁flic	-9795
▁buggy	-9796
▁merid	-9797
▁relativ	-9798
▁enforcer	-9799
▁toleration	-9800
ewee	-9801
▁idi	-9802
▁dawn	-9803
▁saur	-9804
▁beside	-9805
▁peewee	-9806
▁beautify	-9807
cut	-9808
▁hell	-9809
▁sora	-9810
▁mayor	-9811
ivation	-9812
▁crouch	-9813
▁monoch	-9814
▁successive	-9815
han	-9816
arder	-9817
enary	-9818
▁mush	-9819
▁cursed	-9820
▁prince	-9821
▁clearable	-9822
▁relativize	-9823
▁donor	-9824
▁turbo	-9825
▁sports	-9826
▁blessed	-9827
▁deferrable	-9828
ruce	-9829
▁baa	-9830
▁boy	-9831
▁whats	-9832
▁circum	-9833
▁famous	-9834
▁spruce	-9835
▁unconst	-9836
▁firebird	-9837
▁afterwards	-9838
ogen	-9839
▁ave	-9840
▁bark	-9841
orphism	-9842
▁advers	-9843
▁elapse	-9844
▁voltage	-9845
▁monochrome	-9846
▁exc	-9847
▁forty	-9848
▁canned	-9849
▁erased	-9850
▁genome	-9851
▁glutin	-9852
▁ranked	-9853
▁opportun	-9854
▁adversary	-9855
ham	-9856
ych	-9857
ston	-9858
▁dae	-9859
▁lap	-9860
▁punt	-9861
▁reli	-9862
▁sate	-9863
▁whit	-9864
▁chase	-9865
▁degra	-9866
▁piano	-9867
▁psych	-9868
▁troll	-9869
▁boston	-9870
▁illust	-9871
▁roller	-9872
▁optical	-9873
▁topmost	-9874
▁appropriately	-9875
▁pit	-9876
▁bull	-9877
▁harry	-9878
▁subtle	-9879
▁loglike	-9880
▁blinding	-9881
▁expressed	-9882
▁throughout	-9883
▁bulb	-9884
▁cork	-9885
▁doggo	-9886
▁grandp	-9887
▁declarer	-9888
▁trimming	-9889
▁logistics	-9890
▁recompute	-9891
▁transmitter	-9892
maid	-9893
eetah	-9894
▁cheap	-9895
▁maxim	-9896
▁cheetah	-9897
▁suspicious	-9898
▁lasso	-9899
▁litho	-9900
▁propose	-9901
▁commonly	-9902
▁steering	-9903
▁lig	-9904
▁demo	-9905
▁ours	-9906
▁upcast	-9907
▁rootless	-9908
▁alto	-9909
▁drug	-9910
curial	-9911
▁amazing	-9912
▁correlate	-9913
▁mercurial	-9914
▁conclusion	-9915
▁cest	-9916
▁toon	-9917
▁marcel	-9918
▁newton	-9919
▁shapely	-9920
▁enrichment	-9921
rip	-9922
▁aby	-9923
▁crack	-9924
▁ortho	-9925
▁whisper	-9926
▁conditionally	-9927
▁rein	-9928
▁rera	-9929
▁soul	-9930
arithm	-9931
▁cloak	-9932
▁cohort	-9933
▁reraise	-9934
▁appendix	-9935
▁logarithm	-9936
▁unconstrained	-9937
ionette	-9938
▁singer	-9939
▁careful	-9940
▁elevate	-9941
▁survival	-9942
▁occlusion	-9943
▁isomorphic	-9944
▁marionette	-9945
shore	-9946
▁clar	-9947
▁nobody	-9948
▁uglify	-9949
mingbird	-9950
▁backfill	-9951
▁offshore	-9952
▁unfortun	-9953
▁hummingbird	-9954
boo	-9955
coon	-9956
erma	-9957
igen	-9958
root	-9959
▁lisp	-9960
▁loma	-9961
▁sieve	-9962
▁bamboo	-9963
▁explod	-9964
▁handed	-9965
▁airport	-9966
▁obvious	-9967
▁carriage	-9968
▁lossless	-9969
▁monarchy	-9970
▁wormhole	-9971
▁storybook	-9972
▁jade	-9973
▁hazel	-9974
▁rental	-9975
▁serious	-9976
▁consolid	-9977
rill	-9978
▁encl	-9979
▁derma	-9980
▁synch	-9981
▁measur	-9982
▁erasure	-9983
▁cocktail	-9984
▁overlord	-9985
here	-9986
olet	-9987
▁flora	-9988
▁gated	-9989
▁macao	-9990
▁rebind	-9991
▁enclave	-9992
▁grantee	-9993
▁trunking	-9994
▁floodlight	-9995
▁subsection	-9996
uble	-9997
▁bop	-9998
naire	-9999
rated	-10000
▁clim	-10001
▁rump	-10002
▁violet	-10003
▁questionnaire	-10004
▁ego	-10005
▁chur	-10006
▁wasted	-10007
▁dealing	-10008
▁farming	-10009
▁spoiler	-10010
▁surveyor	-10011
▁alongside	-10012
▁versioner	-10013
▁cryptogram	-10014
▁institution	-10015
▁dali	-10016
▁unan	-10017
▁strap	-10018
▁manger	-10019
▁mushroom	-10020
▁speedometer	-10021
alls	-10022
comb	-10023
▁lue	-10024
▁ohm	-10025
▁eric	-10026
vester	-10027
▁clipper	-10028
▁mermaid	-10029
▁colorful	-10030
▁coveralls	-10031
▁honeycomb	-10032
▁cele	-10033
▁rasp	-10034
▁unus	-10035
▁tycoon	-10036
▁longhorn	-10037
▁ju	-10038
abel	-10039
using	-10040
▁allele	-10041
▁dealer	-10042
▁manner	-10043
▁nearly	-10044
▁absence	-10045
▁finch	-10046
▁subac	-10047
▁monadic	-10048
▁subaccount	-10049
▁ewe	-10050
▁gib	-10051
▁peep	-10052
▁shan	-10053
▁trop	-10054
▁crisp	-10055
▁monol	-10056
▁firing	-10057
▁expunge	-10058
▁definite	-10059
▁repairable	-10060
iker	-10061
rand	-10062
▁bac	-10063
▁lak	-10064
iture	-10065
▁aval	-10066
▁kilo	-10067
▁yeah	-10068
ociate	-10069
▁church	-10070
▁relate	-10071
▁transm	-10072
▁consequent	-10073
▁subdivision	-10074
urp	-10075
▁unto	-10076
▁funny	-10077
▁gnome	-10078
▁stime	-10079
▁armature	-10080
▁branching	-10081
▁raspberry	-10082
upid	-10083
fixed	-10084
charge	-10085
▁glint	-10086
▁stupid	-10087
▁distill	-10088
▁nullify	-10089
▁relabel	-10090
▁scraper	-10091
▁repeatedly	-10092
ento	-10093
olar	-10094
▁pulp	-10095
▁tide	-10096
▁blazer	-10097
▁popper	-10098
▁isotonic	-10099
▁standing	-10100
▁disappear	-10101
▁discourse	-10102
▁xen	-10103
▁improperly	-10104
▁reconstructed	-10105
▁dow	-10106
▁stiff	-10107
▁worse	-10108
▁willow	-10109
▁curried	-10110
▁obfuscate	-10111
ney	-10112
▁bum	-10113
▁kel	-10114
umble	-10115
▁merch	-10116
▁prevention	-10117
▁regulation	-10118
▁mit	-10119
agram	-10120
▁lone	-10121
▁prose	-10122
▁intact	-10123
▁memento	-10124
▁whistle	-10125
▁revealed	-10126
▁ignorable	-10127
▁mountable	-10128
▁indefinite	-10129
▁advertisement	-10130
etal	-10131
▁nim	-10132
▁stam	-10133
▁exploder	-10134
▁joinable	-10135
▁tristate	-10136
▁shortener	-10137
asa	-10138
apot	-10139
odal	-10140
▁aran	-10141
▁blan	-10142
▁golf	-10143
▁wird	-10144
▁ammon	-10145
▁inport	-10146
▁teapot	-10147
▁turning	-10148
bb	-10149
sper	-10150
▁brig	-10151
▁riff	-10152
▁knock	-10153
▁arango	-10154
▁potato	-10155
▁unnest	-10156
▁shimmer	-10157
▁registrator	-10158
▁bass	-10159
▁empt	-10160
▁wangle	-10161
▁hamster	-10162
▁perplex	-10163
▁impersonation	-10164
▁transformable	-10165
vish	-10166
craft	-10167
▁adjoint	-10168
▁releaser	-10169
▁distinguish	-10170
▁tib	-10171
anted	-10172
▁mima	-10173
▁olla	-10174
▁laminar	-10175
▁plenary	-10176
▁parsable	-10177
▁unwanted	-10178
▁distortion	-10179
orize	-10180
▁frog	-10181
▁tally	-10182
▁elvish	-10183
▁exempl	-10184
▁bearded	-10185
▁outport	-10186
▁actively	-10187
▁excessive	-10188
▁decorative	-10189
▁initiation	-10190
▁substituted	-10191
▁symptomatic	-10192
shaw	-10193
▁toi	-10194
▁ush	-10195
▁agate	-10196
▁cocoa	-10197
▁slurp	-10198
cellent	-10199
verable	-10200
▁rickshaw	-10201
▁furniture	-10202
▁disclosure	-10203
odel	-10204
▁nons	-10205
▁numb	-10206
▁gains	-10207
▁faulty	-10208
▁stamina	-10209
▁boarding	-10210
▁mappable	-10211
▁allowable	-10212
▁continuity	-10213
▁dor	-10214
▁tet	-10215
▁ogre	-10216
▁chicken	-10217
▁finland	-10218
▁remodel	-10219
▁ammonite	-10220
▁postable	-10221
▁literally	-10222
▁anagram	-10223
▁quadrant	-10224
▁semiring	-10225
▁unrolled	-10226
▁saturated	-10227
▁satisfiable	-10228
change	-10229
▁sancho	-10230
▁dilated	-10231
▁capturer	-10232
he	-10233
vin	-10234
▁wice	-10235
▁defender	-10236
▁shoulder	-10237
▁interlaced	-10238
een	-10239
hter	-10240
▁ebb	-10241
▁inex	-10242
▁unte	-10243
▁frust	-10244
▁raiser	-10245
▁fighter	-10246
▁trouble	-10247
▁backdoor	-10248
▁breakable	-10249
▁glassfish	-10250
▁shareable	-10251
▁scalariform	-10252
rette	-10253
iguity	-10254
▁teaser	-10255
▁concise	-10256
▁moniker	-10257
▁rounder	-10258
▁protector	-10259
▁contentful	-10260
▁grandparent	-10261
▁iv	-10262
▁dee	-10263
▁gauf	-10264
▁chill	-10265
osphere	-10266
▁debris	-10267
▁seeker	-10268
▁torque	-10269
▁gaufrette	-10270
▁abuse	-10271
▁lunar	-10272
▁sight	-10273
▁virus	-10274
graphic	-10275
▁multil	-10276
▁stylus	-10277
▁juniper	-10278
asty	-10279
▁tied	-10280
▁clark	-10281
▁kelvin	-10282
▁proven	-10283
▁sevent	-10284
▁subcase	-10285
▁overshoot	-10286
▁moy	-10287
▁oxy	-10288
▁anda	-10289
▁cora	-10290
▁cinch	-10291
▁punch	-10292
▁cleanse	-10293
▁granter	-10294
▁synapse	-10295
struction	-10296
▁multilingual	-10297
▁pencil	-10298
▁frustum	-10299
▁guidance	-10300
▁excellent	-10301
eeper	-10302
▁clan	-10303
▁reap	-10304
▁tetra	-10305
▁census	-10306
▁easter	-10307
▁agility	-10308
▁stopper	-10309
▁sweeper	-10310
▁satisfying	-10311
ackage	-10312
ridged	-10313
▁squid	-10314
▁avenue	-10315
▁crossed	-10316
▁somehow	-10317
▁treasure	-10318
▁unscaled	-10319
▁unreserved	-10320
▁cryptographic	-10321
unct	-10322
▁aqua	-10323
▁syll	-10324
mation	-10325
▁swimmer	-10326
▁computable	-10327
▁troposphere	-10328
▁dap	-10329
▁boots	-10330
▁crane	-10331
▁scalp	-10332
▁beauty	-10333
▁fantas	-10334
▁tomato	-10335
▁bowhead	-10336
▁enclose	-10337
▁magical	-10338
▁mistake	-10339
▁respective	-10340
▁correspondence	-10341
▁materialization	-10342
enda	-10343
▁gaz	-10344
▁kin	-10345
▁seam	-10346
▁shiel	-10347
▁stall	-10348
▁tricky	-10349
▁mimesis	-10350
▁adjuster	-10351
▁untested	-10352
▁weighting	-10353
▁definitely	-10354
▁jud	-10355
▁koa	-10356
▁tat	-10357
▁crispy	-10358
▁sunset	-10359
▁emptiness	-10360
▁imageable	-10361
▁rearrange	-10362
▁supervise	-10363
▁integrator	-10364
▁rectangular	-10365
▁reconstruction	-10366
▁fou	-10367
▁ose	-10368
▁iced	-10369
▁snip	-10370
▁novel	-10371
▁astron	-10372
▁citrus	-10373
▁uncomm	-10374
▁grouper	-10375
▁overdue	-10376
▁newsboat	-10377
▁unstaged	-10378
▁unfortunately	-10379
▁organizational	-10380
cake	-10381
▁lar	-10382
▁tref	-10383
▁caddy	-10384
▁threw	-10385
▁undone	-10386
▁unprot	-10387
▁climber	-10388
▁untouch	-10389
▁unpacker	-10390
▁visiting	-10391
▁unprotected	-10392
fle	-10393
▁arrive	-10394
▁brigade	-10395
▁simpler	-10396
▁importable	-10397
rite	-10398
ordan	-10399
▁howdy	-10400
▁jordan	-10401
▁talking	-10402
well	-10403
lique	-10404
▁tense	-10405
▁hetero	-10406
▁oblique	-10407
▁rotator	-10408
▁reducing	-10409
▁scrubber	-10410
▁eel	-10411
gable	-10412
▁rifle	-10413
▁taxis	-10414
▁agenda	-10415
▁reversal	-10416
▁uncondition	-10417
unken	-10418
▁kuba	-10419
▁beach	-10420
▁booth	-10421
▁resid	-10422
▁uncons	-10423
▁atomics	-10424
▁cooking	-10425
▁labeler	-10426
▁pulldown	-10427
▁sensible	-10428
▁ourselves	-10429
▁adventurer	-10430
▁factorization	-10431
▁unrecoverable	-10432
▁stell	-10433
▁nevermore	-10434
▁periodically	-10435
▁fie	-10436
estro	-10437
ibulum	-10438
▁cattle	-10439
▁tiered	-10440
▁maestro	-10441
▁vestibulum	-10442
▁accelerometer	-10443
ura	-10444
▁zeta	-10445
▁dairy	-10446
▁snaps	-10447
▁encaps	-10448
▁binning	-10449
▁continued	-10450
▁stoppable	-10451
▁attendance	-10452
itar	-10453
▁blub	-10454
▁sarif	-10455
▁photon	-10456
▁unlinked	-10457
▁destroyer	-10458
▁pluggable	-10459
▁contention	-10460
▁necessarily	-10461
ais	-10462
bber	-10463
alina	-10464
elity	-10465
▁pest	-10466
eliver	-10467
▁stringy	-10468
▁toggler	-10469
▁catalina	-10470
▁numerous	-10471
▁overdrive	-10472
▁socialite	-10473
▁hap	-10474
stead	-10475
▁plank	-10476
▁pronto	-10477
▁unseen	-10478
▁homestead	-10479
▁perplexity	-10480
▁reproducible	-10481
oise	-10482
lable	-10483
▁hear	-10484
▁broke	-10485
▁streak	-10486
▁freezing	-10487
▁shielded	-10488
idor	-10489
▁unv	-10490
▁stitch	-10491
▁audible	-10492
▁forging	-10493
▁disposer	-10494
▁fallible	-10495
▁servidor	-10496
▁harvester	-10497
▁conventional	-10498
▁intentionally	-10499
▁scrim	-10500
▁eating	-10501
▁refill	-10502
▁annoying	-10503
▁conflate	-10504
▁transmute	-10505
▁watchable	-10506
▁determinant	-10507
▁distraction	-10508
▁controllable	-10509
agh	-10510
rophy	-10511
▁jazz	-10512
fluous	-10513
▁backst	-10514
▁billed	-10515
▁hacker	-10516
▁pagina	-10517
▁styler	-10518
▁inflict	-10519
▁referee	-10520
▁mandrill	-10521
▁pushover	-10522
▁speaking	-10523
▁inhibitor	-10524
▁attachable	-10525
▁superfluous	-10526
fah	-10527
▁unin	-10528
▁vara	-10529
lemand	-10530
▁defect	-10531
▁loofah	-10532
▁allemand	-10533
▁continually	-10534
▁localizable	-10535
▁nel	-10536
▁marvel	-10537
▁nelson	-10538
▁chasing	-10539
▁taproot	-10540
▁warping	-10541
▁covering	-10542
▁multihead	-10543
▁originator	-10544
squ	-10545
▁hep	-10546
itled	-10547
▁fang	-10548
▁chief	-10549
▁pinch	-10550
▁guitar	-10551
▁ranker	-10552
▁recept	-10553
▁leftmost	-10554
▁saturate	-10555
▁untitled	-10556
▁walkable	-10557
▁reportable	-10558
rage	-10559
hibit	-10560
▁lotto	-10561
ribable	-10562
▁independently	-10563
▁kor	-10564
▁depot	-10565
▁possess	-10566
▁mechanical	-10567
▁certification	-10568
undit	-10569
▁yank	-10570
▁twirl	-10571
▁clique	-10572
▁pundit	-10573
▁somewh	-10574
▁congest	-10575
▁expirable	-10576
asion	-10577
icular	-10578
▁yours	-10579
▁unwrit	-10580
▁guarani	-10581
▁simplex	-10582
▁somewhat	-10583
▁friendship	-10584
oop	-10585
hive	-10586
wink	-10587
▁beehive	-10588
▁sunrise	-10589
▁investigate	-10590
▁searchlight	-10591
att	-10592
▁kurt	-10593
▁rice	-10594
▁ross	-10595
▁told	-10596
▁elbow	-10597
▁heath	-10598
▁lingua	-10599
▁sister	-10600
▁refuter	-10601
▁stepped	-10602
▁unvalid	-10603
▁kurtosis	-10604
▁hen	-10605
▁lid	-10606
▁enjo	-10607
▁unid	-10608
▁vign	-10609
▁wife	-10610
▁olive	-10611
ogenous	-10612
▁patient	-10613
▁postman	-10614
▁repaint	-10615
▁vignette	-10616
▁enjoyment	-10617
▁tabulator	-10618
▁roar	-10619
square	-10620
▁colle	-10621
▁surro	-10622
▁temple	-10623
▁inequal	-10624
▁recompile	-10625
▁foursquare	-10626
inion	-10627
▁fare	-10628
▁fear	-10629
▁mast	-10630
▁ther	-10631
linear	-10632
▁moyen	-10633
▁shuff	-10634
▁clobber	-10635
▁hanging	-10636
▁perpend	-10637
▁superman	-10638
▁unaccept	-10639
▁adventure	-10640
▁orchestra	-10641
▁similarly	-10642
inum	-10643
mely	-10644
▁lamba	-10645
▁puller	-10646
▁tether	-10647
▁unhide	-10648
▁cypress	-10649
▁opinion	-10650
▁hoodwink	-10651
▁pressing	-10652
▁extremely	-10653
▁substrate	-10654
▁inspectable	-10655
▁renegotiation	-10656
▁summarization	-10657
osk	-10658
▁dari	-10659
▁proc	-10660
▁kiosk	-10661
▁prove	-10662
▁bumper	-10663
▁hacking	-10664
▁issuance	-10665
▁invocable	-10666
▁essentially	-10667
▁significance	-10668
▁perpendicular	-10669
icide	-10670
▁procure	-10671
▁enrolled	-10672
▁computational	-10673
▁lie	-10674
plane	-10675
▁stance	-10676
▁bridged	-10677
▁nowhere	-10678
▁greenlet	-10679
▁redundancy	-10680
▁dib	-10681
▁rere	-10682
▁sina	-10683
▁naked	-10684
▁overs	-10685
▁woman	-10686
▁heaven	-10687
▁police	-10688
▁proton	-10689
▁benefit	-10690
▁pinning	-10691
▁acquirer	-10692
▁platinum	-10693
▁reassemb	-10694
▁seamless	-10695
▁durability	-10696
▁opportunity	-10697
▁comprehension	-10698
af	-10699
zamb	-10700
orate	-10701
▁darr	-10702
▁resur	-10703
▁draper	-10704
▁mozamb	-10705
▁forcing	-10706
▁scholar	-10707
▁downward	-10708
▁stiffness	-10709
▁suspender	-10710
▁waterline	-10711
▁mozambique	-10712
▁destroyable	-10713
▁electronics	-10714
uer	-10715
ertz	-10716
▁lee	-10717
▁subc	-10718
▁hertz	-10719
▁laura	-10720
▁reread	-10721
▁drunken	-10722
▁beginner	-10723
▁shooting	-10724
logue	-10725
▁wang	-10726
▁arise	-10727
▁shine	-10728
▁unwra	-10729
ategory	-10730
▁hamlet	-10731
▁monolith	-10732
▁offering	-10733
▁prologue	-10734
▁shifting	-10735
▁subcategory	-10736
▁differentiable	-10737
▁yelp	-10738
▁justo	-10739
▁gazette	-10740
▁stellar	-10741
▁vicious	-10742
▁waterfall	-10743
▁effectively	-10744
▁wir	-10745
tener	-10746
▁afar	-10747
▁loud	-10748
▁liner	-10749
▁monte	-10750
▁commod	-10751
▁twelve	-10752
▁ignorer	-10753
▁lodging	-10754
▁promoter	-10755
▁rewarder	-10756
▁flattener	-10757
uder	-10758
▁dirt	-10759
▁lush	-10760
quoise	-10761
▁ligula	-10762
▁monolog	-10763
▁turquoise	-10764
▁unvalidated	-10765
keep	-10766
otic	-10767
▁ton	-10768
▁ven	-10769
icolor	-10770
▁logos	-10771
▁rainy	-10772
▁swish	-10773
▁tibet	-10774
▁armored	-10775
▁belonging	-10776
▁correlated	-10777
▁interchange	-10778
▁interrupting	-10779
ilder	-10780
▁dout	-10781
▁avast	-10782
▁mimic	-10783
▁augmenter	-10784
▁gazetteer	-10785
▁monologue	-10786
▁disconnection	-10787
itary	-10788
▁gang	-10789
▁yeni	-10790
▁flyway	-10791
▁primar	-10792
▁eagerly	-10793
▁fantasy	-10794
▁textile	-10795
▁outpoint	-10796
▁overline	-10797
▁superior	-10798
▁shrinking	-10799
com	-10800
ooze	-10801
tact	-10802
▁jeff	-10803
▁peto	-10804
ertain	-10805
▁empir	-10806
▁ivory	-10807
▁classy	-10808
▁snooze	-10809
▁endorse	-10810
▁syntact	-10811
▁appointment	-10812
▁existential	-10813
▁procurement	-10814
den	-10815
▁oar	-10816
▁ope	-10817
osing	-10818
▁dend	-10819
▁varn	-10820
▁slicing	-10821
▁dendrite	-10822
▁somebody	-10823
▁subspace	-10824
▁redistribute	-10825
onit	-10826
ached	-10827
eller	-10828
▁coach	-10829
▁telem	-10830
▁glance	-10831
onitored	-10832
▁rescore	-10833
▁unprefixed	-10834
▁unmonitored	-10835
▁keto	-10836
▁baked	-10837
▁giant	-10838
▁barrel	-10839
▁blurred	-10840
▁shaping	-10841
▁supplic	-10842
▁hydrated	-10843
▁hed	-10844
ening	-10845
▁doom	-10846
▁acorn	-10847
▁admon	-10848
icative	-10849
▁rerank	-10850
▁marquee	-10851
▁coupling	-10852
▁hangfire	-10853
▁telemeter	-10854
▁dependence	-10855
▁supplicant	-10856
▁cu	-10857
time	-10858
▁spi	-10859
▁unob	-10860
▁tasker	-10861
▁elevated	-10862
▁admonition	-10863
▁reversible	-10864
▁surrounded	-10865
▁problematic	-10866
odic	-10867
umed	-10868
▁cot	-10869
▁epil	-10870
▁crime	-10871
▁lemon	-10872
▁hijack	-10873
▁catcher	-10874
▁nonsense	-10875
▁unfreeze	-10876
▁borderless	-10877
▁alphabetically	-10878
▁ani	-10879
▁boa	-10880
▁tole	-10881
▁miter	-10882
▁volum	-10883
▁curved	-10884
▁rethink	-10885
▁epilogue	-10886
▁volumetric	-10887
▁interconnect	-10888
thest	-10889
yalty	-10890
▁cycl	-10891
▁jean	-10892
▁stair	-10893
▁outpath	-10894
▁residue	-10895
▁scalene	-10896
▁enquirer	-10897
▁inferior	-10898
▁nestable	-10899
▁unaccent	-10900
▁spendable	-10901
▁indirectly	-10902
▁protractor	-10903
cible	-10904
▁demote	-10905
▁flying	-10906
▁gaming	-10907
▁salmon	-10908
▁seeking	-10909
▁commodity	-10910
▁continuum	-10911
▁empirical	-10912
▁reinforce	-10913
▁unmounted	-10914
▁unconsumed	-10915
▁transliterate	-10916
▁rea	-10917
▁chara	-10918
akiness	-10919
▁hearts	-10920
▁ailment	-10921
▁reception	-10922
band	-10923
unit	-10924
▁pug	-10925
orant	-10926
▁bats	-10927
romise	-10928
▁faded	-10929
▁fifty	-10930
▁pathf	-10931
keeping	-10932
▁biggest	-10933
▁realize	-10934
▁subunit	-10935
▁intercom	-10936
▁stripping	-10937
▁pali	-10938
▁hoist	-10939
rantula	-10940
▁museum	-10941
▁dragger	-10942
▁rightmost	-10943
▁tarantula	-10944
▁compensate	-10945
▁designator	-10946
▁capitalization	-10947
▁langi	-10948
▁lived	-10949
▁variety	-10950
▁flakiness	-10951
▁hourglass	-10952
▁subpackage	-10953
▁writability	-10954
▁commissioner	-10955
hy	-10956
net	-10957
herd	-10958
▁cee	-10959
▁yep	-10960
▁shep	-10961
asible	-10962
▁amper	-10963
▁allies	-10964
▁uncont	-10965
▁insider	-10966
▁shepherd	-10967
▁primarily	-10968
▁shopkeeper	-10969
etop	-10970
ulet	-10971
▁ouf	-10972
▁rim	-10973
▁payee	-10974
▁splay	-10975
▁tourn	-10976
▁flogger	-10977
▁inviter	-10978
▁roughly	-10979
▁strider	-10980
▁treetop	-10981
▁bookcase	-10982
▁castable	-10983
▁departure	-10984
bar	-10985
▁luc	-10986
▁cree	-10987
▁quip	-10988
▁funky	-10989
▁xenon	-10990
▁clover	-10991
▁grabber	-10992
▁interim	-10993
▁scramble	-10994
▁hypotheses	-10995
▁propensity	-10996
llis	-10997
▁oak	-10998
▁ford	-10999
finagh	-11000
▁globe	-11001
▁barlow	-11002
▁decided	-11003
▁invitee	-11004
▁trellis	-11005
▁tifinagh	-11006
▁incompatibility	-11007
▁tew	-11008
▁mina	-11009
▁berry	-11010
▁octop	-11011
▁numero	-11012
▁lighter	-11013
▁untrans	-11014
▁syllable	-11015
▁traversing	-11016
▁cong	-11017
▁banda	-11018
▁treas	-11019
▁manila	-11020
▁gearman	-11021
▁headset	-11022
▁presign	-11023
▁ark	-11024
▁dise	-11025
▁duel	-11026
▁glac	-11027
▁whirl	-11028
▁pillow	-11029
▁subhead	-11030
▁vantage	-11031
▁fidelity	-11032
▁treasury	-11033
▁geography	-11034
▁withdrawn	-11035
▁flattening	-11036
▁journalist	-11037
▁preparator	-11038
zable	-11039
▁negl	-11040
▁reun	-11041
▁preface	-11042
▁auxiliar	-11043
▁organize	-11044
▁passable	-11045
▁incidence	-11046
▁synthesis	-11047
▁meridional	-11048
ius	-11049
yal	-11050
▁coda	-11051
▁immer	-11052
▁toxic	-11053
eliness	-11054
▁disper	-11055
▁primer	-11056
▁cabinet	-11057
▁underlay	-11058
▁calibrate	-11059
▁pointless	-11060
▁shuffling	-11061
rics	-11062
▁ash	-11063
▁mam	-11064
▁carp	-11065
▁onset	-11066
▁tempo	-11067
▁desens	-11068
▁reform	-11069
ometrics	-11070
▁growing	-11071
▁optimum	-11072
▁prophet	-11073
▁earnings	-11074
▁relocate	-11075
▁shouldnt	-11076
▁bucketing	-11077
▁unbalance	-11078
▁occupation	-11079
sand	-11080
▁bae	-11081
▁outw	-11082
▁worry	-11083
▁unsent	-11084
▁breadth	-11085
▁dissect	-11086
▁mounter	-11087
connected	-11088
▁invertible	-11089
▁simplifier	-11090
▁considering	-11091
▁unconnected	-11092
▁simultaneously	-11093
eeded	-11094
roach	-11095
▁icel	-11096
▁knee	-11097
▁lumber	-11098
▁repost	-11099
▁iceland	-11100
▁military	-11101
▁storable	-11102
▁unneeded	-11103
▁idiomatic	-11104
▁resumption	-11105
▁origination	-11106
▁blot	-11107
▁dose	-11108
▁hate	-11109
▁navy	-11110
▁belly	-11111
▁drone	-11112
▁repay	-11113
▁squish	-11114
▁disease	-11115
▁glacier	-11116
▁applicant	-11117
▁cockroach	-11118
enn	-11119
iary	-11120
▁accr	-11121
▁mamm	-11122
▁slay	-11123
▁ungu	-11124
▁climb	-11125
atically	-11126
▁keeling	-11127
▁uncased	-11128
▁scholarship	-11129
▁dab	-11130
▁beef	-11131
▁bosh	-11132
▁gave	-11133
▁lucid	-11134
▁sunny	-11135
▁unmer	-11136
▁padlock	-11137
▁suicide	-11138
▁suspect	-11139
▁notional	-11140
▁untouched	-11141
▁concurrence	-11142
▁institutional	-11143
uron	-11144
▁yam	-11145
iggle	-11146
▁aver	-11147
▁meal	-11148
▁unrest	-11149
▁lookout	-11150
▁needing	-11151
▁pollard	-11152
▁bulleted	-11153
▁detective	-11154
▁exceeding	-11155
▁sectional	-11156
▁preposition	-11157
▁uncontrolled	-11158
saw	-11159
eway	-11160
olor	-11161
rium	-11162
▁ala	-11163
▁cig	-11164
orner	-11165
scale	-11166
usive	-11167
▁asana	-11168
▁facil	-11169
▁wrang	-11170
▁astral	-11171
▁adorner	-11172
▁reunion	-11173
▁upscale	-11174
▁wrangler	-11175
▁unlocking	-11176
▁compromise	-11177
▁transliteration	-11178
errer	-11179
isted	-11180
onant	-11181
▁angry	-11182
▁bliss	-11183
▁mason	-11184
▁miller	-11185
▁warsaw	-11186
▁facilit	-11187
▁instruct	-11188
▁congestion	-11189
▁persisting	-11190
joy	-11191
mock	-11192
▁fod	-11193
▁dict	-11194
▁rend	-11195
▁appeal	-11196
▁fisher	-11197
▁infect	-11198
▁resort	-11199
▁equator	-11200
▁urgency	-11201
▁varnish	-11202
▁choosing	-11203
▁evaluable	-11204
▁pointwise	-11205
▁reassembly	-11206
▁extractable	-11207
▁continuously	-11208
▁navigational	-11209
▁concentration	-11210
▁fop	-11211
achin	-11212
ommod	-11213
iciary	-11214
▁blanc	-11215
▁kachin	-11216
▁neuron	-11217
▁accommod	-11218
▁ambiguity	-11219
ige	-11220
lomer	-11221
ungee	-11222
▁corm	-11223
▁aller	-11224
▁bungee	-11225
▁compet	-11226
▁prepay	-11227
▁college	-11228
▁scalpel	-11229
▁cormorant	-11230
▁editorial	-11231
▁forgotten	-11232
▁unblocked	-11233
▁atomically	-11234
▁inequality	-11235
▁timeliness	-11236
▁correctable	-11237
▁qualification	-11238
ict	-11239
mic	-11240
▁desp	-11241
▁dish	-11242
▁hobby	-11243
▁morse	-11244
▁sepia	-11245
▁losing	-11246
▁nation	-11247
▁turkey	-11248
▁slugged	-11249
▁weaving	-11250
▁beneficiary	-11251
▁dangerously	-11252
▁professional	-11253
fig	-11254
entr	-11255
▁vice	-11256
asable	-11257
▁blurb	-11258
▁tribe	-11259
otation	-11260
▁cinder	-11261
▁besides	-11262
▁consult	-11263
▁plotted	-11264
entrional	-11265
▁assessor	-11266
▁ampersand	-11267
▁tournament	-11268
▁elimination	-11269
▁inscription	-11270
▁variational	-11271
▁septentrional	-11272
stain	-11273
▁bena	-11274
▁enjoy	-11275
▁uncol	-11276
▁funnel	-11277
▁quaint	-11278
quential	-11279
▁flusher	-11280
▁shingle	-11281
▁flashing	-11282
▁subrange	-11283
▁anchorage	-11284
weed	-11285
▁mako	-11286
config	-11287
readed	-11288
▁masker	-11289
▁unident	-11290
▁magnetic	-11291
▁precious	-11292
▁biography	-11293
▁resurrect	-11294
▁changeable	-11295
flex	-11296
etics	-11297
quiry	-11298
▁unpa	-11299
▁semip	-11300
▁recolor	-11301
▁agglomer	-11302
▁metallic	-11303
▁nitrogen	-11304
▁circumflex	-11305
▁fragmented	-11306
▁differentiate	-11307
ulomb	-11308
▁suid	-11309
itable	-11310
▁conce	-11311
▁sonic	-11312
▁surge	-11313
▁pancake	-11314
▁ranging	-11315
▁episodic	-11316
▁minority	-11317
▁smithing	-11318
▁butterfly	-11319
▁undeliver	-11320
▁bah	-11321
▁ble	-11322
▁sis	-11323
▁dropt	-11324
▁genius	-11325
▁phoneme	-11326
▁powerful	-11327
▁semipublic	-11328
ings	-11329
uper	-11330
ugais	-11331
ustic	-11332
▁herb	-11333
▁lend	-11334
▁womb	-11335
▁dress	-11336
▁extrap	-11337
▁iconic	-11338
▁midway	-11339
▁painted	-11340
▁equalize	-11341
▁peephole	-11342
▁portugais	-11343
▁wet	-11344
errun	-11345
igent	-11346
▁chap	-11347
▁tote	-11348
▁silky	-11349
▁taunt	-11350
▁pasted	-11351
▁inwards	-11352
▁plateau	-11353
▁sharpen	-11354
▁inferrer	-11355
▁tolerant	-11356
▁visually	-11357
▁nonlinear	-11358
▁contractor	-11359
▁positioner	-11360
▁heterogeneous	-11361
▁unidirectional	-11362
kok	-11363
▁kasa	-11364
▁coast	-11365
▁sepal	-11366
▁venom	-11367
▁halite	-11368
▁bangkok	-11369
▁coulomb	-11370
▁monomial	-11371
▁swapping	-11372
▁freezable	-11373
▁denotation	-11374
fast	-11375
ffle	-11376
ised	-11377
orld	-11378
▁pra	-11379
▁pyx	-11380
▁pike	-11381
▁ster	-11382
illery	-11383
seller	-11384
▁belie	-11385
▁darts	-11386
▁quark	-11387
▁hooker	-11388
▁impling	-11389
▁mystery	-11390
▁degraded	-11391
▁departed	-11392
▁linguist	-11393
▁piecewise	-11394
▁obfuscator	-11395
▁technically	-11396
▁rememberable	-11397
▁environmental	-11398
illed	-11399
▁tink	-11400
▁unapp	-11401
▁basque	-11402
▁ginger	-11403
▁mammal	-11404
▁multith	-11405
▁perforce	-11406
▁specialize	-11407
▁eligibility	-11408
▁consequential	-11409
▁multithreaded	-11410
aste	-11411
ugar	-11412
stalk	-11413
▁lame	-11414
▁upst	-11415
▁estado	-11416
▁rigger	-11417
▁conting	-11418
▁officer	-11419
▁voucher	-11420
▁campfire	-11421
▁beanstalk	-11422
▁breakfast	-11423
▁negligence	-11424
rous	-11425
spon	-11426
ulus	-11427
▁hem	-11428
▁carl	-11429
▁tert	-11430
▁hacky	-11431
▁medal	-11432
▁porta	-11433
▁cuttle	-11434
▁wombat	-11435
▁shotgun	-11436
▁reseller	-11437
▁skinning	-11438
▁unification	-11439
▁avo	-11440
▁celest	-11441
▁maiden	-11442
▁booting	-11443
▁ideally	-11444
▁recruit	-11445
▁stickers	-11446
▁tertiary	-11447
▁uncomple	-11448
▁exemplary	-11449
▁formulary	-11450
▁shrinkage	-11451
▁retransmit	-11452
▁unbalanced	-11453
▁unobserved	-11454
▁contingency	-11455
nec	-11456
▁dio	-11457
▁lav	-11458
immer	-11459
▁goof	-11460
▁kina	-11461
▁tend	-11462
▁wash	-11463
▁whil	-11464
▁alchem	-11465
▁fennec	-11466
▁oxygen	-11467
▁palmer	-11468
▁dialing	-11469
▁glimmer	-11470
▁lavender	-11471
▁ascension	-11472
▁crossover	-11473
▁signatory	-11474
▁reposition	-11475
▁scaffolding	-11476
▁transferable	-11477
▁nep	-11478
▁ski	-11479
▁shiv	-11480
▁vint	-11481
▁penal	-11482
▁samara	-11483
▁tamper	-11484
▁theore	-11485
▁whilst	-11486
▁brother	-11487
▁mounting	-11488
▁unlisted	-11489
▁unrestrict	-11490
▁particularly	-11491
▁mug	-11492
▁tua	-11493
▁calm	-11494
ellite	-11495
▁legit	-11496
▁salta	-11497
▁archer	-11498
▁histor	-11499
▁leeway	-11500
▁slicer	-11501
mination	-11502
▁despite	-11503
▁grocery	-11504
▁hunting	-11505
▁plotter	-11506
▁overpass	-11507
▁unmasked	-11508
▁satellite	-11509
▁imperative	-11510
▁multiverse	-11511
▁unexisting	-11512
▁registrable	-11513
▁consolidated	-11514
▁unrestricted	-11515
▁rum	-11516
bling	-11517
▁sext	-11518
acknow	-11519
apable	-11520
▁punta	-11521
▁waste	-11522
▁unacknow	-11523
▁deprecator	-11524
▁demographic	-11525
▁reliability	-11526
▁unacknowledged	-11527
▁ger	-11528
seret	-11529
▁neat	-11530
▁acade	-11531
▁redel	-11532
▁bother	-11533
▁hacked	-11534
▁masher	-11535
▁accrual	-11536
▁climate	-11537
▁deseret	-11538
▁desugar	-11539
▁firefly	-11540
▁premise	-11541
▁shutter	-11542
▁tableau	-11543
▁unstore	-11544
▁village	-11545
▁postscript	-11546
▁redelivery	-11547
▁demonstrate	-11548
guin	-11549
▁biff	-11550
▁veil	-11551
▁peace	-11552
▁tinker	-11553
▁penguin	-11554
▁subtext	-11555
▁winding	-11556
▁redactor	-11557
▁orthographic	-11558
abler	-11559
tenna	-11560
▁chor	-11561
▁cute	-11562
flower	-11563
▁jewel	-11564
▁touser	-11565
▁antenna	-11566
▁constit	-11567
▁gnostic	-11568
▁keyless	-11569
▁interfer	-11570
▁perimeter	-11571
▁randomness	-11572
ito	-11573
▁ii	-11574
▁tost	-11575
▁ward	-11576
▁inapp	-11577
▁mouth	-11578
ripetal	-11579
▁chorus	-11580
▁deduce	-11581
▁sniper	-11582
▁uneven	-11583
▁branded	-11584
▁enabler	-11585
▁traversed	-11586
▁confluence	-11587
▁centripetal	-11588
▁differential	-11589
▁multiplicity	-11590
▁ru	-11591
▁bloc	-11592
▁boil	-11593
▁pine	-11594
urance	-11595
▁marco	-11596
▁rapier	-11597
▁fencing	-11598
▁disposal	-11599
▁prunable	-11600
▁consonant	-11601
▁dominance	-11602
▁suspenders	-11603
▁dud	-11604
alics	-11605
▁batt	-11606
▁fest	-11607
▁flan	-11608
▁mend	-11609
▁waist	-11610
▁strand	-11611
finition	-11612
▁banking	-11613
▁italics	-11614
▁affecting	-11615
▁polymorphism	-11616
▁redefinition	-11617
▁tessellation	-11618
zag	-11619
immy	-11620
▁cram	-11621
▁dodo	-11622
▁diplo	-11623
▁jimmy	-11624
▁rally	-11625
▁scream	-11626
▁waffle	-11627
▁zigzag	-11628
▁changer	-11629
▁sixteen	-11630
▁stemmed	-11631
▁ticking	-11632
▁tighten	-11633
▁vesting	-11634
▁assignor	-11635
▁extrapol	-11636
▁arbitrator	-11637
▁biometrics	-11638
▁popularity	-11639
sic	-11640
hook	-11641
▁doge	-11642
▁woof	-11643
▁flick	-11644
▁straw	-11645
orization	-11646
▁outlying	-11647
▁quickness	-11648
▁southeast	-11649
▁speakable	-11650
▁intelligent	-11651
▁deactivation	-11652
▁discoverable	-11653
isine	-11654
rengo	-11655
viate	-11656
vised	-11657
▁baku	-11658
▁flesh	-11659
▁hedge	-11660
▁cuisine	-11661
▁marengo	-11662
▁slather	-11663
▁nameable	-11664
▁snowball	-11665
▁intermedi	-11666
▁matchable	-11667
▁automotive	-11668
▁duplicable	-11669
▁regularize	-11670
rist	-11671
▁cist	-11672
▁eigh	-11673
▁wand	-11674
▁billion	-11675
▁retrain	-11676
▁uninter	-11677
▁unsuper	-11678
▁resetter	-11679
▁defensive	-11680
▁decomposed	-11681
▁intermediary	-11682
▁unsupervised	-11683
▁envy	-11684
▁knit	-11685
▁pont	-11686
▁sunt	-11687
▁hatch	-11688
▁ogham	-11689
▁relig	-11690
▁spear	-11691
▁reallo	-11692
▁bowline	-11693
▁overrun	-11694
▁victory	-11695
▁woodcut	-11696
▁digester	-11697
▁showdown	-11698
▁unsecure	-11699
▁celestial	-11700
▁succeeding	-11701
▁intentional	-11702
▁retrievable	-11703
▁rup	-11704
▁rero	-11705
▁susu	-11706
▁antes	-11707
▁legis	-11708
▁plaid	-11709
▁prize	-11710
▁behalf	-11711
▁orchid	-11712
▁unhook	-11713
▁corpora	-11714
▁receptor	-11715
▁intercepting	-11716
▁unacceptable	-11717
▁transliterator	-11718
mson	-11719
munk	-11720
▁biv	-11721
▁ken	-11722
▁butt	-11723
▁flop	-11724
▁frag	-11725
▁mamb	-11726
▁nach	-11727
▁pout	-11728
▁yday	-11729
terior	-11730
vision	-11731
▁chose	-11732
▁shout	-11733
▁welsh	-11734
▁disass	-11735
▁indoor	-11736
▁cleanly	-11737
▁crimson	-11738
▁chipmunk	-11739
▁attractor	-11740
▁hopefully	-11741
▁outcoming	-11742
▁generative	-11743
▁incidental	-11744
ii	-11745
oba	-11746
oli	-11747
ckey	-11748
iced	-11749
▁ost	-11750
▁anis	-11751
▁atop	-11752
▁disag	-11753
▁fireb	-11754
▁saying	-11755
▁theirs	-11756
▁antigen	-11757
▁believe	-11758
▁airplane	-11759
▁anterior	-11760
▁keystone	-11761
▁purgeable	-11762
▁invariance	-11763
▁permissible	-11764
▁seasonality	-11765
▁uninterpret	-11766
▁constructible	-11767
▁rue	-11768
▁wim	-11769
▁anna	-11770
▁fist	-11771
▁miny	-11772
▁pape	-11773
▁sack	-11774
▁shoe	-11775
▁stab	-11776
▁rebuy	-11777
igation	-11778
▁anisot	-11779
▁assass	-11780
▁achieve	-11781
▁cordoba	-11782
▁descale	-11783
▁grained	-11784
▁massage	-11785
unicative	-11786
▁equatorial	-11787
▁instigator	-11788
▁selectivity	-11789
▁woodcutting	-11790
▁mathematical	-11791
nant	-11792
▁urb	-11793
▁buck	-11794
▁cogn	-11795
▁dear	-11796
▁juba	-11797
▁loom	-11798
▁pess	-11799
▁rial	-11800
ariate	-11801
▁flunk	-11802
▁smash	-11803
▁reauth	-11804
▁skewed	-11805
▁grading	-11806
▁unpinned	-11807
▁bivariate	-11808
▁intrusive	-11809
▁uncommunicative	-11810
alog	-11811
▁erd	-11812
▁sop	-11813
▁diab	-11814
▁mink	-11815
▁minx	-11816
▁petal	-11817
▁resign	-11818
▁loyalty	-11819
▁recitation	-11820
▁mentionable	-11821
▁uninterpreted	-11822
▁parallelization	-11823
lan	-11824
▁dye	-11825
▁gil	-11826
erral	-11827
iance	-11828
▁bath	-11829
▁heck	-11830
▁capac	-11831
▁edict	-11832
▁kelly	-11833
▁unknow	-11834
▁valley	-11835
▁blender	-11836
▁doubled	-11837
▁seventh	-11838
▁toaster	-11839
▁excluder	-11840
▁stemming	-11841
▁roughness	-11842
▁restoration	-11843
aul	-11844
▁ako	-11845
▁deaf	-11846
▁seer	-11847
▁amman	-11848
▁pessim	-11849
▁remnant	-11850
▁tripoli	-11851
▁deferral	-11852
▁openable	-11853
▁scissors	-11854
▁slashing	-11855
▁electrical	-11856
▁frequently	-11857
▁subheading	-11858
▁versicolor	-11859
▁enhancement	-11860
▁extrapolate	-11861
▁illustration	-11862
ench	-11863
join	-11864
mare	-11865
west	-11866
▁nin	-11867
▁tam	-11868
▁mamba	-11869
▁massa	-11870
▁thorn	-11871
▁ultim	-11872
▁unmet	-11873
sperson	-11874
unctive	-11875
▁bonded	-11876
▁horrib	-11877
▁smelly	-11878
▁bubbling	-11879
▁restorer	-11880
▁cognitive	-11881
▁nightmare	-11882
▁geometrical	-11883
▁salesperson	-11884
ilac	-11885
odad	-11886
▁cox	-11887
▁soe	-11888
▁alum	-11889
herent	-11890
▁lilac	-11891
▁doodad	-11892
▁tinted	-11893
▁breeder	-11894
▁stealth	-11895
▁dividing	-11896
▁overbook	-11897
▁pluralizer	-11898
▁smoothness	-11899
▁contraction	-11900
outi	-11901
▁jow	-11902
▁rom	-11903
urger	-11904
▁glam	-11905
▁lect	-11906
▁spit	-11907
▁agouti	-11908
▁whereas	-11909
▁alliance	-11910
▁omission	-11911
▁artillery	-11912
▁quarterly	-11913
▁absolutely	-11914
▁decomposer	-11915
configuration	-11916
rak	-11917
uman	-11918
umbug	-11919
▁bend	-11920
illary	-11921
rakhan	-11922
▁harsh	-11923
▁postp	-11924
▁strut	-11925
▁humbug	-11926
▁lucida	-11927
▁holdout	-11928
▁remount	-11929
▁upstart	-11930
▁constitu	-11931
▁geodesic	-11932
▁ancillary	-11933
▁astrakhan	-11934
▁scaffolder	-11935
▁disassociate	-11936
▁standardization	-11937
▁chime	-11938
▁glued	-11939
▁slant	-11940
▁charas	-11941
▁harmon	-11942
▁masonry	-11943
▁spencer	-11944
▁telethon	-11945
▁alchemist	-11946
▁redaction	-11947
▁unreached	-11948
▁stickiness	-11949
▁television	-11950
▁obfuscation	-11951
▁indefinitely	-11952
ita	-11953
hold	-11954
iber	-11955
vern	-11956
ifter	-11957
▁skim	-11958
iptail	-11959
▁acker	-11960
▁glace	-11961
▁jazzy	-11962
▁quake	-11963
▁gating	-11964
▁hockey	-11965
▁shower	-11966
▁trophy	-11967
▁harmful	-11968
▁exterior	-11969
▁spearman	-11970
▁whiptail	-11971
▁pessimistic	-11972
▁extensibility	-11973
atype	-11974
▁alan	-11975
lected	-11976
▁antic	-11977
▁baker	-11978
▁churn	-11979
▁elder	-11980
▁liber	-11981
diction	-11982
▁cloudy	-11983
▁slayer	-11984
▁usings	-11985
▁leaflet	-11986
▁resolute	-11987
▁astronomy	-11988
▁political	-11989
▁absolutize	-11990
▁branchless	-11991
▁uniformity	-11992
▁agglomerate	-11993
▁restrictive	-11994
▁obl	-11995
arine	-11996
▁disb	-11997
▁luna	-11998
▁nutr	-11999
▁odds	-12000
▁spur	-12001
▁abyss	-12002
▁faith	-12003
▁hopper	-12004
▁wiggle	-12005
▁unsized	-12006
▁borrower	-12007
▁liftable	-12008
▁slowdown	-12009
▁logarithmic	-12010
ola	-12011
▁mog	-12012
▁tony	-12013
mental	-12014
▁immun	-12015
▁analog	-12016
▁recode	-12017
▁wander	-12018
▁yammer	-12019
▁lifting	-12020
▁examiner	-12021
aam	-12022
uton	-12023
ianak	-12024
▁dong	-12025
▁hamb	-12026
▁funda	-12027
▁testy	-12028
▁trove	-12029
▁arctic	-12030
▁rising	-12031
▁salaam	-12032
▁morphia	-12033
▁sizable	-12034
▁postpone	-12035
▁hamburger	-12036
▁pontianak	-12037
▁randomization	-12038
▁responsibility	-12039
beam	-12040
▁lip	-12041
▁tug	-12042
gnito	-12043
▁alec	-12044
▁amin	-12045
▁baro	-12046
▁newt	-12047
▁bitter	-12048
▁percol	-12049
▁prohibit	-12050
▁skewness	-12051
▁incognito	-12052
vert	-12053
▁hur	-12054
▁ina	-12055
ffect	-12056
▁eats	-12057
▁naga	-12058
▁arcane	-12059
▁reflex	-12060
▁sponge	-12061
▁subord	-12062
▁adopted	-12063
▁clarity	-12064
▁shallows	-12065
▁immersive	-12066
▁interfere	-12067
▁nutrition	-12068
▁appendices	-12069
▁checkerboard	-12070
far	-12071
▁yan	-12072
bread	-12073
etize	-12074
▁bout	-12075
▁culp	-12076
▁oral	-12077
▁prow	-12078
▁scre	-12079
idable	-12080
▁dodge	-12081
▁penet	-12082
▁unamb	-12083
flected	-12084
▁trigon	-12085
▁upward	-12086
▁ostrich	-12087
▁reroute	-12088
▁addendum	-12089
▁baseball	-12090
▁franklin	-12091
▁immunity	-12092
▁metatype	-12093
▁tentative	-12094
▁geographic	-12095
▁gingerbread	-12096
▁unambiguous	-12097
▁disbursement	-12098
wear	-12099
▁fel	-12100
inium	-12101
▁mort	-12102
▁pace	-12103
udible	-12104
▁larry	-12105
▁prehe	-12106
▁sofar	-12107
▁stray	-12108
▁veget	-12109
▁wrist	-12110
▁desensit	-12111
▁ineffect	-12112
▁aluminium	-12113
▁gossiping	-12114
▁inaudible	-12115
▁limestone	-12116
▁reprocess	-12117
▁describable	-12118
▁nonexisting	-12119
▁subordinate	-12120
▁uninflected	-12121
▁confidentiality	-12122
iga	-12123
▁vas	-12124
ximal	-12125
▁chim	-12126
▁grin	-12127
▁beast	-12128
▁slipp	-12129
▁terse	-12130
▁undisp	-12131
▁abstain	-12132
▁mileage	-12133
▁monoton	-12134
▁unclean	-12135
▁parental	-12136
▁proximal	-12137
▁happening	-12138
▁president	-12139
▁determinate	-12140
▁fundamental	-12141
enne	-12142
ewise	-12143
▁incl	-12144
illing	-12145
▁repud	-12146
▁scint	-12147
▁traps	-12148
▁twine	-12149
loyment	-12150
▁buster	-12151
▁dinner	-12152
▁eleven	-12153
▁gotten	-12154
▁dropper	-12155
▁neutron	-12156
▁likewise	-12157
▁scintilla	-12158
▁uniformly	-12159
▁abbreviate	-12160
ographically	-12161
▁oda	-12162
image	-12163
▁jarg	-12164
▁lich	-12165
▁nous	-12166
▁yell	-12167
▁annex	-12168
▁bingo	-12169
enerate	-12170
▁escudo	-12171
▁muscat	-12172
▁pinner	-12173
▁sinter	-12174
▁cayenne	-12175
▁harshen	-12176
▁wrongly	-12177
▁feasible	-12178
▁odometer	-12179
▁sendable	-12180
▁regulator	-12181
itz	-12182
▁sic	-12183
▁beet	-12184
erring	-12185
▁auton	-12186
▁badly	-12187
▁blitz	-12188
▁cancan	-12189
▁hinter	-12190
▁reflow	-12191
▁senior	-12192
▁outname	-12193
▁indention	-12194
▁uncolored	-12195
▁unguarded	-12196
▁measurable	-12197
▁containment	-12198
▁unidentified	-12199
gi	-12200
▁tye	-12201
eland	-12202
orama	-12203
▁cure	-12204
▁homer	-12205
▁redep	-12206
▁serum	-12207
▁belief	-12208
▁brunch	-12209
▁primal	-12210
▁punish	-12211
▁victor	-12212
scriptive	-12213
▁schemata	-12214
▁unrespon	-12215
▁elemental	-12216
▁relatively	-12217
▁retraction	-12218
▁prescriptive	-12219
sha	-12220
▁nip	-12221
geist	-12222
▁juice	-12223
▁elabor	-12224
▁polter	-12225
▁tabber	-12226
▁unview	-12227
▁fragile	-12228
▁stalker	-12229
▁trimmer	-12230
▁unboxed	-12231
▁infectious	-12232
▁poltergeist	-12233
▁radiography	-12234
rest	-12235
▁ced	-12236
omous	-12237
▁army	-12238
▁crea	-12239
▁twil	-12240
▁inquiry	-12241
▁sketchy	-12242
▁unusual	-12243
▁monotone	-12244
▁referent	-12245
▁twilight	-12246
▁autonomous	-12247
▁dispersion	-12248
▁chamberlain	-12249
▁cof	-12250
mpter	-12251
unger	-12252
viver	-12253
▁drum	-12254
▁watt	-12255
▁banco	-12256
▁cresc	-12257
▁prono	-12258
▁calced	-12259
▁cutter	-12260
▁reviver	-12261
▁prompter	-12262
▁affiliate	-12263
▁altimeter	-12264
▁dismissible	-12265
▁installment	-12266
▁exponentially	-12267
▁coy	-12268
▁gog	-12269
ilize	-12270
▁cabin	-12271
▁rusty	-12272
▁urban	-12273
▁causer	-12274
▁singly	-12275
▁chimney	-12276
▁pathway	-12277
▁measuring	-12278
▁summation	-12279
▁blacksmith	-12280
▁unexported	-12281
▁ineffective	-12282
doodle	-12283
▁infam	-12284
▁theft	-12285
▁whale	-12286
▁clever	-12287
▁decade	-12288
▁occupy	-12289
▁patent	-12290
▁wooden	-12291
isibility	-12292
▁cosmetic	-12293
▁insetter	-12294
▁religion	-12295
▁spinning	-12296
▁flapdoodle	-12297
▁procedural	-12298
▁repudiation	-12299
▁supportable	-12300
▁uncompleted	-12301
inox	-12302
▁coal	-12303
imodal	-12304
▁archa	-12305
▁elite	-12306
▁kitty	-12307
▁skull	-12308
▁titre	-12309
▁seeing	-12310
▁equinox	-12311
▁slugger	-12312
▁upwards	-12313
▁younger	-12314
▁aircraft	-12315
▁luminous	-12316
▁panorama	-12317
▁unmerged	-12318
▁pathfinder	-12319
▁contrastive	-12320
▁nationality	-12321
▁exercitation	-12322
▁accommodation	-12323
▁collaborative	-12324
▁monotonically	-12325
ksha	-12326
sman	-12327
▁hei	-12328
uxite	-12329
value	-12330
▁adjo	-12331
▁chak	-12332
▁horn	-12333
▁obst	-12334
▁pale	-12335
▁riot	-12336
▁whee	-12337
▁jargon	-12338
▁misuse	-12339
▁moksha	-12340
▁purely	-12341
▁salted	-12342
▁valeur	-12343
▁bauxite	-12344
▁football	-12345
▁quarters	-12346
▁conflated	-12347
▁dominator	-12348
▁alteration	-12349
▁attraction	-12350
▁illumination	-12351
ye	-12352
medy	-12353
▁osc	-12354
▁flay	-12355
▁gall	-12356
▁mice	-12357
▁rift	-12358
▁heaps	-12359
▁unsty	-12360
▁eraser	-12361
▁spouse	-12362
▁wholes	-12363
▁gambier	-12364
▁farthest	-12365
▁barometer	-12366
▁cleanable	-12367
▁crossbeam	-12368
▁syntactic	-12369
▁percolator	-12370
▁tabulation	-12371
▁housekeeping	-12372
▁independence	-12373
acao	-12374
ower	-12375
▁pud	-12376
▁shy	-12377
bench	-12378
endum	-12379
▁geod	-12380
▁skel	-12381
▁decal	-12382
▁desat	-12383
▁runic	-12384
▁terry	-12385
▁breathe	-12386
▁curacao	-12387
▁cutting	-12388
▁deadman	-12389
▁flicker	-12390
▁octopus	-12391
▁obstacle	-12392
▁uglifier	-12393
▁unstyled	-12394
▁appliance	-12395
▁workbench	-12396
▁allocatable	-12397
▁inefficient	-12398
oke	-12399
gate	-12400
▁dub	-12401
▁ova	-12402
▁drow	-12403
rogram	-12404
▁altar	-12405
▁artic	-12406
▁spike	-12407
▁transc	-12408
▁centric	-12409
▁cyclical	-12410
▁predictive	-12411
▁referendum	-12412
▁timekeeper	-12413
▁spectrogram	-12414
▁comprehensive	-12415
▁jag	-12416
cular	-12417
orman	-12418
phant	-12419
▁fury	-12420
▁gaze	-12421
ribble	-12422
▁marble	-12423
▁unstar	-12424
▁deliber	-12425
▁embrace	-12426
▁envelop	-12427
matically	-12428
▁disagree	-12429
▁hyphenate	-12430
▁relatable	-12431
▁luminosity	-12432
▁predictable	-12433
▁constitution	-12434
erk	-12435
una	-12436
point	-12437
▁fate	-12438
▁spoof	-12439
▁torii	-12440
notated	-12441
▁sacrif	-12442
ensional	-12443
▁ferment	-12444
▁hexagon	-12445
▁trinary	-12446
▁elephant	-12447
▁hydrogen	-12448
▁preimage	-12449
imensional	-12450
▁diffusion	-12451
▁wholesale	-12452
▁degenerate	-12453
▁unannotated	-12454
▁tuc	-12455
▁yew	-12456
rophe	-12457
▁eros	-12458
▁urna	-12459
▁mastod	-12460
▁sonnet	-12461
▁opposed	-12462
▁tucuman	-12463
▁slippage	-12464
▁obviously	-12465
▁alternating	-12466
▁legislation	-12467
▁unresponsive	-12468
▁untranslated	-12469
▁inscriptional	-12470
▁aco	-12471
▁jing	-12472
▁pier	-12473
leased	-12474
▁diode	-12475
▁irony	-12476
▁terrib	-12477
▁protone	-12478
▁stratum	-12479
▁tranquil	-12480
▁learnable	-12481
▁magnifier	-12482
▁understanding	-12483
hero	-12484
onde	-12485
inket	-12486
▁lump	-12487
▁plum	-12488
▁scar	-12489
▁tops	-12490
reness	-12491
▁nudge	-12492
▁atrium	-12493
▁multid	-12494
▁transf	-12495
▁hammock	-12496
▁panning	-12497
▁trinket	-12498
▁academic	-12499
▁acoustic	-12500
▁guessing	-12501
▁mastodon	-12502
▁resemble	-12503
▁vacation	-12504
▁screenman	-12505
▁unwritable	-12506
▁windowless	-12507
▁presentable	-12508
▁reassignment	-12509
ti	-12510
bin	-12511
isc	-12512
bler	-12513
door	-12514
occo	-12515
ading	-12516
▁pond	-12517
▁aquam	-12518
▁eater	-12519
▁nodal	-12520
▁purity	-12521
▁yeoman	-12522
▁morocco	-12523
▁outdoor	-12524
▁unviewed	-12525
▁aquamarine	-12526
▁ich	-12527
▁jug	-12528
▁leu	-12529
▁flot	-12530
▁scut	-12531
▁bleed	-12532
▁clerk	-12533
▁grizz	-12534
▁patri	-12535
▁garage	-12536
▁hyster	-12537
▁parted	-12538
▁mongrel	-12539
▁plugged	-12540
▁romance	-12541
▁discharge	-12542
▁outputter	-12543
▁sunflower	-12544
sy	-12545
che	-12546
▁eme	-12547
bolic	-12548
vored	-12549
▁poem	-12550
▁soar	-12551
ivable	-12552
▁wheat	-12553
▁graham	-12554
▁nether	-12555
▁unopen	-12556
standard	-12557
▁needles	-12558
▁pronoun	-12559
▁seaweed	-12560
▁subpool	-12561
▁assassin	-12562
▁decipher	-12563
▁redeploy	-12564
▁shrinker	-12565
▁realistic	-12566
▁retaining	-12567
▁nonstandard	-12568
▁tranquilizer	-12569
▁ner	-12570
icore	-12571
▁momo	-12572
cratic	-12573
▁henry	-12574
▁rayon	-12575
▁saber	-12576
▁crouton	-12577
▁blessing	-12578
▁delaying	-12579
▁investor	-12580
▁backstage	-12581
▁dissector	-12582
▁gyroscope	-12583
▁absorption	-12584
▁categorize	-12585
▁contracted	-12586
hed	-12587
pee	-12588
rane	-12589
▁aute	-12590
▁funk	-12591
▁mule	-12592
▁mull	-12593
▁tant	-12594
▁rupee	-12595
▁copula	-12596
▁revise	-12597
▁dueling	-12598
▁inexact	-12599
▁orderly	-12600
▁breadbox	-12601
▁unusable	-12602
▁methodical	-12603
▁unreleased	-12604
▁undispatched	-12605
▁pall	-12606
▁stew	-12607
▁tach	-12608
▁walt	-12609
licity	-12610
▁burnt	-12611
▁carol	-12612
▁cigar	-12613
▁roger	-12614
▁sammy	-12615
▁turco	-12616
▁escrow	-12617
▁plastic	-12618
▁warming	-12619
▁needless	-12620
▁undefine	-12621
▁resilient	-12622
▁sacrifice	-12623
▁uncertain	-12624
▁unwrapper	-12625
▁analytical	-12626
▁simplicity	-12627
▁temporally	-12628
▁regeneration	-12629
aki	-12630
▁yar	-12631
▁cage	-12632
▁fool	-12633
▁marc	-12634
▁confo	-12635
▁untar	-12636
aterial	-12637
▁abrupt	-12638
▁atrous	-12639
▁canton	-12640
▁coyote	-12641
▁shaker	-12642
▁starry	-12643
▁burning	-12644
▁intense	-12645
▁missile	-12646
▁skinned	-12647
▁linearly	-12648
▁merchand	-12649
▁apartment	-12650
▁superhero	-12651
▁encapsulate	-12652
▁synthesizer	-12653
▁transferring	-12654
▁combinatorial	-12655
▁significantly	-12656
gly	-12657
rep	-12658
peed	-12659
▁jen	-12660
iggly	-12661
▁bait	-12662
▁narr	-12663
▁bevel	-12664
▁decap	-12665
▁rupia	-12666
▁tanka	-12667
▁tuned	-12668
▁perpet	-12669
▁repack	-12670
▁sailor	-12671
▁spinel	-12672
▁stated	-12673
▁suppose	-12674
▁unstack	-12675
▁inflation	-12676
▁anonymously	-12677
▁exponentiation	-12678
dest	-12679
oske	-12680
outh	-12681
▁coop	-12682
▁paho	-12683
▁pent	-12684
▁alist	-12685
▁eigen	-12686
▁spoon	-12687
▁bowler	-12688
▁exoske	-12689
▁goblin	-12690
▁sudden	-12691
▁outliner	-12692
▁starling	-12693
▁innermost	-12694
▁overspeed	-12695
▁modulation	-12696
▁exoskeleton	-12697
▁infectiousness	-12698
▁kim	-12699
▁chol	-12700
▁mang	-12701
▁obsc	-12702
▁rung	-12703
▁apost	-12704
▁emiss	-12705
▁katar	-12706
▁royal	-12707
▁unget	-12708
▁wedge	-12709
▁youth	-12710
▁archae	-12711
▁bakery	-12712
▁desert	-12713
▁outrow	-12714
▁therap	-12715
▁wrench	-12716
▁equally	-12717
▁organic	-12718
▁planting	-12719
▁tactical	-12720
▁tolerate	-12721
▁undercut	-12722
▁supporter	-12723
▁visitable	-12724
▁apostrophe	-12725
▁merchandise	-12726
ivy	-12727
▁kon	-12728
▁por	-12729
▁tod	-12730
▁zed	-12731
armed	-12732
ounce	-12733
stick	-12734
▁gent	-12735
▁lira	-12736
▁creep	-12737
▁thief	-12738
▁priced	-12739
▁rejoin	-12740
▁unpick	-12741
▁coupled	-12742
▁crowbar	-12743
▁freeing	-12744
▁tantivy	-12745
▁commence	-12746
▁infected	-12747
▁principle	-12748
▁eigenvalue	-12749
▁reallocate	-12750
▁minimization	-12751
nut	-12752
▁ky	-12753
ccol	-12754
▁ase	-12755
▁wax	-12756
ccoli	-12757
▁baru	-12758
▁deed	-12759
▁wert	-12760
▁asker	-12761
▁sixty	-12762
ishable	-12763
▁cobble	-12764
▁propri	-12765
▁freight	-12766
▁broccoli	-12767
▁outwards	-12768
▁refusing	-12769
▁stepping	-12770
▁apparently	-12771
▁comprehend	-12772
▁generalize	-12773
▁streamline	-12774
▁alternation	-12775
▁aga	-12776
▁chok	-12777
▁jake	-12778
▁ment	-12779
▁rhomb	-12780
▁disapp	-12781
▁incorp	-12782
▁retire	-12783
▁riddle	-12784
▁walter	-12785
▁diverse	-12786
▁resubsc	-12787
▁snagger	-12788
▁judgment	-12789
▁monogram	-12790
▁occupant	-12791
▁signable	-12792
▁uncalled	-12793
▁outstream	-12794
▁anisotropy	-12795
▁confounder	-12796
▁enablement	-12797
▁hyperbolic	-12798
▁harp	-12799
▁naam	-12800
igraph	-12801
▁drama	-12802
▁unlit	-12803
▁vital	-12804
▁franco	-12805
▁precip	-12806
▁sleepy	-12807
▁toward	-12808
▁triage	-12809
▁versus	-12810
▁wobble	-12811
▁beeline	-12812
▁trample	-12813
▁utilize	-12814
▁crossbow	-12815
▁knockout	-12816
▁signaler	-12817
▁squiggly	-12818
▁tappable	-12819
▁awareness	-12820
▁hysteresis	-12821
▁compressible	-12822
▁applicability	-12823
▁unconditional	-12824
rah	-12825
▁yin	-12826
place	-12827
▁curs	-12828
▁pind	-12829
▁plac	-12830
▁thor	-12831
▁moose	-12832
▁whiten	-12833
▁enlarge	-12834
▁retired	-12835
▁sustain	-12836
aboration	-12837
▁coherent	-12838
▁fairness	-12839
▁renounce	-12840
▁unopened	-12841
▁locksmith	-12842
▁perpetual	-12843
▁introducer	-12844
▁stabilization	-12845
olo	-12846
etes	-12847
▁ras	-12848
▁yak	-12849
▁cass	-12850
eresis	-12851
tended	-12852
▁exped	-12853
▁nasty	-12854
▁racer	-12855
▁sandy	-12856
stander	-12857
▁breach	-12858
▁triang	-12859
▁aligner	-12860
▁obscure	-12861
▁offerer	-12862
▁retrace	-12863
▁conserve	-12864
▁diabetes	-12865
▁diaeresis	-12866
▁schematic	-12867
▁behavioral	-12868
▁fabricator	-12869
▁strawberry	-12870
away	-12871
macy	-12872
mean	-12873
quer	-12874
elion	-12875
▁eyre	-12876
▁thaw	-12877
render	-12878
▁beige	-12879
▁digam	-12880
▁incub	-12881
▁damped	-12882
▁eighth	-12883
▁frison	-12884
▁indeed	-12885
▁lagged	-12886
▁reside	-12887
▁sexual	-12888
▁blended	-12889
aterialize	-12890
▁harmonics	-12891
▁dematerialize	-12892
▁encapsulation	-12893
raft	-12894
vely	-12895
▁inj	-12896
arian	-12897
▁aged	-12898
▁dess	-12899
▁glad	-12900
▁blues	-12901
▁chino	-12902
▁crank	-12903
▁faint	-12904
▁muzzy	-12905
▁casino	-12906
▁cursus	-12907
▁infamy	-12908
▁unpaid	-12909
▁digamma	-12910
▁doorman	-12911
▁feedbin	-12912
▁ganglia	-12913
▁pivotal	-12914
▁teamwork	-12915
▁delicious	-12916
▁scientist	-12917
▁spaceless	-12918
▁robustness	-12919
▁restitution	-12920
▁collaboration	-12921
▁establishment	-12922
▁reinforcement	-12923
puty	-12924
▁tha	-12925
▁aero	-12926
▁flam	-12927
▁kent	-12928
▁lien	-12929
rahend	-12930
▁khaki	-12931
▁labor	-12932
▁overw	-12933
▁demean	-12934
▁deputy	-12935
▁detour	-12936
▁dimmed	-12937
▁hollow	-12938
▁lovely	-12939
▁cycling	-12940
▁drained	-12941
▁hostile	-12942
▁housing	-12943
▁appetize	-12944
structible	-12945
▁capacitor	-12946
▁molecular	-12947
▁reducible	-12948
▁scattered	-12949
▁subtrahend	-12950
▁liquidation	-12951
▁penetration	-12952
▁quantitative	-12953
▁unconditionally	-12954
grou	-12955
added	-12956
iliar	-12957
indle	-12958
entive	-12959
▁clown	-12960
▁jenny	-12961
▁lager	-12962
▁sprig	-12963
grouped	-12964
▁calico	-12965
▁recast	-12966
▁reflog	-12967
▁conceal	-12968
▁evasion	-12969
▁vibrant	-12970
▁unpadded	-12971
▁insurance	-12972
▁ungrouped	-12973
▁literature	-12974
▁distillation	-12975
mog	-12976
▁gag	-12977
iased	-12978
ishop	-12979
▁smug	-12980
liable	-12981
mogrif	-12982
ocused	-12983
▁cavern	-12984
▁pikelet	-12985
▁replier	-12986
▁theoret	-12987
▁finisher	-12988
▁treating	-12989
▁unbiased	-12990
▁unfocused	-12991
▁proprietary	-12992
▁transmogrif	-12993
▁yu	-12994
anel	-12995
bert	-12996
onet	-12997
▁rut	-12998
▁barb	-12999
▁filo	-13000
▁titi	-13001
▁canny	-13002
▁hunks	-13003
▁caveat	-13004
▁defuse	-13005
▁divine	-13006
▁lifter	-13007
▁unlift	-13008
▁valuer	-13009
▁becoming	-13010
▁cultural	-13011
▁dissolve	-13012
▁headroom	-13013
▁indenter	-13014
▁thruster	-13015
▁bystander	-13016
▁inflected	-13017
▁contending	-13018
▁registrant	-13019
▁candlestick	-13020
▁precipitation	-13021
fare	-13022
iest	-13023
▁shr	-13024
enean	-13025
iting	-13026
▁abac	-13027
▁hiss	-13028
▁ouch	-13029
▁rehe	-13030
▁bobby	-13031
▁notch	-13032
ethered	-13033
▁aenean	-13034
▁cronet	-13035
▁lonely	-13036
▁minion	-13037
▁preheat	-13038
▁employer	-13039
▁hovering	-13040
▁landline	-13041
▁suspense	-13042
▁billboard	-13043
▁legendary	-13044
▁blackboard	-13045
▁bloodhound	-13046
▁untethered	-13047
iel	-13048
iro	-13049
lio	-13050
▁gong	-13051
▁tack	-13052
▁cruel	-13053
▁biblio	-13054
▁confuse	-13055
▁natively	-13056
▁ownerless	-13057
▁preinstall	-13058
▁instability	-13059
▁disappearing	-13060
pot	-13061
ivor	-13062
road	-13063
iency	-13064
▁halo	-13065
▁oven	-13066
dation	-13067
illate	-13068
▁peach	-13069
▁taste	-13070
▁taille	-13071
▁dashing	-13072
▁easiest	-13073
▁aptitude	-13074
▁archival	-13075
▁caseless	-13076
▁crawling	-13077
▁foreigner	-13078
▁assistance	-13079
▁hyphenated	-13080
▁degradation	-13081
▁projectionist	-13082
gged	-13083
imed	-13084
▁ule	-13085
elter	-13086
green	-13087
mable	-13088
oleon	-13089
▁yuan	-13090
ranger	-13091
▁birch	-13092
▁quire	-13093
centric	-13094
▁banded	-13095
▁braced	-13096
▁impute	-13097
▁intend	-13098
▁judger	-13099
▁potter	-13100
▁proved	-13101
▁reline	-13102
lockwise	-13103
umbrance	-13104
▁doubler	-13105
▁lobster	-13106
▁communic	-13107
▁honeypot	-13108
▁napoleon	-13109
▁thorough	-13110
▁unlogged	-13111
buch	-13112
pton	-13113
some	-13114
▁lor	-13115
arted	-13116
▁eleg	-13117
▁unfa	-13118
▁vila	-13119
buchet	-13120
ingale	-13121
▁appra	-13122
▁unfol	-13123
ciation	-13124
ologist	-13125
versine	-13126
▁anonym	-13127
▁beetle	-13128
▁feeding	-13129
▁resting	-13130
▁tapping	-13131
▁disappro	-13132
▁formerly	-13133
▁spurious	-13134
▁stripper	-13135
▁countless	-13136
▁fictional	-13137
▁haversine	-13138
▁instantly	-13139
▁trebuchet	-13140
▁geographer	-13141
▁nightingale	-13142
▁magnification	-13143
bah	-13144
▁ero	-13145
▁hak	-13146
▁irk	-13147
▁kry	-13148
adian	-13149
istry	-13150
▁anth	-13151
▁loco	-13152
▁peel	-13153
▁plop	-13154
▁spro	-13155
▁trek	-13156
ematic	-13157
▁prowl	-13158
▁heater	-13159
▁placer	-13160
▁ported	-13161
▁blinker	-13162
▁krypton	-13163
▁therapy	-13164
▁subpanel	-13165
▁fermentum	-13166
▁steradian	-13167
▁unpickled	-13168
▁transcribe	-13169
▁encumbrance	-13170
▁facilitator	-13171
▁invalidator	-13172
▁rationalize	-13173
▁communicating	-13174
▁indestructible	-13175
bour	-13176
▁swe	-13177
▁taa	-13178
raffe	-13179
▁anat	-13180
▁brad	-13181
▁nonp	-13182
▁seme	-13183
▁vine	-13184
hedron	-13185
▁charm	-13186
allowed	-13187
cracker	-13188
uffered	-13189
▁revers	-13190
▁giraffe	-13191
▁solicit	-13192
▁sparkle	-13193
▁weigher	-13194
▁reselect	-13195
▁linearize	-13196
▁unbuffered	-13197
yclic	-13198
▁earl	-13199
▁imply	-13200
▁shred	-13201
▁squir	-13202
▁mantis	-13203
▁toasty	-13204
▁canceler	-13205
▁homeland	-13206
▁reliably	-13207
▁exogenous	-13208
▁unreliable	-13209
ju	-13210
▁obi	-13211
▁pax	-13212
▁indu	-13213
▁shed	-13214
▁affir	-13215
▁ditto	-13216
▁eaten	-13217
▁taiga	-13218
▁banked	-13219
▁fairly	-13220
▁rewire	-13221
▁coolant	-13222
▁harbour	-13223
▁nucleus	-13224
▁allergen	-13225
▁horribly	-13226
▁shilling	-13227
▁adaptable	-13228
▁separating	-13229
▁reification	-13230
▁divisibility	-13231
rat	-13232
tin	-13233
inia	-13234
cibly	-13235
rison	-13236
urate	-13237
▁roof	-13238
▁toot	-13239
▁wing	-13240
▁sinus	-13241
▁dictum	-13242
▁equity	-13243
▁jungle	-13244
▁assault	-13245
▁clothes	-13246
▁decayed	-13247
▁gilbert	-13248
▁lacinia	-13249
▁platoon	-13250
▁steward	-13251
▁twister	-13252
▁forcibly	-13253
▁harmless	-13254
▁musician	-13255
▁turnover	-13256
▁objection	-13257
▁staircase	-13258
▁complicate	-13259
▁endorsement	-13260
▁clarification	-13261
ira	-13262
arga	-13263
ieval	-13264
ubmit	-13265
▁holt	-13266
▁mout	-13267
▁nema	-13268
▁slam	-13269
▁alike	-13270
▁dobra	-13271
▁remit	-13272
▁unhex	-13273
▁sloppy	-13274
▁discuss	-13275
▁harpoon	-13276
▁massive	-13277
▁subband	-13278
▁medieval	-13279
▁sniffing	-13280
▁squirrel	-13281
▁designate	-13282
▁inspiring	-13283
▁patriarch	-13284
▁elementary	-13285
▁inappropri	-13286
cko	-13287
endo	-13288
▁ilk	-13289
▁mao	-13290
▁pil	-13291
arity	-13292
opard	-13293
▁bane	-13294
▁dent	-13295
▁magi	-13296
▁yule	-13297
▁culpa	-13298
▁equil	-13299
▁fiend	-13300
▁jocko	-13301
▁quack	-13302
▁adjoin	-13303
▁angled	-13304
▁circus	-13305
▁edible	-13306
▁hookup	-13307
▁trusty	-13308
▁acyclic	-13309
▁leasing	-13310
▁onwards	-13311
▁meridian	-13312
▁showable	-13313
▁floodgate	-13314
▁perishable	-13315
▁respondent	-13316
▁electricity	-13317
▁semantically	-13318
gar	-13319
irk	-13320
berg	-13321
bole	-13322
▁wis	-13323
inted	-13324
▁acqu	-13325
▁alco	-13326
▁ideo	-13327
▁masc	-13328
▁rang	-13329
▁barth	-13330
▁celeb	-13331
▁escal	-13332
▁puppy	-13333
▁redox	-13334
▁snoop	-13335
▁bishop	-13336
▁harder	-13337
▁dessert	-13338
▁pretext	-13339
▁schemer	-13340
▁oversize	-13341
▁promisor	-13342
▁crescendo	-13343
▁diplomacy	-13344
▁unstarted	-13345
▁elasticity	-13346
▁employment	-13347
▁recordable	-13348
▁constituent	-13349
▁supplementary	-13350
▁dh	-13351
part	-13352
▁akey	-13353
▁coat	-13354
▁goat	-13355
▁yiel	-13356
▁stool	-13357
▁rotary	-13358
▁thrall	-13359
▁iceberg	-13360
▁mangler	-13361
▁premier	-13362
▁singles	-13363
▁slasher	-13364
▁yielder	-13365
▁blinking	-13366
▁filterer	-13367
▁historic	-13368
▁sinusoid	-13369
▁determiner	-13370
▁pretraining	-13371
▁inappropriate	-13372
▁expressionable	-13373
oll	-13374
▁pyr	-13375
anity	-13376
▁trow	-13377
omorph	-13378
▁cough	-13379
▁noted	-13380
▁scoop	-13381
▁tasty	-13382
▁unatt	-13383
▁dating	-13384
▁violin	-13385
▁voided	-13386
▁amplify	-13387
▁warlock	-13388
▁conclude	-13389
▁unshared	-13390
▁propeller	-13391
▁followable	-13392
▁participate	-13393
▁proficiency	-13394
▁unsatisfiable	-13395
▁categorization	-13396
othy	-13397
▁fow	-13398
alter	-13399
organ	-13400
▁connex	-13401
▁heckle	-13402
▁praise	-13403
▁purger	-13404
▁brainer	-13405
▁custody	-13406
▁undeter	-13407
▁richness	-13408
▁causation	-13409
▁corporate	-13410
▁mediation	-13411
▁unwritten	-13412
▁constantly	-13413
▁desaturate	-13414
▁receivable	-13415
igan	-13416
uend	-13417
▁cob	-13418
actor	-13419
▁imit	-13420
▁skeu	-13421
▁tarp	-13422
▁unma	-13423
▁nerve	-13424
▁rotor	-13425
▁tenth	-13426
▁harbor	-13427
▁nanoid	-13428
▁bowling	-13429
▁delimit	-13430
▁inkwell	-13431
▁minuend	-13432
▁placard	-13433
▁psalter	-13434
▁subform	-13435
▁timothy	-13436
▁familiar	-13437
▁playtime	-13438
▁dexterity	-13439
▁unsecured	-13440
▁naturalize	-13441
▁unmappable	-13442
oia	-13443
lant	-13444
mpled	-13445
▁lava	-13446
▁shib	-13447
▁tung	-13448
boleth	-13449
scored	-13450
▁accus	-13451
▁pedro	-13452
raneous	-13453
▁arches	-13454
▁career	-13455
▁healer	-13456
▁shelve	-13457
▁slowly	-13458
▁grizzled	-13459
▁paranoia	-13460
▁postmark	-13461
▁recharge	-13462
▁unscored	-13463
▁anonymity	-13464
▁delegatee	-13465
▁extraneous	-13466
▁shibboleth	-13467
▁skeuomorph	-13468
▁virtualize	-13469
▁hyphenation	-13470
yp	-13471
uar	-13472
▁tch	-13473
aunch	-13474
▁devo	-13475
▁carte	-13476
▁dough	-13477
▁joker	-13478
▁entail	-13479
▁ticked	-13480
▁customs	-13481
▁lecture	-13482
▁escalate	-13483
▁probable	-13484
▁returner	-13485
▁terrible	-13486
▁specially	-13487
▁unallowed	-13488
▁elaborator	-13489
▁liberation	-13490
▁refraction	-13491
▁salutation	-13492
▁photographer	-13493
ffy	-13494
mus	-13495
ound	-13496
▁hygi	-13497
▁lain	-13498
▁sput	-13499
▁welt	-13500
▁adverb	-13501
▁cancer	-13502
▁jaguar	-13503
▁litmus	-13504
▁brought	-13505
▁conquer	-13506
▁entrust	-13507
▁leakage	-13508
▁pasting	-13509
▁backstop	-13510
▁climbing	-13511
▁reverser	-13512
▁analogous	-13513
▁causality	-13514
▁accurately	-13515
upt	-13516
umbo	-13517
▁fet	-13518
▁kip	-13519
aroon	-13520
▁cara	-13521
▁corn	-13522
ennial	-13523
▁congru	-13524
▁dharma	-13525
▁lately	-13526
▁nickel	-13527
▁commute	-13528
▁firebug	-13529
▁doughnut	-13530
▁macaroon	-13531
▁outwatch	-13532
ographical	-13533
▁confident	-13534
▁mitigator	-13535
▁vegetable	-13536
▁inexistent	-13537
▁unliftable	-13538
▁handshaking	-13539
▁passivation	-13540
▁undelivered	-13541
oe	-13542
▁aal	-13543
strip	-13544
▁requ	-13545
▁pride	-13546
▁witch	-13547
▁covert	-13548
▁outage	-13549
▁millenn	-13550
▁shelter	-13551
▁streets	-13552
▁emissive	-13553
▁pinpoint	-13554
▁semester	-13555
▁tradable	-13556
▁filmstrip	-13557
▁integrand	-13558
▁newspaper	-13559
▁reflexive	-13560
▁centennial	-13561
▁compliment	-13562
▁multimodal	-13563
▁volatility	-13564
▁cancelation	-13565
▁counterpart	-13566
▁explanatory	-13567
▁flexibility	-13568
▁distinctness	-13569
crit	-13570
rily	-13571
enter	-13572
ppler	-13573
roved	-13574
ssier	-13575
▁heav	-13576
▁jure	-13577
▁shire	-13578
▁gambit	-13579
▁stabil	-13580
▁elegant	-13581
▁geodist	-13582
▁maximus	-13583
▁rebuilt	-13584
▁rippler	-13585
▁shifter	-13586
▁painless	-13587
▁carefully	-13588
▁invitable	-13589
▁unapproved	-13590
▁unwrapping	-13591
▁ame	-13592
▁kai	-13593
▁sob	-13594
▁fove	-13595
ughter	-13596
▁dealt	-13597
▁golem	-13598
▁tiler	-13599
▁comedy	-13600
▁hander	-13601
▁polite	-13602
▁electro	-13603
▁swapper	-13604
▁trigram	-13605
▁machinist	-13606
▁sharpness	-13607
▁anchorable	-13608
▁combinable	-13609
▁releasable	-13610
▁resubscribe	-13611
▁undetermined	-13612
▁nef	-13613
▁sue	-13614
▁crew	-13615
▁omen	-13616
▁toss	-13617
gester	-13618
▁trape	-13619
▁arrest	-13620
▁denote	-13621
▁dipper	-13622
▁groove	-13623
▁spoken	-13624
▁defence	-13625
▁dossier	-13626
▁inertial	-13627
▁linkable	-13628
▁occasion	-13629
▁swimming	-13630
▁clockface	-13631
▁renewable	-13632
▁sandglass	-13633
▁suffering	-13634
▁suggester	-13635
▁biological	-13636
▁investment	-13637
▁competition	-13638
▁continental	-13639
held	-13640
▁jay	-13641
offic	-13642
vinar	-13643
▁bite	-13644
▁wale	-13645
▁wend	-13646
perate	-13647
▁court	-13648
▁diner	-13649
▁hired	-13650
▁messy	-13651
▁spoil	-13652
▁argent	-13653
▁assure	-13654
▁barney	-13655
▁carrot	-13656
▁padder	-13657
▁widely	-13658
▁arbitra	-13659
▁notable	-13660
clockwise	-13661
▁appeaser	-13662
▁harmonic	-13663
▁pulvinar	-13664
▁unhinted	-13665
▁chemistry	-13666
▁exemption	-13667
▁conformant	-13668
▁creational	-13669
▁obligation	-13670
▁consequence	-13671
▁prematurely	-13672
utch	-13673
▁asy	-13674
▁ugh	-13675
▁bary	-13676
▁quan	-13677
▁resh	-13678
▁dolly	-13679
sedence	-13680
▁chromo	-13681
▁funded	-13682
▁maxima	-13683
▁rotten	-13684
▁sitter	-13685
▁trapez	-13686
▁unexec	-13687
official	-13688
▁glowing	-13689
▁orbital	-13690
▁redempt	-13691
▁subsonic	-13692
▁unrender	-13693
▁connexion	-13694
▁deduction	-13695
▁escapable	-13696
▁linearity	-13697
▁percolate	-13698
▁descendent	-13699
▁promotable	-13700
▁refutation	-13701
▁scattering	-13702
▁arbitrarily	-13703
▁supersedence	-13704
▁reproducibility	-13705
idar	-13706
▁aho	-13707
▁cep	-13708
▁eft	-13709
▁hab	-13710
▁sag	-13711
olver	-13712
▁celt	-13713
▁puff	-13714
▁stom	-13715
▁thir	-13716
sperse	-13717
▁metis	-13718
▁unint	-13719
▁domino	-13720
▁muscle	-13721
▁rumble	-13722
▁inaccur	-13723
▁chokidar	-13724
▁congress	-13725
▁pythonic	-13726
▁traveler	-13727
▁catchable	-13728
▁desperate	-13729
▁heteronym	-13730
▁recoverer	-13731
▁accidental	-13732
▁unofficial	-13733
▁intersperse	-13734
▁subsequently	-13735
rue	-13736
lied	-13737
seta	-13738
arked	-13739
▁abor	-13740
▁diet	-13741
▁muid	-13742
▁suff	-13743
▁unfl	-13744
▁weet	-13745
iginal	-13746
ington	-13747
ulette	-13748
▁chore	-13749
▁genie	-13750
▁minut	-13751
▁eldest	-13752
▁enlace	-13753
▁peseta	-13754
▁tabled	-13755
▁outform	-13756
▁stomach	-13757
▁unionid	-13758
▁devourer	-13759
▁invocant	-13760
▁roulette	-13761
▁unmarked	-13762
▁withheld	-13763
▁fuzziness	-13764
▁household	-13765
▁aboriginal	-13766
▁centimeter	-13767
▁redemption	-13768
▁iteratively	-13769
▁consolidation	-13770
nis	-13771
▁ree	-13772
▁naut	-13773
▁daisy	-13774
▁enrol	-13775
▁feder	-13776
▁hamal	-13777
▁simul	-13778
▁thats	-13779
▁unaff	-13780
▁untra	-13781
▁asympt	-13782
▁lounge	-13783
▁patrol	-13784
▁rebill	-13785
▁recomb	-13786
▁tender	-13787
▁tennis	-13788
lanetary	-13789
▁halfway	-13790
▁seating	-13791
▁shooter	-13792
▁advancer	-13793
▁comprise	-13794
▁mangling	-13795
▁outworld	-13796
▁sickness	-13797
▁uncommon	-13798
▁bisection	-13799
▁imbalance	-13800
▁precisely	-13801
▁resultant	-13802
▁reversing	-13803
▁ultimately	-13804
▁concentrate	-13805
▁dimensionless	-13806
▁manifestation	-13807
▁interplanetary	-13808
oly	-13809
elch	-13810
grim	-13811
rase	-13812
▁ere	-13813
▁lof	-13814
▁vii	-13815
amele	-13816
▁eter	-13817
▁heir	-13818
igible	-13819
▁exile	-13820
▁linen	-13821
▁lunch	-13822
▁sting	-13823
▁afford	-13824
▁amulet	-13825
▁distal	-13826
▁morgan	-13827
▁wilder	-13828
▁borning	-13829
▁chamele	-13830
▁flanger	-13831
▁roundup	-13832
▁squelch	-13833
▁exemplar	-13834
▁fixation	-13835
▁millions	-13836
▁incubator	-13837
▁refinance	-13838
▁thermometer	-13839
uh	-13840
edo	-13841
hol	-13842
elon	-13843
pool	-13844
▁ada	-13845
▁dun	-13846
▁tou	-13847
▁yok	-13848
aduct	-13849
llion	-13850
zeiro	-13851
▁lady	-13852
ancing	-13853
▁clint	-13854
▁cinema	-13855
▁discer	-13856
▁radian	-13857
▁rarely	-13858
▁cracked	-13859
▁heavily	-13860
▁viaduct	-13861
▁adaption	-13862
▁cruzeiro	-13863
▁trillion	-13864
▁chameleon	-13865
▁residence	-13866
▁whirlpool	-13867
▁exhaustion	-13868
▁formidable	-13869
▁remarkable	-13870
iva	-13871
odus	-13872
▁hau	-13873
▁gyro	-13874
▁juju	-13875
regard	-13876
▁begun	-13877
▁parad	-13878
▁rhino	-13879
▁booter	-13880
▁racing	-13881
▁regime	-13882
▁warped	-13883
▁accompl	-13884
▁chakram	-13885
▁halting	-13886
▁injured	-13887
▁leather	-13888
▁lengthy	-13889
▁profess	-13890
▁protein	-13891
▁stacker	-13892
▁beverage	-13893
▁ellipses	-13894
▁minutely	-13895
▁resubmit	-13896
▁solarize	-13897
▁evergreen	-13898
▁chargeable	-13899
▁symbolizer	-13900
▁uncompiled	-13901
▁undeliverable	-13902
▁huh	-13903
apply	-13904
ropic	-13905
urage	-13906
▁itch	-13907
▁mines	-13908
▁nones	-13909
inction	-13910
rentice	-13911
▁freely	-13912
▁abyssal	-13913
▁diacrit	-13914
▁flinger	-13915
▁induced	-13916
▁lambert	-13917
▁leopard	-13918
▁placebo	-13919
▁reapply	-13920
▁redrive	-13921
▁warrant	-13922
▁suddenly	-13923
▁discontin	-13924
▁entertain	-13925
▁professor	-13926
▁respecting	-13927
▁strategist	-13928
▁betweenness	-13929
▁multiplying	-13930
▁contradiction	-13931
▁recalculation	-13932
ahi	-13933
uly	-13934
ller	-13935
▁ont	-13936
cided	-13937
ingly	-13938
▁emer	-13939
▁kron	-13940
▁pili	-13941
▁wisp	-13942
▁wops	-13943
attach	-13944
▁admit	-13945
▁avahi	-13946
▁decel	-13947
▁habit	-13948
igraphy	-13949
▁divert	-13950
▁exodus	-13951
▁murder	-13952
▁parley	-13953
▁anatomy	-13954
▁ramping	-13955
▁welfare	-13956
▁nettable	-13957
▁reattach	-13958
▁disregard	-13959
▁undecided	-13960
▁arbitrable	-13961
▁entailment	-13962
▁calligraphy	-13963
▁exclusivity	-13964
▁deceleration	-13965
eal	-13966
brow	-13967
igot	-13968
▁aro	-13969
▁uva	-13970
quity	-13971
rawer	-13972
▁mare	-13973
▁melt	-13974
▁vela	-13975
▁agora	-13976
▁jumbo	-13977
▁sarsa	-13978
▁sitio	-13979
italize	-13980
▁anneal	-13981
▁baking	-13982
▁blonde	-13983
▁floppy	-13984
▁oculus	-13985
▁specie	-13986
▁spigot	-13987
▁windup	-13988
▁creeper	-13989
▁digging	-13990
▁exhibit	-13991
▁eyebrow	-13992
▁himself	-13993
▁reorgan	-13994
▁cofactor	-13995
▁ontology	-13996
▁overtrue	-13997
▁redrawer	-13998
▁weakness	-13999
▁epicenter	-14000
▁modulator	-14001
▁phonetics	-14002
▁wonderful	-14003
▁projecting	-14004
▁wellington	-14005
▁furthermore	-14006
▁decapitalize	-14007
▁sufficiently	-14008
rew	-14009
▁cune	-14010
▁flem	-14011
▁leer	-14012
▁pint	-14013
ceiver	-14014
ulated	-14015
▁fever	-14016
▁hider	-14017
▁lever	-14018
▁pearl	-14019
▁teeth	-14020
corated	-14021
▁gravel	-14022
▁reborn	-14023
▁alcohol	-14024
▁atrophy	-14025
▁brevity	-14026
▁flemish	-14027
▁pilgrim	-14028
▁reprint	-14029
▁absorbed	-14030
▁serenity	-14031
▁cuneiform	-14032
▁intensive	-14033
▁naturally	-14034
▁southwest	-14035
▁unsampled	-14036
▁inaccurate	-14037
▁succession	-14038
▁designation	-14039
▁enchantress	-14040
▁undecorated	-14041
▁bibliography	-14042
pell	-14043
ummy	-14044
▁yea	-14045
asize	-14046
fruit	-14047
icion	-14048
power	-14049
▁aint	-14050
▁homo	-14051
making	-14052
▁coinc	-14053
▁hight	-14054
▁unown	-14055
▁hatter	-14056
▁priest	-14057
▁racket	-14058
▁senate	-14059
▁unbund	-14060
▁concret	-14061
▁flowing	-14062
▁snapped	-14063
▁tactive	-14064
▁vaccine	-14065
▁votable	-14066
▁misspell	-14067
▁substance	-14068
▁suspicion	-14069
▁aesthetics	-14070
▁centrality	-14071
▁barycentric	-14072
▁desensitizer	-14073
▁magnetometer	-14074
▁typographically	-14075
iac	-14076
ulio	-14077
▁lop	-14078
▁woe	-14079
▁zag	-14080
conda	-14081
▁bust	-14082
▁monk	-14083
▁phil	-14084
▁polo	-14085
▁unat	-14086
▁wilt	-14087
gether	-14088
▁brake	-14089
▁grown	-14090
▁julio	-14091
▁snowy	-14092
▁curric	-14093
▁anaconda	-14094
▁celebrity	-14095
▁effectful	-14096
▁fastening	-14097
▁overworld	-14098
▁sexuality	-14099
▁altogether	-14100
▁apprentice	-14101
▁facilitate	-14102
▁forcefully	-14103
▁millennium	-14104
vol	-14105
hang	-14106
▁dew	-14107
tison	-14108
▁bron	-14109
▁cath	-14110
▁curb	-14111
▁flor	-14112
▁inno	-14113
▁koel	-14114
▁mick	-14115
▁tare	-14116
aulter	-14117
wright	-14118
▁bland	-14119
▁brack	-14120
▁chili	-14121
▁lover	-14122
▁incred	-14123
▁parsec	-14124
▁philos	-14125
▁plated	-14126
▁sprout	-14127
▁cadence	-14128
▁captive	-14129
▁eternal	-14130
▁preserv	-14131
▁sugared	-14132
▁walloon	-14133
▁jettison	-14134
▁pedantic	-14135
▁defaulter	-14136
▁emphasize	-14137
▁unapplied	-14138
▁reasonably	-14139
▁unaffected	-14140
▁preservation	-14141
any	-14142
dew	-14143
▁lek	-14144
▁obs	-14145
▁burg	-14146
▁hind	-14147
▁raff	-14148
▁toty	-14149
▁conco	-14150
▁ninth	-14151
▁rater	-14152
▁slang	-14153
▁bronze	-14154
▁defend	-14155
▁forker	-14156
▁paraph	-14157
▁pierce	-14158
▁rebate	-14159
▁carried	-14160
▁economy	-14161
▁slashed	-14162
▁sticked	-14163
▁stylize	-14164
▁unfavor	-14165
▁contrary	-14166
▁honeydew	-14167
▁quartile	-14168
▁conscript	-14169
▁happiness	-14170
▁blackberry	-14171
▁infinitive	-14172
▁linguistic	-14173
▁paraphrase	-14174
▁playwright	-14175
▁reflecting	-14176
▁reorganize	-14177
▁firecracker	-14178
▁multiplicand	-14179
▁subscribable	-14180
▁lexicographic	-14181
air	-14182
sen	-14183
laut	-14184
▁amy	-14185
▁viv	-14186
olute	-14187
▁coex	-14188
▁lata	-14189
▁mise	-14190
▁mund	-14191
▁wint	-14192
celain	-14193
etical	-14194
▁herit	-14195
▁ought	-14196
▁pathy	-14197
▁revis	-14198
▁testa	-14199
▁teste	-14200
▁uplay	-14201
▁escort	-14202
▁umlaut	-14203
▁centaur	-14204
▁clicker	-14205
[...]
