<unk>	0
<s>	0
</s>	0
<pad>	0
<endofline>	0
<endoftext>	0
▁.	-0
er	-1
▁s	-2
in	-3
▁t	-4
▁c	-5
re	-6
on	-7
▁a	-8
at	-9
or	-10
▁p	-11
en	-12
▁f	-13
st	-14
le	-15
▁=	-16
▁m	-17
al	-18
▁d	-19
▁i	-20
▁re	-21
▁"	-22
▁l	-23
▁n	-24
ion	-25
▁b	-26
se	-27
it	-28
);	-29
▁e	-30
▁{	-31
ic	-32
▁*	-33
he	-34
▁in	-35
ct	-36
ar	-37
▁o	-38
et	-39
▁v	-40
an	-41
ut	-42
▁}	-43
▁st	-44
ro	-45
ing	-46
ss	-47
mp	-48
▁w	-49
un	-50
de	-51
▁g	-52
▁co	-53
▁(	-54
ur	-55
ce	-56
am	-57
ed	-58
▁con	-59
ent	-60
▁the	-61
()	-62
ri	-63
▁'	-64
pe	-65
ul	-66
ate	-67
▁to	-68
▁ex	-69
▁h	-70
ort	-71
ue	-72
▁de	-73
::	-74
il	-75
//	-76
is	-77
▁0	-78
--	-79
▁th	-80
ag	-81
ck	-82
te	-83
▁1	-84
ub	-85
▁val	-86
ad	-87
pt	-88
lic	-89
ring	-90
id	-91
lo	-92
▁2	-93
▁u	-94
ame	-95
ra	-96
imp	-97
▁ret	-98
▁or	-99
▁an	-100
▁get	-101
urn	-102
▁ma	-103
ist	-104
ab	-105
ation	-106
▁j	-107
▁return	-108
ew	-109
import	-110
ig	-111
la	-112
▁te	-113
ch	-114
ot	-115
▁pro	-116
ype	-117
▁se	-118
▁if	-119
**	-120
im	-121
("	-122
ense	-123
age	-124
▁of	-125
▁un	-126
ter	-127
->	-128
▁r	-129
der	-130
ver	-131
▁for	-132
um	-133
qu	-134
▁is	-135
▁fi	-136
ction	-137
iz	-138
▁@	-139
▁ap	-140
▁//	-141
▁string	-142
ert	-143
▁type	-144
▁k	-145
ve	-146
ol	-147
ith	-148
as	-149
▁lo	-150
xt	-151
able	-152
▁res	-153
▁par	-154
▁name	-155
int	-156
▁lic	-157
ata	-158
▁license	-159
ode	-160
▁this	-161
ption	-162
▁id	-163
th	-164
es	-165
if	-166
ult	-167
▁pub	-168
ect	-169
▁<	-170
▁def	-171
();	-172
od	-173
li	-174
end	-175
▁value	-176
che	-177
ase	-178
▁",	-179
▁test	-180
▁set	-181
))	-182
▁x	-183
ers	-184
el	-185
▁with	-186
ize	-187
▁ar	-188
▁bu	-189
▁new	-190
▁/	-191
▁so	-192
▁+	-193
▁int	-194
▁com	-195
ack	-196
err	-197
▁3	-198
----	-199
▁*/	-200
ull	-201
▁ch	-202
lass	-203
▁public	-204
▁tr	-205
▁ad	-206
▁data	-207
▁ass	-208
▁=>	-209
▁le	-210
▁on	-211
▁and	-212
tt	-213
),	-214
▁as	-215
up	-216
).	-217
▁map	-218
ey	-219
▁sh	-220
▁file	-221
ject	-222
and	-223
▁list	-224
▁be	-225
ment	-226
▁assert	-227
▁by	-228
con	-229
us	-230
▁class	-231
▁y	-232
▁&	-233
▁stat	-234
▁org	-235
▁err	-236
▁ser	-237
▁not	-238
co	-239
▁al	-240
▁ob	-241
▁po	-242
ma	-243
▁add	-244
▁const	-245
ath	-246
oo	-247
ang	-248
▁cont	-249
ance	-250
ht	-251
▁do	-252
▁null	-253
ime	-254
ure	-255
fig	-256
rib	-257
▁->	-258
▁me	-259
▁param	-260
lu	-261
oid	-262
ache	-263
rom	-264
▁comp	-265
ress	-266
▁imp	-267
unction	-268
ff	-269
que	-270
▁key	-271
▁==	-272
are	-273
▁pri	-274
▁size	-275
ser	-276
put	-277
▁exce	-278
ine	-279
ire	-280
row	-281
▁app	-282
rit	-283
ind	-284
▁he	-285
▁en	-286
ity	-287
▁error	-288
ition	-289
av	-290
▁config	-291
all	-292
▁|	-293
▁ut	-294
lf	-295
py	-296
▁col	-297
text	-298
ctor	-299
atch	-300
out	-301
ribut	-302
▁sp	-303
▁met	-304
▁case	-305
▁',	-306
unt	-307
▁from	-308
ice	-309
ow	-310
00	-311
ttp	-312
▁")	-313
==	-314
vate	-315
▁sc	-316
▁fa	-317
▁-	-318
▁exp	-319
string	-320
inal	-321
▁log	-322
urce	-323
▁ev	-324
ial	-325
('	-326
ain	-327
ft	-328
▁util	-329
▁use	-330
fo	-331
▁time	-332
sc	-333
▁private	-334
▁wh	-335
▁let	-336
▁len	-337
▁");	-338
▁result	-339
▁4	-340
▁writ	-341
▁copy	-342
▁void	-343
ive	-344
▁str	-345
▁function	-346
ray	-347
▁aut	-348
ant	-349
om	-350
ly	-351
▁exception	-352
per	-353
▁over	-354
▁[	-355
ir	-356
▁under	-357
▁cre	-358
quest	-359
▁ext	-360
nt	-361
▁out	-362
qual	-363
son	-364
▁la	-365
▁http	-366
set	-367
****	-368
rig	-369
▁path	-370
ava	-371
▁apache	-372
ies	-373
art	-374
▁static	-375
▁code	-376
▁buil	-377
▁object	-378
ile	-379
▁state	-380
ator	-381
▁option	-382
▁context	-383
dex	-384
));	-385
val	-386
get	-387
cess	-388
pect	-389
res	-390
▁8	-391
--------	-392
ou	-393
ans	-394
▁:	-395
ride	-396
ec	-397
▁java	-398
▁el	-399
ule	-400
ap	-401
▁sy	-402
po	-403
right	-404
().	-405
▁inst	-406
clu	-407
▁6	-408
▁request	-409
▁/**	-410
ault	-411
▁io	-412
vice	-413
ry	-414
▁event	-415
orm	-416
ssage	-417
one	-418
▁equal	-419
▁!	-420
▁read	-421
me	-422
▁array	-423
▁var	-424
quire	-425
▁true	-426
▁override	-427
▁$	-428
ex	-429
▁dist	-430
eld	-431
rap	-432
mo	-433
ong	-434
▁prop	-435
▁pre	-436
pec	-437
ip	-438
▁)	-439
▁node	-440
▁arg	-441
▁final	-442
ream	-443
▁}}	-444
iew	-445
▁has	-446
▁inter	-447
▁ro	-448
ore	-449
▁at	-450
alse	-451
uld	-452
▁else	-453
▁up	-454
lient	-455
ener	-456
▁we	-457
▁num	-458
ger	-459
▁ne	-460
▁5	-461
und	-462
▁text	-463
lement	-464
▁require	-465
▁comm	-466
▁byte	-467
▁/*	-468
▁it	-469
▁you	-470
▁per	-471
ffer	-472
clude	-473
iv	-474
▁vers	-475
(),	-476
],	-477
▁create	-478
▁spec	-479
▁version	-480
ould	-481
▁mode	-482
▁message	-483
▁expect	-484
ssion	-485
▁index	-486
());	-487
ork	-488
to	-489
ord	-490
ign	-491
▁self	-492
▁that	-493
▁may	-494
▁default	-495
▁reg	-496
ink	-497
▁distribut	-498
lock	-499
▁qu	-500
▁info	-501
bu	-502
▁throw	-503
▁bo	-504
▁mod	-505
▁any	-506
▁,	-507
▁trans	-508
▁json	-509
io	-510
▁client	-511
ty	-512
▁should	-513
ackage	-514
ken	-515
▁ref	-516
port	-517
amp	-518
▁che	-519
ace	-520
▁hand	-521
▁32	-522
▁false	-523
uct	-524
▁field	-525
new	-526
▁view	-527
▁ent	-528
ust	-529
tr	-530
gth	-531
▁z	-532
▁ac	-533
ware	-534
▁sub	-535
▁check	-536
ke	-537
form	-538
ob	-539
▁form	-540
▁stream	-541
▁instance	-542
(&	-543
sp	-544
hod	-545
▁lang	-546
▁pa	-547
urre	-548
em	-549
▁distributed	-550
ber	-551
▁op	-552
pon	-553
ations	-554
low	-555
▁buffer	-556
://	-557
license	-558
▁auth	-559
▁fn	-560
▁call	-561
▁length	-562
ated	-563
lean	-564
ftware	-565
▁sup	-566
▁ur	-567
▁#	-568
ree	-569
▁all	-570
read	-571
):	-572
mi	-573
▁char	-574
include	-575
▁start	-576
▁input	-577
",	-578
ere	-579
use	-580
ler	-581
▁0,	-582
▁software	-583
▁>	-584
ery	-585
(1	-586
01	-587
▁mo	-588
▁},	-589
▁no	-590
())	-591
▁`	-592
name	-593
▁::	-594
ponse	-595
code	-596
▁method	-597
nc	-598
▁token	-599
▁service	-600
▁match	-601
▁0;	-602
ource	-603
imit	-604
ends	-605
ument	-606
▁head	-607
bo	-608
▁fil	-609
urrent	-610
ific	-611
▁boo	-612
▁count	-613
▁loc	-614
ne	-615
▁pr	-616
▁ag	-617
▁run	-618
▁tra	-619
def	-620
▁builder	-621
pub	-622
▁source	-623
ard	-624
▁propert	-625
ark	-626
){	-627
ifi	-628
▁end	-629
▁user	-630
0,	-631
ange	-632
ence	-633
▁copyright	-634
rame	-635
ix	-636
▁att	-637
ary	-638
▁extends	-639
uage	-640
▁war	-641
ann	-642
▁&&	-643
sh	-644
▁limit	-645
this	-646
▁std	-647
mpty	-648
▁format	-649
▁long	-650
▁man	-651
▁response	-652
▁!=	-653
▁language	-654
tem	-655
▁su	-656
▁pos	-657
op	-658
ib	-659
▁exec	-660
▁item	-661
wn	-662
▁dis	-663
▁});	-664
▁max	-665
▁desc	-666
▁express	-667
ight	-668
▁scal	-669
▁fl	-670
▁see	-671
ory	-672
-2	-673
▁write	-674
▁init	-675
act	-676
▁1,	-677
▁query	-678
▁base	-679
pro	-680
lay	-681
const	-682
dition	-683
af	-684
▁table	-685
▁element	-686
▁contain	-687
▁link	-688
====	-689
▁api	-690
ctory	-691
▁output	-692
********	-693
▁server	-694
▁block	-695
▁applic	-696
ample	-697
..	-698
ql	-699
▁mem	-700
date	-701
test	-702
▁im	-703
roup	-704
ens	-705
▁model	-706
▁gener	-707
lect	-708
loc	-709
▁sche	-710
▁address	-711
▁boolean	-712
ide	-713
ning	-714
ay	-715
▁empty	-716
▁options	-717
▁us	-718
ill	-719
▁status	-720
str	-721
ask	-722
▁part	-723
▁import	-724
▁condition	-725
col	-726
▁rec	-727
▁off	-728
▁without	-729
mission	-730
////	-731
gin	-732
▁execut	-733
▁some	-734
▁hash	-735
▁line	-736
ak	-737
ml	-738
type	-739
▁rep	-740
mut	-741
sg	-742
▁kind	-743
----------------	-744
uration	-745
▁url	-746
ge	-747
▁filter	-748
let	-749
];	-750
ther	-751
rant	-752
▁go	-753
ild	-754
▁permission	-755
▁act	-756
▁uint	-757
tern	-758
work	-759
▁number	-760
▁content	-761
▁64	-762
▁ab	-763
self	-764
▁7	-765
▁{@	-766
load	-767
▁()	-768
do	-769
▁print	-770
▁struct	-771
back	-772
▁equals	-773
▁module	-774
▁mut	-775
stem	-776
};	-777
\"	-778
ract	-779
of	-780
▁group	-781
arget	-782
not	-783
▁next	-784
ave	-785
ify	-786
raw	-787
▁resource	-788
▁unit	-789
umn	-790
▁prov	-791
▁load	-792
ep	-793
ait	-794
▁clo	-795
▁);	-796
▁wid	-797
line	-798
loat	-799
data	-800
▁are	-801
ac	-802
▁oper	-803
▁iter	-804
▁author	-805
rol	-806
▁required	-807
▁package	-808
▁net	-809
ager	-810
ither	-811
▁update	-812
ach	-813
▁tag	-814
map	-815
▁bas	-816
uble	-817
].	-818
key	-819
▁date	-820
▁build	-821
lied	-822
tain	-823
▁warrant	-824
add	-825
▁///	-826
},	-827
cket	-828
▁auto	-829
▁9	-830
▁||	-831
/**	-832
▁bytes	-833
▁doc	-834
▁parse	-835
▁specific	-836
▁current	-837
value	-838
](	-839
void	-840
ializ	-841
ail	-842
the	-843
ww	-844
])	-845
▁min	-846
▁utils	-847
▁conditions	-848
▁valid	-849
ature	-850
www	-851
rc	-852
annel	-853
▁either	-854
▁remo	-855
lection	-856
▁dec	-857
▁can	-858
▁property	-859
lete	-860
stat	-861
▁bit	-862
less	-863
▁core	-864
▁factory	-865
▁one	-866
▁cache	-867
ync	-868
▁task	-869
▁offset	-870
▁0)	-871
▁column	-872
▁thread	-873
▁regist	-874
(0	-875
ded	-876
▁');	-877
▁201	-878
function	-879
▁handler	-880
="	-881
▁system	-882
▁implied	-883
▁(!	-884
▁work	-885
▁fail	-886
▁manager	-887
▁command	-888
ster	-889
fer	-890
▁process	-891
ush	-892
++	-893
</	-894
yle	-895
nection	-896
public	-897
▁eq	-898
file	-899
▁row	-900
▁";	-901
▁back	-902
ret	-903
▁25	-904
par	-905
ite	-906
▁warranties	-907
late	-908
ector	-909
[]	-910
[0	-911
ru	-912
▁target	-913
▁other	-914
;}	-915
package	-916
▁color	-917
▁values	-918
▁q	-919
▁ver	-920
▁fo	-921
ict	-922
▁annot	-923
▁obtain	-924
▁ca	-925
so	-926
ia	-927
▁--	-928
▁mock	-929
▁temp	-930
▁scala	-931
ript	-932
ions	-933
▁common	-934
▁permissions	-935
ost	-936
▁non	-937
▁try	-938
▁but	-939
raph	-940
▁order	-941
▁paramet	-942
▁when	-943
▁red	-944
▁right	-945
▁ct	-946
▁})	-947
mit	-948
be	-949
▁inte	-950
ody	-951
▁throws	-952
▁sql	-953
▁header	-954
▁ins	-955
▁image	-956
▁ok	-957
licit	-958
▁own	-959
▁%	-960
ls	-961
null	-962
▁frame	-963
roid	-964
▁mat	-965
▁fir	-966
▁licensed	-967
▁uns	-968
▁fe	-969
▁hel	-970
▁16	-971
▁entry	-972
▁none	-973
▁?	-974
ings	-975
space	-976
▁action	-977
▁except	-978
▁aw	-979
▁bre	-980
▁channel	-981
▁types	-982
▁2,	-983
▁port	-984
led	-985
!(	-986
▁mon	-987
bug	-988
pos	-989
var	-990
cond	-991
ud	-992
▁connection	-993
▁writing	-994
▁law	-995
▁logger	-996
▁unless	-997
abel	-998
ual	-999
reed	-1000
1,	-1001
licenses	-1002
▁returns	-1003
▁gover	-1004
onent	-1005
▁};	-1006
▁args	-1007
ics	-1008
▁basis	-1009
▁where	-1010
ative	-1011
▁width	-1012
▁proto	-1013
liance	-1014
▁first	-1015
ok	-1016
mb	-1017
▁lay	-1018
▁pl	-1019
class	-1020
by	-1021
▁compliance	-1022
▁last	-1023
▁applicable	-1024
▁params	-1025
▁android	-1026
pre	-1027
▁float	-1028
▁governing	-1029
ined	-1030
▁av	-1031
▁put	-1032
▁schema	-1033
▁limitations	-1034
▁attribut	-1035
▁js	-1036
▁agreed	-1037
▁open	-1038
▁seq	-1039
gle	-1040
▁break	-1041
▁ptr	-1042
▁":	-1043
indow	-1044
object	-1045
own	-1046
▁"))	-1047
▁<<	-1048
arent	-1049
▁')	-1050
▁double	-1051
▁session	-1052
▁store	-1053
▁dire	-1054
uture	-1055
▁child	-1056
../	-1057
▁web	-1058
▁position	-1059
▁handle	-1060
ified	-1061
);}	-1062
▁cal	-1063
▁suc	-1064
▁local	-1065
sed	-1066
lob	-1067
▁<-	-1068
({	-1069
▁argument	-1070
")	-1071
gr	-1072
action	-1073
▁super	-1074
ription	-1075
path	-1076
▁project	-1077
▁env	-1078
▁vector	-1079
her	-1080
▁buf	-1081
arg	-1082
▁find	-1083
ider	-1084
▁12	-1085
▁dir	-1086
▁"#	-1087
nder	-1088
face	-1089
▁listener	-1090
▁10	-1091
▁conver	-1092
ute	-1093
▁will	-1094
▁fol	-1095
>#	-1096
▁body	-1097
▁cl	-1098
((	-1099
erm	-1100
▁+=	-1101
▁style	-1102
▁callback	-1103
▁record	-1104
▁intern	-1105
▁rule	-1106
lace	-1107
size	-1108
▁===	-1109
▁msg	-1110
valid	-1111
pr	-1112
ner	-1113
▁sec	-1114
▁async	-1115
>(	-1116
mod	-1117
▁ed	-1118
▁page	-1119
▁vec	-1120
▁db	-1121
▁{}	-1122
vel	-1123
comp	-1124
ility	-1125
▁opt	-1126
▁sign	-1127
▁root	-1128
point	-1129
▁\	-1130
afe	-1131
▁push	-1132
▁"),	-1133
]]	-1134
unit	-1135
▁point	-1136
▁foo	-1137
',	-1138
▁future	-1139
▁flag	-1140
▁ctx	-1141
adata	-1142
▁control	-1143
▁resol	-1144
▁expected	-1145
count	-1146
▁bool	-1147
log	-1148
error	-1149
▁internal	-1150
▁then	-1151
========	-1152
▁dat	-1153
▁wrap	-1154
queue	-1155
▁sw	-1156
▁256	-1157
pc	-1158
met	-1159
▁success	-1160
▁left	-1161
▁height	-1162
-}	-1163
▁access	-1164
▁component	-1165
▁only	-1166
▁select	-1167
ld	-1168
inter	-1169
▁stack	-1170
reg	-1171
▁found	-1172
▁graph	-1173
(2	-1174
▁annotation	-1175
▁mult	-1176
ifier	-1177
▁conc	-1178
▁support	-1179
▁remove	-1180
wrap	-1181
▁top	-1182
▁close	-1183
▁render	-1184
static	-1185
list	-1186
▁tree	-1187
▁example	-1188
lib	-1189
▁into	-1190
02	-1191
▁sco	-1192
byte	-1193
▁append	-1194
arch	-1195
lugin	-1196
fix	-1197
▁cur	-1198
>>	-1199
frame	-1200
mt	-1201
▁prote	-1202
cted	-1203
▁det	-1204
▁window	-1205
fore	-1206
▁conn	-1207
▁parser	-1208
ped	-1209
-#	-1210
****************	-1211
▁..	-1212
▁sett	-1213
result	-1214
▁must	-1215
ick	-1216
▁configuration	-1217
▁jo	-1218
▁#-}	-1219
igned	-1220
▁debug	-1221
▁entity	-1222
▁af	-1223
com	-1224
▁have	-1225
▁document	-1226
oogle	-1227
main	-1228
▁await	-1229
▁parent	-1230
▁implement	-1231
ender	-1232
ich	-1233
▁fun	-1234
▁';	-1235
sl	-1236
ale	-1237
we	-1238
▁spark	-1239
▁collection	-1240
word	-1241
▁free	-1242
▁1)	-1243
ved	-1244
▁label	-1245
▁1;	-1246
▁show	-1247
attern	-1248
config	-1249
iled	-1250
▁memory	-1251
▁protected	-1252
▁timeout	-1253
ialize	-1254
ll	-1255
sum	-1256
▁range	-1257
▁delete	-1258
▁metadata	-1259
▁tim	-1260
▁google	-1261
▁vari	-1262
▁properties	-1263
▁vis	-1264
0000	-1265
▁send	-1266
▁li	-1267
▁bind	-1268
ustom	-1269
▁inc	-1270
▁job	-1271
uint	-1272
▁enable	-1273
enc	-1274
▁enum	-1275
▁").	-1276
node	-1277
▁export	-1278
▁spring	-1279
itor	-1280
ape	-1281
;/**	-1282
ie	-1283
▁term	-1284
");	-1285
[1	-1286
▁integer	-1287
▁ind	-1288
▁protocol	-1289
▁pass	-1290
▁bin	-1291
ph	-1292
▁ident	-1293
ally	-1294
▁second	-1295
▁dep	-1296
▁disp	-1297
▁namespace	-1298
▁.{	-1299
coder	-1300
▁contains	-1301
▁provider	-1302
▁catch	-1303
▁device	-1304
▁template	-1305
▁host	-1306
vent	-1307
)(	-1308
no	-1309
md	-1310
itle	-1311
▁implicit	-1312
▁conf	-1313
▁socket	-1314
-1	-1315
ron	-1316
▁insert	-1317
std	-1318
▁used	-1319
)]	-1320
rate	-1321
▁description	-1322
iter	-1323
>,	-1324
▁layout	-1325
▁simp	-1326
▁00	-1327
▁https	-1328
▁before	-1329
ise	-1330
▁lib	-1331
▁apply	-1332
▁++	-1333
▁feature	-1334
ca	-1335
▁unwrap	-1336
///	-1337
▁queue	-1338
▁alloc	-1339
▁tw	-1340
▁serializ	-1341
▁reader	-1342
▁exist	-1343
▁ht	-1344
from	-1345
▁lock	-1346
▁((	-1347
▁after	-1348
▁level	-1349
▁-1	-1350
app	-1351
▁ph	-1352
▁transform	-1353
ical	-1354
orage	-1355
len	-1356
▁parameter	-1357
▁plugin	-1358
sy	-1359
cs	-1360
▁while	-1361
▁impl	-1362
▁invalid	-1363
#[	-1364
unk	-1365
▁refer	-1366
▁cla	-1367
ka	-1368
lobal	-1369
▁mark	-1370
▁each	-1371
▁sing	-1372
▁container	-1373
▁""	-1374
true	-1375
)).	-1376
▁cor	-1377
ices	-1378
▁rel	-1379
ible	-1380
ton	-1381
▁interface	-1382
▁post	-1383
xy	-1384
▁uri	-1385
aut	-1386
tal	-1387
leg	-1388
▁bar	-1389
▁fin	-1390
]);	-1391
++)	-1392
ared	-1393
▁writer	-1394
cept	-1395
▁attribute	-1396
▁obj	-1397
▁main	-1398
andom	-1399
ses	-1400
▁operation	-1401
sk	-1402
▁pool	-1403
▁pattern	-1404
▁src	-1405
ateg	-1406
${	-1407
▁failed	-1408
▁gu	-1409
ments	-1410
▁prod	-1411
oc	-1412
▁names	-1413
▁custom	-1414
untime	-1415
▁make	-1416
lit	-1417
num	-1418
▁html	-1419
▁sn	-1420
▁junit	-1421
▁sk	-1422
os	-1423
index	-1424
▁metr	-1425
▁files	-1426
▁reference	-1427
min	-1428
▁allow	-1429
▁sample	-1430
▁orig	-1431
▁application	-1432
▁settings	-1433
▁clu	-1434
db	-1435
::::	-1436
ipe	-1437
▁rece	-1438
ized	-1439
▁gen	-1440
▁addr	-1441
boo	-1442
apt	-1443
▁transaction	-1444
▁tx	-1445
▁more	-1446
▁which	-1447
▁register	-1448
json	-1449
yn	-1450
▁0);	-1451
pp	-1452
▁box	-1453
framework	-1454
▁keys	-1455
▁cap	-1456
▁mer	-1457
▁provide	-1458
{-#	-1459
)}	-1460
ability	-1461
()).	-1462
▁title	-1463
▁pers	-1464
buf	-1465
▁inv	-1466
▁my	-1467
old	-1468
http	-1469
▁sort	-1470
▁100	-1471
▁attr	-1472
▁raw	-1473
▁fields	-1474
iven	-1475
stract	-1476
inst	-1477
▁pay	-1478
est	-1479
▁simple	-1480
mbol	-1481
rag	-1482
input	-1483
▁clone	-1484
▁storage	-1485
▁trace	-1486
▁dest	-1487
older	-1488
ension	-1489
▁':	-1490
////////	-1491
▁join	-1492
ms	-1493
fi	-1494
▁constant	-1495
▁expression	-1496
address	-1497
pu	-1498
\\	-1499
▁given	-1500
▁partition	-1501
▁notice	-1502
▁cluster	-1503
▁total	-1504
▁meta	-1505
▁iterator	-1506
▁prefix	-1507
▁".	-1508
hing	-1509
impl	-1510
3,	-1511
ln	-1512
bit	-1513
ref	-1514
stream	-1515
ift	-1516
gn	-1517
ping	-1518
red	-1519
::{	-1520
▁owner	-1521
resent	-1522
ructor	-1523
long	-1524
▁sum	-1525
5,	-1526
▁expr	-1527
▁serv	-1528
▁scope	-1529
▁enc	-1530
={	-1531
▁failure	-1532
array	-1533
ptr	-1534
rop	-1535
▁draw	-1536
ribe	-1537
▁ty	-1538
ors	-1539
context	-1540
▁]	-1541
▁change	-1542
▁variable	-1543
msg	-1544
▁inform	-1545
▁using	-1546
▁gr	-1547
▁props	-1548
og	-1549
ctx	-1550
▁springframework	-1551
ng	-1552
▁sync	-1553
▁random	-1554
▁subsc	-1555
▁big	-1556
wer	-1557
▁#-}{-#	-1558
rid	-1559
▁duration	-1560
▁>=	-1561
▁down	-1562
▁location	-1563
ell	-1564
▁word	-1565
▁1);	-1566
:"	-1567
▁datab	-1568
state	-1569
▁dif	-1570
▁2)	-1571
option	-1572
▁concurrent	-1573
▁verify	-1574
▁pol	-1575
▁global	-1576
▁information	-1577
mount	-1578
▁constructor	-1579
▁activ	-1580
module	-1581
lector	-1582
▁defin	-1583
▁network	-1584
fg	-1585
)))	-1586
▁bound	-1587
▁tests	-1588
lis	-1589
server	-1590
▁replace	-1591
struct	-1592
ero	-1593
user	-1594
▁pack	-1595
▁${	-1596
event	-1597
4,	-1598
▁dev	-1599
rix	-1600
▁vk	-1601
lear	-1602
view	-1603
▁adapt	-1604
▁was	-1605
▁headers	-1606
ding	-1607
▁account	-1608
▁split	-1609
12	-1610
lt	-1611
change	-1612
▁bal	-1613
▁#[	-1614
char	-1615
▁abstract	-1616
▁batch	-1617
ates	-1618
▁pair	-1619
ps	-1620
ake	-1621
▁wait	-1622
stamp	-1623
▁sched	-1624
rypt	-1625
▁search	-1626
writ	-1627
unter	-1628
)),	-1629
▁consum	-1630
▁idx	-1631
▁stop	-1632
uc	-1633
▁pe	-1634
time	-1635
fl	-1636
▁strict	-1637
▁amount	-1638
lex	-1639
▁runtime	-1640
▁der	-1641
▁flags	-1642
▁script	-1643
▁events	-1644
▁symbol	-1645
ternal	-1646
▁gl	-1647
ensor	-1648
▁sin	-1649
iss	-1650
comm	-1651
gram	-1652
▁atom	-1653
ts	-1654
▁3,	-1655
▁bl	-1656
ithub	-1657
default	-1658
cre	-1659
cont	-1660
▁button	-1661
define	-1662
▁include	-1663
▁executor	-1664
▁norm	-1665
imal	-1666
▁11	-1667
order	-1668
▁execution	-1669
▁step	-1670
▁same	-1671
▁sol	-1672
posit	-1673
param	-1674
tra	-1675
defined	-1676
ren	-1677
item	-1678
▁sizeof	-1679
▁20	-1680
false	-1681
▁sender	-1682
▁rest	-1683
▁display	-1684
▁crate	-1685
▁helper	-1686
/*	-1687
▁</	-1688
js	-1689
▁ali	-1690
▁single	-1691
lick	-1692
▁encode	-1693
▁...	-1694
>();	-1695
▁proxy	-1696
final	-1697
▁parameters	-1698
base	-1699
2,	-1700
▁","	-1701
▁binary	-1702
▁registry	-1703
export	-1704
▁definition	-1705
ern	-1706
ular	-1707
ines	-1708
ax	-1709
instance	-1710
urity	-1711
(0,	-1712
▁does	-1713
gine	-1714
ass	-1715
▁println	-1716
return	-1717
▁lens	-1718
fn	-1719
▁sm	-1720
▁contribut	-1721
▁clear	-1722
▁chunk	-1723
▁actual	-1724
▁shape	-1725
})	-1726
ader	-1727
▁supp	-1728
▁cat	-1729
▁react	-1730
▁("	-1731
▁actor	-1732
▁report	-1733
lease	-1734
▁chang	-1735
endif	-1736
▁exit	-1737
ification	-1738
▁fore	-1739
▁just	-1740
has	-1741
buffer	-1742
ont	-1743
ient	-1744
ast	-1745
▁follow	-1746
ome	-1747
▁"));	-1748
enu	-1749
▁unsigned	-1750
▁fs	-1751
▁<=	-1752
./	-1753
▁connect	-1754
dd	-1755
▁full	-1756
▁fix	-1757
(1,	-1758
▁eval	-1759
edia	-1760
cl	-1761
ater	-1762
!("	-1763
▁ign	-1764
rary	-1765
]):	-1766
quence	-1767
?;	-1768
▁database	-1769
▁tri	-1770
▁payload	-1771
itch	-1772
▁play	-1773
([	-1774
round	-1775
▁ge	-1776
▁pipe	-1777
temp	-1778
▁unsafe	-1779
▁convert	-1780
▁holder	-1781
down	-1782
acity	-1783
tot	-1784
aly	-1785
▁inner	-1786
▁math	-1787
▁timestamp	-1788
way	-1789
flow	-1790
▁done	-1791
yc	-1792
▁directory	-1793
entic	-1794
<'	-1795
▁func	-1796
*/	-1797
▁adapter	-1798
▁reser	-1799
▁short	-1800
▁detail	-1801
});	-1802
▁native	-1803
ches	-1804
expect	-1805
▁transfer	-1806
uce	-1807
▁cast	-1808
▁operator	-1809
sor	-1810
▁200	-1811
8,	-1812
▁mapper	-1813
div	-1814
▁descript	-1815
▁mar	-1816
resh	-1817
▁collect	-1818
▁counter	-1819
message	-1820
print	-1821
▁bean	-1822
▁stats	-1823
▁generator	-1824
▁balance	-1825
▁os	-1826
▁activity	-1827
nown	-1828
▁anim	-1829
▁span	-1830
[0]	-1831
gl	-1832
▁flat	-1833
hip	-1834
bool	-1835
▁security	-1836
zy	-1837
▁bot	-1838
▁>>	-1839
▁decode	-1840
igh	-1841
lice	-1842
case	-1843
▁contract	-1844
▁loader	-1845
▁^	-1846
▁lu	-1847
▁addition	-1848
▁need	-1849
▁items	-1850
request	-1851
pri	-1852
▁provided	-1853
ins	-1854
sing	-1855
▁mb	-1856
uid	-1857
}.	-1858
▁exports	-1859
▁enabled	-1860
▁nothing	-1861
used	-1862
uple	-1863
box	-1864
▁results	-1865
our	-1866
▁prev	-1867
ename	-1868
▁day	-1869
▁normal	-1870
▁ec	-1871
▁req	-1872
▁qual	-1873
▁pointer	-1874
pository	-1875
▁click	-1876
ank	-1877
▁ignore	-1878
alloc	-1879
▁reset	-1880
▁loop	-1881
▁execute	-1882
▁mask	-1883
▁multip	-1884
▁resolve	-1885
▁dim	-1886
▁wrapper	-1887
sole	-1888
▁ff	-1889
ux	-1890
ug	-1891
check	-1892
▁defined	-1893
▁bits	-1894
▁codec	-1895
ging	-1896
▁active	-1897
▁mapping	-1898
▁sequence	-1899
//!	-1900
▁upload	-1901
▁shared	-1902
▁py	-1903
ency	-1904
max	-1905
float	-1906
(){	-1907
▁frag	-1908
▁div	-1909
▁endpoint	-1910
▁since	-1911
▁cmd	-1912
mode	-1913
▁errors	-1914
▁rout	-1915
▁zero	-1916
vector	-1917
▁chain	-1918
ization	-1919
my	-1920
api	-1921
▁matrix	-1922
ending	-1923
ffect	-1924
▁arguments	-1925
roll	-1926
▁original	-1927
▁created	-1928
▁extension	-1929
▁ps	-1930
<?	-1931
util	-1932
▁elements	-1933
================	-1934
▁engine	-1935
(|	-1936
hed	-1937
▁decimal	-1938
▁now	-1939
src	-1940
mark	-1941
vm	-1942
▁pred	-1943
fs	-1944
▁authentic	-1945
ries	-1946
wise	-1947
▁extra	-1948
info	-1949
auth	-1950
▁ip	-1951
lot	-1952
bar	-1953
▁look	-1954
reen	-1955
format	-1956
block	-1957
▁sd	-1958
vers	-1959
ential	-1960
▁repository	-1961
▁flow	-1962
▁mk	-1963
▁descriptor	-1964
mem	-1965
tag	-1966
▁additional	-1967
ference	-1968
pers	-1969
▁rights	-1970
ito	-1971
riter	-1972
double	-1973
▁complet	-1974
▁begin	-1975
▁role	-1976
():	-1977
etch	-1978
▁usize	-1979
any	-1980
▁utf	-1981
ution	-1982
▁specified	-1983
▁uni	-1984
▁cance	-1985
mary	-1986
▁printf	-1987
▁metrics	-1988
cluding	-1989
▁avail	-1990
expected	-1991
▁exists	-1992
client	-1993
cur	-1994
cla	-1995
licy	-1996
▁tokens	-1997
34	-1998
▁xml	-1999
▁space	-2000
▁publis	-2001
field	-2002
▁boot	-2003
▁menu	-2004
ating	-2005
▁drop	-2006
pl	-2007
start	-2008
aw	-2009
▁two	-2010
gress	-2011
▁following	-2012
▁cert	-2013
▁**	-2014
▁maybe	-2015
▁complete	-2016
▁rect	-2017
lem	-2018
ities	-2019
fil	-2020
▁switch	-2021
▁dri	-2022
ategy	-2023
▁old	-2024
▁dyn	-2025
undle	-2026
mail	-2027
pack	-2028
last	-2029
▁called	-2030
▁br	-2031
▁generic	-2032
▁attributes	-2033
▁widget	-2034
}",	-2035
legal	-2036
▁interval	-2037
atform	-2038
▁depend	-2039
totype	-2040
▁emit	-2041
tls	-2042
shot	-2043
▁timer	-2044
tex	-2045
▁"""	-2046
▁rate	-2047
0;	-2048
▁authors	-2049
▁than	-2050
▁tensor	-2051
▁sb	-2052
7,	-2053
6,	-2054
▁ms	-2055
▁implements	-2056
▁4,	-2057
▁prototype	-2058
▁mac	-2059
▁undefined	-2060
▁nullable	-2061
99	-2062
orld	-2063
▁snap	-2064
▁note	-2065
inte	-2066
▁its	-2067
ward	-2068
▁reserved	-2069
ness	-2070
oding	-2071
▁consumer	-2072
▁">	-2073
create	-2074
▁promi	-2075
rect	-2076
▁agg	-2077
write	-2078
▁atomic	-2079
▁nodes	-2080
▁optional	-2081
▁md	-2082
[2	-2083
▁media	-2084
off	-2085
▁cursor	-2086
sses	-2087
gb	-2088
▁direct	-2089
▁move	-2090
fe	-2091
token	-2092
▁dig	-2093
▁tool	-2094
▁tb	-2095
▁capacity	-2096
▁javax	-2097
▁controller	-2098
▁ra	-2099
▁cs	-2100
(3	-2101
▁children	-2102
very	-2103
▁abs	-2104
output	-2105
sub	-2106
▁otherwise	-2107
▁hist	-2108
▁ui	-2109
▁save	-2110
09	-2111
▁password	-2112
▁lazy	-2113
▁deser	-2114
▁cb	-2115
dis	-2116
▁lua	-2117
izer	-2118
▁ssl	-2119
▁policy	-2120
trans	-2121
▁domain	-2122
▁commit	-2123
▁whe	-2124
now	-2125
▁calc	-2126
▁console	-2127
▁sim	-2128
▁rt	-2129
▁available	-2130
boolean	-2131
▁messages	-2132
▁external	-2133
▁art	-2134
▁seconds	-2135
ership	-2136
▁decoder	-2137
▁there	-2138
other	-2139
rt	-2140
cp	-2141
▁initial	-2142
▁ids	-2143
hs	-2144
▁partic	-2145
ench	-2146
ume	-2147
▁warning	-2148
prop	-2149
▁*)	-2150
mutable	-2151
init	-2152
▁accept	-2153
▁strategy	-2154
▁fd	-2155
verse	-2156
aba	-2157
fa	-2158
▁track	-2159
afka	-2160
▁mockito	-2161
for	-2162
▁seg	-2163
##	-2164
▁scale	-2165
enter	-2166
▁fragment	-2167
▁font	-2168
▁trait	-2169
▁promise	-2170
query	-2171
▁mill	-2172
ident	-2173
▁redis	-2174
▁methods	-2175
▁contin	-2176
▁generate	-2177
▁er	-2178
source	-2179
ns	-2180
ook	-2181
annot	-2182
▁alib	-2183
▁alibaba	-2184
▁slice	-2185
▁rpc	-2186
▁plan	-2187
▁here	-2188
pth	-2189
second	-2190
amed	-2191
▁il	-2192
▁2;	-2193
▁tuple	-2194
doc	-2195
▁skip	-2196
(()	-2197
▁cell	-2198
▁route	-2199
▁got	-2200
▁disable	-2201
▁\"	-2202
▁bet	-2203
table	-2204
▁delay	-2205
rip	-2206
▁acc	-2207
▁foundation	-2208
args	-2209
▁dam	-2210
ground	-2211
▁converter	-2212
vec	-2213
▁weight	-2214
ived	-2215
host	-2216
▁suite	-2217
integer	-2218
ek	-2219
▁selector	-2220
▁qualified	-2221
itter	-2222
▁px	-2223
&&	-2224
▁serializer	-2225
ling	-2226
▁inline	-2227
ination	-2228
▁rows	-2229
▁merge	-2230
▁pan	-2231
▁member	-2232
edtls	-2233
cc	-2234
▁signature	-2235
iron	-2236
status	-2237
9,	-2238
*;	-2239
▁servlet	-2240
▁effect	-2241
▁persist	-2242
▁inject	-2243
iteral	-2244
conn	-2245
::::::::	-2246
▁5,	-2247
▁release	-2248
56	-2249
gen	-2250
▁"/	-2251
amic	-2252
▁32,	-2253
ted	-2254
hc	-2255
][	-2256
req	-2257
▁millis	-2258
wh	-2259
0)	-2260
▁encoder	-2261
▁rs	-2262
hand	-2263
11	-2264
uler	-2265
▁safe	-2266
ful	-2267
("/	-2268
ds	-2269
▁whether	-2270
andard	-2271
▁multi	-2272
▁packet	-2273
▁texture	-2274
▁mic	-2275
▁tab	-2276
arding	-2277
▁matcher	-2278
atest	-2279
▁2);	-2280
▁topic	-2281
▁bundle	-2282
mm	-2283
ernel	-2284
▁['	-2285
▁analy	-2286
▁tags	-2287
▁statement	-2288
▁scroll	-2289
../../	-2290
▁asset	-2291
▁product	-2292
▁tmp	-2293
▁*/#	-2294
▁icon	-2295
cfg	-2296
▁progress	-2297
▁charact	-2298
ather	-2299
next	-2300
▁initializ	-2301
pose	-2302
da	-2303
sql	-2304
▁snapshot	-2305
alth	-2306
lip	-2307
▁cancel	-2308
ironment	-2309
["	-2310
▁region	-2311
lta	-2312
pa	-2313
▁person	-2314
ched	-2315
▁sys	-2316
▁fmt	-2317
▁fetch	-2318
▁grid	-2319
▁upd	-2320
▁illegal	-2321
▁bro	-2322
▁;	-2323
▁validate	-2324
implicit	-2325
▁hello	-2326
ump	-2327
▁15	-2328
▁pix	-2329
▁diff	-2330
▁remote	-2331
▁todo	-2332
▁basic	-2333
▁trig	-2334
▁ts	-2335
▁tile	-2336
may	-2337
▁scan	-2338
▁13	-2339
▁monad	-2340
▁decl	-2341
▁runner	-2342
ote	-2343
move	-2344
▁identifier	-2345
▁pure	-2346
▁zip	-2347
▁layer	-2348
▁ownership	-2349
ten	-2350
▁kafka	-2351
▁setup	-2352
loy	-2353
(*	-2354
▁criter	-2355
▁alg	-2356
▁github	-2357
uns	-2358
ian	-2359
▁objects	-2360
▁uuid	-2361
▁comment	-2362
ao	-2363
▁tick	-2364
▁throwable	-2365
url	-2366
▁'\	-2367
▁(\	-2368
ouse	-2369
▁section	-2370
▁program	-2371
style	-2372
▁logging	-2373
ression	-2374
▁changed	-2375
////////////////	-2376
▁clock	-2377
idd	-2378
▁').	-2379
clo	-2380
raint	-2381
env	-2382
▁cloud	-2383
▁real	-2384
web	-2385
aded	-2386
head	-2387
▁processor	-2388
ious	-2389
roy	-2390
▁ops	-2391
▁exchange	-2392
▁pop	-2393
process	-2394
known	-2395
target	-2396
▁like	-2397
hash	-2398
▁define	-2399
▁profile	-2400
▁modify	-2401
▁subject	-2402
maybe	-2403
dr	-2404
▁aud	-2405
▁netty	-2406
mitive	-2407
derive	-2408
ys	-2409
▁rules	-2410
▁18	-2411
▁~	-2412
▁driver	-2413
▁sent	-2414
obj	-2415
▁generated	-2416
▁ke	-2417
▁retry	-2418
local	-2419
▁lines	-2420
link	-2421
response	-2422
▁immutable	-2423
::<	-2424
▁compil	-2425
\":	-2426
▁vertex	-2427
▁compare	-2428
▁resolver	-2429
▁ast	-2430
▁metric	-2431
▁edge	-2432
▁constants	-2433
*)	-2434
▁margin	-2435
bytes	-2436
▁synt	-2437
chron	-2438
▁ng	-2439
▁vol	-2440
()));	-2441
addr	-2442
▁bs	-2443
irt	-2444
▁cons	-2445
▁aggreg	-2446
some	-2447
▁finis	-2448
▁represent	-2449
call	-2450
▁[[	-2451
▁'),	-2452
▁features	-2453
![	-2454
▁admin	-2455
its	-2456
dev	-2457
part	-2458
imum	-2459
▁mbedtls	-2460
▁.//	-2461
debug	-2462
ready	-2463
ext	-2464
▁pipeline	-2465
▁align	-2466
exp	-2467
run	-2468
sure	-2469
▁world	-2470
▁instances	-2471
▁functions	-2472
▁authentication	-2473
▁licenses	-2474
▁pur	-2475
▁strings	-2476
▁deep	-2477
▁selected	-2478
▁depth	-2479
ection	-2480
▁high	-2481
ric	-2482
dir	-2483
▁"]	-2484
')	-2485
▁twitter	-2486
method	-2487
▁literal	-2488
`,	-2489
▁),	-2490
iction	-2491
▁bench	-2492
opt	-2493
▁foreach	-2494
▁win	-2495
▁css	-2496
▁syn	-2497
▁],	-2498
▁resources	-2499
▁abo	-2500
df	-2501
seq	-2502
desc	-2503
▁mm	-2504
▁above	-2505
▁been	-2506
(4	-2507
▁columns	-2508
thread	-2509
▁unknown	-2510
foo	-2511
04	-2512
▁fill	-2513
ibility	-2514
core	-2515
tom	-2516
ision	-2517
▁dst	-2518
();}	-2519
▁compar	-2520
▁appro	-2521
uff	-2522
▁gp	-2523
▁extract	-2524
▁environment	-2525
element	-2526
options	-2527
▁destroy	-2528
▁including	-2529
▁describe	-2530
▁matches	-2531
▁continue	-2532
▁sig	-2533
▁clean	-2534
▁lookup	-2535
current	-2536
▁cred	-2537
▁14	-2538
▁1:	-2539
><	-2540
++;	-2541
▁bucket	-2542
▁matchers	-2543
▁alias	-2544
▁entries	-2545
(1);	-2546
▁standard	-2547
▁deleg	-2548
▁lower	-2549
▁:>	-2550
▁delta	-2551
task	-2552
left	-2553
000	-2554
▁trigger	-2555
▁encoding	-2556
rec	-2557
▁secret	-2558
▁serialize	-2559
24	-2560
ideo	-2561
▁assertions	-2562
irect	-2563
irc	-2564
▁pending	-2565
number	-2566
▁round	-2567
▁24	-2568
rupt	-2569
ily	-2570
▁crypt	-2571
▁dynamic	-2572
ensions	-2573
[0].	-2574
▁binding	-2575
▁place	-2576
gra	-2577
');	-2578
▁watch	-2579
>)	-2580
▁!==	-2581
▁card	-2582
▁rad	-2583
mer	-2584
▁constraint	-2585
▁kernel	-2586
▁8,	-2587
over	-2588
▁sink	-2589
`.	-2590
}"	-2591
▁supported	-2592
▁contributor	-2593
▁ak	-2594
▁instanceof	-2595
ose	-2596
sted	-2597
▁implementation	-2598
group	-2599
▁arrays	-2600
hel	-2601
▁peer	-2602
▁compile	-2603
▁unt	-2604
(@	-2605
▁inf	-2606
ci	-2607
▁selection	-2608
▁classes	-2609
▁ll	-2610
▁platform	-2611
▁details	-2612
▁background	-2613
()),	-2614
make	-2615
▁annotations	-2616
▁present	-2617
ages	-2618
(!	-2619
▁deriv	-2620
▁vert	-2621
ncy	-2622
▁mutable	-2623
▁nullptr	-2624
alle	-2625
▁cook	-2626
man	-2627
▁miss	-2628
▁center	-2629
▁regarding	-2630
system	-2631
▁take	-2632
icate	-2633
▁projects	-2634
cause	-2635
▁evalu	-2636
mock	-2637
[1]	-2638
)));	-2639
▁pk	-2640
▁ep	-2641
▁ir	-2642
▁replic	-2643
▁health	-2644
,"	-2645
▁prior	-2646
▁bitmap	-2647
▁prep	-2648
▁partial	-2649
bin	-2650
▁agree	-2651
net	-2652
▁such	-2653
wid	-2654
▁until	-2655
▁categ	-2656
mon	-2657
▁shall	-2658
▁cannot	-2659
bers	-2660
▁epo	-2661
adding	-2662
▁assign	-2663
▁fixed	-2664
ween	-2665
▁limited	-2666
▁"\	-2667
-201	-2668
03	-2669
exec	-2670
ception	-2671
▁poll	-2672
serv	-2673
▁neg	-2674
▁primitive	-2675
cast	-2676
▁allowed	-2677
▁assoc	-2678
▁unique	-2679
ear	-2680
sec	-2681
▁ax	-2682
▁ds	-2683
▁coord	-2684
ycle	-2685
▁arr	-2686
service	-2687
▁drawable	-2688
▁stub	-2689
urrency	-2690
irtual	-2691
021	-2692
▁usage	-2693
▁hook	-2694
▁linked	-2695
resource	-2696
{}	-2697
08	-2698
▁charset	-2699
▁library	-2700
▁schedule	-2701
java	-2702
▁once	-2703
xture	-2704
▁shift	-2705
prec	-2706
▁syntax	-2707
▁validation	-2708
▁instant	-2709
▁validator	-2710
▁01	-2711
async	-2712
▁fit	-2713
command	-2714
(0);	-2715
ker	-2716
ired	-2717
▁mater	-2718
ged	-2719
▁grad	-2720
▁hpp	-2721
▁dto	-2722
top	-2723
color	-2724
64	-2725
▁signal	-2726
▁perform	-2727
▁fold	-2728
fd	-2729
▁pas	-2730
gener	-2731
▁worker	-2732
▁(1	-2733
ason	-2734
▁[]	-2735
jection	-2736
store	-2737
▁opts	-2738
▁compat	-2739
▁rc	-2740
▁cop	-2741
▁rgb	-2742
▁capt	-2743
iver	-2744
▁filename	-2745
▁ari	-2746
▁segment	-2747
▁rx	-2748
▁na	-2749
upport	-2750
ui	-2751
ield	-2752
exception	-2753
▁scheduler	-2754
▁dispatch	-2755
(1)	-2756
▁vm	-2757
▁missing	-2758
(5	-2759
▁wal	-2760
▁locale	-2761
zon	-2762
▁macro	-2763
att	-2764
▁paths	-2765
▁multiple	-2766
▁asf	-2767
▁transport	-2768
▁cause	-2769
▁slot	-2770
▁agreements	-2771
printf	-2772
▁intercept	-2773
▁pixel	-2774
utils	-2775
▁backend	-2776
▁correct	-2777
oke	-2778
idx	-2779
asf	-2780
▁akka	-2781
▁associ	-2782
▁-1;	-2783
root	-2784
▁credential	-2785
32	-2786
pha	-2787
hr	-2788
istribut	-2789
▁))	-2790
ven	-2791
ucer	-2792
aa	-2793
▁monitor	-2794
orith	-2795
with	-2796
zz	-2797
ration	-2798
▁zone	-2799
unc	-2800
limit	-2801
▁listen	-2802
github	-2803
▁incre	-2804
▁month	-2805
ulate	-2806
▁services	-2807
:{	-2808
cache	-2809
▁bus	-2810
▁fast	-2811
▁regex	-2812
ram	-2813
aws	-2814
▁di	-2815
";	-2816
▁assertj	-2817
▁edit	-2818
none	-2819
actor	-2820
<>();	-2821
▁nil	-2822
▁.$	-2823
▁stage	-2824
▁cpu	-2825
parent	-2826
lin	-2827
channel	-2828
▁0;}	-2829
()))	-2830
expr	-2831
▁how	-2832
book	-2833
scal	-2834
▁iss	-2835
▁sets	-2836
▁reply	-2837
▁already	-2838
▁df	-2839
▁padding	-2840
▁poss	-2841
▁ba	-2842
ifact	-2843
▁she	-2844
78	-2845
▁lift	-2846
▁requests	-2847
▁pin	-2848
▁identity	-2849
ways	-2850
▁subst	-2851
▁running	-2852
▁es	-2853
▁know	-2854
▁shut	-2855
lastic	-2856
entry	-2857
anch	-2858
▁dom	-2859
▁mach	-2860
▁between	-2861
assert	-2862
▁pad	-2863
▁subscrib	-2864
sche	-2865
00,	-2866
▁want	-2867
vas	-2868
[(	-2869
else	-2870
br	-2871
feature	-2872
▁times	-2873
▁visit	-2874
▁history	-2875
tty	-2876
▁remain	-2877
▁mp	-2878
▁href	-2879
propert	-2880
▁ready	-2881
rie	-2882
▁brow	-2883
▁video	-2884
▁'./	-2885
▁router	-2886
xml	-2887
▁sur	-2888
▁<>	-2889
content	-2890
open	-2891
▁terms	-2892
▁ctr	-2893
war	-2894
▁repo	-2895
lain	-2896
using	-2897
mat	-2898
▁factor	-2899
oper	-2900
▁border	-2901
window	-2902
▁cc	-2903
▁named	-2904
bra	-2905
020	-2906
ier	-2907
▁warn	-2908
ialog	-2909
▁previous	-2910
▁hex	-2911
seconds	-2912
▁gpio	-2913
aml	-2914
uch	-2915
▁your	-2916
▁intent	-2917
image	-2918
▁distribution	-2919
parse	-2920
eric	-2921
eded	-2922
▁integr	-2923
▁prob	-2924
▁yield	-2925
just	-2926
▁bad	-2927
▁character	-2928
▁ama	-2929
▁car	-2930
▁arch	-2931
▁master	-2932
child	-2933
regist	-2934
▁virtual	-2935
▁based	-2936
jo	-2937
▁because	-2938
velo	-2939
dl	-2940
▁creates	-2941
(..	-2942
▁strip	-2943
ik	-2944
tx	-2945
▁particular	-2946
▁bottom	-2947
▁separ	-2948
▁received	-2949
▁compute	-2950
?:	-2951
buil	-2952
▁/>	-2953
itive	-2954
▁''	-2955
▁tail	-2956
▁elem	-2957
span	-2958
ocation	-2959
▁email	-2960
model	-2961
▁mong	-2962
ene	-2963
▁ss	-2964
▁side	-2965
ummy	-2966
play	-2967
▁amazon	-2968
▁configure	-2969
bound	-2970
▁deploy	-2971
▁typed	-2972
▁esc	-2973
▁led	-2974
▁screen	-2975
▁indexed	-2976
▁returned	-2977
▁visible	-2978
/2	-2979
▁'.	-2980
alog	-2981
▁editor	-2982
▁scalatest	-2983
ces	-2984
orithm	-2985
pol	-2986
▁plugins	-2987
▁purpose	-2988
▁2:	-2989
cent	-2990
▁structure	-2991
▁hint	-2992
▁epoch	-2993
▁blocks	-2994
}}	-2995
▁year	-2996
td	-2997
▁beh	-2998
▁{}",	-2999
column	-3000
------------	-3001
▁documentation	-3002
▁bounds	-3003
▁mes	-3004
▁receive	-3005
▁xs	-3006
strap	-3007
filter	-3008
▁mv	-3009
▁deprec	-3010
▁animation	-3011
($	-3012
▁rdd	-3013
▁bt	-3014
ended	-3015
▁128	-3016
icle	-3017
▁sv	-3018
▁updated	-3019
▁circ	-3020
width	-3021
▁jack	-3022
▁relation	-3023
cd	-3024
▁claim	-3025
▁ho	-3026
▁initialize	-3027
dbc	-3028
iod	-3029
▁could	-3030
▁19	-3031
flag	-3032
▁ghc	-3033
▁game	-3034
▁{-#	-3035
namespace	-3036
allow	-3037
▁keep	-3038
offset	-3039
▁distance	-3040
▁{"	-3041
auto	-3042
||	-3043
▁ns	-3044
socket	-3045
day	-3046
▁ws	-3047
rep	-3048
▁don	-3049
▁username	-3050
▁cfg	-3051
▁lat	-3052
37	-3053
leton	-3054
▁origin	-3055
ugh	-3056
▁cp	-3057
10	-3058
▁phys	-3059
16	-3060
nd	-3061
edi	-3062
▁boost	-3063
▁deal	-3064
▁ecs	-3065
▁delegate	-3066
▁3)	-3067
▁complex	-3068
build	-3069
▁formatter	-3070
▁txt	-3071
ruct	-3072
(0)	-3073
▁mouse	-3074
▁thro	-3075
▁operations	-3076
▁micro	-3077
▁pick	-3078
unsigned	-3079
▁notification	-3080
▁aws	-3081
ano	-3082
ror	-3083
▁bla	-3084
▁users	-3085
55	-3086
▁invoke	-3087
▁crypto	-3088
▁6,	-3089
fir	-3090
mac	-3091
▁stride	-3092
▁direction	-3093
match	-3094
bind	-3095
illi	-3096
oop	-3097
search	-3098
version	-3099
▁permit	-3100
spec	-3101
▁attach	-3102
leep	-3103
board	-3104
▁category	-3105
▁redistribut	-3106
▁reason	-3107
▁less	-3108
▁":"	-3109
▁cookie	-3110
▁grpc	-3111
)?;	-3112
▁player	-3113
amb	-3114
ous	-3115
▁elastic	-3116
rift	-3117
14	-3118
typeof	-3119
▁points	-3120
,}	-3121
label	-3122
contain	-3123
▁subscription	-3124
▁goto	-3125
▁light	-3126
level	-3127
▁geom	-3128
▁proc	-3129
▁concat	-3130
ifdef	-3131
body	-3132
lude	-3133
▁also	-3134
▁alpha	-3135
▁spender	-3136
▁em	-3137
lap	-3138
▁publish	-3139
▁indices	-3140
▁heap	-3141
▁(*	-3142
▁["	-3143
header	-3144
▁components	-3145
='	-3146
▁ngx	-3147
▁primary	-3148
▁oc	-3149
▁flush	-3150
(`	-3151
▁blue	-3152
▁sha	-3153
▁collections	-3154
▁gre	-3155
▁*/@	-3156
<?>	-3157
tree	-3158
▁dao	-3159
▁shutdown	-3160
▁way	-3161
▁rot	-3162
rel	-3163
▁general	-3164
▁receiver	-3165
▁pg	-3166
19	-3167
▁artifact	-3168
▁synchron	-3169
▁paralle	-3170
endar	-3171
{"	-3172
▁testing	-3173
▁help	-3174
▁audio	-3175
▁nested	-3176
chain	-3177
vert	-3178
lash	-3179
▁predicate	-3180
aved	-3181
▁warnings	-3182
▁nio	-3183
▁<$	-3184
0);	-3185
schema	-3186
job	-3187
▁jup	-3188
▁labels	-3189
chant	-3190
upported	-3191
throw	-3192
graph	-3193
▁cr	-3194
html	-3195
▁git	-3196
▁benchmark	-3197
▁arbit	-3198
▁trade	-3199
ead	-3200
▁weather	-3201
▁deriving	-3202
▁serial	-3203
▁capture	-3204
▁even	-3205
sign	-3206
▁indic	-3207
dp	-3208
▁modules	-3209
▁always	-3210
vari	-3211
position	-3212
▁priority	-3213
▁contributors	-3214
common	-3215
▁download	-3216
▁upper	-3217
connect	-3218
https	-3219
▁"$	-3220
▁differ	-3221
▁framework	-3222
▁hy	-3223
cing	-3224
▁poly	-3225
▁completed	-3226
▁liability	-3227
▁merchant	-3228
></	-3229
ze	-3230
▁threads	-3231
▁jupiter	-3232
component	-3233
▁many	-3234
▁low	-3235
stack	-3236
▁):	-3237
▁jackson	-3238
▁interrupt	-3239
▁ensure	-3240
▁tls	-3241
script	-3242
▁dialog	-3243
▁grant	-3244
▁dependency	-3245
▁folder	-3246
▁copies	-3247
<<	-3248
▁variables	-3249
]:	-3250
▁calls	-3251
▁certific	-3252
▁reflect	-3253
params	-3254
▁price	-3255
▁{};	-3256
▁scalar	-3257
▁machine	-3258
pet	-3259
▁deserialize	-3260
▁variant	-3261
▁'],	-3262
▁fam	-3263
asure	-3264
▁'/	-3265
▁small	-3266
▁reject	-3267
▁demo	-3268
length	-3269
▁optim	-3270
▁']	-3271
▁setting	-3272
▁material	-3273
▁mix	-3274
show	-3275
ash	-3276
▁ctrl	-3277
▁algorithm	-3278
▁pretty	-3279
tl	-3280
▁criteria	-3281
ius	-3282
proto	-3283
▁indent	-3284
▁seed	-3285
▁32)	-3286
▁alt	-3287
▁commands	-3288
▁refresh	-3289
▁")]	-3290
light	-3291
▁foc	-3292
▁period	-3293
23	-3294
builder	-3295
▁nav	-3296
uplic	-3297
device	-3298
▁area	-3299
▁compiler	-3300
>::	-3301
▁"}	-3302
▁17	-3303
▁score	-3304
▁fixture	-3305
▁ord	-3306
claim	-3307
▁*//	-3308
▁starts	-3309
::*;	-3310
▁ans	-3311
(2,	-3312
▁mit	-3313
prod	-3314
▁contents	-3315
▁customer	-3316
ulk	-3317
▁observer	-3318
olute	-3319
▁added	-3320
▁agent	-3321
entity	-3322
▁invocation	-3323
dyn	-3324
dk	-3325
▁tasks	-3326
▁sem	-3327
▁visitor	-3328
▁book	-3329
project	-3330
[3	-3331
▁2017	-3332
▁destination	-3333
▁dt	-3334
derr	-3335
()}	-3336
▁lar	-3337
06	-3338
▁<$>	-3339
▁closed	-3340
▁convers	-3341
▁associated	-3342
▁declar	-3343
▁blob	-3344
▁notify	-3345
▁whereimport	-3346
▁quote	-3347
ycler	-3348
▁canvas	-3349
encies	-3350
▁slf	-3351
▁attrs	-3352
dt	-3353
▁power	-3354
05	-3355
▁roll	-3356
▁renderer	-3357
sn	-3358
▁."	-3359
▁comput	-3360
▁deprecated	-3361
▁digest	-3362
docs	-3363
▁suff	-3364
=0;	-3365
awn	-3366
▁decla	-3367
▁<:	-3368
▁adv	-3369
first	-3370
▁browser	-3371
▁32(	-3372
▁producer	-3373
▁force	-3374
▁fitness	-3375
)"	-3376
ressed	-3377
▁0),	-3378
▁2016	-3379
▁subscriber	-3380
▁branch	-3381
▁sym	-3382
▁derive	-3383
pay	-3384
▁merchantability	-3385
▁relative	-3386
▁balances	-3387
template	-3388
▁shader	-3389
▁xg	-3390
▁enumer	-3391
urs	-3392
15	-3393
▁flex	-3394
lying	-3395
cker	-3396
▁00,	-3397
mq	-3398
▁passed	-3399
▁credentials	-3400
▁eth	-3401
▁dataset	-3402
▁nv	-3403
▁509	-3404
▁malloc	-3405
▁bootstrap	-3406
▁).	-3407
▁:=	-3408
▁-=	-3409
▁ml	-3410
ssl	-3411
▁milli	-3412
00000000	-3413
ubbo	-3414
▁attemp	-3415
tp	-3416
▁2(	-3417
ili	-3418
▁different	-3419
▁mir	-3420
▁construct	-3421
▁remaining	-3422
angle	-3423
▁rev	-3424
▁assertion	-3425
▁pc	-3426
▁bson	-3427
ializer	-3428
▁jdbc	-3429
▁suppress	-3430
eter	-3431
▁allocator	-3432
ipher	-3433
▁uid	-3434
▁disabled	-3435
require	-3436
preter	-3437
▁singleton	-3438
reshold	-3439
ateway	-3440
ifest	-3441
▁checked	-3442
cer	-3443
▁22	-3444
▁reduce	-3445
▁transl	-3446
===	-3447
ually	-3448
unch	-3449
atio	-3450
▁connector	-3451
aged	-3452
▁dot	-3453
▁forward	-3454
ting	-3455
▁2015	-3456
▁trim	-3457
▁fall	-3458
▁warranty	-3459
afv	-3460
▁them	-3461
bon	-3462
▁10,	-3463
▁rb	-3464
▁64,	-3465
▁mis	-3466
▁bi	-3467
roke	-3468
▁finally	-3469
▁dummy	-3470
▁spe	-3471
▁week	-3472
▁increment	-3473
▁patch	-3474
cmp	-3475
▁built	-3476
▁subscribe	-3477
▁linear	-3478
▁groups	-3479
▁train	-3480
▁mag	-3481
copy	-3482
lang	-3483
inline	-3484
conf	-3485
▁hour	-3486
▁theme	-3487
grade	-3488
anner	-3489
▁numeric	-3490
▁emb	-3491
▁records	-3492
lier	-3493
▁graphics	-3494
page	-3495
▁restr	-3496
▁face	-3497
//////	-3498
▁logical	-3499
▁prec	-3500
▁these	-3501
(/	-3502
▁bra	-3503
▁pull	-3504
ni	-3505
▁iterable	-3506
wd	-3507
▁xgafv	-3508
▁changes	-3509
▁fee	-3510
attr	-3511
▁reco	-3512
▁modifier	-3513
▁issue	-3514
▁enter	-3515
idden	-3516
enum	-3517
lers	-3518
bs	-3519
dep	-3520
▁parallel	-3521
▁inputs	-3522
▁lif	-3523
example	-3524
cor	-3525
▁dubbo	-3526
ruction	-3527
▁currency	-3528
full	-3529
▁argv	-3530
-2021	-3531
▁zoo	-3532
>{	-3533
33	-3534
▁cli	-3535
▁arbitrary	-3536
math	-3537
▁reactive	-3538
▁preference	-3539
▁.");	-3540
▁percent	-3541
▁&[	-3542
▁surface	-3543
▁"},	-3544
rb	-3545
ross	-3546
\",	-3547
connection	-3548
18	-3549
session	-3550
▁sorted	-3551
25	-3552
▁sq	-3553
trace	-3554
▁jar	-3555
▁threshold	-3556
\/	-3557
global	-3558
update	-3559
▁samples	-3560
▁encoded	-3561
▁persistence	-3562
inf	-3563
▁substring	-3564
...	-3565
ambda	-3566
▁sleep	-3567
▁vo	-3568
types	-3569
▁khr	-3570
trait	-3571
▁measure	-3572
▁finish	-3573
▁streaming	-3574
▁serializable	-3575
▁transition	-3576
▁stmt	-3577
▁authorization	-3578
shared	-3579
▁login	-3580
cos	-3581
▁supply	-3582
ffff	-3583
▁keyword	-3584
▁suffix	-3585
▁certificate	-3586
▁exact	-3587
resol	-3588
▁sock	-3589
▁buff	-3590
▁!(	-3591
▁embed	-3592
[0],	-3593
▁behav	-3594
▁unsupported	-3595
▁observ	-3596
▁physical	-3597
▁instead	-3598
fc	-3599
▁coll	-3600
runtime	-3601
▁samp	-3602
ront	-3603
handle	-3604
▁extensions	-3605
▁disclaim	-3606
collection	-3607
▁dump	-3608
▁tcp	-3609
▁2019	-3610
here	-3611
▁7,	-3612
▁our	-3613
[0];	-3614
▁calendar	-3615
sm	-3616
▁helpers	-3617
▁sl	-3618
uit	-3619
('./	-3620
▁rng	-3621
▁coordin	-3622
▁thrown	-3623
▁absolute	-3624
▁mutex	-3625
▁##	-3626
▁special	-3627
private	-3628
▁transformer	-3629
▁.*;	-3630
▁delet	-3631
)?	-3632
▁parts	-3633
07	-3634
(())	-3635
▁through	-3636
▁gpu	-3637
▁within	-3638
▁catalog	-3639
card	-3640
done	-3641
▁pid	-3642
pg	-3643
select	-3644
▁42	-3645
▁damages	-3646
▁marker	-3647
▁they	-3648
▁via	-3649
▁ai	-3650
▁dependencies	-3651
▁actions	-3652
17	-3653
▁corp	-3654
▁included	-3655
but	-3656
▁summary	-3657
▁intel	-3658
▁gui	-3659
▁xchange	-3660
▁removed	-3661
▁faster	-3662
▁diag	-3663
▁written	-3664
cb	-3665
dx	-3666
▁xx	-3667
uction	-3668
plugin	-3669
▁interpreter	-3670
▁bug	-3671
▁focus	-3672
▁commons	-3673
▁-1,	-3674
▁.",	-3675
▁2018	-3676
aled	-3677
sw	-3678
▁cats	-3679
uri	-3680
▁filters	-3681
("\	-3682
▁priv	-3683
loaded	-3684
tmp	-3685
▁dd	-3686
ied	-3687
▁maximum	-3688
▁"],	-3689
▁lit	-3690
::::::::::::::::	-3691
▁serialization	-3692
▁manage	-3693
~~	-3694
▁every	-3695
▁stroke	-3696
▁}),	-3697
▁}).	-3698
▁axis	-3699
cat	-3700
range	-3701
internal	-3702
▁disco	-3703
▁1),	-3704
▁fprintf	-3705
▁recycler	-3706
atis	-3707
▁checker	-3708
amer	-3709
▁good	-3710
arse	-3711
sample	-3712
13	-3713
▁what	-3714
▁drag	-3715
▁rd	-3716
▁channels	-3717
crate	-3718
dat	-3719
ev	-3720
dest	-3721
▁"-	-3722
▁had	-3723
▁retrie	-3724
▁existing	-3725
ior	-3726
render	-3727
(0).	-3728
▁both	-3729
▁submit	-3730
▁cached	-3731
ges	-3732
▁spi	-3733
▁touch	-3734
▁prepare	-3735
---	-3736
▁room	-3737
rs	-3738
▁parsed	-3739
""	-3740
▁possible	-3741
▁cls	-3742
▁comb	-3743
▁fire	-3744
▁knowm	-3745
▁.----	-3746
eq	-3747
28	-3748
(?:	-3749
▁arc	-3750
▁about	-3751
duration	-3752
▁tools	-3753
▁gateway	-3754
▁ratio	-3755
▁invok	-3756
flags	-3757
erc	-3758
▁hs	-3759
▁cy	-3760
▁tables	-3761
▁gra	-3762
▁repe	-3763
▁styles	-3764
vis	-3765
tc	-3766
▁wallet	-3767
▁too	-3768
▁avro	-3769
etry	-3770
▁hal	-3771
identifier	-3772
au	-3773
▁hold	-3774
tool	-3775
empty	-3776
parser	-3777
active	-3778
66	-3779
!=	-3780
▁getter	-3781
nable	-3782
▁reverse	-3783
▁loading	-3784
▁liable	-3785
▁arising	-3786
▁sun	-3787
▁(0	-3788
mar	-3789
▁doesn	-3790
▁holders	-3791
▁extend	-3792
cap	-3793
-9	-3794
bl	-3795
▁manifest	-3796
▁gn	-3797
-8	-3798
rule	-3799
▁models	-3800
>()	-3801
les	-3802
▁swap	-3803
▁arrow	-3804
bot	-3805
▁did	-3806
▁est	-3807
ai	-3808
▁des	-3809
▁02	-3810
▁serde	-3811
▁separator	-3812
▁tort	-3813
▁-1)	-3814
▁statist	-3815
▁large	-3816
▁23	-3817
▁collector	-3818
try	-3819
fail	-3820
▁loss	-3821
▁started	-3822
▁img	-3823
▁volume	-3824
ltk	-3825
draw	-3826
cho	-3827
]],	-3828
▁partitions	-3829
pattern	-3830
▁equ	-3831
holder	-3832
sis	-3833
)--	-3834
abric	-3835
▁28	-3836
▁lw	-3837
▁[`	-3838
oration	-3839
term	-3840
ites	-3841
▁publisher	-3842
▁'../	-3843
▁scheme	-3844
▁&'	-3845
▁modified	-3846
ison	-3847
ggle	-3848
inc	-3849
ee	-3850
▁prelude	-3851
▁underlying	-3852
na	-3853
gh	-3854
▁resp	-3855
▁allocate	-3856
cmd	-3857
▁tre	-3858
▁examples	-3859
▁blocking	-3860
▁launch	-3861
▁guard	-3862
pass	-3863
▁windows	-3864
cpy	-3865
▁rhs	-3866
▁union	-3867
▁chars	-3868
medi	-3869
▁explicit	-3870
▁being	-3871
▁observable	-3872
condition	-3873
▁den	-3874
▁spawn	-3875
['	-3876
▁inher	-3877
▁escape	-3878
▁series	-3879
▁(..	-3880
container	-3881
[2]	-3882
▁resize	-3883
▁2020	-3884
wt	-3885
uring	-3886
▁fasterxml	-3887
▁instruction	-3888
▁"{	-3889
▁wr	-3890
".	-3891
▁sg	-3892
actual	-3893
▁specification	-3894
▁checks	-3895
▁mean	-3896
tics	-3897
zip	-3898
lide	-3899
non	-3900
checked	-3901
48	-3902
▁mirror	-3903
:?	-3904
}`	-3905
document	-3906
loor	-3907
custom	-3908
▁leg	-3909
▁ri	-3910
where	-3911
iddle	-3912
▁owned	-3913
ippet	-3914
▁chip	-3915
▁containing	-3916
>;	-3917
▁squ	-3918
mask	-3919
▁8)	-3920
(100	-3921
sett	-3922
ifiers	-3923
▁sofa	-3924
▁upgrade	-3925
▁")).	-3926
▁}.	-3927
sys	-3928
▁visibility	-3929
▁ledger	-3930
▁"%	-3931
▁radius	-3932
record	-3933
ention	-3934
));}	-3935
▁mono	-3936
▁defaults	-3937
▁csv	-3938
('.	-3939
serialize	-3940
props	-3941
▁plain	-3942
▁home	-3943
▁docker	-3944
odie	-3945
▁inet	-3946
()->	-3947
▁4)	-3948
35	-3949
▁age	-3950
+1	-3951
can	-3952
▁termin	-3953
▁aff	-3954
▁30	-3955
tim	-3956
▁8;	-3957
▁aa	-3958
▁instr	-3959
▁creator	-3960
▁3;	-3961
▁ack	-3962
▁86	-3963
▁saved	-3964
▁lin	-3965
▁abc	-3966
▁broad	-3967
sco	-3968
▁|=	-3969
▁another	-3970
▁``	-3971
▁1]	-3972
button	-3973
▁panel	-3974
post	-3975
iform	-3976
▁lambda	-3977
▁solution	-3978
▁disk	-3979
▁days	-3980
▁needed	-3981
mc	-3982
▁milliseconds	-3983
eper	-3984
go	-3985
▁workflow	-3986
▁aggregate	-3987
▁{},	-3988
▁duplic	-3989
▁words	-3990
ho	-3991
orrow	-3992
▁3);	-3993
kit	-3994
▁ta	-3995
future	-3996
▁mig	-3997
▁cx	-3998
▁works	-3999
▁geo	-4000
▁codes	-4001
;@	-4002
▁dense	-4003
▁pp	-4004
▁cipher	-4005
ically	-4006
▁exceptions	-4007
close	-4008
lication	-4009
▁cond	-4010
("%	-4011
als	-4012
▁clk	-4013
▁front	-4014
22	-4015
▁gets	-4016
<>(	-4017
▁processing	-4018
mult	-4019
(0),	-4020
▁loaded	-4021
▁starting	-4022
▁lv	-4023
▁succe	-4024
▁updates	-4025
▁paint	-4026
title	-4027
▁again	-4028
▁quant	-4029
▁fallback	-4030
prefix	-4031
dec	-4032
▁determ	-4033
contract	-4034
▁mount	-4035
';	-4036
▁negative	-4037
▁family	-4038
fx	-4039
dim	-4040
▁"[	-4041
▁wrapped	-4042
▁pt	-4043
▁produce	-4044
dst	-4045
▁unused	-4046
▁mov	-4047
▁ve	-4048
▁synchronized	-4049
throwable	-4050
attribut	-4051
▁fre	-4052
▁entities	-4053
▁oid	-4054
sizeof	-4055
mbo	-4056
76	-4057
ever	-4058
▁mesh	-4059
▁compos	-4060
▁ls	-4061
▁allocated	-4062
);#	-4063
▁versions	-4064
▁granted	-4065
register	-4066
fmt	-4067
▁gc	-4068
▁mq	-4069
aming	-4070
▁sr	-4071
warn	-4072
▁1000	-4073
▁locations	-4074
acy	-4075
icon	-4076
agger	-4077
▁4;	-4078
▁criterion	-4079
abs	-4080
▁emp	-4081
odb	-4082
▁unexpected	-4083
▁kv	-4084
verage	-4085
▁tm	-4086
36	-4087
lua	-4088
cloud	-4089
▁dex	-4090
pool	-4091
thon	-4092
▁would	-4093
invalid	-4094
▁plus	-4095
▁cols	-4096
cel	-4097
▁redirect	-4098
pk	-4099
▁cpp	-4100
▁black	-4101
▁abort	-4102
▁never	-4103
▁matching	-4104
▁1))	-4105
▁99	-4106
▁psi	-4107
;#	-4108
random	-4109
/,	-4110
▁finished	-4111
▁successful	-4112
▁dimension	-4113
▁mul	-4114
▁navig	-4115
▁minimum	-4116
▁"",	-4117
▁sources	-4118
values	-4119
det	-4120
▁yaml	-4121
▁tp	-4122
uni	-4123
}#[	-4124
▁am	-4125
▁.--	-4126
exports	-4127
mbok	-4128
▁sell	-4129
▁stdout	-4130
▁pb	-4131
▁wl	-4132
▁develo	-4133
▁esp	-4134
▁1(	-4135
▁ul	-4136
▁clip	-4137
▁cnt	-4138
▁recurs	-4139
erry	-4140
(-	-4141
▁expressions	-4142
▁9,	-4143
hes	-4144
▁connected	-4145
big	-4146
rl	-4147
soft	-4148
ird	-4149
▁bb	-4150
pair	-4151
▁cf	-4152
▁configur	-4153
▁management	-4154
▁sz	-4155
▁}};	-4156
▁typ	-4157
▁[];	-4158
▁uses	-4159
gest	-4160
amera	-4161
▁gnu	-4162
▁translate	-4163
proxy	-4164
memory	-4165
####	-4166
▁bg	-4167
▁cost	-4168
▁2013	-4169
▁broker	-4170
▁dict	-4171
acle	-4172
▁completion	-4173
▁wire	-4174
resses	-4175
section	-4176
▁flb	-4177
:/	-4178
96	-4179
▁gmail	-4180
▁checkpoint	-4181
▁vars	-4182
]).	-4183
<()	-4184
▁toggle	-4185
see	-4186
▁numbers	-4187
mediate	-4188
▁projection	-4189
ogram	-4190
sup	-4191
▁.,	-4192
orig	-4193
▁board	-4194
▁hide	-4195
▁{{	-4196
argument	-4197
callback	-4198
ators	-4199
nost	-4200
ish	-4201
cal	-4202
▁ordering	-4203
▁behavior	-4204
▁detect	-4205
▁sparse	-4206
▁21	-4207
*>	-4208
▁'----	-4209
38	-4210
▁iso	-4211
▁10000	-4212
argv	-4213
▁conversion	-4214
▁hive	-4215
▁market	-4216
unded	-4217
:00	-4218
asm	-4219
▁pat	-4220
▁tracker	-4221
▁inspe	-4222
▁lombok	-4223
▁overflow	-4224
▁idle	-4225
▁install	-4226
retch	-4227
▁png	-4228
properties	-4229
▁handlers	-4230
:[	-4231
including	-4232
▁ot	-4233
▁commun	-4234
)#	-4235
}")	-4236
oriz	-4237
pret	-4238
▁dl	-4239
▁inherit	-4240
▁rl	-4241
▁lists	-4242
▁registration	-4243
▁cleanup	-4244
▁greater	-4245
▁mongo	-4246
▁fp	-4247
▁vue	-4248
cii	-4249
▁blank	-4250
▁instrument	-4251
lix	-4252
isson	-4253
▁```	-4254
▁probe	-4255
▁pages	-4256
▁outer	-4257
▁analytics	-4258
▁directive	-4259
▁alert	-4260
▁rank	-4261
▁expand	-4262
suc	-4263
▁most	-4264
▁listeners	-4265
▁encrypt	-4266
▁zh	-4267
▁utc	-4268
(",	-4269
tb	-4270
▁{0	-4271
▁guide	-4272
ants	-4273
▁jet	-4274
▁thrift	-4275
▁calcite	-4276
▁requested	-4277
▁16,	-4278
▁cycle	-4279
adow	-4280
▁xff	-4281
▁tempor	-4282
▁255	-4283
▁known	-4284
▁declaration	-4285
▁speed	-4286
▁members	-4287
]("	-4288
utes	-4289
▁fc	-4290
ached	-4291
sync	-4292
▁meter	-4293
eries	-4294
,};	-4295
▁flink	-4296
▁positive	-4297
▁lex	-4298
▁least	-4299
usive	-4300
▁fr	-4301
▁flu	-4302
▁streams	-4303
▁recv	-4304
▁runnable	-4305
metadata	-4306
]()	-4307
org	-4308
▁tv	-4309
▁stored	-4310
▁spdx	-4311
▁answer	-4312
▁unchecked	-4313
▁sure	-4314
▁magic	-4315
▁.")	-4316
inner	-4317
▁live	-4318
enar	-4319
▁mail	-4320
▁coin	-4321
▁parsing	-4322
▁requires	-4323
align	-4324
▁inside	-4325
▁archive	-4326
▁({	-4327
▁tc	-4328
▁provides	-4329
cessed	-4330
▁zio	-4331
▁512	-4332
zero	-4333
ves	-4334
▁shell	-4335
▁dns	-4336
▁nat	-4337
bn	-4338
▁'#	-4339
▁'))	-4340
▁fake	-4341
di	-4342
▁xy	-4343
▁includes	-4344
▁distribute	-4345
▁corporation	-4346
lyph	-4347
ids	-4348
property	-4349
▁pm	-4350
▁constraints	-4351
▁somet	-4352
height	-4353
meta	-4354
▁broadcast	-4355
▁avoid	-4356
▁cases	-4357
▁sug	-4358
enario	-4359
itu	-4360
▁maint	-4361
▁retain	-4362
▁edges	-4363
▁dp	-4364
▁deployment	-4365
▁sdk	-4366
[4	-4367
▁")),	-4368
▁bulk	-4369
▁colors	-4370
▁oracle	-4371
▁sdl	-4372
▁compression	-4373
▁memcpy	-4374
▁replica	-4375
andid	-4376
▁2012	-4377
▁formats	-4378
▁wave	-4379
amo	-4380
('../	-4381
▁rand	-4382
flix	-4383
▁trail	-4384
▁comparison	-4385
iment	-4386
▁interceptor	-4387
▁"<	-4388
(""	-4389
▁hi	-4390
▁substit	-4391
▁cho	-4392
▁eas	-4393
ised	-4394
symbol	-4395
▁deleted	-4396
('../../	-4397
77	-4398
▁8(	-4399
#"	-4400
▁acquire	-4401
<&	-4402
▁0))	-4403
▁clause	-4404
arm	-4405
▁hadoop	-4406
▁clients	-4407
should	-4408
▁erc	-4409
)",	-4410
▁exclude	-4411
yy	-4412
▁prim	-4413
▁netflix	-4414
▁26	-4415
▁mc	-4416
▁views	-4417
▁share	-4418
▁iv	-4419
ivity	-4420
▁123	-4421
▁fabric	-4422
▁buffers	-4423
▁31	-4424
ished	-4425
54	-4426
named	-4427
▁resolution	-4428
]+	-4429
▁highlight	-4430
▁buffered	-4431
▁trust	-4432
scala	-4433
▁green	-4434
agle	-4435
})--	-4436
▁delimit	-4437
win	-4438
▁slo	-4439
▁scene	-4440
▁hay	-4441
▁docs	-4442
▁cross	-4443
iness	-4444
▁integration	-4445
▁fra	-4446
func	-4447
▁statistics	-4448
;//	-4449
jgl	-4450
▁accum	-4451
▁autom	-4452
▁disclaimer	-4453
control	-4454
agma	-4455
▁middle	-4456
yu	-4457
▁'"	-4458
▁accounts	-4459
▁nd	-4460
▁lwjgl	-4461
▁registered	-4462
reference	-4463
▁secure	-4464
logger	-4465
gers	-4466
respon	-4467
only	-4468
▁nut	-4469
▁overlay	-4470
▁2014	-4471
gu	-4472
ws	-4473
▁comparator	-4474
▁creation	-4475
▁$(	-4476
spark	-4477
▁ce	-4478
▁ignored	-4479
▁frames	-4480
▁shard	-4481
▁chart	-4482
▁wild	-4483
▁logs	-4484
idity	-4485
▁2))	-4486
chunk	-4487
▁latch	-4488
▁cm	-4489
▁reporter	-4490
account	-4491
98	-4492
las	-4493
▁sheet	-4494
▁their	-4495
dm	-4496
▁organ	-4497
izes	-4498
application	-4499
▁facebook	-4500
xs	-4501
expression	-4502
▁cmp	-4503
partition	-4504
▁[{	-4505
3456	-4506
arc	-4507
▁asn	-4508
:1	-4509
▁configs	-4510
▁pi	-4511
ecycle	-4512
▁redistributions	-4513
▁uniform	-4514
ffic	-4515
}/	-4516
<()>	-4517
74	-4518
anges	-4519
▁clazz	-4520
▁normalize	-4521
prev	-4522
▁site	-4523
raft	-4524
▁carbon	-4525
dist	-4526
cr	-4527
▁50	-4528
▁rem	-4529
▁ecma	-4530
▁hidden	-4531
▁camera	-4532
▁discovery	-4533
]),	-4534
ough	-4535
▁however	-4536
,//	-4537
▁ask	-4538
▁sa	-4539
▁attempt	-4540
▁hask	-4541
▁characters	-4542
lapsed	-4543
bal	-4544
illa	-4545
▁restriction	-4546
atile	-4547
ced	-4548
▁addresses	-4549
mote	-4550
▁1).	-4551
▁tok	-4552
20	-4553
▁crc	-4554
▁means	-4555
94	-4556
▁chunks	-4557
▁cn	-4558
(1).	-4559
▁setter	-4560
▁"${	-4561
sv	-4562
jor	-4563
26	-4564
▁fmap	-4565
▁anch	-4566
ulator	-4567
lug	-4568
sort	-4569
▁hoodie	-4570
▁64)	-4571
timeout	-4572
▁maps	-4573
author	-4574
storage	-4575
])(	-4576
▁fork	-4577
▁estim	-4578
simp	-4579
▁recursive	-4580
unused	-4581
bits	-4582
▁leaf	-4583
▁diagnost	-4584
▁floor	-4585
pace	-4586
▁dirname	-4587
pipe	-4588
▁dispatcher	-4589
sphere	-4590
>&	-4591
=%	-4592
[0]);	-4593
ading	-4594
disable	-4595
▁tracing	-4596
clone	-4597
▁extractor	-4598
▁best	-4599
iff	-4600
encode	-4601
simport	-4602
(3,	-4603
▁yy	-4604
norm	-4605
inv	-4606
criter	-4607
uv	-4608
▁'}	-4609
\":\"	-4610
▁operand	-4611
oter	-4612
▁bindings	-4613
andra	-4614
▁interpol	-4615
inel	-4616
▁restore	-4617
▁nano	-4618
▁feed	-4619
▁damage	-4620
ictionary	-4621
-3	-4622
)//	-4623
display	-4624
fno	-4625
▁ix	-4626
▁`${	-4627
priv	-4628
delete	-4629
▁logic	-4630
▁naming	-4631
thing	-4632
▁infl	-4633
▁ascii	-4634
▁redisson	-4635
otion	-4636
▁units	-4637
▁generation	-4638
▁ring	-4639
ha	-4640
▁article	-4641
▁respon	-4642
▁});});	-4643
▁resolved	-4644
▁errno	-4645
▁sto	-4646
inct	-4647
gt	-4648
▁digit	-4649
▁readable	-4650
▁36	-4651
▁calloc	-4652
reader	-4653
incip	-4654
▁lp	-4655
▁unic	-4656
58	-4657
▁creating	-4658
▁supplier	-4659
[1],	-4660
▁maven	-4661
▁signed	-4662
▁dc	-4663
describe	-4664
blob	-4665
▁patterns	-4666
▁protobuf	-4667
▁calculate	-4668
▁"--	-4669
▁baz	-4670
▁0000	-4671
extern	-4672
▁initialized	-4673
simple	-4674
▁conv	-4675
▁sampler	-4676
▁04	-4677
logy	-4678
▁ic	-4679
-4	-4680
ssandra	-4681
▁babel	-4682
gre	-4683
>"	-4684
▁during	-4685
▁panic	-4686
dom	-4687
▁{//	-4688
▁phase	-4689
inity	-4690
ony	-4691
▁44	-4692
stderr	-4693
ringe	-4694
short	-4695
▁weights	-4696
(10	-4697
▁extern	-4698
ane	-4699
▁assets	-4700
▁horiz	-4701
utor	-4702
▁something	-4703
▁representation	-4704
▁histogram	-4705
ialized	-4706
▁'@	-4707
▁lf	-4708
abstract	-4709
lines	-4710
bt	-4711
▁needs	-4712
cluster	-4713
▁fails	-4714
▁"'	-4715
▁haskell	-4716
▁cd	-4717
(-1	-4718
▁nacos	-4719
ural	-4720
▁weak	-4721
▁'[	-4722
▁}}#[	-4723
▁glyph	-4724
layout	-4725
>.	-4726
scope	-4727
▁air	-4728
▁oauth	-4729
▁mi	-4730
▁33	-4731
?.	-4732
ube	-4733
issue	-4734
▁compilation	-4735
▁alignment	-4736
loader	-4737
ba	-4738
▁cud	-4739
side	-4740
▁overloaded	-4741
ov	-4742
▁-0	-4743
▁dsl	-4744
▁charge	-4745
▁decor	-4746
latest	-4747
=!	-4748
▁34	-4749
esis	-4750
▁precision	-4751
boot	-4752
\.	-4753
▁5)	-4754
▁1024	-4755
▁correspon	-4756
▁'<	-4757
▁alipay	-4758
▁gt	-4759
▁handsh	-4760
▁nan	-4761
▁analysis	-4762
('/	-4763
rout	-4764
;#[	-4765
▁declare	-4766
▁prevent	-4767
unique	-4768
▁webpack	-4769
▁backup	-4770
▁please	-4771
▁portions	-4772
usize	-4773
▁aes	-4774
oose	-4775
tle	-4776
emp	-4777
settings	-4778
▁spy	-4779
]}	-4780
▁fat	-4781
▁#-}--	-4782
▁repeat	-4783
▁uv	-4784
▁writable	-4785
▁geometry	-4786
▁compress	-4787
▁du	-4788
semb	-4789
▁currently	-4790
▁mid	-4791
':	-4792
▁si	-4793
▁borrow	-4794
▁xf	-4795
▁workspace	-4796
}</	-4797
▁'../../	-4798
oto	-4799
prov	-4800
(6	-4801
▁mx	-4802
come	-4803
▁operators	-4804
▁who	-4805
ilities	-4806
▁da	-4807
▁ace	-4808
******	-4809
▁allows	-4810
▁python	-4811
▁builtin	-4812
▁limitation	-4813
meria	-4814
▁flash	-4815
transform	-4816
▁mapped	-4817
master	-4818
uffle	-4819
ef	-4820
▁wrong	-4821
▁llvm	-4822
▁pairs	-4823
-01	-4824
dsl	-4825
▁aligned	-4826
▁states	-4827
xx	-4828
▁unable	-4829
▁stringify	-4830
▁verbo	-4831
▁datas	-4832
▁advance	-4833
▁lifecycle	-4834
▁three	-4835
▁ql	-4836
▁aux	-4837
▁later	-4838
▁03	-4839
usion	-4840
find	-4841
▁spot	-4842
▁half	-4843
▁volatile	-4844
protocol	-4845
▁gau	-4846
quential	-4847
▁jwt	-4848
▁.</	-4849
▁ld	-4850
▁tak	-4851
▁affili	-4852
▁callbacks	-4853
iding	-4854
▁microsoft	-4855
▁moment	-4856
▁offsets	-4857
access	-4858
▁angle	-4859
ontal	-4860
▁unlock	-4861
▁animator	-4862
▁pkg	-4863
▁2),	-4864
▁dead	-4865
▁comments	-4866
▁hereby	-4867
filename	-4868
59	-4869
▁persons	-4870
font	-4871
▁ping	-4872
variant	-4873
▁inspector	-4874
success	-4875
▁connections	-4876
=1	-4877
;};	-4878
▁500	-4879
zer	-4880
▁maintain	-4881
▁evaluate	-4882
▁contact	-4883
tab	-4884
▁zk	-4885
▁sbt	-4886
lems	-4887
keys	-4888
▁*//*	-4889
▁anchor	-4890
cpu	-4891
(2)	-4892
▁typeable	-4893
▁seek	-4894
▁armeria	-4895
▁approval	-4896
loop	-4897
▁integral	-4898
▁")))	-4899
▁hm	-4900
attribute	-4901
ringement	-4902
▁utility	-4903
▁tf	-4904
▁usb	-4905
▁simde	-4906
exit	-4907
▁del	-4908
▁outputs	-4909
writer	-4910
▁candid	-4911
▁nl	-4912
tuple	-4913
▁managed	-4914
▁placeholder	-4915
]].	-4916
atom	-4917
▁terminal	-4918
(2);	-4919
▁chron	-4920
▁fb	-4921
▁exper	-4922
▁foreign	-4923
eval	-4924
tech	-4925
topic	-4926
▁swagger	-4927
▁')).	-4928
▁deserializer	-4929
▁pic	-4930
ulation	-4931
▁sat	-4932
▁whom	-4933
▁dr	-4934
▁hd	-4935
bre	-4936
counter	-4937
27	-4938
alt	-4939
▁sentinel	-4940
▁000	-4941
▁mime	-4942
▁tech	-4943
depend	-4944
]))	-4945
▁4);	-4946
▁gradient	-4947
▁scenario	-4948
parameter	-4949
▁typeof	-4950
▁}#	-4951
(1),	-4952
(8	-4953
▁consume	-4954
coin	-4955
▁bc	-4956
gres	-4957
▁routes	-4958
▁daml	-4959
aging	-4960
▁shadow	-4961
apply	-4962
handler	-4963
infringement	-4964
▁useful	-4965
▁modification	-4966
▁finagle	-4967
▁obtaining	-4968
▁pod	-4969
").	-4970
&&(	-4971
▁latest	-4972
media	-4973
▁serialized	-4974
▁supports	-4975
▁traverse	-4976
▁000000	-4977
▁princip	-4978
▁nonce	-4979
free	-4980
▁emitter	-4981
▁implemented	-4982
arr	-4983
pm	-4984
join	-4985
▁occ	-4986
▁queries	-4987
:%	-4988
batch	-4989
:?}",	-4990
etime	-4991
rf	-4992
▁.*	-4993
▁circuit	-4994
▁dealings	-4995
▁tiles	-4996
regex	-4997
▁rltk	-4998
▁allowance	-4999
▁06	-5000
pb	-5001
ely	-5002
itude	-5003
peg	-5004
▁binder	-5005
▁symbols	-5006
mas	-5007
▁bn	-5008
("[	-5009
▁indirect	-5010
▁affiliates	-5011
"),	-5012
▁attachment	-5013
▁sublicense	-5014
gpu	-5015
pf	-5016
▁distinct	-5017
cell	-5018
▁multipart	-5019
hore	-5020
ught	-5021
▁writes	-5022
maphore	-5023
▁skin	-5024
▁yet	-5025
▁forall	-5026
▁jerry	-5027
fol	-5028
▁argc	-5029
▁stretch	-5030
▁echo	-5031
fin	-5032
▁lt	-5033
▁);}	-5034
px	-5035
▁hit	-5036
▁images	-5037
▁propag	-5038
▁curr	-5039
▁templates	-5040
▁256)	-5041
▁turn	-5042
▁199	-5043
▁2::	-5044
▁ends	-5045
ifications	-5046
▁kill	-5047
engine	-5048
criteria	-5049
begin	-5050
cf	-5051
(".	-5052
▁implicits	-5053
agg	-5054
watch	-5055
▁sf	-5056
lave	-5057
▁pixels	-5058
antial	-5059
▁tap	-5060
▁svg	-5061
▁'%	-5062
▁correctly	-5063
urnished	-5064
▁rust	-5065
▁"";	-5066
▁rsa	-5067
▁.#	-5068
lfw	-5069
▁caller	-5070
▁cassandra	-5071
istic	-5072
▁minutes	-5073
)\	-5074
▁authority	-5075
codec	-5076
configuration	-5077
mpt	-5078
interface	-5079
▁extended	-5080
('#	-5081
84	-5082
▁tex	-5083
elem	-5084
▁smart	-5085
▁tl	-5086
▁predict	-5087
world	-5088
▁offer	-5089
▁functor	-5090
▁infer	-5091
▁substantial	-5092
▁reactor	-5093
▁lite	-5094
corp	-5095
▁composite	-5096
▁1));	-5097
▁elasticsearch	-5098
▁noninfringement	-5099
▁unix	-5100
▁flatten	-5101
:!	-5102
▁ln	-5103
▁duplicate	-5104
▁btn	-5105
onical	-5106
▁aspect	-5107
▁pw	-5108
▁"(	-5109
iterator	-5110
▁limiter	-5111
▁inflater	-5112
▁prof	-5113
▁unpack	-5114
menu	-5115
▁dictionary	-5116
▁0:	-5117
▁uart	-5118
[1].	-5119
ta	-5120
▁eb	-5121
slint	-5122
▁square	-5123
/1	-5124
▁team	-5125
pin	-5126
▁pd	-5127
dire	-5128
57	-5129
▁desired	-5130
▁disc	-5131
▁60	-5132
▁($	-5133
▁chat	-5134
▁rotation	-5135
▁quot	-5136
▁vertices	-5137
▁propos	-5138
css	-5139
▁unre	-5140
▁scheduled	-5141
▁mux	-5142
▁mongodb	-5143
▁bat	-5144
▁excl	-5145
member	-5146
▁('	-5147
acc	-5148
pad	-5149
▁consist	-5150
▁hot	-5151
▁autow	-5152
▁nr	-5153
▁jvm	-5154
▁specify	-5155
▁acl	-5156
▁androidx	-5157
transaction	-5158
▁preview	-5159
eg	-5160
▁happ	-5161
▁12,	-5162
zilla	-5163
arguments	-5164
▁decomp	-5165
▁compo	-5166
▁automat	-5167
▁){	-5168
▁*//**	-5169
operator	-5170
▁translation	-5171
▁"./	-5172
▁formation	-5173
(0));	-5174
▁leader	-5175
▁vs	-5176
▁trunc	-5177
▁peek	-5178
▁immediate	-5179
▁still	-5180
▁confir	-5181
▁major	-5182
quet	-5183
▁curve	-5184
ias	-5185
▁pause	-5186
thrift	-5187
▁ffi	-5188
redis	-5189
location	-5190
▁ordered	-5191
super	-5192
▁gson	-5193
}/**	-5194
hy	-5195
files	-5196
serve	-5197
▁steps	-5198
▁beans	-5199
▁preferences	-5200
▁simd	-5201
binary	-5202
▁phy	-5203
▁27	-5204
▁snippet	-5205
▁20,	-5206
(..),	-5207
:\	-5208
shape	-5209
▁simpl	-5210
▁unicode	-5211
21	-5212
sock	-5213
▁dimensions	-5214
▁stderr	-5215
▁sil	-5216
▁country	-5217
▁adjust	-5218
▁below	-5219
▁','	-5220
▁reads	-5221
dri	-5222
uuid	-5223
▁pow	-5224
▁white	-5225
▁calling	-5226
▁jobs	-5227
[],	-5228
mk	-5229
..}	-5230
ialization	-5231
▁sizes	-5232
)->	-5233
▁"+	-5234
("{	-5235
▁closure	-5236
total	-5237
▁.\	-5238
;",	-5239
"))	-5240
▁hard	-5241
▁instanti	-5242
▁smack	-5243
//!//!	-5244
▁micron	-5245
▁48	-5246
▁hooks	-5247
equal	-5248
orph	-5249
▁querydsl	-5250
▁experiment	-5251
▁hostname	-5252
rome	-5253
▁eslint	-5254
aries	-5255
▁opcode	-5256
▁regular	-5257
▁confirm	-5258
▁)}	-5259
▁expire	-5260
▁configured	-5261
▁transactions	-5262
▁executable	-5263
▁indicator	-5264
fully	-5265
▁writel	-5266
▁injector	-5267
▁arm	-5268
▁definitions	-5269
ngx	-5270
hello	-5271
ifies	-5272
▁vertical	-5273
▁interrupted	-5274
ga	-5275
▁defer	-5276
▁furnished	-5277
cessary	-5278
▁bio	-5279
ases	-5280
▁micronaut	-5281
▁'));	-5282
▁audit	-5283
▁counts	-5284
▁];	-5285
ignore	-5286
▁completable	-5287
▁fatal	-5288
▁xd	-5289
▁computed	-5290
▁tele	-5291
▁vi	-5292
step	-5293
▁)(	-5294
▁rv	-5295
edis	-5296
▁approve	-5297
tensor	-5298
▁trip	-5299
▁nxt	-5300
metric	-5301
▁nf	-5302
stop	-5303
▁devices	-5304
ros	-5305
▁3:	-5306
▁insn	-5307
▁normalized	-5308
▁va	-5309
▁lhs	-5310
39	-5311
gon	-5312
tw	-5313
▁ide	-5314
▁exactly	-5315
▁declared	-5316
normal	-5317
▁prefer	-5318
▁linecorp	-5319
points	-5320
▁star	-5321
arrow	-5322
tip	-5323
▁guac	-5324
▁positions	-5325
▁proof	-5326
cout	-5327
▁.////	-5328
▁lense	-5329
ubern	-5330
▁watcher	-5331
itespace	-5332
▁targets	-5333
etes	-5334
vk	-5335
▁pie	-5336
▁annotated	-5337
aaaa	-5338
789	-5339
[1];	-5340
rpc	-5341
29	-5342
▁flexible	-5343
ubernetes	-5344
▁cas	-5345
)*	-5346
abilities	-5347
;\	-5348
▁references	-5349
]=	-5350
▁semaphore	-5351
▁represents	-5352
▁64(	-5353
)|	-5354
▁delimiter	-5355
▁tor	-5356
▁88	-5357
▁rw	-5358
ational	-5359
bb	-5360
▁bv	-5361
▁'{	-5362
▁well	-5363
▁stri	-5364
network	-5365
▁]]	-5366
▁[],	-5367
▁embedded	-5368
execution	-5369
▁alink	-5370
▁lenses	-5371
▁returning	-5372
▁autowired	-5373
▁mempty	-5374
cursor	-5375
201	-5376
▁proper	-5377
▁links	-5378
▁runs	-5379
▁rename	-5380
▁ranges	-5381
▁regs	-5382
▁activation	-5383
▁<*>	-5384
▁soft	-5385
▁"../	-5386
▁balan	-5387
drop	-5388
▁principal	-5389
>>,	-5390
variable	-5391
ets	-5392
registry	-5393
▁horizontal	-5394
bench	-5395
▁performance	-5396
▁quick	-5397
ued	-5398
▁classpath	-5399
▁derived	-5400
send	-5401
("./	-5402
she	-5403
emon	-5404
▁endian	-5405
▁handshake	-5406
▁40	-5407
▁pv	-5408
ryption	-5409
▁travers	-5410
▁compact	-5411
","	-5412
▁verification	-5413
ji	-5414
native	-5415
▁accessor	-5416
tow	-5417
su	-5418
prone	-5419
2)	-5420
▁5;	-5421
keeper	-5422
shift	-5423
▁canonical	-5424
▁genesis	-5425
▁bsd	-5426
▁disconnect	-5427
▁pref	-5428
ipient	-5429
sets	-5430
▁press	-5431
▁fraction	-5432
[\	-5433
fp	-5434
iny	-5435
▁scaling	-5436
▁succeed	-5437
▁hip	-5438
consum	-5439
moment	-5440
▁modifiers	-5441
▁choice	-5442
bus	-5443
=\"	-5444
▁2011	-5445
▁reading	-5446
▁nonnull	-5447
ensitive	-5448
cy	-5449
▁databind	-5450
>{@	-5451
▁deli	-5452
▁10;	-5453
▁initializer	-5454
img	-5455
opts	-5456
▁ocio	-5457
weight	-5458
▁verbose	-5459
serde	-5460
▁business	-5461
▁glfw	-5462
▁32;	-5463
▁errorprone	-5464
▁/^	-5465
▁stor	-5466
illegal	-5467
failure	-5468
console	-5469
/.	-5470
▁coordinates	-5471
boost	-5472
▁bracket	-5473
▁127	-5474
▁mt	-5475
▁linux	-5476
▁allocation	-5477
▁10)	-5478
▁folly	-5479
▁mak	-5480
platform	-5481
ium	-5482
▁accomp	-5483
software	-5484
▁letter	-5485
▁retrieve	-5486
[^	-5487
▁ttl	-5488
rite	-5489
android	-5490
▁assemb	-5491
▁>>=	-5492
eng	-5493
▁conse	-5494
remove	-5495
▁directly	-5496
▁.//////	-5497
▁dv	-5498
-\	-5499
mutex	-5500
▁80	-5501
split	-5502
achable	-5503
!");	-5504
▁8);	-5505
▁alive	-5506
0,0,	-5507
▁resume	-5508
hook	-5509
88	-5510
ops	-5511
gp	-5512
await	-5513
ctl	-5514
▁processed	-5515
▁retention	-5516
▁functional	-5517
▁evaluation	-5518
▁};}	-5519
▁plot	-5520
▁slow	-5521
sim	-5522
200	-5523
▁memset	-5524
▁0));	-5525
▁datasource	-5526
strix	-5527
▁problem	-5528
endl	-5529
▁mapp	-5530
▁kit	-5531
balance	-5532
▁difference	-5533
▁hud	-5534
alyst	-5535
typed	-5536
aring	-5537
▁deposit	-5538
typ	-5539
detail	-5540
50	-5541
uation	-5542
▁liqu	-5543
▁thum	-5544
▁servers	-5545
▁ci	-5546
generated	-5547
keyword	-5548
▁verifier	-5549
components	-5550
+"	-5551
exus	-5552
▁frequ	-5553
oting	-5554
▁era	-5555
▁ck	-5556
▁wasm	-5557
▁leave	-5558
▁bank	-5559
▁""".	-5560
▁ham	-5561
▁pager	-5562
▁postgres	-5563
exist	-5564
▁cel	-5565
enable	-5566
▁orient	-5567
▁packages	-5568
]](	-5569
▁modal	-5570
▁flux	-5571
▁imports	-5572
localhost	-5573
▁elapsed	-5574
▁.*/	-5575
insert	-5576
editor	-5577
optional	-5578
macro	-5579
▁2021	-5580
▁001	-5581
▁minute	-5582
▁nn	-5583
▁ear	-5584
▁11,	-5585
atial	-5586
▁materials	-5587
▁handles	-5588
▁converters	-5589
ley	-5590
▁permitted	-5591
▁posix	-5592
sig	-5593
▁might	-5594
▁orders	-5595
▁tester	-5596
▁legacy	-5597
miss	-5598
rain	-5599
owner	-5600
▁dm	-5601
▁finite	-5602
:'	-5603
▁applied	-5604
▁viewport	-5605
lack	-5606
▁epfl	-5607
fun	-5608
▁////	-5609
▁fund	-5610
▁reflection	-5611
▁slide	-5612
▁rollback	-5613
events	-5614
▁segments	-5615
description	-5616
ilar	-5617
▁reward	-5618
▁hours	-5619
{}",	-5620
▁(!(	-5621
▁waiting	-5622
▁sever	-5623
▁goods	-5624
))))	-5625
sers	-5626
tools	-5627
subsc	-5628
layer	-5629
cx	-5630
▁cv	-5631
▁vectors	-5632
▁marsh	-5633
osphere	-5634
▁2).	-5635
▁29	-5636
]"	-5637
~~~~	-5638
-2020	-5639
▁party	-5640
▁(..),	-5641
▁parquet	-5642
that	-5643
▁keyboard	-5644
▁whitespace	-5645
▁marko	-5646
▁assume	-5647
▁linkedin	-5648
▁kubernetes	-5649
bundle	-5650
▁rotate	-5651
▁tpe	-5652
▁solver	-5653
seg	-5654
pher	-5655
▁catalyst	-5656
resolve	-5657
lies	-5658
▁perf	-5659
stats	-5660
▁circle	-5661
▁altern	-5662
▁codegen	-5663
▁boundary	-5664
▁forms	-5665
▁executed	-5666
▁average	-5667
▁restart	-5668
sym	-5669
,)	-5670
sched	-5671
▁mutation	-5672
▁futures	-5673
▁picker	-5674
▁parcel	-5675
▁08	-5676
▁breaker	-5677
decla	-5678
icture	-5679
▁ee	-5680
utf	-5681
operation	-5682
68	-5683
zone	-5684
bi	-5685
▁shuffle	-5686
▁aggregation	-5687
oth	-5688
▁particle	-5689
scale	-5690
comment	-5691
player	-5692
▁burn	-5693
▁dx	-5694
▁}}///	-5695
)@	-5696
ving	-5697
mes	-5698
▁slots	-5699
ble	-5700
▁neigh	-5701
▁sep	-5702
▁hig	-5703
▁flip	-5704
ival	-5705
▁easy	-5706
prom	-5707
crypt	-5708
timer	-5709
▁*(	-5710
▁give	-5711
▁$.	-5712
ially	-5713
▁were	-5714
▁{\	-5715
ridge	-5716
▁nexus	-5717
headers	-5718
▁nb	-5719
rece	-5720
>'	-5721
获取	-5722
nn	-5723
dig	-5724
▁digits	-5725
30	-5726
▁undertow	-5727
<(),	-5728
dash	-5729
▁brand	-5730
complete	-5731
▁avg	-5732
▁saf	-5733
iro	-5734
▁community	-5735
▁rewrite	-5736
▁migration	-5737
▁{",	-5738
▁reprod	-5739
▁"\"	-5740
▁filtered	-5741
▁choose	-5742
ks	-5743
▁cour	-5744
▁az	-5745
▁matched	-5746
▁withdraw	-5747
items	-5748
▁handling	-5749
mx	-5750
tract	-5751
/"	-5752
stdio	-5753
▁scopes	-5754
screen	-5755
79	-5756
rier	-5757
▁hw	-5758
▁));	-5759
ordered	-5760
(||	-5761
▁recomm	-5762
ruption	-5763
▁enough	-5764
▁hdr	-5765
apter	-5766
▁16(	-5767
▁~>	-5768
wrapper	-5769
spl	-5770
▁gauge	-5771
▁indexes	-5772
names	-5773
▁[(	-5774
,{	-5775
proc	-5776
▁adds	-5777
enyu	-5778
▁takes	-5779
errno	-5780
▁sel	-5781
▁toast	-5782
▁txn	-5783
▁conditional	-5784
results	-5785
▁1/	-5786
▁pag	-5787
());}	-5788
usp	-5789
▁.#[	-5790
issues	-5791
▁recover	-5792
▁compatible	-5793
▁websocket	-5794
router	-5795
);//	-5796
▁iteration	-5797
locity	-5798
interpret	-5799
wait	-5800
<>	-5801
▁mob	-5802
▁diagnostic	-5803
decode	-5804
▁solidity	-5805
collections	-5806
▁2010	-5807
pred	-5808
▁organization	-5809
▁specs	-5810
▁0).	-5811
executor	-5812
▁very	-5813
▁rsp	-5814
▁fm	-5815
>>>	-5816
[3]	-5817
▁mozilla	-5818
▁bon	-5819
▁san	-5820
──	-5821
▁prompt	-5822
数据	-5823
note	-5824
oll	-5825
▁semant	-5826
▁oct	-5827
▁recipient	-5828
▁jedis	-5829
▁"")	-5830
▁16)	-5831
]",	-5832
))}	-5833
jl	-5834
)")	-5835
▁hh	-5836
▁|--	-5837
▁cover	-5838
▁suggest	-5839
▁[0	-5840
adsl	-5841
ndan	-5842
▁stability	-5843
}>	-5844
`;	-5845
aving	-5846
▁chan	-5847
▁brendan	-5848
endpoint	-5849
▁mgr	-5850
umber	-5851
▁kinds	-5852
▁appe	-5853
▁cards	-5854
timestamp	-5855
cm	-5856
bucket	-5857
generic	-5858
▁aria	-5859
grid	-5860
▁har	-5861
initial	-5862
▁curator	-5863
▁'-	-5864
edge	-5865
▁minus	-5866
▁mint	-5867
▁'$	-5868
▁45	-5869
▁caused	-5870
real	-5871
elite	-5872
alk	-5873
▁similar	-5874
iders	-5875
▁substitute	-5876
▁precondition	-5877
▁zoom	-5878
▁tracer	-5879
provider	-5880
▁globals	-5881
fields	-5882
▁contexts	-5883
▁roles	-5884
product	-5885
▁strlen	-5886
0}	-5887
▁56	-5888
`)	-5889
▁jive	-5890
▁scoped	-5891
;///	-5892
gebra	-5893
▁conflic	-5894
route	-5895
bum	-5896
ulated	-5897
uous	-5898
▁interaction	-5899
▁closeable	-5900
▁gs	-5901
▁along	-5902
ensity	-5903
▁updater	-5904
convert	-5905
▁responses	-5906
>,}	-5907
....	-5908
▁rejected	-5909
▁nt	-5910
mpeg	-5911
▁2[	-5912
rad	-5913
31	-5914
pick	-5915
vertex	-5916
▁32);	-5917
▁iterations	-5918
▁runelite	-5919
▁persistent	-5920
▁callable	-5921
▁dbg	-5922
▁fg	-5923
rent	-5924
pelin	-5925
▁restrict	-5926
▁arb	-5927
▁compose	-5928
▁initialization	-5929
▁corresponding	-5930
eppelin	-5931
▁udp	-5932
apis	-5933
look	-5934
agraph	-5935
asc	-5936
arn	-5937
▁visual	-5938
▁polygon	-5939
('\	-5940
▁maintainer	-5941
oned	-5942
▁locationtech	-5943
3456789	-5944
center	-5945
▁temporary	-5946
▁{:?}",	-5947
▁'',	-5948
▁made	-5949
▁nanos	-5950
ku	-5951
▁jav	-5952
▁quest	-5953
aud	-5954
eline	-5955
▁those	-5956
▁localhost	-5957
apache	-5958
▁bd	-5959
datab	-5960
region	-5961
pi	-5962
(1))	-5963
cons	-5964
▁tokenizer	-5965
pix	-5966
▁1[	-5967
▁compan	-5968
▁consider	-5969
▁checksum	-5970
▁necessary	-5971
▁tt	-5972
▁mus	-5973
bas	-5974
▁cent	-5975
▁asm	-5976
▁occur	-5977
▁scanner	-5978
zh	-5979
▁}",	-5980
]|	-5981
▁endpoints	-5982
payload	-5983
▁38	-5984
]])	-5985
▁mvc	-5986
▁proposal	-5987
▁relations	-5988
▁interfaces	-5989
undefined	-5990
oda	-5991
listener	-5992
+=	-5993
pragma	-5994
batis	-5995
locale	-5996
▁alter	-5997
▁ang	-5998
▁yyyy	-5999
▁rgba	-6000
▁capabilities	-6001
()?;	-6002
sz	-6003
▁monix	-6004
bd	-6005
>\	-6006
declare	-6007
▁approx	-6008
▁monoid	-6009
>(&	-6010
hn	-6011
▁rm	-6012
▁mal	-6013
extra	-6014
safe	-6015
manager	-6016
▁unary	-6017
▁51	-6018
▁dw	-6019
coming	-6020
▁printer	-6021
acing	-6022
▁05	-6023
cut	-6024
activity	-6025
vr	-6026
▁07	-6027
argc	-6028
▁hub	-6029
▁mappings	-6030
("-	-6031
(200	-6032
▁etc	-6033
▁jivesoftware	-6034
urnal	-6035
arrays	-6036
▁candidate	-6037
▁prime	-6038
▁working	-6039
▁pet	-6040
tests	-6041
▁walk	-6042
▁dirty	-6043
▁latency	-6044
▁theory	-6045
▁coe	-6046
otype	-6047
▁xa	-6048
▁shenyu	-6049
▁related	-6050
▁gas	-6051
plain	-6052
▁deps	-6053
helpers	-6054
=========	-6055
commit	-6056
▁amd	-6057
ism	-6058
▁refs	-6059
▁datat	-6060
▁hystrix	-6061
▁urls	-6062
▁91	-6063
ensource	-6064
▁ti	-6065
fill	-6066
▁describ	-6067
▁timing	-6068
▁eof	-6069
found	-6070
diff	-6071
▁prepared	-6072
▁rtc	-6073
dynamic	-6074
▁around	-6075
▁subtract	-6076
bro	-6077
▁decrypt	-6078
▁able	-6079
▁jan	-6080
matrix	-6081
eth	-6082
ctrl	-6083
▁emplace	-6084
▁5);	-6085
▁regression	-6086
)/	-6087
▁determine	-6088
▁due	-6089
▁locked	-6090
implement	-6091
gg	-6092
▁2/	-6093
▁cut	-6094
▁lab	-6095
▁wx	-6096
esa	-6097
fixture	-6098
▁beta	-6099
[5	-6100
▁spaces	-6101
▁authorized	-6102
rase	-6103
▁anno	-6104
▁invoked	-6105
lette	-6106
dead	-6107
▁velocity	-6108
▁cardano	-6109
▁[1	-6110
▁frequency	-6111
▁}}/**	-6112
▁asc	-6113
▁>>>	-6114
▁}]	-6115
chan	-6116
▁past	-6117
scan	-6118
ience	-6119
▁freq	-6120
▁compressed	-6121
▁graphql	-6122
000000	-6123
""".	-6124
)]#[	-6125
▁crop	-6126
svg	-6127
nil	-6128
sters	-6129
ories	-6130
▁effects	-6131
how	-6132
▁}--	-6133
}\	-6134
▁reload	-6135
▁.<	-6136
anded	-6137
▁ticker	-6138
either	-6139
▁dh	-6140
▁cru	-6141
▁100,	-6142
▁coer	-6143
▁published	-6144
46	-6145
igence	-6146
▁});}	-6147
ori	-6148
▁equival	-6149
\",\"	-6150
peer	-6151
meter	-6152
▁orientation	-6153
ollo	-6154
▁inbound	-6155
driver	-6156
▁fu	-6157
▁experimental	-6158
▁ddr	-6159
unsafe	-6160
▁kn	-6161
▁navigation	-6162
▁napi	-6163
▁-2	-6164
aker	-6165
▁abi	-6166
▁35	-6167
▁limits	-6168
▁spatial	-6169
▁bigdl	-6170
▁negl	-6171
▁formatted	-6172
▁400	-6173
▁pthread	-6174
(?	-6175
snap	-6176
▁thing	-6177
▁buckets	-6178
-5	-6179
ialect	-6180
▁zookeeper	-6181
▁iam	-6182
▁sqrt	-6183
kin	-6184
pid	-6185
▁combine	-6186
▁charsets	-6187
▁backward	-6188
avail	-6189
▁develop	-6190
domain	-6191
▁automatically	-6192
▁possibility	-6193
▁hudi	-6194
▁infos	-6195
▁reserve	-6196
iph	-6197
[]{	-6198
▁markdown	-6199
▁bid	-6200
▁statements	-6201
▁58	-6202
▁incl	-6203
den	-6204
(4,	-6205
-0	-6206
)},	-6207
rief	-6208
deserialize	-6209
▁containers	-6210
(['	-6211
▁incor	-6212
▁15,	-6213
▁neighb	-6214
▁guid	-6215
▁layers	-6216
air	-6217
lev	-6218
place	-6219
▁plat	-6220
▁'\0	-6221
]*	-6222
▁//!	-6223
▁"");	-6224
▁transient	-6225
("#	-6226
(7	-6227
▁37	-6228
plus	-6229
▁failures	-6230
patch	-6231
▁portability	-6232
▁}));	-6233
vc	-6234
▁pane	-6235
▁picture	-6236
(..)	-6237
▁⇒	-6238
▁sand	-6239
▁peers	-6240
anim	-6241
▁98	-6242
cks	-6243
ios	-6244
▁guild	-6245
▁seata	-6246
delay	-6247
▁accepted	-6248
packet	-6249
▁successfully	-6250
remote	-6251
▁vals	-6252
▁")));	-6253
▁heart	-6254
(10,	-6255
push	-6256
]//	-6257
▁guar	-6258
▁---	-6259
▁hr	-6260
▁lint	-6261
original	-6262
▁scaladsl	-6263
▁encryption	-6264
--;	-6265
pop	-6266
folly	-6267
▁medi	-6268
stdlib	-6269
[1]);	-6270
▁upstream	-6271
▁reproduce	-6272
▁geomesa	-6273
eyser	-6274
▁cells	-6275
▁decre	-6276
atomic	-6277
▁hover	-6278
▁explicitly	-6279
▁mixin	-6280
▁decoded	-6281
▁vote	-6282
ah	-6283
bc	-6284
▁ol	-6285
clip	-6286
unce	-6287
▁expired	-6288
▁39	-6289
▁stores	-6290
▁accord	-6291
bed	-6292
relation	-6293
▁79	-6294
▁glob	-6295
▁evp	-6296
▁building	-6297
▁");}	-6298
backend	-6299
fficient	-6300
strcmp	-6301
cert	-6302
▁pci	-6303
▁googleapis	-6304
▁sealed	-6305
▁third	-6306
authentic	-6307
▁transformation	-6308
sect	-6309
▁chrono	-6310
rows	-6311
▁}}//	-6312
▁infinity	-6313
▁datum	-6314
▁jest	-6315
▁trut	-6316
▁")(	-6317
▁misc	-6318
sel	-6319
olation	-6320
▁%%	-6321
▁fastjson	-6322
▁cudf	-6323
mous	-6324
za	-6325
idental	-6326
▁ipv	-6327
attrs	-6328
▁fact	-6329
▁stamp	-6330
▁(&	-6331
▁middleware	-6332
▁2-	-6333
ndef	-6334
▁tun	-6335
sol	-6336
vels	-6337
▁paused	-6338
▁airbyte	-6339
▁routing	-6340
▁sprite	-6341
rgb	-6342
▁markup	-6343
▁training	-6344
zi	-6345
▁equality	-6346
▁sections	-6347
▁extent	-6348
▁dere	-6349
▁expir	-6350
▁atomix	-6351
**********	-6352
constants	-6353
tok	-6354
▁2));	-6355
▁scalajs	-6356
report	-6357
▁preconditions	-6358
rics	-6359
▁rich	-6360
▁proce	-6361
},{	-6362
(1));	-6363
▁cra	-6364
▁[&	-6365
▁apps	-6366
▁advised	-6367
▁products	-6368
▁bf	-6369
=0	-6370
iler	-6371
resources	-6372
▁care	-6373
single	-6374
▁[1,	-6375
oring	-6376
onymous	-6377
▁??	-6378
▁ulong	-6379
▁arena	-6380
▁minor	-6381
▁ded	-6382
▁macros	-6383
▁comma	-6384
▁3(	-6385
▁eps	-6386
▁development	-6387
idual	-6388
\'	-6389
44	-6390
▁swipe	-6391
▁combin	-6392
▁hmily	-6393
▁())	-6394
▁topo	-6395
▁assignment	-6396
land	-6397
▁300	-6398
▁hints	-6399
▁ports	-6400
▁occurre	-6401
▁actually	-6402
▁tip	-6403
rx	-6404
odo	-6405
before	-6406
▁typedef	-6407
repo	-6408
▁lc	-6409
▁cbor	-6410
▁secondary	-6411
inger	-6412
▁sound	-6413
▁1;}	-6414
cfn	-6415
▁quad	-6416
▁toolbar	-6417
▁",)	-6418
▁10);	-6419
brain	-6420
splatform	-6421
>("	-6422
kernel	-6423
▁susp	-6424
▁wavesplatform	-6425
▁bias	-6426
▁consequential	-6427
▁negligence	-6428
▁undo	-6429
lee	-6430
▁appear	-6431
▁nums	-6432
develo	-6433
scalar	-6434
decl	-6435
▁phone	-6436
▁&=	-6437
▁09	-6438
▁generics	-6439
endor	-6440
ured	-6441
!!	-6442
▁rocket	-6443
logical	-6444
▁protocols	-6445
*>(	-6446
▁whole	-6447
▁paragraph	-6448
argo	-6449
▁pll	-6450
▁companion	-6451
▁against	-6452
`]	-6453
▁sentence	-6454
▁vertx	-6455
▁decimals	-6456
▁(2	-6457
▁exemp	-6458
standard	-6459
isk	-6460
ensus	-6461
prelude	-6462
▁stere	-6463
present	-6464
▁counters	-6465
▁trailing	-6466
▁interruption	-6467
▁closing	-6468
▁detector	-6469
reset	-6470
▁stu	-6471
▁dup	-6472
▁kore	-6473
amount	-6474
geom	-6475
ool	-6476
▁raft	-6477
▁applications	-6478
beat	-6479
wstring	-6480
▁particip	-6481
▁openssl	-6482
▁raster	-6483
bitmap	-6484
assertion	-6485
cook	-6486
-+	-6487
▁months	-6488
▁ble	-6489
formed	-6490
fold	-6491
▁cookies	-6492
▁happen	-6493
▁divide	-6494
▁iterate	-6495
▁profits	-6496
--------------	-6497
▁");//	-6498
▁aliases	-6499
▁retries	-6500
▁journal	-6501
except	-6502
▁"@	-6503
▁55	-6504
promise	-6505
▁rectangle	-6506
lhs	-6507
▁0(	-6508
ables	-6509
▁caf	-6510
-2016	-6511
tags	-6512
▁scr	-6513
▁dy	-6514
▁wit	-6515
▁startup	-6516
pipeline	-6517
react	-6518
fit	-6519
rd	-6520
mh	-6521
▁cancelled	-6522
hist	-6523
rust	-6524
▁.',	-6525
▁remoting	-6526
release	-6527
ifndef	-6528
▁noop	-6529
▁egl	-6530
▁chrome	-6531
iao	-6532
▁irq	-6533
▁raise	-6534
1;	-6535
metrics	-6536
crest	-6537
▁2]	-6538
▁stopped	-6539
reply	-6540
▁75	-6541
[])	-6542
anged	-6543
bend	-6544
▁.`	-6545
▁liquid	-6546
▁invoker	-6547
(5,	-6548
▁redistribution	-6549
▁mu	-6550
::~	-6551
▁2008	-6552
▁ub	-6553
))),	-6554
▁itself	-6555
▁dash	-6556
ivate	-6557
esc	-6558
▁96	-6559
antom	-6560
▁hamcrest	-6561
▁13,	-6562
brains	-6563
▁tokio	-6564
▁applicative	-6565
▁incidental	-6566
aque	-6567
nb	-6568
cpp	-6569
circ	-6570
paths	-6571
▁leading	-6572
unct	-6573
▁lesser	-6574
▁fmpeg	-6575
▁radio	-6576
▁66	-6577
press	-6578
▁bluebrain	-6579
('@	-6580
▁wed	-6581
required	-6582
▁replacement	-6583
▁ie	-6584
▁four	-6585
▁repr	-6586
skip	-6587
▁jetbrains	-6588
seed	-6589
▁dialect	-6590
▁motion	-6591
▁vc	-6592
▁jda	-6593
▁hyper	-6594
▁fully	-6595
▁blo	-6596
▁ten	-6597
▁intelli	-6598
▁ctl	-6599
▁vault	-6600
▁triangle	-6601
▁et	-6602
git	-6603
▁ordinal	-6604
▁exempl	-6605
▁slash	-6606
▁sharding	-6607
role	-6608
ureka	-6609
▁buy	-6610
▁erase	-6611
▁nor	-6612
▁mysql	-6613
▁dword	-6614
customer	-6615
▁lightbend	-6616
▁city	-6617
ners	-6618
▁classifier	-6619
▁packed	-6620
[0-9	-6621
chip	-6622
}'	-6623
sha	-6624
errors	-6625
urement	-6626
▁bridge	-6627
processor	-6628
▁enumerable	-6629
▁cir	-6630
▁gzip	-6631
▁interest	-6632
▁stand	-6633
clock	-6634
▁yes	-6635
wind	-6636
▁defs	-6637
itan	-6638
▁noise	-6639
▁apple	-6640
)',	-6641
<(	-6642
▁exemplary	-6643
clk	-6644
▁nu	-6645
▁procurement	-6646
▁cwd	-6647
▁ter	-6648
▁78	-6649
nav	-6650
alg	-6651
basic	-6652
compat	-6653
identity	-6654
▁merged	-6655
multi	-6656
rltk	-6657
▁14,	-6658
rest	-6659
▁spotify	-6660
sq	-6661
kind	-6662
wl	-6663
ulkan	-6664
neg	-6665
▁maker	-6666
▁:+	-6667
▁mismatch	-6668
iving	-6669
ascloud	-6670
classes	-6671
▁hum	-6672
dimension	-6673
▁apollo	-6674
▁@(	-6675
crypto	-6676
users	-6677
▁registers	-6678
▁fresh	-6679
(12	-6680
quote	-6681
▁strat	-6682
>}	-6683
library	-6684
▁}',	-6685
▁popup	-6686
▁gold	-6687
=>	-6688
▁quantity	-6689
▁41	-6690
▁101	-6691
▁46	-6692
(3)	-6693
black	-6694
▁enums	-6695
▁alarm	-6696
▁according	-6697
▁blockchain	-6698
annotation	-6699
▁evaluator	-6700
sense	-6701
▁prog	-6702
▁album	-6703
▁overrides	-6704
▁utilities	-6705
▁])	-6706
save	-6707
▁repos	-6708
validate	-6709
75	-6710
▁repl	-6711
car	-6712
tm	-6713
lish	-6714
▁colo	-6715
▁executors	-6716
rtl	-6717
▁terminated	-6718
▁regions	-6719
▁ww	-6720
ascript	-6721
▁eql	-6722
▁sinon	-6723
force	-6724
▁drive	-6725
▁piece	-6726
▁nc	-6727
▁conversions	-6728
bad	-6729
▁tk	-6730
scroll	-6731
sb	-6732
▁indicates	-6733
▁hmac	-6734
▁think	-6735
alf	-6736
▁cos	-6737
under	-6738
▁incoming	-6739
zen	-6740
constant	-6741
generate	-6742
consumer	-6743
clear	-6744
▁spacing	-6745
▁satis	-6746
▁ram	-6747
theme	-6748
▁grow	-6749
ropy	-6750
▁typesafe	-6751
▁libr	-6752
malloc	-6753
▁keywords	-6754
▁[](	-6755
▁far	-6756
▁pem	-6757
▁representing	-6758
▁styled	-6759
▁parameterized	-6760
acon	-6761
▁xe	-6762
9999	-6763
regs	-6764
▁ue	-6765
ante	-6766
************	-6767
▁-1);	-6768
▁today	-6769
break	-6770
▁timeline	-6771
(0))	-6772
saved	-6773
:11,	-6774
▁schemas	-6775
texture	-6776
▁deferred	-6777
▁exponent	-6778
("<	-6779
pn	-6780
▁gmt	-6781
plan	-6782
▁seen	-6783
ula	-6784
;}/*	-6785
▁photo	-6786
capacity	-6787
▁}//	-6788
▁bold	-6789
▁gb	-6790
encil	-6791
▁coerce	-6792
track	-6793
▁pkey	-6794
▁mr	-6795
ercise	-6796
uses	-6797
▁3),	-6798
:!0,	-6799
▁levels	-6800
▁xc	-6801
uer	-6802
▁rf	-6803
▁dims	-6804
>>>>	-6805
aller	-6806
▁logged	-6807
▁nutz	-6808
▁revision	-6809
defin	-6810
{{	-6811
frag	-6812
++]	-6813
▁ft	-6814
▁famil	-6815
▁pagination	-6816
pping	-6817
▁unregister	-6818
resp	-6819
inesis	-6820
▁tooltip	-6821
▁6)	-6822
▁exclusive	-6823
▁libs	-6824
▁incorrect	-6825
▁disclaimed	-6826
inet	-6827
▁prediction	-6828
)){	-6829
▁zmq	-6830
formatter	-6831
▁php	-6832
}:	-6833
▁inverse	-6834
▁16;	-6835
▁drain	-6836
parsed	-6837
▁shr	-6838
▁documents	-6839
database	-6840
▁controls	-6841
ctories	-6842
▁'';	-6843
▁]);	-6844
instr	-6845
▁anonymous	-6846
lift	-6847
▁converted	-6848
▁1->	-6849
▁artifacts	-6850
cls	-6851
▁isn	-6852
▁arn	-6853
▁sse	-6854
▁handled	-6855
▁(;	-6856
▁4:	-6857
lp	-6858
▁say	-6859
bean	-6860
instant	-6861
▁wide	-6862
▁checking	-6863
nodes	-6864
secret	-6865
▁conform	-6866
▁sending	-6867
▁intellij	-6868
▁descriptors	-6869
dummy	-6870
area	-6871
▁recording	-6872
room	-6873
024	-6874
ii	-6875
flat	-6876
▁slave	-6877
▁thrott	-6878
program	-6879
▁balancer	-6880
eters	-6881
literal	-6882
health	-6883
▁0::	-6884
3)	-6885
▁production	-6886
vs	-6887
▁aware	-6888
▁interpret	-6889
complet	-6890
words	-6891
language	-6892
▁mess	-6893
▁joint	-6894
[2];	-6895
▁families	-6896
ierarch	-6897
▁conven	-6898
▁preferred	-6899
sequence	-6900
mbedtls	-6901
▁duck	-6902
▁notifications	-6903
▁")}	-6904
▁directives	-6905
100	-6906
▁54	-6907
person	-6908
▁slug	-6909
▁pare	-6910
▁compiled	-6911
▁tur	-6912
▁indiv	-6913
▁flume	-6914
▁terminate	-6915
▁dark	-6916
1)	-6917
(...	-6918
▁rendering	-6919
asset	-6920
▁gray	-6921
▁analyzer	-6922
▁*=	-6923
sur	-6924
▁design	-6925
▁stable	-6926
pan	-6927
(\	-6928
▁equivalent	-6929
▁ae	-6930
▁salt	-6931
▁opacity	-6932
ny	-6933
sa	-6934
selector	-6935
▁eff	-6936
password	-6937
▁timed	-6938
ulse	-6939
tile	-6940
interrupt	-6941
▁je	-6942
▁mall	-6943
|>	-6944
iki	-6945
game	-6946
▁circe	-6947
▁separate	-6948
video	-6949
mv	-6950
▁lb	-6951
▁locator	-6952
▁bitcoin	-6953
▁coordinate	-6954
▁td	-6955
▁better	-6956
resolved	-6957
uctor	-6958
▁serve	-6959
▁fifo	-6960
▁schedul	-6961
▁pdf	-6962
▁lett	-6963
buff	-6964
▁snd	-6965
after	-6966
clazz	-6967
▁otter	-6968
▁percentage	-6969
▁authenticated	-6970
▁succeeded	-6971
▁secs	-6972
erature	-6973
▁tid	-6974
▁deque	-6975
▁ha	-6976
served	-6977
/${	-6978
cance	-6979
▁algebra	-6980
▁dan	-6981
pointer	-6982
▁pf	-6983
▁integers	-6984
(3);	-6985
▁"==	-6986
▁traits	-6987
runner	-6988
▁derivative	-6989
▁nni	-6990
replace	-6991
▁passes	-6992
}""	-6993
▁recogn	-6994
▁footer	-6995
是否	-6996
▁typesimport	-6997
▁wat	-6998
▁trie	-6999
▁little	-7000
cli	-7001
("""	-7002
alias	-7003
\\.	-7004
progress	-7005
▁overwrite	-7006
adx	-7007
9-201	-7008
rv	-7009
decimal	-7010
decoder	-7011
▁recorder	-7012
▁enso	-7013
▁newline	-7014
██	-7015
amel	-7016
▁slider	-7017
▁palette	-7018
▁invalidate	-7019
hex	-7020
-6	-7021
uel	-7022
▁outbound	-7023
ij	-7024
heus	-7025
▁libc	-7026
▁ef	-7027
izations	-7028
available	-7029
▁4(	-7030
▁ceil	-7031
("../	-7032
▁brief	-7033
modules	-7034
▁bounding	-7035
▁ann	-7036
:0	-7037
▁gram	-7038
▁defines	-7039
▁fla	-7040
▁unreachable	-7041
▁mrb	-7042
▁vl	-7043
rete	-7044
▁expanded	-7045
oton	-7046
▁gue	-7047
▁fri	-7048
▁jdk	-7049
▁inspect	-7050
ones	-7051
''	-7052
amma	-7053
▁stm	-7054
▁injection	-7055
▁cg	-7056
analy	-7057
("",	-7058
ryo	-7059
snapshot	-7060
gpio	-7061
▁blend	-7062
▁heartbeat	-7063
▁concrete	-7064
▁rendered	-7065
▁asyn	-7066
▁outside	-7067
▁aver	-7068
▁buttons	-7069
▁ltd	-7070
▁gd	-7071
[2],	-7072
▁tla	-7073
▁@.	-7074
▁titan	-7075
ventory	-7076
▁encrypted	-7077
vol	-7078
);});	-7079
worker	-7080
▁alternative	-7081
▁aer	-7082
▁pot	-7083
▁density	-7084
▁properly	-7085
support	-7086
▁47	-7087
streams	-7088
▁replication	-7089
▁cid	-7090
fid	-7091
shine	-7092
▁blog	-7093
`);	-7094
▁}],	-7095
▁{}}	-7096
▁deg	-7097
posed	-7098
▁tiny	-7099
▁optimize	-7100
tcp	-7101
▁hosts	-7102
▁escap	-7103
000);	-7104
▁pressed	-7105
rng	-7106
iet	-7107
primitive	-7108
/>	-7109
brow	-7110
agram	-7111
children	-7112
▁formatting	-7113
wr	-7114
grees	-7115
▁linkis	-7116
▁(0,	-7117
▁zer	-7118
▁}}}	-7119
ned	-7120
>().	-7121
lipse	-7122
97	-7123
▁topology	-7124
factory	-7125
0),	-7126
▁lexer	-7127
nullptr	-7128
▁1],	-7129
▁ipc	-7130
currency	-7131
features	-7132
0000000000000000	-7133
(((	-7134
▁jadx	-7135
▁guarante	-7136
▁zeppelin	-7137
▁sensor	-7138
▁glm	-7139
chronous	-7140
▁moved	-7141
canvas	-7142
▁strong	-7143
oi	-7144
▁univers	-7145
[..	-7146
unknown	-7147
▁propagation	-7148
▁svc	-7149
▁quit	-7150
signature	-7151
▁blur	-7152
,[	-7153
tick	-7154
▁crud	-7155
;}//	-7156
▁lag	-7157
▁();	-7158
52	-7159
▁manual	-7160
rot	-7161
▁ethere	-7162
▁fac	-7163
]/	-7164
alone	-7165
▁[0,	-7166
▁53	-7167
snippet	-7168
▁64;	-7169
▁inflate	-7170
kv	-7171
sink	-7172
fixed	-7173
▁sandbox	-7174
▁ethereum	-7175
▁1];	-7176
kins	-7177
benchmark	-7178
stmt	-7179
▁hashes	-7180
▁attempts	-7181
▁languages	-7182
admin	-7183
▁ticks	-7184
▁arith	-7185
bottom	-7186
▁workers	-7187
site	-7188
styles	-7189
coord	-7190
▁topics	-7191
▁deepsense	-7192
▁attrib	-7193
=(	-7194
▁264	-7195
▁implementations	-7196
------	-7197
▁3::	-7198
▁requirements	-7199
ilon	-7200
▁csp	-7201
*//	-7202
definition	-7203
-1,	-7204
monad	-7205
▁lettuce	-7206
transport	-7207
*,	-7208
▁1234	-7209
▁jump	-7210
▁blocked	-7211
▁increase	-7212
tri	-7213
▁hz	-7214
▁xb	-7215
atar	-7216
▁})}	-7217
▁debugger	-7218
▁repeated	-7219
widget	-7220
interval	-7221
erio	-7222
▁adding	-7223
▁keeper	-7224
collector	-7225
selected	-7226
▁tell	-7227
返回	-7228
))).	-7229
like	-7230
信息	-7231
▁stencil	-7232
most	-7233
▁natural	-7234
/4	-7235
▁eureka	-7236
dc	-7237
▁{1	-7238
cookie	-7239
▁forecast	-7240
":"	-7241
celer	-7242
▁wildcard	-7243
(2),	-7244
urst	-7245
▁ig	-7246
ips	-7247
vity	-7248
▁urn	-7249
▁202	-7250
▁webank	-7251
▁spans	-7252
rozen	-7253
▁enumeration	-7254
cn	-7255
orth	-7256
▁stre	-7257
▁overrid	-7258
▁cypher	-7259
▁cheerio	-7260
spi	-7261
▁inserted	-7262
ghc	-7263
tf	-7264
▁subset	-7265
▁enqueue	-7266
▁0////	-7267
▁mixed	-7268
▁exercise	-7269
heap	-7270
;}/**	-7271
▁collap	-7272
▁{#	-7273
▁gap	-7274
▁/=	-7275
compare	-7276
copyright	-7277
一个	-7278
cha	-7279
delta	-7280
▁dropdown	-7281
/#	-7282
chart	-7283
▁hierarch	-7284
▁immediately	-7285
▁ii	-7286
53	-7287
▁(%	-7288
▁elems	-7289
▁concurrency	-7290
▁enumerate	-7291
012	-7292
▁btc	-7293
▁wlr	-7294
▁posts	-7295
▁"../../	-7296
▁providers	-7297
▁**/	-7298
rend	-7299
▁pragma	-7300
▁temperature	-7301
{..}	-7302
▁llc	-7303
▁atlas	-7304
ifiable	-7305
▁ffffff	-7306
▁intros	-7307
▁dol	-7308
chrono	-7309
▁pres	-7310
▁cargo	-7311
▁sunshine	-7312
▁ones	-7313
▁recent	-7314
▁{!	-7315
▁mechan	-7316
▁attached	-7317
security	-7318
<<<<	-7319
score	-7320
▁(),	-7321
▁approp	-7322
strings	-7323
"));	-7324
▁rex	-7325
alled	-7326
-1)	-7327
▁30,	-7328
atas	-7329
>--	-7330
▁enclo	-7331
▁32),	-7332
pending	-7333
▁90	-7334
▁sampling	-7335
eto	-7336
depth	-7337
▁tracking	-7338
▁sqlite	-7339
▁opaque	-7340
▁authenticator	-7341
[6	-7342
▁band	-7343
▁holds	-7344
▁appender	-7345
▁implicitly	-7346
▁74	-7347
▁accessible	-7348
').	-7349
gs	-7350
▁payment	-7351
▁leak	-7352
▁gear	-7353
▁???	-7354
concat	-7355
▁blk	-7356
▁xor	-7357
(<	-7358
▁intersect	-7359
ari	-7360
▁stdin	-7361
eled	-7362
▁appropri	-7363
:----	-7364
▁expects	-7365
▁2()	-7366
▁delivery	-7367
helper	-7368
lat	-7369
▁255,	-7370
lint	-7371
▁bh	-7372
signal	-7373
▁cron	-7374
nel	-7375
▁john	-7376
▁backoff	-7377
("")	-7378
▁vendor	-7379
ellow	-7380
▁decoding	-7381
ecs	-7382
▁prox	-7383
scall	-7384
▁jen	-7385
▁.///	-7386
▁duckdb	-7387
▁rr	-7388
▁translator	-7389
adapter	-7390
▁constructors	-7391
▁stateful	-7392
▁evt	-7393
▁stratosphere	-7394
▁^.	-7395
ccar	-7396
▁epoxy	-7397
▁collis	-7398
iation	-7399
▁semantic	-7400
▁traccar	-7401
caught	-7402
▁cancell	-7403
▁ctor	-7404
sealed	-7405
audio	-7406
▁parsers	-7407
))(	-7408
▁iz	-7409
▁temporal	-7410
▁ffff	-7411
phere	-7412
▁lead	-7413
▁communic	-7414
▁twe	-7415
())).	-7416
encoded	-7417
▁mobile	-7418
▁utilimport	-7419
leaf	-7420
▁decorator	-7421
▁individual	-7422
▁compatibility	-7423
]{	-7424
▁sib	-7425
[/	-7426
▁(1,	-7427
▁######	-7428
▁amp	-7429
▁copied	-7430
pixel	-7431
▁cu	-7432
▁68	-7433
▁oth	-7434
]));	-7435
▁consensus	-7436
▁clicked	-7437
▁converts	-7438
▁6;	-7439
▁{...	-7440
(){}	-7441
ffi	-7442
▁tagged	-7443
imap	-7444
agent	-7445
▁dirs	-7446
ital	-7447
▁(("	-7448
▁]:	-7449
▁vt	-7450
▁94	-7451
metry	-7452
▁released	-7453
▁busy	-7454
▁reached	-7455
▁stereotype	-7456
▁ys	-7457
({},	-7458
▁tabs	-7459
){}	-7460
bnail	-7461
typename	-7462
▁!!	-7463
▁xxx	-7464
▁wall	-7465
▁76	-7466
exchange	-7467
▁corner	-7468
dot	-7469
(9	-7470
▁assum	-7471
▁vulkan	-7472
▁truncate	-7473
▁detected	-7474
▁dram	-7475
selection	-7476
▁ray	-7477
lower	-7478
▁rocketmq	-7479
▁boxed	-7480
multip	-7481
▁entire	-7482
▁higher	-7483
▁validated	-7484
numeric	-7485
▁everything	-7486
▁24,	-7487
1);	-7488
linux	-7489
▁noexcept	-7490
▁djl	-7491
sto	-7492
▁shrink	-7493
------------//	-7494
▁49	-7495
▁asynchronous	-7496
portable	-7497
▁spin	-7498
binding	-7499
▁xffff	-7500
▁shows	-7501
windows	-7502
encoding	-7503
pump	-7504
▁directories	-7505
extension	-7506
▁"//	-7507
▁participant	-7508
▁excel	-7509
▁ngraph	-7510
▁perm	-7511
configure	-7512
72	-7513
▁01,	-7514
alpha	-7515
▁"*	-7516
▁ea	-7517
▁stick	-7518
imports	-7519
▁targeting	-7520
}),	-7521
▁geyser	-7522
tokens	-7523
▁music	-7524
▁conflict	-7525
)[	-7526
▁camel	-7527
deploy	-7528
environment	-7529
▁framebuffer	-7530
▁usa	-7531
▁gather	-7532
▁plane	-7533
▁rejection	-7534
▁crit	-7535
▁})--	-7536
▁barrier	-7537
▁appropriate	-7538
▁mn	-7539
va	-7540
▁hu	-7541
▁}))	-7542
▁severity	-7543
-12	-7544
▁89	-7545
▁ship	-7546
▁retval	-7547
("$	-7548
▁43	-7549
▁trees	-7550
statement	-7551
▁sttp	-7552
atling	-7553
▁traversal	-7554
aggreg	-7555
undef	-7556
▁joda	-7557
strong	-7558
▁'},	-7559
parameters	-7560
使用	-7561
mach	-7562
velope	-7563
))]	-7564
orer	-7565
ral	-7566
▁clusters	-7567
▁dem	-7568
▁sessions	-7569
▁affect	-7570
▁mass	-7571
▁longer	-7572
persist	-7573
ats	-7574
lookup	-7575
frames	-7576
▁0/	-7577
▁angular	-7578
quot	-7579
ably	-7580
atasphere	-7581
▁shortcut	-7582
▁discard	-7583
▁wedatasphere	-7584
▁scripts	-7585
cade	-7586
suite	-7587
▁realm	-7588
▁assembly	-7589
▁anything	-7590
▁entropy	-7591
une	-7592
▁que	-7593
▁ant	-7594
▁phantom	-7595
poly	-7596
▁replay	-7597
=[	-7598
▁hack	-7599
▁ansi	-7600
▁torrent	-7601
▁chunked	-7602
▁bp	-7603
orse	-7604
▁makes	-7605
permission	-7606
kafka	-7607
typedef	-7608
uplicate	-7609
▁memo	-7610
jdk	-7611
▁(((	-7612
▁relationship	-7613
▁bob	-7614
▁bounded	-7615
▁outcome	-7616
▁udf	-7617
▁fault	-7618
▁inclusive	-7619
▁84	-7620
▁redistribute	-7621
▁profil	-7622
categ	-7623
▁intersection	-7624
('<	-7625
▁absent	-7626
▁rooms	-7627
:4	-7628
▁alph	-7629
用户	-7630
▁3>	-7631
ibly	-7632
nf	-7633
▁32::	-7634
segment	-7635
cred	-7636
▁fav	-7637
▁nng	-7638
▁matter	-7639
▁others	-7640
▁substr	-7641
▁'>	-7642
▁{})	-7643
▁ala	-7644
▁*///	-7645
▁discover	-7646
▁aggregator	-7647
cnt	-7648
▁parents	-7649
文件	-7650
▁mqtt	-7651
username	-7652
▁hope	-7653
▁|""".	-7654
▁arity	-7655
hk	-7656
▁utx	-7657
]->	-7658
▁wants	-7659
▁contained	-7660
▁launcher	-7661
stage	-7662
implemented	-7663
▁libraries	-7664
(2).	-7665
▁malformed	-7666
utions	-7667
ety	-7668
actions	-7669
accept	-7670
▁builders	-7671
high	-7672
▁tparam	-7673
login	-7674
▁jpeg	-7675
▁daemon	-7676
▁curl	-7677
******/	-7678
▁kinesis	-7679
);}/*	-7680
▁multiply	-7681
kt	-7682
▁ctxt	-7683
▁checkbox	-7684
▁decision	-7685
▁cle	-7686
▁marked	-7687
▁canal	-7688
▁77	-7689
merge	-7690
aching	-7691
▁accompany	-7692
:9,	-7693
pection	-7694
▁25,	-7695
slot	-7696
compiler	-7697
monitor	-7698
▁dbl	-7699
todo	-7700
▁notifier	-7701
sender	-7702
▁telegram	-7703
▁0-	-7704
▁verified	-7705
ucumber	-7706
▁deserialization	-7707
amd	-7708
mix	-7709
(16	-7710
partial	-7711
()(	-7712
▁oneflow	-7713
stra	-7714
▁inventory	-7715
sam	-7716
▁ints	-7717
▁expectation	-7718
origin	-7719
▁things	-7720
▁dropped	-7721
▁holding	-7722
▁jpa	-7723
▁jmeter	-7724
▁accompanying	-7725
click	-7726
gi	-7727
opensource	-7728
▁lng	-7729
bounded	-7730
▁pkcs	-7731
设置	-7732
compile	-7733
profile	-7734
fetch	-7735
▁ember	-7736
directory	-7737
▁gain	-7738
▁wstring	-7739
*(	-7740
debugger	-7741
strict	-7742
compute	-7743
▁'--	-7744
▁fis	-7745
▁degrees	-7746
rem	-7747
▁65	-7748
▁failover	-7749
trip	-7750
▁averror	-7751
▁punct	-7752
▁constructs	-7753
effect	-7754
▁cube	-7755
}`,	-7756
▁canceled	-7757
udo	-7758
igroup	-7759
▁lz	-7760
catch	-7761
[]>	-7762
▁bonus	-7763
▁gearpump	-7764
▁64::	-7765
▁ath	-7766
ju	-7767
▁caps	-7768
▁decompress	-7769
▁fst	-7770
stdout	-7771
▁sanit	-7772
▁800	-7773
▁street	-7774
▁lcd	-7775
▁witness	-7776
des	-7777
calendar	-7778
▁87	-7779
▁floating	-7780
▁","\	-7781
▁finalize	-7782
▁ether	-7783
▁combined	-7784
▁batches	-7785
▁tbl	-7786
▁respond	-7787
<?>>	-7788
▁bel	-7789
]]]	-7790
serializer	-7791
▁medium	-7792
hu	-7793
▁jsx	-7794
▁transpose	-7795
▁beacon	-7796
▁coords	-7797
▁smo	-7798
▁2>	-7799
▁pal	-7800
▁emo	-7801
testing	-7802
vention	-7803
▁online	-7804
clean	-7805
kely	-7806
?,	-7807
ki	-7808
[8	-7809
▁hits	-7810
,0	-7811
(${	-7812
mpp	-7813
sd	-7814
/)	-7815
-10	-7816
2);	-7817
uby	-7818
▁regexp	-7819
arest	-7820
▁}});	-7821
▁analyze	-7822
▁lj	-7823
▁supplied	-7824
strategy	-7825
fm	-7826
▁exe	-7827
▁ru	-7828
▁cool	-7829
distribut	-7830
obao	-7831
retry	-7832
jie	-7833
simd	-7834
▁axes	-7835
ivot	-7836
▁standalone	-7837
dataset	-7838
comb	-7839
▁datetime	-7840
▁lease	-7841
|\	-7842
>',	-7843
▁rp	-7844
[][]	-7845
▁relay	-7846
▁clamp	-7847
▁www	-7848
avctx	-7849
▁animated	-7850
=${	-7851
▁compound	-7852
kle	-7853
▁59	-7854
▁snow	-7855
cancel	-7856
failed	-7857
▁trades	-7858
参数	-7859
▁>)	-7860
▁recovery	-7861
▁100;	-7862
▁recei	-7863
>",	-7864
stor	-7865
seudo	-7866
▁quotes	-7867
mn	-7868
)----	-7869
▁taobao	-7870
▁stuff	-7871
charact	-7872
▁ks	-7873
▁claims	-7874
▁reuse	-7875
matches	-7876
grad	-7877
▁initi	-7878
▁jpg	-7879
spawn	-7880
▁quas	-7881
▁eu	-7882
vi	-7883
fla	-7884
▁*>	-7885
west	-7886
▁"\\	-7887
▁pac	-7888
jar	-7889
based	-7890
▁pen	-7891
▁prom	-7892
▁quoted	-7893
dup	-7894
dependent	-7895
append	-7896
▁reinterpret	-7897
▁termination	-7898
▁water	-7899
▁hiding	-7900
[0])	-7901
fu	-7902
aban	-7903
fixtures	-7904
imate	-7905
▁gpl	-7906
vo	-7907
mir	-7908
▁adj	-7909
▁stud	-7910
▁initializes	-7911
▁won	-7912
--)	-7913
▁nk	-7914
changed	-7915
▁(..)	-7916
▁shiro	-7917
▁qr	-7918
▁dag	-7919
ung	-7920
▁ticket	-7921
▁configurable	-7922
▁detection	-7923
!\	-7924
anned	-7925
▁crash	-7926
"#	-7927
▁jenkins	-7928
icient	-7929
▁whose	-7930
▁replaced	-7931
▁thumbnail	-7932
athon	-7933
86	-7934
▁intr	-7935
wc	-7936
▁placement	-7937
▁nand	-7938
icates	-7939
uf	-7940
gable	-7941
2}	-7942
slice	-7943
olution	-7944
▁finder	-7945
▁ko	-7946
▁nick	-7947
direct	-7948
you	-7949
▁kb	-7950
▁dice	-7951
▁stuffer	-7952
▁1()	-7953
▁lear	-7954
▁resulting	-7955
!==	-7956
▁^=	-7957
▁escaped	-7958
arb	-7959
▁funds	-7960
▁caught	-7961
▁specimport	-7962
fr	-7963
▁pkt	-7964
▁signing	-7965
cud	-7966
▁accur	-7967
▁capability	-7968
▁xt	-7969
▁occurs	-7970
▁promote	-7971
▁datatype	-7972
controller	-7973
▁yuv	-7974
▁taken	-7975
mzi	-7976
rint	-7977
▁iot	-7978
(%	-7979
gc	-7980
▁fence	-7981
rough	-7982
▁movie	-7983
]\	-7984
);};	-7985
mouse	-7986
▁bulkhead	-7987
help	-7988
▁95	-7989
▁inference	-7990
▁primitives	-7991
sin	-7992
tail	-7993
▁']);	-7994
izing	-7995
▁wake	-7996
▁invariant	-7997
▁phrase	-7998
▁issues	-7999
▁undef	-8000
>>(	-8001
lax	-8002
▁kryo	-8003
▁notes	-8004
▁"];	-8005
▁snprintf	-8006
commands	-8007
▁contextimport	-8008
▁ga	-8009
▁})})	-8010
-7	-8011
▁presenter	-8012
▁cardinal	-8013
pkg	-8014
▁cucumber	-8015
▁exporter	-8016
▁monitoring	-8017
logging	-8018
axis	-8019
▁assigned	-8020
▁estimate	-8021
clause	-8022
▁",{	-8023
▁saml	-8024
▁eventually	-8025
▁early	-8026
▁alasql	-8027
▁removes	-8028
▁dispos	-8029
▁freed	-8030
;}#	-8031
kaban	-8032
▁25519	-8033
ama	-8034
▁readonly	-8035
▁7)	-8036
:#	-8037
▁52	-8038
▁pus	-8039
▁dolph	-8040
▁gravity	-8041
▁32(&	-8042
ubsc	-8043
lazy	-8044
▁50,	-8045
▁fixtures	-8046
▁256(	-8047
▁satisf	-8048
▁lost	-8049
structure	-8050
vl	-8051
=0,	-8052
ople	-8053
demo	-8054
▁traffic	-8055
▁16);	-8056
▁vp	-8057
▁2->	-8058
▁scalaz	-8059
tion	-8060
elist	-8061
sktop	-8062
▁0],	-8063
into	-8064
时间	-8065
▁quat	-8066
nxt	-8067
▁systems	-8068
policy	-8069
▁1>	-8070
▁categories	-8071
▁"/"	-8072
▁spl	-8073
si	-8074
rhs	-8075
▁dlg	-8076
▁populate	-8077
='"	-8078
▁amt	-8079
hm	-8080
sr	-8081
▁zipkin	-8082
jav	-8083
▁wheel	-8084
blue	-8085
duplicate	-8086
▁frontend	-8087
ming	-8088
▁finger	-8089
pow	-8090
▁strimzi	-8091
▁requirement	-8092
▁transferred	-8093
trig	-8094
▁subscriptions	-8095
small	-8096
▁1000;	-8097
▁insensitive	-8098
▁universe	-8099
▁captor	-8100
collectors	-8101
fb	-8102
rans	-8103
!("{}",	-8104
▁2015-2016	-8105
;/*	-8106
▁pojo	-8107
loyee	-8108
lueto	-8109
▁apk	-8110
▁equip	-8111
▁firrtl	-8112
luetooth	-8113
]?	-8114
▁animate	-8115
aff	-8116
▁hierarchy	-8117
▁typename	-8118
hi	-8119
▁reports	-8120
▁modes	-8121
▁lts	-8122
▁spread	-8123
▁effective	-8124
▁optimizer	-8125
mium	-8126
▁much	-8127
▁really	-8128
/^	-8129
-13	-8130
▁hdfs	-8131
hidden	-8132
);}#[	-8133
replic	-8134
fragment	-8135
▁denied	-8136
▁srv	-8137
▁aeron	-8138
▁tion	-8139
▁bign	-8140
external	-8141
usb	-8142
▁3))	-8143
missing	-8144
▁scalap	-8145
▁fv	-8146
artifact	-8147
▁question	-8148
▁tokenize	-8149
▁sft	-8150
▁human	-8151
++){	-8152
:8	-8153
▁8]	-8154
:00:00	-8155
<=	-8156
nothing	-8157
download	-8158
+>	-8159
▁voice	-8160
▁splits	-8161
▁epsilon	-8162
heet	-8163
▁materializer	-8164
▁nulls	-8165
▁configurations	-8166
▁deref	-8167
▁/><	-8168
▁lum	-8169
pts	-8170
▁sch	-8171
▁instructions	-8172
quent	-8173
▁nest	-8174
eta	-8175
phys	-8176
dy	-8177
▁collision	-8178
▁epi	-8179
▁tuples	-8180
如果	-8181
switch	-8182
immutable	-8183
igen	-8184
▁rss	-8185
constraint	-8186
!")	-8187
▁reactivex	-8188
1:	-8189
)");	-8190
("");	-8191
▁aeson	-8192
▁interpolator	-8193
▁percentile	-8194
$/	-8195
▁yg	-8196
inate	-8197
▁coder	-8198
▁marathon	-8199
▁85	-8200
);}#	-8201
▁clipboard	-8202
▁0,0	-8203
▁med	-8204
())),	-8205
▁provision	-8206
▁7;	-8207
▁'\\	-8208
compressed	-8209
▁qualifier	-8210
▁\\	-8211
▁company	-8212
▁azkaban	-8213
assign	-8214
([201	-8215
rev	-8216
curr	-8217
hot	-8218
synt	-8219
▁epoll	-8220
nested	-8221
acheck	-8222
▁solid	-8223
▁2],	-8224
▁drawing	-8225
▁quality	-8226
▁exceptionimport	-8227
▁ldap	-8228
▁freeze	-8229
▁instrumentation	-8230
verify	-8231
built	-8232
`:	-8233
▁"};	-8234
▁xiao	-8235
▁hasher	-8236
*/#	-8237
▁summar	-8238
*)(	-8239
▁having	-8240
marker	-8241
▁computation	-8242
▁bod	-8243
dependency	-8244
▁circular	-8245
▁fif	-8246
two	-8247
▁00\	-8248
▁fixme	-8249
]]):	-8250
▁expo	-8251
cheduler	-8252
▁generates	-8253
override	-8254
▁firebase	-8255
plot	-8256
days	-8257
weather	-8258
▁collation	-8259
▁]](	-8260
▁coverage	-8261
▁sockaddr	-8262
▁amazonaws	-8263
▁reporting	-8264
▁consistent	-8265
▁nm	-8266
▁|}	-8267
usage	-8268
▁semigroup	-8269
▁violation	-8270
▁predicates	-8271
▁'\''	-8272
ound	-8273
▁morph	-8274
▁modul	-8275
ales	-8276
sive	-8277
▁rfc	-8278
▁67	-8279
▁produces	-8280
▁ups	-8281
1),	-8282
going	-8283
dict	-8284
▁consumed	-8285
dialog	-8286
▁获取	-8287
▁identify	-8288
▁fragments	-8289
rand	-8290
renderer	-8291
▁synchronous	-8292
poll	-8293
▁jni	-8294
▁mor	-8295
▁die	-8296
▁shown	-8297
inite	-8298
▁zeros	-8299
▁validators	-8300
▁intro	-8301
▁unimplemented	-8302
▁aj	-8303
▁detach	-8304
stable	-8305
▁located	-8306
character	-8307
▁dates	-8308
###	-8309
▁odd	-8310
▁going	-8311
rations	-8312
ocab	-8313
▁imm	-8314
▁semi	-8315
▁lg	-8316
dsa	-8317
▁gamma	-8318
▁frozen	-8319
▁beginning	-8320
▁toler	-8321
▁estimator	-8322
▁scalacheck	-8323
对象	-8324
authentication	-8325
]")	-8326
eno	-8327
inscheduler	-8328
▁hl	-8329
▁sax	-8330
▁diagnostics	-8331
▁"."	-8332
escape	-8333
bootstrap	-8334
▁course	-8335
▁synthe	-8336
(`${	-8337
▁smt	-8338
▁laws	-8339
▁passing	-8340
▁visited	-8341
prep	-8342
▁gatling	-8343
▁jid	-8344
▁tang	-8345
▁concern	-8346
▁linal	-8347
.*	-8348
▁rig	-8349
▁eclipse	-8350
intent	-8351
▁processes	-8352
ara	-8353
▁tz	-8354
lism	-8355
▁eat	-8356
▁foreground	-8357
hdr	-8358
▁qq	-8359
▁transactional	-8360
▁yo	-8361
)>	-8362
attributes	-8363
▁6);	-8364
▁npm	-8365
▁rever	-8366
▁partitioner	-8367
▁specifies	-8368
rules	-8369
?"	-8370
clippy	-8371
▁queues	-8372
▁splice	-8373
▁tom	-8374
▁rewrit	-8375
▁ierc	-8376
▁proj	-8377
▁sized	-8378
▁getting	-8379
▁activate	-8380
▁gz	-8381
checker	-8382
▁opening	-8383
odd	-8384
▁larger	-8385
entries	-8386
inval	-8387
aligned	-8388
▁dispose	-8389
▁consistency	-8390
ym	-8391
▁slic	-8392
▁2012-2021	-8393
▁skill	-8394
tor	-8395
▁gms	-8396
``	-8397
▁kh	-8398
▁quiet	-8399
▁gradle	-8400
pkt	-8401
▁elect	-8402
ssian	-8403
▁broken	-8404
▁ker	-8405
▁fal	-8406
▁rtmp	-8407
google	-8408
▁testkit	-8409
▁bear	-8410
▁ja	-8411
▁stake	-8412
▁foobar	-8413
▁'')	-8414
▁installed	-8415
▁variance	-8416
▁smaller	-8417
▁yori	-8418
▁truth	-8419
▁latitude	-8420
▁100)	-8421
方法	-8422
▁63	-8423
▁offsetof	-8424
got	-8425
▁instantiate	-8426
stub	-8427
▁transforms	-8428
▁scratch	-8429
▁anyhow	-8430
▁sam	-8431
▁interpolation	-8432
▁^0	-8433
▁pact	-8434
!("{}	-8435
▁news	-8436
▁numer	-8437
▁mechanism	-8438
ons	-8439
▁longitude	-8440
setup	-8441
▁critical	-8442
sdk	-8443
links	-8444
iring	-8445
▁mkdir	-8446
geometry	-8447
▁immutables	-8448
▁submission	-8449
▁codecs	-8450
▁deadline	-8451
▁compaction	-8452
mag	-8453
rometer	-8454
▁revert	-8455
▁57	-8456
omem	-8457
▁\`	-8458
▁od	-8459
▁quart	-8460
▁biz	-8461
▁rip	-8462
▁cloned	-8463
vd	-8464
▁sequential	-8465
▁.)	-8466
▁cout	-8467
▁expl	-8468
▁convention	-8469
}};	-8470
▁skipped	-8471
▁cuda	-8472
▁":{"	-8473
▁silent	-8474
▁qt	-8475
ander	-8476
spring	-8477
dispatch	-8478
▁unsubsc	-8479
[4]	-8480
▁"))]	-8481
("../../	-8482
▁4),	-8483
▁constexpr	-8484
▁paascloud	-8485
▁triggered	-8486
▁0},	-8487
dh	-8488
ilo	-8489
123	-8490
afx	-8491
vor	-8492
▁multiplier	-8493
;"	-8494
▁256,	-8495
secure	-8496
▁craw	-8497
▁fetcher	-8498
*):	-8499
▁1-	-8500
▁psa	-8501
mic	-8502
wal	-8503
year	-8504
charset	-8505
ledge	-8506
92	-8507
01,	-8508
flush	-8509
▁orbit	-8510
▁acceler	-8511
generator	-8512
virtual	-8513
▁simply	-8514
edit	-8515
~~~~~~~~	-8516
elements	-8517
▁simplify	-8518
▁collapse	-8519
▁mockserver	-8520
▁negot	-8521
▁portal	-8522
du	-8523
ureli	-8524
▁newtype	-8525
np	-8526
▁*,	-8527
deleg	-8528
▁wifi	-8529
brend	-8530
▁jul	-8531
▁banner	-8532
brendan	-8533
ana	-8534
▁rg	-8535
▁envelope	-8536
-----	-8537
png	-8538
▁authenticate	-8539
▁indicate	-8540
▁np	-8541
▁linker	-8542
▁traversable	-8543
sent	-8544
("@	-8545
idence	-8546
▁thumb	-8547
▁optimized	-8548
▁nel	-8549
▁pools	-8550
12,	-8551
▁rdp	-8552
);}//	-8553
▁classification	-8554
itories	-8555
▁issuer	-8556
umb	-8557
▁"/*	-8558
println	-8559
▁tup	-8560
(15	-8561
mrb	-8562
▁ingest	-8563
▁tint	-8564
repository	-8565
mii	-8566
browser	-8567
▁tar	-8568
▁trying	-8569
▁suit	-8570
samuel	-8571
▁planner	-8572
▁indexing	-8573
▁pivot	-8574
▁jmh	-8575
▁lean	-8576
execute	-8577
▁opened	-8578
▁neither	-8579
("(	-8580
▁avatar	-8581
▁[])	-8582
▁micrometer	-8583
={{	-8584
▁aio	-8585
constructor	-8586
▁kar	-8587
tokio	-8588
()`	-8589
uate	-8590
}";	-8591
▁memb	-8592
▁dn	-8593
▁fx	-8594
▁fdt	-8595
▁3-	-8596
▁accumulator	-8597
▁sksamuel	-8598
══	-8599
hest	-8600
*\	-8601
del	-8602
descript	-8603
▁heading	-8604
▁1::	-8605
▁stdafx	-8606
▁utilsimport	-8607
bf	-8608
▁cms	-8609
▁fft	-8610
▁rather	-8611
▁communication	-8612
▁dur	-8613
▁signatures	-8614
▁83	-8615
▁vip	-8616
▁"></	-8617
▁emu	-8618
cached	-8619
▁accompan	-8620
▁`<	-8621
▁unapply	-8622
home	-8623
trigger	-8624
▁signer	-8625
(10);	-8626
linear	-8627
adv	-8628
(4)	-8629
bg	-8630
096	-8631
▁yan	-8632
▁72	-8633
atra	-8634
category	-8635
▁important	-8636
(/^	-8637
▁18,	-8638
▁.*;/**	-8639
▁utxo	-8640
▁divider	-8641
▁complexity	-8642
42	-8643
▁generators	-8644
isel	-8645
▁indexer	-8646
▁rob	-8647
▁glue	-8648
▁rtl	-8649
messages	-8650
▁{});	-8651
invocation	-8652
bio	-8653
▁8])	-8654
▁openjdk	-8655
▁rk	-8656
(-1,	-8657
warning	-8658
▁javascript	-8659
▁near	-8660
▁<+>	-8661
▁determin	-8662
onts	-8663
▁poo	-8664
▁delayed	-8665
upd	-8666
:",	-8667
='%	-8668
▁bloom	-8669
managed	-8670
▁payable	-8671
("{\"	-8672
pretty	-8673
▁expiration	-8674
▁expires	-8675
▁committed	-8676
asing	-8677
ilience	-8678
flu	-8679
▁iohk	-8680
=").	-8681
▁alex	-8682
▁parcelable	-8683
}//	-8684
▁bodies	-8685
▁{{{	-8686
▁infinite	-8687
▁respect	-8688
▁multic	-8689
stone	-8690
leet	-8691
▁datagram	-8692
/{	-8693
metic	-8694
▁dependent	-8695
(10)	-8696
poses	-8697
aaaaaaaa	-8698
▁*>(	-8699
▁23,	-8700
110	-8701
ogun	-8702
rum	-8703
▁fig	-8704
▁declarations	-8705
▁swing	-8706
▁membership	-8707
▁phi	-8708
▁routine	-8709
▁breakpoint	-8710
70	-8711
initialize	-8712
▁explo	-8713
sft	-8714
▁cst	-8715
▁aug	-8716
▁reducer	-8717
idu	-8718
article	-8719
▁serverless	-8720
catalog	-8721
▁developer	-8722
foc	-8723
▁packets	-8724
▁xyz	-8725
▁algo	-8726
▁wm	-8727
▁divis	-8728
▁syscall	-8729
qr	-8730
▁mmc	-8731
▁resilience	-8732
▁learning	-8733
ordering	-8734
▁.'	-8735
▁goal	-8736
▁saturn	-8737
▁optimization	-8738
▁dll	-8739
binds	-8740
;)	-8741
baz	-8742
▁profiles	-8743
▁udevice	-8744
fabric	-8745
▁processors	-8746
▁bgr	-8747
stand	-8748
▁belong	-8749
rfc	-8750
▁spend	-8751
specific	-8752
▁databus	-8753
▁libav	-8754
▁*")	-8755
remain	-8756
▁vr	-8757
▁dynamo	-8758
▁triple	-8759
▁filled	-8760
▁hom	-8761
▁nearest	-8762
oy	-8763
▁nuts	-8764
▁puts	-8765
atpp	-8766
seek	-8767
=2	-8768
jdbc	-8769
▁fade	-8770
▁boxes	-8771
when	-8772
[+	-8773
▁preserve	-8774
destination	-8775
▁70	-8776
▁clustering	-8777
shi	-8778
▁sibling	-8779
▁cardinality	-8780
!"	-8781
▁/\	-8782
orn	-8783
background	-8784
tes	-8785
▁brave	-8786
▁builds	-8787
▁dual	-8788
▁scaladebugger	-8789
abc	-8790
▁69	-8791
▁'];	-8792
▁functionality	-8793
/3	-8794
(/\	-8795
▁fifth	-8796
licies	-8797
▁years	-8798
▁selectors	-8799
配置	-8800
▁bag	-8801
▁aggregated	-8802
▁"}")	-8803
validation	-8804
▁grouped	-8805
(25	-8806
▁safety	-8807
▁bluetooth	-8808
▁reduction	-8809
▁mybatis	-8810
vars	-8811
▁fur	-8812
ston	-8813
authorized	-8814
▁litem	-8815
▁pitch	-8816
▁cancelable	-8817
45	-8818
▁msgs	-8819
▁lifetime	-8820
visit	-8821
▁uk	-8822
▁occurred	-8823
127	-8824
▁'/'	-8825
▁sid	-8826
ruid	-8827
white	-8828
handled	-8829
▁ibatis	-8830
unix	-8831
▁.//!//!	-8832
▁polling	-8833
▁rtt	-8834
▁};};	-8835
▁assignable	-8836
▁extracted	-8837
cean	-8838
▁replicator	-8839
▁contracts	-8840
3456789012	-8841
▁dma	-8842
▁singular	-8843
poo	-8844
etype	-8845
▁hbase	-8846
▁techno	-8847
sem	-8848
▁few	-8849
▁snake	-8850
annable	-8851
▁linalg	-8852
▁5:	-8853
▁0-9	-8854
▁fet	-8855
shell	-8856
aureli	-8857
indent	-8858
install	-8859
▁described	-8860
▁"){	-8861
▁17,	-8862
▁across	-8863
wiki	-8864
)+	-8865
▁rational	-8866
▁wrapping	-8867
▁uc	-8868
reduce	-8869
▁frank	-8870
▁ground	-8871
▁litemall	-8872
▁coordinator	-8873
tic	-8874
80	-8875
*)&	-8876
mong	-8877
botan	-8878
("\\	-8879
000,	-8880
istent	-8881
/201	-8882
▁bgra	-8883
);}/**	-8884
(["	-8885
ecc	-8886
▁tailrec	-8887
mapping	-8888
(|(	-8889
▁dashboard	-8890
ora	-8891
▁rst	-8892
hoodie	-8893
("--	-8894
▁tran	-8895
(201	-8896
floor	-8897
stretch	-8898
▁8],	-8899
▁interop	-8900
▁why	-8901
▁caching	-8902
类型	-8903
▁statistic	-8904
embed	-8905
lab	-8906
nng	-8907
▁++=	-8908
▁locals	-8909
▁overlap	-8910
▁0001	-8911
▁wgpu	-8912
▁doing	-8913
contin	-8914
▁neighbors	-8915
▁pms	-8916
▁skp	-8917
▁infra	-8918
▁probability	-8919
▁40,	-8920
▁'["	-8921
blocks	-8922
pooled	-8923
extract	-8924
▁hardware	-8925
▁coefficient	-8926
adoc	-8927
▁purposes	-8928
keep	-8929
>());	-8930
`]:	-8931
always	-8932
ox	-8933
more	-8934
▁socks	-8935
00;	-8936
optim	-8937
▁{1,	-8938
▁nlp	-8939
▁infix	-8940
▁parallelism	-8941
▁mini	-8942
▁62	-8943
▁observe	-8944
summary	-8945
{-	-8946
imd	-8947
branch	-8948
▁ecp	-8949
outine	-8950
elif	-8951
▁configimport	-8952
upper	-8953
which	-8954
▁exported	-8955
▁"{\"	-8956
▁minimal	-8957
/5	-8958
▁ance	-8959
▁txs	-8960
▁verb	-8961
omial	-8962
phy	-8963
▁recommend	-8964
▁sgx	-8965
!",	-8966
folder	-8967
▁protos	-8968
▁storm	-8969
▁unmod	-8970
calc	-8971
▁zu	-8972
▁([	-8973
▁pointers	-8974
hd	-8975
▁)),	-8976
-${	-8977
subject	-8978
aurelius	-8979
▁thinkaurelius	-8980
fast	-8981
▁},};	-8982
chr	-8983
▁ud	-8984
cedence	-8985
▁scores	-8986
95	-8987
▁transparent	-8988
▁triggers	-8989
=$	-8990
▁signals	-8991
▁awt	-8992
▁dog	-8993
rename	-8994
iom	-8995
capt	-8996
▁rounded	-8997
▁conforms	-8998
▁1000,	-8999
bust	-9000
email	-9001
gy	-9002
101	-9003
warded	-9004
▁incr	-9005
eting	-9006
ainter	-9007
▁cors	-9008
grpc	-9009
▁transformed	-9010
▁ease	-9011
▁timers	-9012
▁exc	-9013
▁cart	-9014
▁destroyed	-9015
▁brush	-9016
must	-9017
▁baidu	-9018
conc	-9019
▁ssh	-9020
ulong	-9021
rm	-9022
syn	-9023
();//	-9024
iterable	-9025
▁structs	-9026
[7	-9027
!("{	-9028
▁jdi	-9029
syntax	-9030
ita	-9031
need	-9032
▁chronicle	-9033
▁stages	-9034
▁gem	-9035
▁tracks	-9036
,,	-9037
▁"].	-9038
iguous	-9039
▁kw	-9040
doku	-9041
sleep	-9042
umi	-9043
▁feedback	-9044
▁"]);	-9045
vue	-9046
▁rocks	-9047
▁collectors	-9048
hint	-9049
iline	-9050
▁foldable	-9051
▁tou	-9052
▁grouping	-9053
1111	-9054
▁sensitive	-9055
▁dow	-9056
month	-9057
▁prism	-9058
-=	-9059
ogl	-9060
▁life	-9061
▁thus	-9062
reeze	-9063
};///	-9064
itelist	-9065
▁upsert	-9066
▁timezone	-9067
lar	-9068
setting	-9069
080	-9070
▁slick	-9071
credential	-9072
▁sockets	-9073
/8	-9074
需要	-9075
samp	-9076
▁spect	-9077
▁exceed	-9078
▁cub	-9079
▁unordered	-9080
00);	-9081
(',	-9082
▁sas	-9083
algorithm	-9084
▁crt	-9085
▁yellow	-9086
oken	-9087
cover	-9088
▁roots	-9089
▁quartz	-9090
▁gif	-9091
▁lsp	-9092
▁boston	-9093
▁mapimport	-9094
mov	-9095
gray	-9096
▁relev	-9097
▁endorse	-9098
▁databases	-9099
▁lru	-9100
(1)).	-9101
▁draft	-9102
▁secrets	-9103
evp	-9104
▁dimport	-9105
kn	-9106
▁(<	-9107
▁100%	-9108
▁manually	-9109
reason	-9110
serial	-9111
compatible	-9112
▁presence	-9113
[2].	-9114
▁ramp	-9115
60	-9116
elastic	-9117
()[	-9118
▁0]	-9119
▁marshaller	-9120
▁botan	-9121
▁20(	-9122
▁drawer	-9123
▁accepts	-9124
▁efi	-9125
)],	-9126
iper	-9127
▁fut	-9128
▁approved	-9129
▁sigma	-9130
▁problems	-9131
▁gest	-9132
▁pseudo	-9133
previous	-9134
▁away	-9135
▁widgets	-9136
aps	-9137
00000	-9138
▁fuzz	-9139
manifest	-9140
}]	-9141
ssdk	-9142
iour	-9143
▁stan	-9144
▁plans	-9145
▁fingerprint	-9146
▁eng	-9147
▁bill	-9148
utc	-9149
coll	-9150
▁rap	-9151
archive	-9152
▁listening	-9153
▁tear	-9154
▁people	-9155
▁zlib	-9156
▁brackets	-9157
(4);	-9158
────	-9159
▁(..))	-9160
▁replicas	-9161
▁64);	-9162
▁elf	-9163
▁2007	-9164
▁2002	-9165
direction	-9166
▁testimport	-9167
▁mpi	-9168
▁depends	-9169
contains	-9170
▁disposable	-9171
pull	-9172
▁correlation	-9173
▁jw	-9174
{\"	-9175
▁nid	-9176
atable	-9177
blocking	-9178
▁sector	-9179
▁measurement	-9180
wasm	-9181
▁'",	-9182
▁dfs	-9183
▁emitted	-9184
runnable	-9185
ko	-9186
▁vocab	-9187
▁independent	-9188
abet	-9189
upload	-9190
▁couldn	-9191
▁certificates	-9192
receiver	-9193
▁strerror	-9194
laxed	-9195
▁permut	-9196
parts	-9197
------------#	-9198
▁land	-9199
▁suggestion	-9200
opcode	-9201
▁tenant	-9202
任务	-9203
▁1\	-9204
▁cum	-9205
▁256);	-9206
▁continuous	-9207
lv	-9208
ecma	-9209
▁policies	-9210
▁repositories	-9211
predicate	-9212
▁displayed	-9213
创建	-9214
▁ste	-9215
▁lot	-9216
▁inactive	-9217
-------------	-9218
subscrib	-9219
dense	-9220
▁loggingimport	-9221
'),	-9222
border	-9223
subscription	-9224
▁coding	-9225
▁comparable	-9226
repe	-9227
>),	-9228
beh	-9229
▁luc	-9230
▁yarn	-9231
▁merkle	-9232
gui	-9233
▁cif	-9234
mlink	-9235
▁.//!	-9236
}`;	-9237
▁rtp	-9238
inputs	-9239
-"	-9240
ored	-9241
}`);	-9242
▁rol	-9243
▁reach	-9244
▁ze	-9245
▁terra	-9246
▁awssdk	-9247
jni	-9248
▁candidates	-9249
="/	-9250
,--	-9251
▁2017-2020	-9252
▁referenced	-9253
"""	-9254
▁3]	-9255
▁icu	-9256
▁rede	-9257
▁.=	-9258
▁pooled	-9259
}},	-9260
)`	-9261
shar	-9262
abb	-9263
surface	-9264
bson	-9265
▁4))	-9266
wnd	-9267
ja	-9268
};#[	-9269
▁82	-9270
▁0+	-9271
▁styleable	-9272
existing	-9273
▁precedence	-9274
crete	-9275
▁extras	-9276
▁factories	-9277
▁advanced	-9278
dump	-9279
▁locks	-9280
▁timport	-9281
▁alice	-9282
descriptor	-9283
▁decrement	-9284
▁enclosing	-9285
rintf	-9286
▁'{..}	-9287
python	-9288
▁invert	-9289
▁mmmm	-9290
▁further	-9291
ock	-9292
▁21,	-9293
▁minim	-9294
---------------	-9295
▁rom	-9296
▁latin	-9297
uart	-9298
▁edu	-9299
front	-9300
views	-9301
hub	-9302
hurst	-9303
▁trap	-9304
dn	-9305
▁reli	-9306
........	-9307
▁subtype	-9308
complex	-9309
▁labeled	-9310
interrupted	-9311
▁-3	-9312
without	-9313
▁mg	-9314
▁iface	-9315
<&'	-9316
hci	-9317
anches	-9318
▁accuracy	-9319
▁sms	-9320
▁shar	-9321
▁404	-9322
▁respons	-9323
▁filesystem	-9324
▁making	-9325
---------	-9326
▁roaring	-9327
train	-9328
▁logout	-9329
▁coinbase	-9330
▁jp	-9331
rimin	-9332
([2011,	-9333
▁desktop	-9334
mono	-9335
▁sampled	-9336
▁developers	-9337
geo	-9338
▁favor	-9339
▁continuation	-9340
mapper	-9341
)}.	-9342
▁fisher	-9343
▁aaa	-9344
rait	-9345
gtest	-9346
factor	-9347
rdd	-9348
########	-9349
scheduler	-9350
imes	-9351
tagged	-9352
▁legend	-9353
▁authorize	-9354
▁various	-9355
>);	-9356
details	-9357
>`	-9358
▁weeks	-9359
▁\(	-9360
▁scalapb	-9361
▁throughput	-9362
▁heli	-9363
?(	-9364
▁ull	-9365
▁exprs	-9366
}',	-9367
▁iq	-9368
▁gesture	-9369
▁tolerance	-9370
▁jraft	-9371
▁movement	-9372
('[	-9373
▁rolling	-9374
00)	-9375
sep	-9376
*/,	-9377
处理	-9378
ateral	-9379
▁behalf	-9380
well	-9381
angular	-9382
distance	-9383
sdl	-9384
▁dsp	-9385
||(	-9386
▁outline	-9387
▁variants	-9388
▁chisel	-9389
▁collider	-9390
swap	-9391
▁ios	-9392
▁sx	-9393
▁jing	-9394
▁domains	-9395
els	-9396
ico	-9397
istd	-9398
▁pickle	-9399
\").	-9400
-------	-9401
▁toml	-9402
▁breeze	-9403
▁bytecode	-9404
sheet	-9405
67	-9406
▁unspec	-9407
▁webhook	-9408
orical	-9409
============	-9410
rofit	-9411
take	-9412
▁chai	-9413
▁':'	-9414
▁franklin	-9415
▁97	-9416
删除	-9417
`](	-9418
▁bump	-9419
10,	-9420
▁gh	-9421
(100);	-9422
unar	-9423
▁102	-9424
▁weighted	-9425
marsh	-9426
inject	-9427
▁feat	-9428
▁eg	-9429
▁ignoring	-9430
▁intermediate	-9431
schedule	-9432
mid	-9433
prob	-9434
▁parses	-9435
▁cw	-9436
matched	-9437
▁advert	-9438
▁kil	-9439
▁grace	-9440
▁rspamd	-9441
▁statuses	-9442
查询	-9443
▁splitter	-9444
▁mesosphere	-9445
▁rn	-9446
▁hp	-9447
prote	-9448
▁wchar	-9449
▁scaled	-9450
pure	-9451
▁xhr	-9452
▁forb	-9453
▁varchar	-9454
▁applies	-9455
▁endl	-9456
▁suspend	-9457
▁unavailable	-9458
▁ib	-9459
▁excluded	-9460
▁probably	-9461
▁200,	-9462
▁ovr	-9463
▁scheduling	-9464
▁organizations	-9465
!(!	-9466
(())}	-9467
▁mine	-9468
inator	-9469
▁elm	-9470
primary	-9471
▁digital	-9472
(":	-9473
▁].	-9474
▁feign	-9475
/******/	-9476
▁ele	-9477
acl	-9478
▁highest	-9479
vt	-9480
>>()	-9481
▁neighbor	-9482
▁")?;	-9483
▁5),	-9484
▁coeff	-9485
▁focused	-9486
#![	-9487
▁avio	-9488
▁ball	-9489
▁ending	-9490
▁neon	-9491
▁2013-2021	-9492
cogn	-9493
▁"</	-9494
pages	-9495
▁fine	-9496
entities	-9497
▁shel	-9498
protobuf	-9499
默认	-9500
mirror	-9501
▁throttle	-9502
>=	-9503
▁(#	-9504
hemer	-9505
▁(`	-9506
lambda	-9507
▁&(	-9508
▁druid	-9509
,}#[	-9510
▁figure	-9511
***	-9512
+1)	-9513
psi	-9514
▁corrid	-9515
▁tan	-9516
anning	-9517
picker	-9518
-03	-9519
▁autoconfigure	-9520
prior	-9521
)};	-9522
▁avctx	-9523
rex	-9524
([200	-9525
matcher	-9526
▁migrate	-9527
▁hc	-9528
▁virt	-9529
developer	-9530
assertions	-9531
▁filtering	-9532
▁92	-9533
▁executing	-9534
▁1000)	-9535
spe	-9536
▁jms	-9537
workflow	-9538
▁wik	-9539
▁literals	-9540
▁wa	-9541
openssl	-9542
umption	-9543
▁grammar	-9544
▁ltsopensource	-9545
mesh	-9546
▁gtk	-9547
▁omit	-9548
▁unbox	-9549
▁backtrace	-9550
allocate	-9551
▁multimap	-9552
▁association	-9553
esp	-9554
▁lst	-9555
columns	-9556
yaml	-9557
objects	-9558
paralle	-9559
▁prefixes	-9560
▁xp	-9561
▁solr	-9562
▁previously	-9563
ini	-9564
atter	-9565
green	-9566
broker	-9567
▁'${	-9568
▁unset	-9569
▁remark	-9570
orian	-9571
▁dont	-9572
▁happens	-9573
containers	-9574
▁stem	-9575
extensions	-9576
nano	-9577
▁02110	-9578
▁capital	-9579
night	-9580
▁spinner	-9581
▁02110-13	-9582
hemeral	-9583
▁bsp	-9584
▁bearer	-9585
▁notices	-9586
)((	-9587
▁mejs	-9588
delegate	-9589
▁retrofit	-9590
models	-9591
▁queued	-9592
▁disallow	-9593
▁8:	-9594
▁1},	-9595
shader	-9596
{};	-9597
▁enh	-9598
gether	-9599
▁deliver	-9600
(("	-9601
guac	-9602
▁{0,	-9603
▁dddd	-9604
ensors	-9605
collect	-9606
▁22,	-9607
▁28]).	-9608
1}	-9609
▁substitution	-9610
▁pulse	-9611
▁cycles	-9612
▁submitted	-9613
compar	-9614
execut	-9615
notification	-9616
▁solve	-9617
▁1999-201	-9618
▁onig	-9619
▁100);	-9620
▁udash	-9621
loton	-9622
▁lr	-9623
▁shards	-9624
▁20;	-9625
▁02110-1301	-9626
名称	-9627
reactor	-9628
▁colour	-9629
quant	-9630
▁backed	-9631
▁contra	-9632
/$	-9633
▁ni	-9634
([2007,	-9635
▁folders	-9636
bp	-9637
("^	-9638
▁tol	-9639
isation	-9640
/:	-9641
<1	-9642
▁para	-9643
\`	-9644
▁5>	-9645
▁ful	-9646
▁lim	-9647
▁amb	-9648
▁okhttp	-9649
▁ripp	-9650
-01-01	-9651
hw	-9652
(\"	-9653
+1,	-9654
▁identifiers	-9655
vest	-9656
▁orc	-9657
▁calcul	-9658
▁offline	-9659
▁acknow	-9660
▁oss	-9661
-2018	-9662
repr	-9663
:////	-9664
▁typeimport	-9665
▁subscribers	-9666
forward	-9667
▁mocks	-9668
▁behaviour	-9669
▁.*/#	-9670
▁(1)	-9671
▁.**	-9672
ails	-9673
▁downstream	-9674
(100,	-9675
▁"}},	-9676
▁0\	-9677
▁fuse	-9678
▁robo	-9679
----------	-9680
▁degree	-9681
('../../../	-9682
▁reve	-9683
examples	-9684
▁devtools	-9685
qt	-9686
ife	-9687
atic	-9688
ulp	-9689
▁scrol	-9690
▁)))	-9691
▁warm	-9692
▁unsubscribe	-9693
▁emoji	-9694
ino	-9695
999	-9696
▁smith	-9697
▁considered	-9698
▁wb	-9699
▁ssc	-9700
▁marketdata	-9701
lc	-9702
was	-9703
[3];	-9704
▁calculator	-9705
nls	-9706
▁balancing	-9707
epo	-9708
jerry	-9709
>(),	-9710
integr	-9711
!["	-9712
rich	-9713
▁soc	-9714
▁recommended	-9715
mux	-9716
running	-9717
▁gfx	-9718
▁libavutil	-9719
izers	-9720
mis	-9721
visor	-9722
▁twice	-9723
]");	-9724
patterns	-9725
wg	-9726
▁become	-9727
▁simulate	-9728
▁whitelist	-9729
yst	-9730
当前	-9731
▁decls	-9732
dog	-9733
▁roundtrip	-9734
leap	-9735
▁vnode	-9736
▁unload	-9737
ae	-9738
equ	-9739
▁19,	-9740
▁failing	-9741
-11	-9742
▁012	-9743
▁wind	-9744
zk	-9745
▁fly	-9746
▁gate	-9747
actic	-9748
▁stock	-9749
&&"	-9750
cipher	-9751
▁msgpack	-9752
▁runners	-9753
<?,	-9754
oro	-9755
encoder	-9756
▁collected	-9757
construct	-9758
ctype	-9759
▁factoryimport	-9760
blog	-9761
▁keystore	-9762
▁ist	-9763
▁wiremock	-9764
:(	-9765
odium	-9766
ograph	-9767
5)	-9768
rw	-9769
{1,	-9770
▁8),	-9771
▁strateg	-9772
▁2009	-9773
▁xpath	-9774
▁.:	-9775
▁xcb	-9776
wall	-9777
▁ftp	-9778
relative	-9779
({"	-9780
history	-9781
▁overridden	-9782
▁descend	-9783
ris	-9784
▁sequences	-9785
3}	-9786
▁bk	-9787
labels	-9788
▁}\	-9789
ardown	-9790
mapped	-9791
transfer	-9792
▁composer	-9793
▁narrow	-9794
▁profiler	-9795
je	-9796
▁@@	-9797
▁\"%	-9798
▁eigen	-9799
▁rounding	-9800
plugins	-9801
▁closest	-9802
▁fileimport	-9803
▁ey	-9804
leave	-9805
(&[	-9806
("\"	-9807
infer	-9808
▁cancellation	-9809
orum	-9810
▁simport	-9811
▁computer	-9812
▁reconnect	-9813
(123	-9814
▁exits	-9815
▁tries	-9816
地址	-9817
▁wc	-9818
▁nom	-9819
▁attack	-9820
(5)	-9821
;}}	-9822
(1000	-9823
▁unmodifiable	-9824
images	-9825
▁enterpri	-9826
▁together	-9827
▁convolution	-9828
assets	-9829
▁pathname	-9830
times	-9831
▁coins	-9832
▁loads	-9833
'))	-9834
▁squared	-9835
atever	-9836
activ	-9837
▁adapters	-9838
状态	-9839
flake	-9840
▁plds	-9841
shadow	-9842
▁logo	-9843
请求	-9844
▁$$	-9845
▁versioned	-9846
▁imported	-9847
▁occurren	-9848
▁ctrip	-9849
▁student	-9850
▁-4	-9851
-200	-9852
▁plural	-9853
){#	-9854
ntl	-9855
▁thre	-9856
▁arithmetic	-9857
▁validity	-9858
▁blueprint	-9859
wm	-9860
▁vect	-9861
▁bm	-9862
▁ly	-9863
▁[&](	-9864
▁tunnel	-9865
▁performed	-9866
▁punctuation	-9867
))?;	-9868
ampa	-9869
fake	-9870
▁dismiss	-9871
▁lengths	-9872
▁pong	-9873
▁solutions	-9874
instruction	-9875
▁seem	-9876
▁branches	-9877
▁"})	-9878
▁3).	-9879
▁fishercoder	-9880
▁skinny	-9881
▁protect	-9882
authorization	-9883
serialized	-9884
▁exposed	-9885
▁rh	-9886
▁updating	-9887
▁lowercase	-9888
'.	-9889
listen	-9890
▁qunar	-9891
▁sdram	-9892
methods	-9893
▁privile	-9894
cudf	-9895
▁streamlet	-9896
▁sketch	-9897
▁formula	-9898
sity	-9899
▁meth	-9900
%2	-9901
resolver	-9902
yme	-9903
enjie	-9904
▁jetty	-9905
serialization	-9906
▁6:	-9907
▁suiteimport	-9908
ters	-9909
▁disconnected	-9910
65	-9911
txn	-9912
▁gro	-9913
evt	-9914
▁peg	-9915
▁psk	-9916
izable	-9917
▁impro	-9918
▁justify	-9919
fall	-9920
▁son	-9921
▁sal	-9922
▁carbondata	-9923
▁ron	-9924
[2]);	-9925
▁changing	-9926
▁reported	-9927
lh	-9928
oog	-9929
▁>,	-9930
▁therefore	-9931
▁1305	-9932
-02	-9933
▁</>	-9934
▁followed	-9935
drag	-9936
▁pinpoint	-9937
enabled	-9938
wo	-9939
▁==>	-9940
▁redeem	-9941
++,	-9942
▁.');	-9943
▁radix	-9944
tv	-9945
▁xid	-9946
▁dbus	-9947
▁paren	-9948
▁deeplang	-9949
▁convenient	-9950
▁messaging	-9951
ailed	-9952
[16	-9953
(3),	-9954
▁hat	-9955
▁employee	-9956
执行	-9957
orithms	-9958
▁flinkx	-9959
▁flowable	-9960
89	-9961
>");	-9962
incre	-9963
▁addrs	-9964
foreign	-9965
0,0,0,0,	-9966
▁specifier	-9967
();#	-9968
unistd	-9969
▁1000);	-9970
▁sorting	-9971
▁refined	-9972
dims	-9973
▁oatpp	-9974
▁prepend	-9975
▁unspecified	-9976
▁viewer	-9977
▁│	-9978
fox	-9979
scene	-9980
▁enforce	-9981
:["	-9982
▁evaluated	-9983
▁inspection	-9984
▁controllers	-9985
▁scribe	-9986
([&	-9987
▁crl	-9988
-2019	-9989
rength	-9990
▁traces	-9991
▁uninit	-9992
▁namespaces	-9993
agers	-9994
▁sticky	-9995
▁lpc	-9996
2),	-9997
▁memp	-9998
])]	-9999
▁usually	-10000
▁construction	-10001
(6,	-10002
comput	-10003
allen	-10004
▁fec	-10005
▁-->	-10006
bie	-10007
fam	-10008
▁sends	-10009
▁produced	-10010
▁abcdef	-10011
focus	-10012
▁friend	-10013
▁<|>	-10014
▁expiry	-10015
tpe	-10016
wards	-10017
▁grab	-10018
▁smackx	-10019
▁parallelize	-10020
[-	-10021
()?	-10022
flex	-10023
调用	-10024
+)	-10025
mongo	-10026
gist	-10027
wap	-10028
▁timestamps	-10029
(5);	-10030
([1,	-10031
wallet	-10032
med	-10033
magic	-10034
▁]):	-10035
▁0);}	-10036
▁playlist	-10037
▁deprecation	-10038
channels	-10039
▁satisfy	-10040
▁interactions	-10041
bes	-10042
▁fps	-10043
▁izumi	-10044
▁looks	-10045
zoo	-10046
▁attest	-10047
▁editable	-10048
dget	-10049
shut	-10050
▁mesos	-10051
?|	-10052
▁polar	-10053
rator	-10054
▁snapshots	-10055
▁preset	-10056
fdt	-10057
▁jib	-10058
milli	-10059
▁guest	-10060
▁matchersimport	-10061
digest	-10062
ika	-10063
otonic	-10064
▁unbind	-10065
▁convenience	-10066
▁bw	-10067
▁ajax	-10068
▁unbounded	-10069
▁?>	-10070
▁articles	-10071
▁conductor	-10072
ased	-10073
▁pz	-10074
sequent	-10075
▁replicate	-10076
conver	-10077
▁recur	-10078
▁partitioning	-10079
▁002	-10080
▁beam	-10081
▁exceeded	-10082
iel	-10083
arbit	-10084
▁qi	-10085
modifier	-10086
cv	-10087
▁caption	-10088
developers	-10089
▁configurer	-10090
connector	-10091
▁mf	-10092
▁lagom	-10093
▁persisted	-10094
▁discrimin	-10095
+'	-10096
▁2000	-10097
▁scn	-10098
▁csrf	-10099
fire	-10100
▁itr	-10101
▁fh	-10102
fers	-10103
▁hilo	-10104
ymeleaf	-10105
▁remember	-10106
mul	-10107
rtc	-10108
ua	-10109
▁cha	-10110
▁shouldn	-10111
255,	-10112
▁shapes	-10113
▁iframe	-10114
▁expecting	-10115
/",	-10116
pat	-10117
▁xmpp	-10118
▁delim	-10119
pod	-10120
▁colon	-10121
▁review	-10122
▁synthetic	-10123
upon	-10124
▁sudoku	-10125
▁partitioned	-10126
▁pn	-10127
▁hyd	-10128
▁quota	-10129
87	-10130
=1;	-10131
▁+:	-10132
▁fsl	-10133
closed	-10134
around	-10135
raa	-10136
▁1}	-10137
▁>(	-10138
recycler	-10139
▁deflate	-10140
可以	-10141
cql	-10142
odel	-10143
▁authorities	-10144
vh	-10145
▁trusted	-10146
romara	-10147
▁evict	-10148
▁overla	-10149
/16	-10150
()];	-10151
▁*/,	-10152
▁didn	-10153
▁poller	-10154
▁blacklist	-10155
▁og	-10156
blo	-10157
usable	-10158
llvm	-10159
▁dromara	-10160
mr	-10161
▁pts	-10162
haust	-10163
▁money	-10164
series	-10165
▁moving	-10166
▁dav	-10167
▁(2,	-10168
▁certain	-10169
hour	-10170
▁fleet	-10171
circuit	-10172
▁facade	-10173
▁symlink	-10174
ians	-10175
())?;	-10176
▁painter	-10177
▁quantile	-10178
▁nik	-10179
▁xls	-10180
▁brace	-10181
▁getters	-10182
▁31,	-10183
phrase	-10184
▁depending	-10185
separ	-10186
▁corre	-10187
▁denom	-10188
[0]).	-10189
▁*)&	-10190
▁coroutine	-10191
▁simplified	-10192
▁fusion	-10193
▁remainder	-10194
wp	-10195
oss	-10196
▁"><	-10197
ali	-10198
▁.";	-10199
servlet	-10200
69	-10201
▁mods	-10202
▁teardown	-10203
▁{:?	-10204
balances	-10205
▁universal	-10206
ouch	-10207
orded	-10208
▁forest	-10209
▁wrappers	-10210
▁combo	-10211
▁elim	-10212
▁tested	-10213
▁tomake	-10214
▁median	-10215
▁pubkey	-10216
▁dtstack	-10217
▁structures	-10218
lined	-10219
irection	-10220
▁ownable	-10221
▁concaten	-10222
▁marks	-10223
▁80,	-10224
▁electron	-10225
▁ssize	-10226
▁tomakehurst	-10227
▁til	-10228
bond	-10229
union	-10230
ipedia	-10231
newtype	-10232
▁peloton	-10233
▁particles	-10234
uintptr	-10235
ulative	-10236
▁explain	-10237
▁sugar	-10238
);}}	-10239
▁calib	-10240
▁personal	-10241
▁pq	-10242
▁night	-10243
▁iotjs	-10244
▁receipt	-10245
(..))	-10246
▁icons	-10247
▁truthy	-10248
epoch	-10249
▁(4	-10250
▁mot	-10251
▁256;	-10252
▁bigint	-10253
▁flight	-10254
▁subsequent	-10255
webpack	-10256
written	-10257
▁expose	-10258
/%	-10259
▁ah	-10260
ampaign	-10261
▁openapi	-10262
groups	-10263
▁overload	-10264
▁71	-10265
unordered	-10266
▁rnd	-10267
enance	-10268
▁govern	-10269
mig	-10270
▁adjac	-10271
▁signific	-10272
▁"!=	-10273
▁navigate	-10274
="",	-10275
bing	-10276
▁3],	-10277
▁presentation	-10278
▁realloc	-10279
osen	-10280
utorial	-10281
gested	-10282
▁iters	-10283
▁reaction	-10284
▁lsn	-10285
▁introd	-10286
())));	-10287
▁plaintext	-10288
padding	-10289
iso	-10290
▁bitmask	-10291
ando	-10292
feed	-10293
/12	-10294
idea	-10295
▁prett	-10296
▁quorum	-10297
jk	-10298
▁bir	-10299
▁ini	-10300
▁blaze	-10301
[1])	-10302
▁funcs	-10303
=4	-10304
▁chk	-10305
▁2006	-10306
observ	-10307
nv	-10308
失败	-10309
▁fonts	-10310
quel	-10311
▁likely	-10312
▁fed	-10313
▁)?;	-10314
producer	-10315
▁symbo	-10316
▁subclass	-10317
▁thymeleaf	-10318
根据	-10319
▁'*	-10320
hole	-10321
▁glide	-10322
▁'.'	-10323
sized	-10324
▁playback	-10325
▁actors	-10326
▁interactive	-10327
family	-10328
▁});};	-10329
▁stanza	-10330
▁superclass	-10331
]#[	-10332
47	-10333
▁mvp	-10334
conv	-10335
▁ddl	-10336
icult	-10337
destroy	-10338
字符	-10339
nums	-10340
▁outgoing	-10341
▁gran	-10342
▁upon	-10343
▁lh	-10344
▁race	-10345
*******	-10346
▁mip	-10347
▁cinfo	-10348
olt	-10349
reverse	-10350
服务	-10351
▁clr	-10352
▁modifications	-10353
:',	-10354
▁ruby	-10355
51	-10356
▁expans	-10357
▁navigator	-10358
▁2<	-10359
▁'].	-10360
samples	-10361
0000,	-10362
▁detailed	-10363
sf	-10364
3);	-10365
▁>:	-10366
launch	-10367
▁andre	-10368
▁composition	-10369
▁lodash	-10370
▁nth	-10371
updated	-10372
arbage	-10373
▁harness	-10374
▁ny	-10375
▁gid	-10376
,\	-10377
▁655	-10378
shogun	-10379
62	-10380
▁');});	-10381
^.	-10382
pal	-10383
invoke	-10384
allocator	-10385
▁duplicates	-10386
▁999	-10387
einval	-10388
▁(-	-10389
▁recursively	-10390
▁aren	-10391
indices	-10392
vals	-10393
textual	-10394
▁removing	-10395
▁powermock	-10396
▁documented	-10397
refresh	-10398
▁zz	-10399
▁incremental	-10400
▁introspection	-10401
nio	-10402
interfaces	-10403
ette	-10404
▁knex	-10405
▁whatever	-10406
▁(3	-10407
▁tier	-10408
▁"|	-10409
unger	-10410
▁turtle	-10411
▁unlink	-10412
priority	-10413
avro	-10414
ighth	-10415
party	-10416
▁caches	-10417
asy	-10418
strip	-10419
}));	-10420
▁cogn	-10421
hose	-10422
▁ephemeral	-10423
▁vor	-10424
internals	-10425
▁carry	-10426
▁hresult	-10427
▁several	-10428
▁alphabet	-10429
▁ktl	-10430
▁scio	-10431
▁depart	-10432
▁loaders	-10433
subscriber	-10434
glm	-10435
▁%[	-10436
ocean	-10437
▁herm	-10438
▁qs	-10439
▁{'	-10440
▁retrieves	-10441
▁scalastyle	-10442
}");	-10443
▁20)	-10444
ilation	-10445
▁indicating	-10446
keji	-10447
&)	-10448
▁sinks	-10449
parallel	-10450
▁intended	-10451
scr	-10452
▁fw	-10453
(2))	-10454
guard	-10455
▁00:00:00	-10456
prim	-10457
projects	-10458
▁tensorflow	-10459
▁nanoseconds	-10460
▁mdio	-10461
▁negoti	-10462
remaining	-10463
▁"""|	-10464
iostream	-10465
▁stopwatch	-10466
rk	-10467
'],	-10468
guide	-10469
▁held	-10470
▁quic	-10471
publis	-10472
345	-10473
[10	-10474
▁five	-10475
▁subtitle	-10476
)&&	-10477
▁lon	-10478
▁0)),	-10479
▁propagate	-10480
▁qmq	-10481
buffers	-10482
▁customizer	-10483
▁represented	-10484
bars	-10485
physical	-10486
colors	-10487
▁opensource	-10488
ssh	-10489
*//*	-10490
notify	-10491
▁3/	-10492
jukeji	-10493
▁xiaojukeji	-10494
▁vogl	-10495
▁strength	-10496
▁42,	-10497
▁clang	-10498
▁english	-10499
▁'])	-10500
drawable	-10501
(200,	-10502
transl	-10503
indexed	-10504
compress	-10505
▁backing	-10506
▁unhandled	-10507
machine	-10508
▁wo	-10509
▁forbidden	-10510
vey	-10511
▁###	-10512
alive	-10513
▁sprintf	-10514
\"",	-10515
aking	-10516
▁→	-10517
mmc	-10518
▁tu	-10519
▁frac	-10520
▁debugging	-10521
▁compressor	-10522
▁injected	-10523
▁algorithms	-10524
▁ens	-10525
[5]	-10526
readable	-10527
▁managers	-10528
rp	-10529
▁parens	-10530
▁debo	-10531
▁recipe	-10532
▁song	-10533
▁viol	-10534
▁incomplete	-10535
▁61	-10536
▁mention	-10537
▁keypair	-10538
▁shelley	-10539
▁moco	-10540
93	-10541
(2));	-10542
[$	-10543
▁networking	-10544
![],	-10545
▁(0)	-10546
▁thunk	-10547
▁bul	-10548
▁ums	-10549
borrow	-10550
▁73	-10551
▁avx	-10552
filled	-10553
();});	-10554
▁padded	-10555
entially	-10556
jin	-10557
aser	-10558
▁her	-10559
▁promet	-10560
udu	-10561
uffix	-10562
percent	-10563
▁pu	-10564
▁unmarsh	-10565
zu	-10566
abi	-10567
▁{-	-10568
▁executions	-10569
airs	-10570
▁*/}	-10571
▁*)(	-10572
▁sip	-10573
joint	-10574
reflect	-10575
▁cql	-10576
▁sliding	-10577
▁"}},[	-10578
▁encounter	-10579
▁throwing	-10580
▁prometheus	-10581
redirect	-10582
([^	-10583
▁deletion	-10584
csv	-10585
▁park	-10586
termin	-10587
allenge	-10588
▁drb	-10589
▁choo	-10590
absolute	-10591
▁choices	-10592
unge	-10593
▁refine	-10594
▁ew	-10595
▁proceed	-10596
▁relevant	-10597
▁east	-10598
cypher	-10599
[3],	-10600
have	-10601
▁cow	-10602
▁poi	-10603
▁nice	-10604
▁calldata	-10605
etf	-10606
▁192	-10607
▁32>	-10608
▁csr	-10609
▁ecc	-10610
pic	-10611
▁attachments	-10612
xxxx	-10613
▁suites	-10614
▁mojo	-10615
▁certs	-10616
▁decoration	-10617
```	-10618
▁leaves	-10619
band	-10620
▁7);	-10621
▁ago	-10622
▁"])	-10623
▁simulation	-10624
▁constructed	-10625
▁combination	-10626
rsa	-10627
digit	-10628
▁deployed	-10629
▁jmx	-10630
={},	-10631
▁drbg	-10632
-.	-10633
▁flo	-10634
▁rlp	-10635
▁"`	-10636
streaming	-10637
ufficient	-10638
}${	-10639
▁marshal	-10640
▁migrations	-10641
▁usd	-10642
formatted	-10643
▁2={	-10644
quill	-10645
repeat	-10646
▁collateral	-10647
▁"},{	-10648
▁possibly	-10649
▁workload	-10650
"+	-10651
enger	-10652
▁2014-2021	-10653
chat	-10654
▁predef	-10655
▁election	-10656
▁downc	-10657
observer	-10658
▁helios	-10659
infinity	-10660
▁factors	-10661
▁centered	-10662
▁efficient	-10663
▁neo	-10664
▁12;	-10665
attach	-10666
ieve	-10667
▁mleap	-10668
▁1={	-10669
▁decay	-10670
▁rating	-10671
\"\	-10672
mpl	-10673
▁1#	-10674
?\	-10675
>//	-10676
▁idea	-10677
yclic	-10678
▁ietf	-10679
▁semantics	-10680
▁university	-10681
)])	-10682
▁protection	-10683
▁prot	-10684
codegen	-10685
aggregate	-10686
uth	-10687
▁vide	-10688
>>>>>>>>	-10689
▁mmap	-10690
▁nikita	-10691
▁)).	-10692
bounds	-10693
▁mailto	-10694
▁0+/*	-10695
▁unauthorized	-10696
bis	-10697
fresh	-10698
(4),	-10699
▁untyped	-10700
85	-10701
ransfer	-10702
▁succeeds	-10703
)&	-10704
2]	-10705
▁ren	-10706
▁wei	-10707
▁""")	-10708
("⌿	-10709
▁pressure	-10710
▁difficult	-10711
atory	-10712
▁badge	-10713
▁insertion	-10714
▁kok	-10715
(8,	-10716
▁fiber	-10717
pga	-10718
▁exhaust	-10719
▁national	-10720
recv	-10721
▁tbb	-10722
▁mh	-10723
echo	-10724
radius	-10725
▁restricted	-10726
▁transmit	-10727
ixin	-10728
▁lane	-10729
replica	-10730
0<	-10731
sbt	-10732
▁estab	-10733
▁accompanied	-10734
▁reduced	-10735
(\\	-10736
pheus	-10737
▁drunk	-10738
arbitrary	-10739
▁symbolic	-10740
▁books	-10741
▁tweet	-10742
001	-10743
▁maybes	-10744
▁gi	-10745
gate	-10746
▁transfers	-10747
▁@"	-10748
ina	-10749
▁/***	-10750
ermark	-10751
insn	-10752
exists	-10753
signed	-10754
quelize	-10755
▁though	-10756
▁seat	-10757
▁separated	-10758
[4];	-10759
▁unresolved	-10760
usr	-10761
acha	-10762
▁cold	-10763
▁ever	-10764
▁mocked	-10765
▁divisor	-10766
▁deserialized	-10767
▁hid	-10768
▁udt	-10769
▁periph	-10770
▁iri	-10771
▁torch	-10772
63	-10773
onal	-10774
▁ben	-10775
quare	-10776
▁announce	-10777
▁gmb	-10778
organ	-10779
('-	-10780
[]){	-10781
▁lut	-10782
▁sj	-10783
\\\"	-10784
▁mpl	-10785
▁death	-10786
▁dq	-10787
▁12)	-10788
▁bvt	-10789
▁chronology	-10790
har	-10791
▁traver	-10792
▁intrins	-10793
▁shallow	-10794
unic	-10795
▁ecdsa	-10796
scenario	-10797
▁fullscreen	-10798
▁$('	-10799
deployment	-10800
/*.	-10801
▁prefixed	-10802
▁receiving	-10803
▁fname	-10804
所有	-10805
▁promises	-10806
▁subscribed	-10807
cols	-10808
wire	-10809
ernion	-10810
▁pgp	-10811
sharov	-10812
▁consumers	-10813
▁koksharov	-10814
▁generating	-10815
▁modulus	-10816
!(),	-10817
▁joined	-10818
▁copying	-10819
▁comparing	-10820
▁forwarded	-10821
▁normalizer	-10822
▁jodd	-10823
▁2009-201	-10824
)'	-10825
▁intervals	-10826
^2	-10827
▁guess	-10828
▁93	-10829
▁rects	-10830
spender	-10831
=/	-10832
grass	-10833
rr	-10834
▁commits	-10835
▁ban	-10836
▁bbox	-10837
compos	-10838
??	-10839
kb	-10840
completion	-10841
dns	-10842
-1;	-10843
)}</	-10844
-16	-10845
▁tty	-10846
otlin	-10847
▁guaranteed	-10848
43	-10849
▁division	-10850
▁unpooled	-10851
unsupported	-10852
▁legal	-10853
▁covered	-10854
▁/*!	-10855
▁subnet	-10856
▁initializr	-10857
▁iov	-10858
▁responsible	-10859
umes	-10860
▁rewriting	-10861
visitor	-10862
crc	-10863
enumer	-10864
82	-10865
}).	-10866
▁loops	-10867
increment	-10868
);",	-10869
}///	-10870
shutdown	-10871
▁prefetch	-10872
distributed	-10873
▁normalization	-10874
▁bay	-10875
▁contribution	-10876
▁servicepublic	-10877
▁chainweb	-10878
-----------	-10879
▁paste	-10880
▁operands	-10881
created	-10882
▁pcie	-10883
disabled	-10884
▁importer	-10885
igo	-10886
▁437	-10887
▁wikipedia	-10888
3]	-10889
▁warp	-10890
services	-10891
存在	-10892
comes	-10893
animation	-10894
ancy	-10895
▁ioc	-10896
▁prun	-10897
▁slices	-10898
▁multicast	-10899
▁naive	-10900
▁budget	-10901
mpot	-10902
▁fclose	-10903
<<<<<<<<	-10904
ei	-10905
ucers	-10906
▁melee	-10907
▁retrieved	-10908
mill	-10909
ech	-10910
▁cdf	-10911
visible	-10912
bern	-10913
fork	-10914
amodel	-10915
cg	-10916
▁ended	-10917
▁spook	-10918
▁prefab	-10919
▁browsers	-10920
▁morpheus	-10921
▁fab	-10922
▁mangle	-10923
▁suggestions	-10924
▁mpeg	-10925
▁treat	-10926
▁significant	-10927
▁chr	-10928
wrapped	-10929
▁lan	-10930
▁2001	-10931
ighthouse	-10932
▁gaussian	-10933
carbon	-10934
▁pio	-10935
列表	-10936
scheme	-10937
▁invoc	-10938
▁(\(	-10939
▁decrease	-10940
icons	-10941
large	-10942
▁readers	-10943
iser	-10944
▁identified	-10945
suffix	-10946
>;}	-10947
▁28,	-10948
lectric	-10949
)||	-10950
hood	-10951
loss	-10952
eprom	-10953
▁inserts	-10954
cu	-10955
▁81	-10956
▁au	-10957
▁kube	-10958
▁zoned	-10959
▁decide	-10960
xa	-10961
circle	-10962
▁corrupt	-10963
▁128,	-10964
▁filepath	-10965
:</	-10966
▁pdu	-10967
▁love	-10968
(.	-10969
▁refactor	-10970
▁unstable	-10971
observable	-10972
▁performs	-10973
kl	-10974
▁mmal	-10975
▁fired	-10976
▁aborted	-10977
▁assembler	-10978
sector	-10979
resize	-10980
udp	-10981
wlr	-10982
())))	-10983
▁2003	-10984
▁demon	-10985
▁artist	-10986
▁"&	-10987
▁26,	-10988
▁sds	-10989
uniform	-10990
▁123456	-10991
▁dang	-10992
▁delegation	-10993
▁downcast	-10994
vial	-10995
▁satur	-10996
▁pubsub	-10997
utter	-10998
▁32>,	-10999
▁hermes	-11000
▁enables	-11001
spy	-11002
alty	-11003
▁8>	-11004
▁3));	-11005
▁luint	-11006
▁places	-11007
mus	-11008
-2017	-11009
49	-11010
rar	-11011
▁accessors	-11012
lg	-11013
![0	-11014
▁9)	-11015
▁jer	-11016
▁negate	-11017
ctxt	-11018
▁uui	-11019
▁baseline	-11020
-%	-11021
,1	-11022
▁uio	-11023
▁reloc	-11024
73	-11025
▁isol	-11026
▁trimm	-11027
bbit	-11028
▁operate	-11029
▁exponential	-11030
***********	-11031
▁iu	-11032
▁bignum	-11033
▁normally	-11034
xp	-11035
(42	-11036
>")	-11037
▁'&	-11038
▁nmem	-11039
▁newly	-11040
mport	-11041
pot	-11042
▁shake	-11043
▁corresponds	-11044
▁`,	-11045
▁derivation	-11046
/0	-11047
fomo	-11048
▁600	-11049
ril	-11050
▁notebook	-11051
▁loan	-11052
alignof	-11053
▁0[	-11054
mime	-11055
▁bare	-11056
▁conj	-11057
▁structured	-11058
▁ju	-11059
▁men	-11060
▁mtx	-11061
▁sense	-11062
▁gim	-11063
filesystem	-11064
▁automatic	-11065
rsp	-11066
itect	-11067
▁gone	-11068
▁largest	-11069
▁&*	-11070
▁campaign	-11071
▁ital	-11072
encrypt	-11073
▁healthy	-11074
▁resolves	-11075
▁"});	-11076
transition	-11077
▁inherited	-11078
team	-11079
▁]--	-11080
1]	-11081
▁elt	-11082
▁poke	-11083
▁reconc	-11084
milliseconds	-11085
=[],	-11086
▁grunt	-11087
▁60,	-11088
power	-11089
capture	-11090
▁parenthe	-11091
▁expansion	-11092
▁?,	-11093
▁ffffffff	-11094
micro	-11095
▁datatransfer	-11096
-1);	-11097
▁deletes	-11098
▁swiper	-11099
▁")"	-11100
eccak	-11101
▁jars	-11102
▁ensures	-11103
ael	-11104
▁2*	-11105
▁foldr	-11106
▁demand	-11107
▁}})	-11108
outer	-11109
▁zones	-11110
▁selective	-11111
▁chosen	-11112
▁follows	-11113
▁sequelize	-11114
▁glow	-11115
▁mdc	-11116
▁pwd	-11117
▁asks	-11118
navig	-11119
fmap	-11120
toggle	-11121
filters	-11122
▁potential	-11123
.",	-11124
href	-11125
▁zheng	-11126
▁ripper	-11127
操作	-11128
gold	-11129
star	-11130
▁foot	-11131
chestr	-11132
▁fetched	-11133
▁approximate	-11134
▁-5	-11135
candid	-11136
▁finatra	-11137
▁weekdays	-11138
processing	-11139
pw	-11140
("*	-11141
▁specifying	-11142
?)	-11143
▁ripple	-11144
▁alternate	-11145
▁sram	-11146
▁measured	-11147
ishu	-11148
▁bail	-11149
▁emits	-11150
▁javac	-11151
▁accessed	-11152
[]}	-11153
▁deny	-11154
▁objc	-11155
▁binds	-11156
ti	-11157
▁dar	-11158
▁laika	-11159
threads	-11160
hou	-11161
mater	-11162
▁supervisor	-11163
▁strides	-11164
▁0#	-11165
▁pig	-11166
▁gives	-11167
maps	-11168
▁redund	-11169
▁readl	-11170
▁playing	-11171
▁redo	-11172
▁moe	-11173
otos	-11174
strlen	-11175
▁...");	-11176
▁feb	-11177
appro	-11178
▁theta	-11179
▁similarity	-11180
▁repla	-11181
zo	-11182
▁van	-11183
▁keyframe	-11184
omas	-11185
asn	-11186
ima	-11187
ursier	-11188
▁lam	-11189
twitter	-11190
▁recorded	-11191
cwd	-11192
idia	-11193
▁с	-11194
▁'{}	-11195
pover	-11196
▁dynam	-11197
▁shares	-11198
▁spray	-11199
▁}"	-11200
overflow	-11201
▁sasl	-11202
nr	-11203
▁aop	-11204
▁'>;}	-11205
▁ghost	-11206
▁clauses	-11207
▁challenge	-11208
▁160	-11209
▁shardingsphere	-11210
fft	-11211
cedure	-11212
]],[	-11213
jwt	-11214
40	-11215
ancer	-11216
▁dg	-11217
▁nop	-11218
▁inlin	-11219
▁forced	-11220
147	-11221
▁dtab	-11222
▁uris	-11223
▁cleaner	-11224
▁writeln	-11225
▁bytestream	-11226
▁publication	-11227
dw	-11228
▁blueocean	-11229
dif	-11230
▁meters	-11231
▁bmp	-11232
▁coupon	-11233
▁mj	-11234
▁insufficient	-11235
▁fopen	-11236
▁embedding	-11237
:2	-11238
▁{.	-11239
▁ahead	-11240
▁pooling	-11241
/'	-11242
akka	-11243
▁1].	-11244
▁'}';	-11245
▁lowest	-11246
filtered	-11247
▁interceptors	-11248
▁mega	-11249
▁interp	-11250
▁ancestor	-11251
▁'</	-11252
▁mempool	-11253
̃̃	-11254
▁om	-11255
▁callee	-11256
▁"""{"	-11257
▁locales	-11258
▁tensors	-11259
alyy	-11260
▁vpc	-11261
▁bright	-11262
▁arialyy	-11263
:"@	-11264
▁nix	-11265
ен	-11266
▁svm	-11267
▁accumul	-11268
-05	-11269
▁cab	-11270
race	-11271
wstr	-11272
▁postgresql	-11273
▁prone	-11274
▁skew	-11275
logies	-11276
gateway	-11277
▁9;	-11278
contact	-11279
fra	-11280
datum	-11281
paint	-11282
▁sho	-11283
▁arth	-11284
itecture	-11285
roma	-11286
▁pink	-11287
▁foldl	-11288
▁affected	-11289
cerr	-11290
▁bins	-11291
▁smooth	-11292
);\	-11293
ether	-11294
▁'');	-11295
docker	-11296
|\\	-11297
▁fns	-11298
▁getquill	-11299
▁bang	-11300
▁strategies	-11301
ond	-11302
[]);	-11303
/-	-11304
▁wraps	-11305
▁suggested	-11306
/',	-11307
dropdown	-11308
]`	-11309
▁oh	-11310
dword	-11311
▁prefs	-11312
▁combust	-11313
▁questions	-11314
ethere	-11315
▁assist	-11316
▁demonstr	-11317
▁blink	-11318
▁nvidia	-11319
▁forwarding	-11320
tasks	-11321
▁lcui	-11322
▁"],[/	-11323
underlying	-11324
▁vel	-11325
▁consul	-11326
▁meaning	-11327
▁varargs	-11328
▁viewshed	-11329
iliation	-11330
lb	-11331
▁sodium	-11332
ethereum	-11333
ols	-11334
>');	-11335
som	-11336
reinterpret	-11337
$/,	-11338
(::	-11339
babel	-11340
:${	-11341
▁annotate	-11342
bird	-11343
wers	-11344
▁limport	-11345
ess	-11346
▁mich	-11347
▁cores	-11348
▁dream	-11349
▁oimport	-11350
▁proposals	-11351
+\	-11352
▁strnc	-11353
bernate	-11354
▁hunger	-11355
▁corridors	-11356
pable	-11357
▁distage	-11358
▁bene	-11359
▁resh	-11360
tabler	-11361
▁sanitize	-11362
▁'")	-11363
▁scalation	-11364
wdg	-11365
decor	-11366
memb	-11367
▁manip	-11368
diag	-11369
▁indicated	-11370
▁recursion	-11371
credentials	-11372
)})	-11373
▁2}	-11374
uite	-11375
touch	-11376
▁cognito	-11377
▁mz	-11378
▁dic	-11379
▁counting	-11380
▁telemetry	-11381
▁trainer	-11382
▁unne	-11383
▁reachable	-11384
▁elasticjob	-11385
wx	-11386
aily	-11387
▁serializers	-11388
epage	-11389
workers	-11390
mob	-11391
nat	-11392
▁za	-11393
▁dra	-11394
sorted	-11395
="${	-11396
modal	-11397
singleton	-11398
▁bx	-11399
▁ult	-11400
▁masked	-11401
▁belongs	-11402
remo	-11403
▁interpolate	-11404
▁initializing	-11405
mu	-11406
(-2	-11407
marks	-11408
▁postgre	-11409
plane	-11410
stroke	-11411
:3	-11412
▁sorter	-11413
▁":[	-11414
period	-11415
{--	-11416
▁robot	-11417
▁16:	-11418
continue	-11419
nes	-11420
(-1);	-11421
▁rigid	-11422
nan	-11423
country	-11424
completed	-11425
▁labs	-11426
▁caret	-11427
▁recycle	-11428
▁snowflake	-11429
▁relational	-11430
vio	-11431
▁inherits	-11432
▁jap	-11433
oauth	-11434
▁looking	-11435
,[-1	-11436
alling	-11437
definitions	-11438
assemb	-11439
▁jsonrpc	-11440
▁vb	-11441
checks	-11442
▁preludeimport	-11443
lux	-11444
▁"===	-11445
▁wi	-11446
▁typically	-11447
nx	-11448
supp	-11449
▁firm	-11450
backup	-11451
▁ice	-11452
▁declaring	-11453
▁identical	-11454
▁accessibility	-11455
napi	-11456
/6	-11457
scoped	-11458
fre	-11459
arded	-11460
▁stale	-11461
▁activated	-11462
▁calculated	-11463
71	-11464
▁vd	-11465
:$	-11466
▁:<	-11467
▁argon	-11468
▁relaxed	-11469
▁unbound	-11470
pref	-11471
▁miner	-11472
▁enhance	-11473
▁releases	-11474
nk	-11475
!(&	-11476
▁sass	-11477
rices	-11478
interpreter	-11479
▁quasar	-11480
▁jc	-11481
▁oas	-11482
▁wasi	-11483
▁perror	-11484
ica	-11485
▁wp	-11486
▁guice	-11487
▁readme	-11488
javascript	-11489
aio	-11490
▁vf	-11491
▁multiline	-11492
▁scatter	-11493
添加	-11494
jack	-11495
={}",	-11496
invok	-11497
operand	-11498
▁©	-11499
▁721	-11500
▁usec	-11501
closure	-11502
▁"-"	-11503
packages	-11504
weak	-11505
▁unwind	-11506
\0	-11507
▁pom	-11508
▁reb	-11509
(1000);	-11510
▁')}	-11511
▁pgc	-11512
▁02,	-11513
share	-11514
verbo	-11515
middle	-11516
pel	-11517
▁3<	-11518
)];	-11519
▁nh	-11520
▁learn	-11521
4)	-11522
same	-11523
▁outd	-11524
▁uniq	-11525
▁enumerator	-11526
▁8))	-11527
▁rib	-11528
`].	-11529
alert	-11530
aggage	-11531
▁moder	-11532
related	-11533
elcome	-11534
▁garbage	-11535
slide	-11536
▁hashed	-11537
▁platforms	-11538
>/	-11539
ents	-11540
▁tst	-11541
▁watermark	-11542
unity	-11543
particle	-11544
▁}}/*	-11545
▁executes	-11546
▁headless	-11547
equals	-11548
▁synony	-11549
▁mounted	-11550
▁contacts	-11551
▁webkit	-11552
hostname	-11553
▁edits	-11554
connected	-11555
▁whenever	-11556
ami	-11557
▁3[	-11558
▁xmm	-11559
▁pinned	-11560
chars	-11561
▁kudu	-11562
▁reent	-11563
▁/**<	-11564
▁'?	-11565
▁textures	-11566
){-#	-11567
tery	-11568
▁sale	-11569
▁paging	-11570
▁cpg	-11571
▁coerc	-11572
>>();	-11573
▁reveal	-11574
▁proxies	-11575
▁determines	-11576
成功	-11577
▁pcm	-11578
recur	-11579
▁renamed	-11580
loading	-11581
contents	-11582
▁observed	-11583
▁schedulers	-11584
omic	-11585
▁quar	-11586
▁reserv	-11587
bla	-11588
▁connecting	-11589
[\\	-11590
each	-11591
▁scrollbar	-11592
,2	-11593
)</	-11594
ecg	-11595
▁wd	-11596
▁10).	-11597
▁bub	-11598
▁obs	-11599
▁ascending	-11600
▁64>	-11601
▁=<<	-11602
▁animations	-11603
▁uncompressed	-11604
▁ctype	-11605
▁1000000	-11606
▁pj	-11607
▁bed	-11608
▁obtained	-11609
![];	-11610
ship	-11611
zeppelin	-11612
▁incompatible	-11613
▁deterministic	-11614
]',	-11615
)}}	-11616
▁arraycopy	-11617
▁tg	-11618
++);	-11619
workspace	-11620
▁microseconds	-11621
▁zebra	-11622
▁mutate	-11623
paascloud	-11624
▁hibernate	-11625
charts	-11626
▁votes	-11627
▁entered	-11628
eness	-11629
▁orchestr	-11630
vp	-11631
▁loose	-11632
▁butter	-11633
▁assumes	-11634
▁underline	-11635
allowed	-11636
▁parity	-11637
-1]	-11638
urer	-11639
▁sanity	-11640
contracts	-11641
validator	-11642
▁mmm	-11643
exclude	-11644
▁graphs	-11645
codecpar	-11646
▁stylesheet	-11647
▁"{}",	-11648
▁hsweb	-11649
▁stubbing	-11650
4}	-11651
lec	-11652
mall	-11653
hrow	-11654
""")	-11655
▁acquired	-11656
▁indentation	-11657
("'	-11658
aux	-11659
▁fq	-11660
83	-11661
▁dsa	-11662
▁$('.	-11663
▁cstr	-11664
▁janet	-11665
ames	-11666
▁uac	-11667
▁birth	-11668
▁terrafomo	-11669
▁'='	-11670
hover	-11671
,(	-11672
rg	-11673
memo	-11674
broad	-11675
▁issued	-11676
▁cumulative	-11677
▁doo	-11678
▁untagged	-11679
▁categorical	-11680
▁xw	-11681
0000000	-11682
▁ia	-11683
tempor	-11684
▁spout	-11685
▁monotonic	-11686
▁4]	-11687
\",\	-11688
▁removal	-11689
major	-11690
▁20);	-11691
▁faces	-11692
▁rebuild	-11693
▁bugpatterns	-11694
▁unify	-11695
▁reasons	-11696
▁intention	-11697
▁acceptable	-11698
▁2},	-11699
▁blake	-11700
%3	-11701
▁{}',	-11702
while	-11703
▁listing	-11704
▁detached	-11705
▁“	-11706
>";	-11707
elf	-11708
▁nal	-11709
▁wnd	-11710
▁zhang	-11711
▁postfix	-11712
▁hashable	-11713
▁fff	-11714
stride	-11715
▁"("	-11716
pause	-11717
▁prece	-11718
▁drawee	-11719
received	-11720
▁edition	-11721
▁ber	-11722
▁pwr	-11723
▁forever	-11724
▁tablesaw	-11725
▁dpi	-11726
▁sear	-11727
mf	-11728
bulk	-11729
▁jingle	-11730
▁markers	-11731
stringstream	-11732
tid	-11733
ried	-11734
▁webgl	-11735
▁portable	-11736
▁conduit	-11737
▁verbosity	-11738
▁yml	-11739
▁bloop	-11740
▁dockerjava	-11741
▁jso	-11742
▁{///	-11743
(--	-11744
want	-11745
sparse	-11746
▁buildable	-11747
▁hswebframework	-11748
/11	-11749
<::	-11750
▁cob	-11751
▁house	-11752
▁idempot	-11753
▁calculation	-11754
>:	-11755
orphic	-11756
▁truncated	-11757
▁difficulty	-11758
▁ka	-11759
▁oo	-11760
▁parties	-11761
vg	-11762
▁360	-11763
uator	-11764
▁rabbit	-11765
▁converting	-11766
2;	-11767
▁backwards	-11768
)0	-11769
ria	-11770
▁);#	-11771
▁mocha	-11772
[[	-11773
▁={	-11774
▁jquery	-11775
▁rollup	-11776
▁advice	-11777
▁golden	-11778
ovy	-11779
(",")	-11780
ubi	-11781
))));	-11782
eme	-11783
terminal	-11784
▁facet	-11785
▁watchpoint	-11786
ffe	-11787
▁glyphs	-11788
activate	-11789
(&(	-11790
aes	-11791
▁gg	-11792
▁ky	-11793
▁reactivestreams	-11794
(3).	-11795
▁384	-11796
▁luke	-11797
▁hashing	-11798
▁observers	-11799
▁registries	-11800
|]	-11801
:{}",	-11802
▁hspec	-11803
▁carrier	-11804
▁invocations	-11805
▁subcommand	-11806
▁screenshot	-11807
oct	-11808
sth	-11809
▁'+	-11810
rock	-11811
▁isize	-11812
builtin	-11813
▁fluent	-11814
▁mining	-11815
▁recyclerview	-11816
phone	-11817
▁bond	-11818
(20	-11819
▁internet	-11820
▁huge	-11821
▁eeprom	-11822
intr	-11823
▁{0}	-11824
isions	-11825
▁arthas	-11826
▁keyspace	-11827
csr	-11828
▁mesa	-11829
')).	-11830
▁smc	-11831
trust	-11832
▁bufferimport	-11833
avg	-11834
▁kp	-11835
alley	-11836
▁requery	-11837
\\"	-11838
lum	-11839
▁repair	-11840
>())	-11841
ytes	-11842
▁danma	-11843
▁futureimport	-11844
指定	-11845
rored	-11846
▁mand	-11847
▁stdio	-11848
▁-2,	-11849
▁cubic	-11850
pd	-11851
▁32-	-11852
▁flavor	-11853
▁applying	-11854
,*	-11855
▁grey	-11856
▁fetching	-11857
▁如果	-11858
ahead	-11859
▁mpsc	-11860
another	-11861
oga	-11862
tli	-11863
▁seal	-11864
!()	-11865
/);	-11866
[].	-11867
▁.%	-11868
pthread	-11869
▁coefficients	-11870
▁"{}	-11871
xi	-11872
})",	-11873
▁%"	-11874
▁geysermc	-11875
shard	-11876
eslint	-11877
▁prune	-11878
normalized	-11879
▁quaternion	-11880
▁pwm	-11881
▁soter	-11882
▁gcm	-11883
接口	-11884
▁tower	-11885
▁sharing	-11886
▁(${	-11887
▁maha	-11888
yh	-11889
)):	-11890
▁bitf	-11891
▁{0};	-11892
▁supert	-11893
▁sdp	-11894
▁slope	-11895
▁succ	-11896
▁internally	-11897
cinfo	-11898
/10	-11899
certific	-11900
▁periodic	-11901
▁risk	-11902
▁notified	-11903
psz	-11904
▁odm	-11905
▁serving	-11906
▁captured	-11907
▁deleting	-11908
▁translated	-11909
nl	-11910
▁multis	-11911
escap	-11912
anchor	-11913
/,"	-11914
▁sidechain	-11915
▁connectivity	-11916
("${	-11917
;++	-11918
▁qp	-11919
▁oidc	-11920
▁machines	-11921
▁8));	-11922
submit	-11923
▁seems	-11924
▁consumes	-11925
▁withdrawal	-11926
异常	-11927
▁drv	-11928
▁walker	-11929
▁permits	-11930
▁spectrum	-11931
shake	-11932
02,	-11933
▁creative	-11934
aga	-11935
pas	-11936
▁"!	-11937
▁weixin	-11938
▁clue	-11939
▁descr	-11940
▁thick	-11941
▁browse	-11942
▁prints	-11943
bindings	-11944
graphics	-11945
▁bids	-11946
▁hljs	-11947
▁searcher	-11948
▁arbitrate	-11949
enomem	-11950
▁dequeue	-11951
concurrent	-11952
▁bundletool	-11953
▁replicated	-11954
(#	-11955
volume	-11956
deriving	-11957
(50	-11958
▁slack	-11959
▁strdup	-11960
▁showing	-11961
::*,	-11962
▁shop	-11963
commons	-11964
▁serdes	-11965
▁readiness	-11966
▁066	-11967
▁destr	-11968
▁guarantee	-11969
▁'-'	-11970
bnb	-11971
ivy	-11972
▁0}	-11973
)?,	-11974
▁*/'	-11975
▁bolt	-11976
/7	-11977
btn	-11978
▁ico	-11979
▁unmount	-11980
retention	-11981
▁workbook	-11982
▁expos	-11983
▁preload	-11984
▁;}	-11985
▁dk	-11986
▁becomes	-11987
▁collapsed	-11988
▁composed	-11989
▁8>,	-11990
▁sidebar	-11991
▁rewards	-11992
-202	-11993
ensive	-11994
▁debounce	-11995
▁scrolling	-11996
▁authorizer	-11997
\""	-11998
▁(.	-11999
limited	-12000
▁gender	-12001
▁karate	-12002
▁procedure	-12003
izard	-12004
▁osmium	-12005
bul	-12006
▁abbre	-12007
ynomial	-12008
[*	-12009
▁`.	-12010
▁dro	-12011
▁...)	-12012
▁3()	-12013
▁1)))	-12014
▁pimport	-12015
90	-12016
▁quasi	-12017
deprec	-12018
ddr	-12019
▁smithy	-12020
▁technologies	-12021
▁dut	-12022
▁inp	-12023
▁tel	-12024
raken	-12025
▁goes	-12026
▁asserts	-12027
▁mtd	-12028
▁'});	-12029
结果	-12030
▁eol	-12031
▁saw	-12032
speed	-12033
▁explorer	-12034
projection	-12035
then	-12036
instrument	-12037
▁'../../../	-12038
▁sty	-12039
▁stops	-12040
],[	-12041
mal	-12042
▁website	-12043
processed	-12044
protected	-12045
abor	-12046
▁lighthouse	-12047
eb	-12048
()]	-12049
//#	-12050
▁(/	-12051
▁nx	-12052
▁";}	-12053
annes	-12054
▁hole	-12055
\":{\"	-12056
asmine	-12057
arily	-12058
▁among	-12059
clusive	-12060
▁kotlin	-12061
▁millisecond	-12062
▁architecture	-12063
jet	-12064
sey	-12065
txt	-12066
▁spu	-12067
istics	-12068
scannable	-12069
trade	-12070
slash	-12071
ighter	-12072
onenum	-12073
▁getenv	-12074
▁discrete	-12075
▁extraction	-12076
beros	-12077
express	-12078
▁predefined	-12079
ado	-12080
▁objective	-12081
{@	-12082
▁[2	-12083
▁");#	-12084
▁']",	-12085
(10000	-12086
▁trailers	-12087
▁arri	-12088
(!(	-12089
ostream	-12090
-20	-12091
pen	-12092
▁"=	-12093
▁#![	-12094
▁fct	-12095
▁midnight	-12096
integration	-12097
,%	-12098
▁scalaf	-12099
▁homepage	-12100
▁34,	-12101
negative	-12102
bv	-12103
camera	-12104
▁wanted	-12105
▁45,	-12106
analysis	-12107
节点	-12108
linked	-12109
▁iterant	-12110
▁设置	-12111
▁hik	-12112
▁osc	-12113
▁allowing	-12114
placeholder	-12115
lout	-12116
▁chance	-12117
▁rat	-12118
▁128(	-12119
▁keyed	-12120
▁'//	-12121
▁gad	-12122
nth	-12123
btc	-12124
stm	-12125
▁64-	-12126
▁vary	-12127
▁streamimport	-12128
▁"}"	-12129
▁almost	-12130
▁fsm	-12131
▁mist	-12132
▁visualizer	-12133
tplug	-12134
▁stairs	-12135
▁mw	-12136
▁swe	-12137
▁eager	-12138
▁xmlns	-12139
▁cleared	-12140
▁coursier	-12141
libc	-12142
▁beat	-12143
▁';/**	-12144
▁liquidity	-12145
stax	-12146
▁indented	-12147
▁encountered	-12148
:///	-12149
once	-12150
▁rtw	-12151
)]#![	-12152
▁expandable	-12153
▁intrinsic	-12154
uvw	-12155
()}.	-12156
▁interact	-12157
goog	-12158
▁flt	-12159
▁resolvers	-12160
▁xlsx	-12161
▁matrices	-12162
▁112	-12163
allest	-12164
▁strcmp	-12165
▁delegates	-12166
▁chalk	-12167
▁longest	-12168
://127	-12169
▁opengl	-12170
▁timelock	-12171
▁suspended	-12172
mel	-12173
*=	-12174
▁upt	-12175
▁destruct	-12176
:")	-12177
pickle	-12178
sources	-12179
▁"?	-12180
▁italic	-12181
▁ingress	-12182
▁responder	-12183
disk	-12184
▁65,	-12185
▁shim	-12186
▁qos	-12187
▁boss	-12188
▁tapir	-12189
,}///	-12190
horiz	-12191
upgrade	-12192
▁extracting	-12193
▁hap	-12194
▁tlv	-12195
▁1024;	-12196
▁introduce	-12197
364	-12198
!($	-12199
▁mbg	-12200
▁moves	-12201
▁platdata	-12202
cher	-12203
▁buoy	-12204
{1	-12205
▁printed	-12206
normalize	-12207
▁stringimport	-12208
▁48,	-12209
▁licensor	-12210
▁identification	-12211
▁168	-12212
isode	-12213
::::::::::::	-12214
));#	-12215
▁10),	-12216
xyz	-12217
▁456	-12218
expand	-12219
▁benchmarks	-12220
rank	-12221
▁uber	-12222
xistent	-12223
▁locally	-12224
▁apal	-12225
▁sails	-12226
▁descending	-12227
(0)).	-12228
▁touches	-12229
▁isolation	-12230
lots	-12231
▁backpack	-12232
▁computes	-12233
▁skipping	-12234
\.\	-12235
uum	-12236
▁come	-12237
▁causes	-12238
▁expectations	-12239
-+-+	-12240
▁greg	-12241
▁inlet	-12242
fallback	-12243
▁ciphertext	-12244
buffered	-12245
▁hang	-12246
▁integ	-12247
compose	-12248
▁[2,	-12249
ometry	-12250
cleanup	-12251
▁basename	-12252
▁04,	-12253
▁4],	-12254
▁daily	-12255
▁photos	-12256
▁greeting	-12257
cop	-12258
svc	-12259
▁datastax	-12260
▁disconf	-12261
▁writers	-12262
▁rdf	-12263
sampler	-12264
▁jetlinks	-12265
▁delegating	-12266
▁xfer	-12267
alesce	-12268
bracket	-12269
receive	-12270
▁egg	-12271
▁owners	-12272
▁100000000	-12273
▁infrastructure	-12274
-04	-12275
▁minter	-12276
▁reversed	-12277
▁//#	-12278
ulary	-12279
▁digger	-12280
,'	-12281
▁125	-12282
▁msc	-12283
exper	-12284
▁psimd	-12285
▁indigo	-12286
▁pieces	-12287
▁internals	-12288
▁uppercase	-12289
▁gatt	-12290
▁contrib	-12291
executable	-12292
▁appearance	-12293
▁transitions	-12294
eff	-12295
▁$('#	-12296
ahoo	-12297
whisk	-12298
消息	-12299
pkey	-12300
wood	-12301
▁4096	-12302
▁zstd	-12303
▁stmts	-12304
▁providing	-12305
pare	-12306
▁sway	-12307
serializ	-12308
ipc	-12309
compact	-12310
▁orange	-12311
▁syslog	-12312
▁redundant	-12313
定义	-12314
5]	-12315
*************	-12316
affs	-12317
jpeg	-12318
publisher	-12319
▁enterprise	-12320
▁"))),	-12321
▁testsuite	-12322
▁underscore	-12323
ال	-12324
▁2#	-12325
▁27,	-12326
▁argb	-12327
▁magn	-12328
measure	-12329
▁uncaught	-12330
(","	-12331
▁75,	-12332
▁pads	-12333
▁jeecg	-12334
-08	-12335
▁是否	-12336
▁factorie	-12337
rdp	-12338
▁hsc	-12339
geyser	-12340
▁appended	-12341
/20	-12342
yan	-12343
▁33,	-12344
▁typing	-12345
▁volumes	-12346
/17	-12347
filt	-12348
▁180	-12349
datas	-12350
▁abcd	-12351
▁slides	-12352
histogram	-12353
accum	-12354
▁bullet	-12355
进行	-12356
▁tpl	-12357
▁encod	-12358
▁ntstatus	-12359
kr	-12360
\\\\	-12361
inex	-12362
▁completes	-12363
▁recognizer	-12364
3),	-12365
▁\'	-12366
▁(;;)	-12367
▁coda	-12368
▁purge	-12369
dem	-12370
0},	-12371
cross	-12372
margin	-12373
▁installer	-12374
事件	-12375
▁kle	-12376
started	-12377
▁compiles	-12378
▁11;	-12379
▁ach	-12380
8)	-12381
▁waves	-12382
▁lief	-12383
finish	-12384
gue	-12385
▁javafx	-12386
izz	-12387
▁rer	-12388
▁shm	-12389
arith	-12390
mozilla	-12391
▁transact	-12392
▁delimited	-12393
▁workaround	-12394
coo	-12395
▁qps	-12396
▁ways	-12397
▁ckeditor	-12398
▁accumulate	-12399
routes	-12400
iot	-12401
▁nullness	-12402
cow	-12403
▁&)	-12404
▁sri	-12405
▁maintenance	-12406
},};	-12407
abort	-12408
nonce	-12409
▁buoyant	-12410
eps	-12411
▁10:	-12412
▁{0}",	-12413
ibit	-12414
encer	-12415
▁classloader	-12416
▁'/')	-12417
covery	-12418
}"""	-12419
▁crawl	-12420
▁ability	-12421
lk	-12422
(7,	-12423
▁governance	-12424
(11	-12425
▁^^	-12426
▁'};	-12427
▁5(	-12428
best	-12429
▁24)	-12430
manage	-12431
pms	-12432
▁ye	-12433
▁stay	-12434
▁international	-12435
gd	-12436
▁ao	-12437
()',	-12438
sable	-12439
▁players	-12440
ky	-12441
onoi	-12442
▁vid	-12443
through	-12444
standing	-12445
▁lets	-12446
▁stubs	-12447
▁ssr	-12448
▁');//	-12449
▁tabulate	-12450
▁cxx	-12451
▁orm	-12452
coded	-12453
▁",["	-12454
orient	-12455
▁social	-12456
('@/	-12457
bank	-12458
plat	-12459
▁consts	-12460
▁isa	-12461
▁credit	-12462
postgres	-12463
▁firehose	-12464
▁ji	-12465
▁ccm	-12466
writable	-12467
▁ton	-12468
▁oldest	-12469
▁mimport	-12470
▁的	-12471
缓存	-12472
rade	-12473
▁countries	-12474
▁robolectric	-12475
▁availability	-12476
();",	-12477
ada	-12478
▁bom	-12479
▁letters	-12480
▁iterables	-12481
kh	-12482
jan	-12483
kdf	-12484
▁zuul	-12485
('"	-12486
swit	-12487
ascii	-12488
192	-12489
▁fds	-12490
▁orph	-12491
▁cyclic	-12492
▁atomically	-12493
▁dept	-12494
▁lossy	-12495
▁springboot	-12496
▁41,	-12497
▁xss	-12498
实现	-12499
▁sut	-12500
outputs	-12501
▁strcpy	-12502
>,{	-12503
▁anti	-12504
▁descriptions	-12505
▁п	-12506
fff	-12507
▁crow	-12508
▁bandwidth	-12509
内容	-12510
iva	-12511
▁forget	-12512
computed	-12513
▁unchanged	-12514
▁older	-12515
▁seeds	-12516
▁ua	-12517
week	-12518
','	-12519
▁jax	-12520
ledger	-12521
unicode	-12522
()){	-12523
akes	-12524
vable	-12525
▁64),	-12526
▁inver	-12527
▁surro	-12528
▁0};	-12529
▁operating	-12530
▁xffffffff	-12531
torrent	-12532
weights	-12533
▁subquery	-12534
▁pit	-12535
▁yoda	-12536
gradient	-12537
▁activities	-12538
▁generalized	-12539
az	-12540
▁psz	-12541
▁scm	-12542
▁elog	-12543
aders	-12544
escaped	-12545
cognized	-12546
=!1,	-12547
spot	-12548
▁lis	-12549
(100)	-12550
▁lovr	-12551
▁airbnb	-12552
▁harmon	-12553
支持	-12554
更新	-12555
▁mutator	-12556
▁receives	-12557
aaa	-12558
ocli	-12559
▁namer	-12560
ags	-12561
字符串	-12562
<?>)	-12563
▁gimel	-12564
▁trivial	-12565
▁configurator	-12566
没有	-12567
experiment	-12568
▁redirects	-12569
*-	-12570
?>	-12571
▁hue	-12572
probe	-12573
emonic	-12574
▁lenum	-12575
lif	-12576
▁"))).	-12577
▁flows	-12578
▁combinator	-12579
▁2\	-12580
(&["	-12581
▁5))	-12582
material	-12583
▁entitypublic	-12584
▁xl	-12585
ball	-12586
prepare	-12587
▁opent	-12588
▁creds	-12589
▁videos	-12590
hft	-12591
▁locate	-12592
▁pathimport	-12593
▁下	-12594
权限	-12595
%08	-12596
▁(==	-12597
▁fru	-12598
▁sts	-12599
leter	-12600
▁michael	-12601
▁loggerimport	-12602
▁finsh	-12603
▁unfold	-12604
▁amounts	-12605
broadcast	-12606
▁specialized	-12607
zzy	-12608
compiled	-12609
~~~~~~~~~~~~~~~~	-12610
▁cdc	-12611
:--	-12612
`).	-12613
▁unzip	-12614
▁attention	-12615
yori	-12616
▁"$.	-12617
likely	-12618
+(	-12619
lists	-12620
▁vice	-12621
▁rid	-12622
▁wai	-12623
▁getarg	-12624
quo	-12625
▁900	-12626
hread	-12627
zerland	-12628
▁enclave	-12629
▁implementing	-12630
▁instrumented	-12631
/9	-12632
▁-8	-12633
▁north	-12634
▁refres	-12635
▁bindable	-12636
answer	-12637
▁groovy	-12638
▁joiner	-12639
▁swarm	-12640
▁bitset	-12641
defaults	-12642
▁fk	-12643
}""".	-12644
houette	-12645
▁friends	-12646
whereimport	-12647
▁polynomial	-12648
bh	-12649
▁baggage	-12650
▁ary	-12651
flash	-12652
:!1,	-12653
endian	-12654
▁nul	-12655
▁1)).	-12656
▁hannes	-12657
%20	-12658
:12	-12659
manent	-12660
▁datastore	-12661
<0	-12662
iliary	-12663
activation	-12664
certificate	-12665
▁srt	-12666
zhenjie	-12667
[^\	-12668
▁iw	-12669
▁0;#	-12670
records	-12671
▁saving	-12672
▁xi	-12673
keyboard	-12674
▁central	-12675
▁yanzhenjie	-12676
asty	-12677
▁$($	-12678
▁224	-12679
▁adc	-12680
ipv	-12681
▁inferred	-12682
▁toplevel	-12683
\/\	-12684
live	-12685
▁ape	-12686
▁})?;	-12687
limiter	-12688
▁listed	-12689
translate	-12690
▁slab	-12691
▁ivory	-12692
reactive	-12693
/15	-12694
fmann	-12695
▁aabb	-12696
▁}</	-12697
▁);}#[	-12698
orfmann	-12699
▁waiter	-12700
!("{:?}",	-12701
▁'..	-12702
▁bignumber	-12703
arena	-12704
=!0,	-12705
ssip	-12706
▁yahoo	-12707
▁atan	-12708
usions	-12709
mockito	-12710
linesize	-12711
since	-12712
angria	-12713
propos	-12714
-2-	-12715
3333	-12716
="";	-12717
6)	-12718
▁sufficient	-12719
▁discriminator	-12720
:{}	-12721
mean	-12722
▁nesting	-12723
▁1);}	-12724
▁aead	-12725
▁coproduct	-12726
unexpected	-12727
finished	-12728
▁cq	-12729
bert	-12730
▁exts	-12731
▁opencypher	-12732
,&	-12733
▁sst	-12734
atype	-12735
matic	-12736
▁storable	-12737
▁draggable	-12738
▁29,	-12739
ronos	-12740
changes	-12741
▁environ	-12742
▁lm	-12743
▁")@	-12744
▁7:	-12745
▁favorite	-12746
▁west	-12747
sclass	-12748
)(\\	-12749
hl	-12750
-07	-12751
▁som	-12752
▁000,	-12753
▁wiki	-12754
▁distr	-12755
▁finds	-12756
▁创建	-12757
▁根据	-12758
▁cbc	-12759
▁imag	-12760
▁editing	-12761
▁buffering	-12762
-06	-12763
▁03,	-12764
▁sphere	-12765
▁openhft	-12766
▁ske	-12767
▁intuit	-12768
▁synchronously	-12769
判断	-12770
▁registrar	-12771
▁completely	-12772
sand	-12773
utive	-12774
=!1;	-12775
▁sdf	-12776
▁smallest	-12777
dictionary	-12778
▁lwip	-12779
,4	-12780
locked	-12781
▁monkey	-12782
▁prepar	-12783
▁retryable	-12784
20,	-12785
▁"^	-12786
▁(...	-12787
▁atoi	-12788
kes	-12789
iswap	-12790
yuubi	-12791
(200);	-12792
▁longs	-12793
▁gles	-12794
switzerland	-12795
-09	-12796
▁99,	-12797
▁halley	-12798
▁folding	-12799
▁grand	-12800
horizontal	-12801
flb	-12802
▁kerberos	-12803
▁optionally	-12804
函数	-12805
iate	-12806
("/")	-12807
▁customize	-12808
fied	-12809
ossible	-12810
vertical	-12811
▁pickler	-12812
:[{	-12813
fds	-12814
rgba	-12815
▁ware	-12816
▁occup	-12817
▁winapi	-12818
▁flowimport	-12819
▁euc	-12820
▁0;}#	-12821
emitter	-12822
[3].	-12823
ising	-12824
▁coded	-12825
▁restrictions	-12826
▁dai	-12827
nores	-12828
▁ignores	-12829
▁datasets	-12830
▁describing	-12831
▁htmlmodule	-12832
>>)	-12833
easy	-12834
▁}////	-12835
()},	-12836
san	-12837
[32	-12838
ularity	-12839
annotated	-12840
▁boundaries	-12841
deep	-12842
planner	-12843
secutive	-12844
▁builtins	-12845
[%	-12846
)}#[	-12847
▁1]);	-12848
▁fpga	-12849
▁systemimport	-12850
▁."),	-12851
▁azure	-12852
▁danmaku	-12853
candidate	-12854
▁0000000000	-12855
▁respective	-12856
уу	-12857
通过	-12858
{})	-12859
▁onto	-12860
▁renders	-12861
}/${	-12862
▁"',	-12863
posix	-12864
▁reentrant	-12865
+2	-12866
▁tutorial	-12867
nni	-12868
ginx	-12869
▁gql	-12870
▁maxim	-12871
▁confusion	-12872
▁assignments	-12873
▁wad	-12874
登录	-12875
▁@}	-12876
▁2];	-12877
▁pose	-12878
▁rock	-12879
▁kraken	-12880
▁research	-12881
ste	-12882
||"	-12883
▁km	-12884
)}/**	-12885
▁apalache	-12886
▁clientimport	-12887
▁2^	-12888
▁nsec	-12889
sqlite	-12890
▁fractional	-12891
follow	-12892
▁geoto	-12893
scripts	-12894
eee	-12895
▁bil	-12896
▁floats	-12897
▁00000000	-12898
dbm	-12899
▁jwk	-12900
▁situ	-12901
ya	-12902
▁stk	-12903
assoc	-12904
iphier	-12905
▁"))))	-12906
▁dagger	-12907
▁listimport	-12908
zel	-12909
▁doobie	-12910
▁speech	-12911
▁passive	-12912
▁trimmed	-12913
▁mongoose	-12914
▁idempotent	-12915
线程	-12916
house	-12917
▁)#	-12918
▁instantiation	-12919
16,	-12920
▁32:	-12921
▁late	-12922
▁animal	-12923
▁testcontainers	-12924
▁55,	-12925
[0]),	-12926
▁acceleration	-12927
ght	-12928
▁invis	-12929
▁boolis	-12930
▁chroma	-12931
about	-12932
▁scaler	-12933
▁scc	-12934
()};	-12935
▁pins	-12936
▁coef	-12937
packed	-12938
genesis	-12939
▁popover	-12940
▁typeface	-12941
▁streamreactor	-12942
){"	-12943
olin	-12944
▁flv	-12945
behind	-12946
▁regst	-12947
healthy	-12948
▁adder	-12949
▁2020-2021	-12950
▁dreamhead	-12951
▁";//	-12952
▁lucene	-12953
ра	-12954
▁iom	-12955
publish	-12956
▁greengrass	-12957
brid	-12958
prism	-12959
oroshi	-12960
▁2018,	-12961
▁discarded	-12962
▁zx	-12963
1,1,	-12964
▁:<|>	-12965
▁tracked	-12966
▁sqs	-12967
(':	-12968
prog	-12969
▁18;	-12970
▁zyn	-12971
字段	-12972
▁grp	-12973
cycle	-12974
▁2004	-12975
ums	-12976
▁hax	-12977
▁spent	-12978
overlay	-12979
▁');/**	-12980
*1	-12981
(200)	-12982
stdint	-12983
▁(3,	-12984
▁2005	-12985
▁mllib	-12986
▁portion	-12987
▁correction	-12988
属性	-12989
verbose	-12990
▁hol	-12991
▁smtp	-12992
▁suitable	-12993
▁workspaces	-12994
perf	-12995
▁05,	-12996
▁rdb	-12997
tables	-12998
▁paper	-12999
▁1)),	-13000
compression	-13001
confir	-13002
▁duplex	-13003
▁counted	-13004
constexpr	-13005
━━	-13006
生成	-13007
▁dht	-13008
▁12);	-13009
▁leap	-13010
▁permanent	-13011
▁highlighted	-13012
▁synchronization	-13013
▁inj	-13014
bula	-13015
▁bypass	-13016
▁(:	-13017
▁eo	-13018
▁tween	-13019
▁geotools	-13020
▁leadership	-13021
had	-13022
maven	-13023
▁xform	-13024
▁hikari	-13025
▁battery	-13026
codemirror	-13027
ola	-13028
:");	-13029
▁0){	-13030
▁chi	-13031
▁35,	-13032
▁butil	-13033
▁overhead	-13034
succe	-13035
▁comes	-13036
中的	-13037
▁[-	-13038
precision	-13039
logs	-13040
};/**	-13041
▁cascade	-13042
▁staging	-13043
▁fan	-13044
▁mandatory	-13045
▁attestation	-13046
acquire	-13047
directive	-13048
uffs	-13049
▁[("	-13050
gines	-13051
subst	-13052
▁summarizer	-13053
sma	-13054
▁eye	-13055
▁pul	-13056
▁pch	-13057
▁auction	-13058
不能	-13059
]*)	-13060
\/\/	-13061
▁coeval	-13062
failures	-13063
▁picocli	-13064
referenced	-13065
exact	-13066
▁rounds	-13067
▁chooser	-13068
▁funsuite	-13069
▁stateless	-13070
ena	-13071
▁""),	-13072
amazon	-13073
▁reshape	-13074
qualified	-13075
▁thickness	-13076
▁jit	-13077
管理	-13078
[6]	-13079
▁[$	-13080
▁micros	-13081
▁rapids	-13082
hive	-13083
ousel	-13084
▁roncoo	-13085
requests	-13086
▁reservation	-13087
▁cyan	-13088
binder	-13089
▁pusht	-13090
▁analyz	-13091
▁safely	-13092
law	-13093
▁cpus	-13094
▁treode	-13095
cif	-13096
beta	-13097
▁ess	-13098
tod	-13099
▁fse	-13100
-2013	-13101
▁mile	-13102
detect	-13103
▁loggers	-13104
▁eprintln	-13105
▁psd	-13106
▁dora	-13107
emalloc	-13108
▁entrypoint	-13109
3;	-13110
craft	-13111
▁crcf	-13112
▁turns	-13113
▁yaffs	-13114
▁scenarios	-13115
fac	-13116
▁fid	-13117
▁falsy	-13118
ordinal	-13119
reserved	-13120
▁profiling	-13121
xxx	-13122
▁150	-13123
▁fees	-13124
▁sint	-13125
▁-6	-13126
▁0/.	-13127
lexer	-13128
▁1024,	-13129
▁uclass	-13130
▁pushed	-13131
▁coercion	-13132
bat	-13133
ocio	-13134
▁}}#	-13135
chrome	-13136
labeled	-13137
scalatest	-13138
▁overview	-13139
ele	-13140
;});	-13141
▁';//	-13142
▁///<	-13143
▁versa	-13144
whiz	-13145
▁answers	-13146
?=	-13147
orefresh	-13148
▁spawner	-13149
▁serializing	-13150
254	-13151
()})	-13152
▁'{}'	-13153
▁storing	-13154
east	-13155
encent	-13156
▁);});	-13157
▁penalty	-13158
]--	-13159
▁bidi	-13160
▁hasht	-13161
hipster	-13162
▁{:	-13163
▁robert	-13164
▁tangyh	-13165
▁renderable	-13166
▁-1;}	-13167
lenium	-13168
▁kcql	-13169
▁baud	-13170
▁equiv	-13171
▁opens	-13172
▁regard	-13173
))#	-13174
vid	-13175
▁spell	-13176
tracing	-13177
((*	-13178
?",	-13179
modified	-13180
▁silhouette	-13181
11,	-13182
▁@'	-13183
▁@{	-13184
▁rio	-13185
etest	-13186
▁retained	-13187
[9	-13188
修改	-13189
]]("	-13190
▁brpc	-13191
accounts	-13192
▁shorthand	-13193
sley	-13194
▁"}}	-13195
▁mil	-13196
▁cloudflow	-13197
▁promotion	-13198
▁impossible	-13199
▁####	-13200
▁subs	-13201
extended	-13202
▁2)).	-13203
▁dian	-13204
minder	-13205
▁2015,	-13206
blk	-13207
egl	-13208
mex	-13209
▁-}	-13210
,///	-13211
▁adjacent	-13212
▁contrast	-13213
]\\	-13214
▁xwpf	-13215
▁widths	-13216
requires	-13217
▁boxing	-13218
▁recurse	-13219
▁overlapping	-13220
▁bdd	-13221
▁mii	-13222
▁symmetry	-13223
▁8(&	-13224
▁layouts	-13225
▁datasources	-13226
初始	-13227
▁saga	-13228
▁warmup	-13229
▁lexical	-13230
('');	-13231
▁ener	-13232
▁------	-13233
▁classify	-13234
▁printing	-13235
▁transformations	-13236
dv	-13237
cid	-13238
errer	-13239
glyph	-13240
▁fram	-13241
aneous	-13242
▁monadimport	-13243
ghij	-13244
▁testng	-13245
▁evidence	-13246
99,	-13247
▁12:	-13248
tbb	-13249
▁forsy	-13250
▁jasmine	-13251
analytics	-13252
▁archived	-13253
▁partially	-13254
▁attribution	-13255
▁strm	-13256
▁sums	-13257
▁augment	-13258
>,)	-13259
hale	-13260
limits	-13261
▁young	-13262
iskel	-13263
▁radians	-13264
▁vcf	-13265
▁vfs	-13266
proposal	-13267
▁administ	-13268
▁downloaded	-13269
[@	-13270
^^	-13271
▁pets	-13272
checkpoint	-13273
▁consecutive	-13274
▁sct	-13275
()");	-13276
▁hydra	-13277
facebook	-13278
[256	-13279
▁zal	-13280
markdown	-13281
▁passphrase	-13282
multiple	-13283
▁persister	-13284
▁unrecognized	-13285
>0	-13286
xf	-13287
▁conflicts	-13288
加载	-13289
▁clob	-13290
▁relu	-13291
eclass	-13292
▁affine	-13293
criterion	-13294
▁huff	-13295
inspection	-13296
▁<.	-13297
▁invite	-13298
▁reorder	-13299
▁303	-13300
▁1();	-13301
▁filodb	-13302
▁tencent	-13303
};//	-13304
<[	-13305
bone	-13306
lnet	-13307
▁8("	-13308
▁cmap	-13309
▁keydown	-13310
==========	-13311
(?=	-13312
▁iosq	-13313
gister	-13314
▁postcss	-13315
handshake	-13316
▁vocabulary	-13317
▁modelimport	-13318
#,	-13319
declar	-13320
▁spock	-13321
▁estimated	-13322
scaling	-13323
▁thomas	-13324
▁cppunit	-13325
▁sangria	-13326
),}	-13327
gol	-13328
)}///	-13329
▁locking	-13330
▁sparkling	-13331
xmm	-13332
sqrt	-13333
▁otp	-13334
radio	-13335
zio	-13336
▁jdl	-13337
▁waker	-13338
▁keycode	-13339
▁reliability	-13340
日期	-13341
sse	-13342
▁tn	-13343
▁.-}	-13344
▁often	-13345
▁networks	-13346
[12	-13347
▁ore	-13348
audit	-13349
▁distro	-13350
▁blackhole	-13351
eor	-13352
▁madv	-13353
▁purch	-13354
▁story	-13355
▁winrt	-13356
fic	-13357
hea	-13358
rote	-13359
▁viny	-13360
▁allocations	-13361
▁firefox	-13362
=1,	-13363
▁otoroshi	-13364
▁lifted	-13365
▁javadoc	-13366
▁timeimport	-13367
30,	-13368
}`)	-13369
▁dial	-13370
utility	-13371
▁lun	-13372
▁500,	-13373
▁munit	-13374
}-	-13375
eration	-13376
▁doubles	-13377
▁knowledge	-13378
libs	-13379
▁gulp	-13380
separator	-13381
▁checkout	-13382
▁9);	-13383
▁lime	-13384
oted	-13385
sess	-13386
▁011	-13387
▁his	-13388
+|	-13389
poss	-13390
parcel	-13391
▁jsonp	-13392
▁rewind	-13393
*"	-13394
anum	-13395
inary	-13396
▁pang	-13397
ellation	-13398
▁11)	-13399
somet	-13400
▁hwnd	-13401
▁logi	-13402
reject	-13403
subscribe	-13404
▁fixes	-13405
▁spill	-13406
ffffffff	-13407
▁bundles	-13408
▁quietly	-13409
=""	-13410
()?.	-13411
(20,	-13412
▁acls	-13413
▁lumen	-13414
▁classic	-13415
(14	-13416
▁peak	-13417
▁dianping	-13418
▁positional	-13419
restrict	-13420
];}	-13421
vex	-13422
[4],	-13423
▁cand	-13424
▁governed	-13425
2,3,	-13426
quoted	-13427
▁james	-13428
▁redraw	-13429
▁invisible	-13430
▁handshaker	-13431
tla	-13432
▁mpc	-13433
▁angel	-13434
▁influx	-13435
на	-13436
iors	-13437
▁jun	-13438
▁pup	-13439
图片	-13440
▁areas	-13441
▁stopping	-13442
>((	-13443
[${	-13444
▁permutation	-13445
('../../../../	-13446
▁`"	-13447
▁octet	-13448
▁breaks	-13449
▁hipcheck	-13450
▁textarea	-13451
(500	-13452
▁32))	-13453
▁modem	-13454
tracker	-13455
▁bedrock	-13456
functions	-13457
▁confidence	-13458
%=	-13459
▁|>	-13460
▁alignof	-13461
apps	-13462
▁64:	-13463
urable	-13464
▁assumed	-13465
,1);	-13466
▁autocomplete	-13467
gau	-13468
▁[%	-13469
()",	-13470
▁8::	-13471
▁****	-13472
▁dragging	-13473
▁contributions	-13474
$$	-13475
pector	-13476
▁threaded	-13477
▁1])	-13478
regular	-13479
▁replaces	-13480
▁2019-2021	-13481
▁keyframes	-13482
())}	-13483
idle	-13484
▁toc	-13485
ucing	-13486
::*;#[	-13487
61	-13488
dark	-13489
walk	-13490
▁43,	-13491
straction	-13492
▁duplicated	-13493
▁potentially	-13494
▁icmp	-13495
▁nutch	-13496
▁serviceimport	-13497
!--	-13498
uke	-13499
▁36,	-13500
getter	-13501
highlight	-13502
▁iterators	-13503
▁assumption	-13504
▁kr	-13505
([](	-13506
curl	-13507
▁./	-13508
glob	-13509
addition	-13510
▁forsyte	-13511
▁determined	-13512
vnode	-13513
▁tramp	-13514
invoker	-13515
▁codahale	-13516
reflection	-13517
▁hmm	-13518
phase	-13519
▁placed	-13520
*/)	-13521
500	-13522
stu	-13523
▁gf	-13524
news	-13525
▁15)	-13526
▁unlift	-13527
▁mutations	-13528
compilation	-13529
▁lol	-13530
▁nic	-13531
▁ofs	-13532
album	-13533
perform	-13534
▁mnemonic	-13535
limitations	-13536
icated	-13537
▁2)))	-13538
combine	-13539
▁vx	-13540
▁shapeless	-13541
▁%1	-13542
▁crs	-13543
organization	-13544
▁mos	-13545
forall	-13546
community	-13547
▁centroid	-13548
ues	-13549
▁dml	-13550
▁4));	-13551
▁crawler	-13552
▁##########	-13553
065	-13554
hide	-13555
▁keccak	-13556
supported	-13557
▁occurrences	-13558
▁confirmation	-13559
▁'{{	-13560
▁mraa	-13561
▁welcome	-13562
▁subclasses	-13563
(1024	-13564
▁halt	-13565
▁looper	-13566
▁chained	-13567
▁rsocket	-13568
▁errorimport	-13569
(({	-13570
▁lx	-13571
▁tot	-13572
▁guava	-13573
defs	-13574
▁██	-13575
converter	-13576
▁retrieval	-13577
▁andlimitations	-13578
<$	-13579
▁quer	-13580
ystick	-13581
▁sens	-13582
▁sharp	-13583
▁timeouts	-13584
▁auxiliary	-13585
*|	-13586
ea	-13587
▁subtracted	-13588
▁linecap	-13589
▁'=	-13590
▁staged	-13591
▁watched	-13592
▁printable	-13593
▁webdriver	-13594
▁gm	-13595
curry	-13596
▁raised	-13597
([[	-13598
▁aad	-13599
▁aggr	-13600
99999999	-13601
▁ku	-13602
quee	-13603
:8080	-13604
preview	-13605
▁subsystem	-13606
▁ki	-13607
▁gcc	-13608
grading	-13609
▁messenger	-13610
▁whisk	-13611
▁icicle	-13612
▁zalando	-13613
dbg	-13614
sky	-13615
▁gist	-13616
▁#####	-13617
▁firmware	-13618
▁orchestrator	-13619
▁444	-13620
▁shot	-13621
▁12345	-13622
▁scalan	-13623
▁approach	-13624
consistent	-13625
▁deployments	-13626
nbsp	-13627
▁refund	-13628
▁1999-2018	-13629
▁rebalance	-13630
▁outworkers	-13631
ffee	-13632
▁kms	-13633
▁impulse	-13634
▁inset	-13635
general	-13636
lighter	-13637
▁behave	-13638
▁pushtorefresh	-13639
xd	-13640
▁70,	-13641
ollar	-13642
▁volt	-13643
▁controlled	-13644
▁hdl	-13645
▁templ	-13646
▁attempting	-13647
migration	-13648
selves	-13649
▁oneof	-13650
▁sites	-13651
▁unpin	-13652
▁metals	-13653
+/	-13654
(10),	-13655
▁inode	-13656
allocated	-13657
phi	-13658
sun	-13659
ldns	-13660
▁aac	-13661
shuffle	-13662
▁interrupts	-13663
#)	-13664
gm	-13665
{},	-13666
▁xxl	-13667
▁crlf	-13668
▁adjusted	-13669
▁linejoin	-13670
▁acknowled	-13671
2,3	-13672
prompt	-13673
ury	-13674
▁storio	-13675
owned	-13676
▁movies	-13677
▁generally	-13678
▁unnecessary	-13679
kill	-13680
ngraph	-13681
▁defining	-13682
▁establis	-13683
▁uploader	-13684
()//	-13685
issa	-13686
▁}"#	-13687
▁bitrate	-13688
▁spanned	-13689
fif	-13690
▁44,	-13691
uxing	-13692
▁blah	-13693
dock	-13694
rona	-13695
what	-13696
▁sans	-13697
▁sohu	-13698
guid	-13699
▁(-1	-13700
▁wol	-13701
umpad	-13702
▁killed	-13703
▁exceeds	-13704
▁timings	-13705
▁xm	-13706
▁prices	-13707
▁scalac	-13708
wa	-13709
▁deno	-13710
▁inclusion	-13711
▁keepalive	-13712
▁technology	-13713
:1,	-13714
▁/\.	-13715
▁thr	-13716
ufact	-13717
vents	-13718
▁})).	-13719
failover	-13720
+1);	-13721
enta	-13722
▁spd	-13723
anios	-13724
chen	-13725
════	-13726
▁32(0	-13727
▁patent	-13728
▁coalesce	-13729
▁constellation	-13730
jc	-13731
▁[3,	-13732
▁cge	-13733
▁ppc	-13734
▁dls	-13735
▁sar	-13736
▁needle	-13737
▁taking	-13738
reporter	-13739
▁idimport	-13740
dependencies	-13741
这个	-13742
ski	-13743
▁peripher	-13744
=="	-13745
apon	-13746
bots	-13747
▁111	-13748
▁120	-13749
▁dry	-13750
▁sess	-13751
▁doraemon	-13752
▁equation	-13753
quit	-13754
▁tdb	-13755
▁eric	-13756
jit	-13757
▁inverted	-13758
▁:+:	-13759
intercept	-13760
对应	-13761
▁diagonal	-13762
permissions	-13763
▁eh	-13764
▁andengine	-13765
▁unitimport	-13766
erdp	-13767
ghost	-13768
ratio	-13769
▁quarter	-13770
▁acceptor	-13771
▁scroller	-13772
▁energy	-13773
方式	-13774
128	-13775
uts	-13776
;");	-13777
▁sla	-13778
▁wor	-13779
▁tasty	-13780
▁effort	-13781
templates	-13782
▁~(	-13783
▁/></	-13784
▁ossl	-13785
▁klass	-13786
▁agrona	-13787
▁platanios	-13788
)();	-13789
▁61,	-13790
▁ssa	-13791
▁differences	-13792
turn	-13793
wchar	-13794
modify	-13795
▁espress	-13796
structopt	-13797
▁monitors	-13798
▁etag	-13799
▁clocks	-13800
▁]),	-13801
▁isr	-13802
▁reminder	-13803
▁wordspec	-13804
▁dataframe	-13805
7)	-13806
mapp	-13807
▁prt	-13808
▁mont	-13809
▁centers	-13810
flip	-13811
▁apis	-13812
▁chaos	-13813
errcode	-13814
iq	-13815
路径	-13816
▁5],	-13817
▁reconciliation	-13818
▁234	-13819
▁\""	-13820
▁cec	-13821
▁437('	-13822
ichuxing	-13823
▁selenium	-13824
но	-13825
▁burst	-13826
▁attribs	-13827
▁didichuxing	-13828
测试	-13829
▁snack	-13830
▁captures	-13831
(*)	-13832
(?:\	-13833
▁..=	-13834
▁dbgln	-13835
▁florian	-13836
▁abstraction	-13837
pci	-13838
▁"".	-13839
ameta	-13840
▁exposure	-13841
`(	-13842
▁=:	-13843
▁2048	-13844
▁marr	-13845
▁<<=	-13846
?.().	-13847
decoded	-13848
▁equipped	-13849
▁customers	-13850
wide	-13851
▁15:	-13852
▁adt	-13853
lumen	-13854
▁batched	-13855
▁rewriter	-13856
xmpp	-13857
▁mind	-13858
alogging	-13859
▁oi	-13860
()],	-13861
liqu	-13862
▁6),	-13863
▁exti	-13864
▁scalalogging	-13865
ctr	-13866
▁0)))	-13867
▁south	-13868
(...)	-13869
▁boat	-13870
▁disput	-13871
▁в	-13872
▁parsec	-13873
composite	-13874
代码	-13875
▁bufs	-13876
▁fuzzy	-13877
▁courses	-13878
▁cim	-13879
▁drm	-13880
▁uchar	-13881
nik	-13882
chalk	-13883
▁spire	-13884
rtp	-13885
▁sky	-13886
▁cabal	-13887
queries	-13888
▁chaining	-13889
▁projected	-13890
)/,	-13891
▁infoton	-13892
▁overall	-13893
netty	-13894
▁123,	-13895
▁columnar	-13896
▁door	-13897
▁endif	-13898
runstate	-13899
显示	-13900
ees	-13901
▁/>,	-13902
▁jose	-13903
▁scorex	-13904
▁saturation	-13905
▁ya	-13906
▁8601	-13907
ungeon	-13908
▁resum	-13909
▁stripe	-13910
50,	-13911
tre	-13912
coding	-13913
▁kyuubi	-13914
▁liftweb	-13915
>>;	-13916
▁bases	-13917
▁optimal	-13918
▁encoders	-13919
▁behaviors	-13920
]];	-13921
>>,}	-13922
▁anon	-13923
▁keywhiz	-13924
▁|(	-13925
many	-13926
▁51,	-13927
▁pck	-13928
instances	-13929
▁populated	-13930
▁refactoring	-13931
("|	-13932
▁mxc	-13933
▁easier	-13934
▁divided	-13935
▁adaptive	-13936
▁cancellable	-13937
mgr	-13938
▁testutils	-13939
(64	-13940
boss	-13941
▁rcv	-13942
▁fres	-13943
exceptions	-13944
▁(++	-13945
▁apb	-13946
▁bpf	-13947
▁diffs	-13948
▁physics	-13949
icol	-13950
为空	-13951
/")	-13952
▁psc	-13953
▁doraemonkit	-13954
4]	-13955
▁8-	-13956
added	-13957
▁0;}/*	-13958
▁casper	-13959
▁fluvio	-13960
▁identities	-13961
mg	-13962
<?>[]	-13963
inher	-13964
не	-13965
mur	-13966
▁"="	-13967
▁heav	-13968
▁webp	-13969
hen	-13970
▁decorate	-13971
▁openwhisk	-13972
▁prettier	-13973
▁1=	-13974
▁[]);	-13975
provide	-13976
▁subtree	-13977
recursive	-13978
▁symmetric	-13979
记录	-13980
\":[	-13981
▁dct	-13982
(3));	-13983
strnc	-13984
▁tried	-13985
▁department	-13986
▁transitive	-13987
lr	-13988
▁minimize	-13989
ought	-13990
yellow	-13991
▁refimport	-13992
▁materialize	-13993
41	-13994
▁vy	-13995
ools	-13996
delet	-13997
▁rhea	-13998
372	-13999
▁(10	-14000
('/')	-14001
memcmp	-14002
palette	-14003
▁excludes	-14004
▁observation	-14005
ince	-14006
▁",[	-14007
▁cogen	-14008
▁robin	-14009
▁spotless	-14010
cms	-14011
erts	-14012
erlock	-14013
distribution	-14014
gfx	-14015
▁>>();	-14016
▁pname	-14017
▁inheritance	-14018
▁anton	-14019
peek	-14020
▁wen	-14021
▁setimport	-14022
▁perms	-14023
▁webview	-14024
hh	-14025
qa	-14026
wgpu	-14027
▁talk	-14028
▁commonsware	-14029
returns	-14030
300	-14031
▁till	-14032
▁2008-	-14033
▁uniphier	-14034
▁typescript	-14035
{}]	-14036
atal	-14037
*2	-14038
▁batis	-14039
▁referer	-14040
5);	-14041
>>(&	-14042
iary	-14043
▁pip	-14044
rotate	-14045
scaler	-14046
▁brotli	-14047
▁affinity	-14048
▁4).	-14049
▁ckb	-14050
drive	-14051
optarg	-14052
aaaaaaaaaaaaaaaa	-14053
%02	-14054
usc	-14055
iflow	-14056
▁----	-14057
▁ndarray	-14058
something	-14059
▁atoms	-14060
▁overriding	-14061
tting	-14062
▁dos	-14063
▁notation	-14064
▁describes	-14065
▁destructor	-14066
?',	-14067
▁rts	-14068
curve	-14069
▁episode	-14070
▁existence	-14071
▁pdata	-14072
▁braces	-14073
▁bpp	-14074
yield	-14075
▁-----	-14076
▁easing	-14077
▁compared	-14078
▁);}#	-14079
crum	-14080
▁chrom	-14081
▁iomux	-14082
▁mware	-14083
ups	-14084
▁pmic	-14085
footer	-14086
▁keeps	-14087
▁polym	-14088
▁11:	-14089
(());	-14090
▁redux	-14091
transformer	-14092
dss	-14093
▁uu	-14094
(5),	-14095
▁gte	-14096
▁')),	-14097
members	-14098
▁pixmap	-14099
▁finding	-14100
▁mkdirs	-14101
▁exclusion	-14102
▁wf	-14103
#"{"	-14104
flux	-14105
mnop	-14106
golly	-14107
▁daniel	-14108
▁merger	-14109
fav	-14110
dram	-14111
▁mth	-14112
▁txp	-14113
ament	-14114
hooks	-14115
▁scales	-14116
pressure	-14117
("+	-14118
hard	-14119
isli	-14120
▁"#,	-14121
▁muxer	-14122
▁bitfinex	-14123
▁attempted	-14124
▁violations	-14125
▁unreferenced	-14126
rity	-14127
panel	-14128
▁texts	-14129
▁timeval	-14130
▁contended	-14131
▁unwrapped	-14132
-'	-14133
▁titles	-14134
▁friendly	-14135
▁meg	-14136
▁3000	-14137
deprecated	-14138
▁1<	-14139
abling	-14140
cassandra	-14141
▁aave	-14142
[0]));	-14143
▁funding	-14144
▁popular	-14145
▁concurrently	-14146
jvm	-14147
▁chacha	-14148
▁selectable	-14149
&&!	-14150
▁vrf	-14151
▁joins	-14152
alignment	-14153
▁lvl	-14154
▁{:?}	-14155
alo	-14156
oooo	-14157
▁80)	-14158
calate	-14159
▁keras	-14160
encrypted	-14161
▁00000000,	-14162
▁introspect	-14163
▁inh	-14164
▁$("#	-14165
▁unparse	-14166
▁verifies	-14167
▁300,	-14168
▁food	-14169
▁orphan	-14170
▁dataimport	-14171
bet	-14172
▁{2	-14173
▁ioctl	-14174
▁constr	-14175
▁stress	-14176
▁completions	-14177
enity	-14178
▁llvh	-14179
phantom	-14180
▁返回	-14181
esome	-14182
00000,	-14183
发送	-14184
fcntl	-14185
▁deck	-14186
▁.!	-14187
good	-14188
cases	-14189
bw	-14190
qq	-14191
}--	-14192
trim	-14193
▁pss	-14194
▁integrations	-14195
▁%.	-14196
▁ug	-14197
(-1)	-14198
olia	-14199
▁granularity	-14200
4;	-14201
>>::	-14202
half	-14203
▁5).	-14204
▁xdg	-14205
proof	-14206
▁rates	-14207
▁flatspec	-14208
▁localized	-14209
expressions	-14210
das	-14211
rss	-14212
▁amf	-14213
▁nam	-14214
▁rtsp	-14215
▁performing	-14216
▁transformers	-14217
kers	-14218
▁six	-14219
▁slate	-14220
such	-14221
▁@--	-14222
(1000)	-14223
▁prevents	-14224
▁3},	-14225
▁growth	-14226
▁semver	-14227
▁diagram	-14228
▁polyline	-14229
5;	-14230
pq	-14231
▁mas	-14232
(""),	-14233
▁enet	-14234
operators	-14235
▁coreimport	-14236
>(*	-14237
▁etcd	-14238
===========	-14239
mtx	-14240
rim	-14241
▁rxjava	-14242
variables	-14243
▁skeleton	-14244
bold	-14245
▁outlet	-14246
orientation	-14247
encing	-14248
yun	-14249
▁08,	-14250
▁[...	-14251
fee	-14252
aine	-14253
▁tps	-14254
▁objs	-14255
▁ccall	-14256
▁searches	-14257
▁threadpool	-14258
▁asynchronously	-14259
websocket	-14260
▁scribejava	-14261
{0	-14262
14748	-14263
price	-14264
▁offs	-14265
▁agreement	-14266
cas	-14267
▁ucl	-14268
(255,	-14269
▁strictly	-14270
▁finalized	-14271
错误	-14272
▁256))	-14273
▁games	-14274
▁bubble	-14275
▁calculates	-14276
▁newlines	-14277
▁24;	-14278
▁absa	-14279
▁diam	-14280
▁shaders	-14281
▁surrogate	-14282
▁contiguous	-14283
▁acknowledge	-14284
irq	-14285
emit	-14286
(1)),	-14287
slider	-14288
▁dollar	-14289
▁piskel	-14290
▁ambiguous	-14291
pll	-14292
0101	-14293
wave	-14294
▁rle	-14295
▁loge	-14296
fluent	-14297
▁mtime	-14298
▁pract	-14299
▁explan	-14300
+)?	-14301
▁emi	-14302
▁sole	-14303
▁realtime	-14304
deserializer	-14305
**************	-14306
▁paged	-14307
▁recre	-14308
▁stacktrace	-14309
vv	-14310
]){	-14311
fort	-14312
▁okay	-14313
▁mosby	-14314
again	-14315
▁sage	-14316
icolas	-14317
▁scrollable	-14318
▁ciph	-14319
inside	-14320
toolbar	-14321
▁equipment	-14322
▁bow	-14323
[0-9]+	-14324
▁intersects	-14325
idable	-14326
▁wayland	-14327
▁proposed	-14328
▁toolchain	-14329
▁zs	-14330
▁dtg	-14331
▁}///	-14332
▁aggregations	-14333
系统	-14334
初始化	-14335
▁mim	-14336
monix	-14337
spatial	-14338
}],	-14339
▁vdom	-14340
▁earlier	-14341
[`	-14342
tz	-14343
jinni	-14344
▁"]";	-14345
styled	-14346
▁")]),	-14347
sthrough	-14348
▁outdent	-14349
dispatcher	-14350
▁preprocess	-14351
▁querystring	-14352
▁redirection	-14353
yyyy	-14354
▁buflen	-14355
▁mutableimport	-14356
anami	-14357
▁recaf	-14358
▁sorts	-14359
plug	-14360
▁"{0}	-14361
▁geek	-14362
invest	-14363
▁['@	-14364
▁happy	-14365
▁enhanced	-14366
secs	-14367
▁etl	-14368
fname	-14369
▁dungeon	-14370
registration	-14371
aper	-14372
scape	-14373
aineer	-14374
unpack	-14375
amountaineer	-14376
:"+	-14377
ilog	-14378
▁hon	-14379
units	-14380
winpr	-14381
▁');}	-14382
▁emoj	-14383
▁desug	-14384
▁locality	-14385
▁yr	-14386
aven	-14387
▁ill	-14388
▁retrying	-14389
▁datamountaineer	-14390
>1	-14391
!();	-14392
▁15;	-14393
▁beg	-14394
▁gst	-14395
boxed	-14396
▁behind	-14397
yes	-14398
care	-14399
deps	-14400
▁plo	-14401
▁anyway	-14402
▁resolving	-14403
▁ran	-14404
▁plug	-14405
chunks	-14406
▁dtsec	-14407
▁billing	-14408
▁satisfies	-14409
%%	-14410
-$	-14411
)""	-14412
▁metas	-14413
▁gamelog	-14414
translation	-14415
▁diskstorage	-14416
▁ffd	-14417
────────	-14418
ст	-14419
ately	-14420
▁/>);	-14421
▁invoking	-14422
://:	-14423
weet	-14424
[0]->	-14425
▁pand	-14426
▁spar	-14427
hold	-14428
▁ucmd	-14429
▁2020,	-14430
▁hoist	-14431
▁featur	-14432
▁japgolly	-14433
▁/(	-14434
▁nib	-14435
▁deserializ	-14436
jp	-14437
uges	-14438
▁bars	-14439
▁morphism	-14440
=!0;	-14441
>/*	-14442
mute	-14443
▁vlen	-14444
evaluate	-14445
▁abbrevi	-14446
91	-14447
()"	-14448
eterm	-14449
repos	-14450
▁imap	-14451
▁encaps	-14452
succeeded	-14453
))?	-14454
sgx	-14455
ules	-14456
▁eqs	-14457
▁wswc	-14458
▁rawtypes	-14459
▁">{	-14460
▁combinations	-14461
ierc	-14462
▁.${	-14463
▁joe	-14464
lible	-14465
▁jsoup	-14466
▁clicks	-14467
▁lovelace	-14468
▁interpreted	-14469
spackage	-14470
▁handlebars	-14471
defer	-14472
▁jersey	-14473
▁harmony	-14474
▁characteristic	-14475
formats	-14476
▁safari	-14477
▁metastore	-14478
persistence	-14479
▁alle	-14480
▁emer	-14481
▁dtype	-14482
▁saver	-14483
▁dynamodb	-14484
▁distributedlog	-14485
{2,	-14486
▁zy	-14487
ansi	-14488
▁exited	-14489
▁stereo	-14490
ude	-14491
▁ei	-14492
▁xk	-14493
)///	-14494
assured	-14495
flatten	-14496
▁mailbox	-14497
every	-14498
gus	-14499
▁delimiters	-14500
▁requesting	-14501
elems	-14502
*****/	-14503
4);	-14504
sera	-14505
▁adam	-14506
ission	-14507
wizard	-14508
▁lending	-14509
▁exclusions	-14510
▁denominator	-14511
▁instantiated	-14512
▁translations	-14513
bsd	-14514
lsl	-14515
▁knob	-14516
determ	-14517
▁compens	-14518
does	-14519
preset	-14520
▁2021,	-14521
▁scorer	-14522
▁cleaned	-14523
▁decompressor	-14524
pdf	-14525
▁5000	-14526
▁syms	-14527
▁xnio	-14528
▁demux	-14529
▁tablet	-14530
▁placeholders	-14531
;.	-14532
dct	-14533
haus	-14534
▁guarded	-14535
▁borrowed	-14536
slug	-14537
▁bread	-14538
▁contram	-14539
▁happened	-14540
▁8859	-14541
▁hence	-14542
▁noinline	-14543
▁manufact	-14544
meth	-14545
▁",/^	-14546
applic	-14547
▁sortable	-14548
ре	-14549
)('	-14550
tooltip	-14551
▁bigger	-14552
>';	-14553
▁42;	-14554
ghijkl	-14555
▁lenient	-14556
▁bijection	-14557
▁jss	-14558
▁primes	-14559
▁invaliddata	-14560
▁builderimport	-14561
▁scss	-14562
▁contramap	-14563
▁plg	-14564
▁fsck	-14565
▁opcodes	-14566
▁$!	-14567
▁$"	-14568
▁wdf	-14569
▁molec	-14570
stuffer	-14571
initialized	-14572
▁preprocessor	-14573
▁sometimes	-14574
(/*	-14575
▁"][	-14576
▁mad	-14577
▁pipes	-14578
▁sgmii	-14579
▁sweep	-14580
graphql	-14581
▁buttplug	-14582
-15	-14583
mega	-14584
codes	-14585
trunc	-14586
▁meet	-14587
());}#[	-14588
▁nebula	-14589
▁gettime	-14590
▁traverser	-14591
▁interactor	-14592
]('	-14593
▁afl	-14594
▁boom	-14595
▁cmds	-14596
urses	-14597
▁skills	-14598
项目	-14599
▁adaptor	-14600
etc	-14601
▁secp	-14602
inates	-14603
▁iimport	-14604
▁staking	-14605
management	-14606
\","	-14607
▁wix	-14608
({});	-14609
▁madvoc	-14610
▁downloader	-14611
;/	-14612
▁420	-14613
▁relocation	-14614
▁&["	-14615
hyper	-14616
▁flus	-14617
▁wrote	-14618
▁nw	-14619
],["	-14620
▁eta	-14621
▁tax	-14622
stdin	-14623
▁mant	-14624
▁wuffs	-14625
▁closes	-14626
nullable	-14627
nul	-14628
rst	-14629
anbul	-14630
mysql	-14631
="#	-14632
qrst	-14633
[3]);	-14634
▁}/**	-14635
▁threading	-14636
▁restassured	-14637
▁74,	-14638
ktape	-14639
▁scalafmt	-14640
验证	-14641
▁coursera	-14642
▁scalding	-14643
;',	-14644
aste	-14645
▁38,	-14646
golden	-14647
▁profe	-14648
▁improve	-14649
deli	-14650
▁90,	-14651
▁cntl	-14652
▁tink	-14653
ographic	-14654
▁engines	-14655
closeable	-14656
▁lowlevel	-14657
▁descendant	-14658
▁reflective	-14659
................	-14660
:<	-14661
tun	-14662
▁accel	-14663
▁disrupt	-14664
▁projections	-14665
▁qty	-14666
▁dill	-14667
curses	-14668
▁eight	-14669
▁trick	-14670
▁starter	-14671
▁highlighter	-14672
--------------//	-14673
($"	-14674
works	-14675
▁strs	-14676
decltype	-14677
hwnd	-14678
▁50;	-14679
▁signum	-14680
matching	-14681
▁accumulo	-14682
▁datamodel	-14683
edges	-14684
▁helib	-14685
polygon	-14686
elt	-14687
▁5));	-14688
▁ment	-14689
overview	-14690
▁unhealthy	-14691
1,"	-14692
jest	-14693
hystrix	-14694
por	-14695
▁treated	-14696
▁navigable	-14697
rius	-14698
▁(2)	-14699
▁{//!	-14700
webkit	-14701
▁buyer	-14702
▁remap	-14703
▁123456789	-14704
▁wakeup	-14705
▁insecure	-14706
noinspection	-14707
▁ftx	-14708
▁monday	-14709
▁telnet	-14710
▁replies	-14711
alsa	-14712
▁pinmux	-14713
▁pruning	-14714
deg	-14715
sug	-14716
▁yw	-14717
colo	-14718
▁lamp	-14719
▁binlog	-14720
303	-14721
(3))	-14722
▁(--	-14723
▁livy	-14724
▁swapchain	-14725
▁asg	-14726
sensor	-14727
▁inlined	-14728
={()	-14729
npos	-14730
▁]],	-14731
aches	-14732
{\	-14733
▁rq	-14734
▁um	-14735
▁drivers	-14736
▁precise	-14737
▁associate	-14738
81	-14739
)("	-14740
tup	-14741
vendor	-14742
positive	-14743
▁greeter	-14744
▁minecraft	-14745
:9	-14746
开始	-14747
▁outstanding	-14748
格式	-14749
onum	-14750
zier	-14751
▁dots	-14752
▁macos	-14753
▁readdir	-14754
▁finalizer	-14755
▁noisepage	-14756
])}	-14757
▁eno	-14758
jedis	-14759
letter	-14760
=[];	-14761
▁tac	-14762
reedy	-14763
("{}	-14764
▁$/,	-14765
▁iff	-14766
▁waits	-14767
▁merging	-14768
▁imagepipeline	-14769
▁jn	-14770
skill	-14771
▁upms	-14772
▁korean	-14773
▁panics	-14774
▁terminator	-14775
oni	-14776
▁*/)	-14777
▁unmap	-14778
▁passwd	-14779
▁piflow	-14780
lut	-14781
bias	-14782
▁adb	-14783
retval	-14784
▁resamp	-14785
▁privacy	-14786
▁casc	-14787
▁idct	-14788
▁msec	-14789
▁emerg	-14790
javadoc	-14791
filepath	-14792
▁adjustment	-14793
who	-14794
▁:::	-14795
▁sbp	-14796
▁sales	-14797
▁serenity	-14798
[7]	-14799
▁msb	-14800
▁intl	-14801
▁crossdata	-14802
▁typeclass	-14803
▁2=	-14804
▁//$	-14805
▁mss	-14806
▁64>,	-14807
;};/**	-14808
ingu	-14809
▁jts	-14810
▁loopback	-14811
={`	-14812
▁250	-14813
adapt	-14814
▁crdt	-14815
nostic	-14816
▁hybrid	-14817
▁imx	-14818
▁normals	-14819
▁specclass	-14820
▁occurrence	-14821
bj	-14822
▁cull	-14823
▁snackbar	-14824
▁dynamically	-14825
isheng	-14826
▁searchable	-14827
==="	-14828
blank	-14829
▁sund	-14830
uz	-14831
sil	-14832
versions	-14833
lifecycle	-14834
▁computing	-14835
▁vv	-14836
▁heal	-14837
▁rsvd	-14838
(30	-14839
aria	-14840
ivec	-14841
pkcs	-14842
▁libssh	-14843
▁onigenc	-14844
▁liblumen	-14845
▁watchdog	-14846
▁pony	-14847
▁sigar	-14848
▁trading	-14849
▁2017-2021	-14850
▁equivalence	-14851
▁cend	-14852
leader	-14853
▁`$	-14854
▁deviation	-14855
▁下午	-14856
▁1};	-14857
▁<?>	-14858
liquid	-14859
lidean	-14860
▁joystick	-14861
iated	-14862
strncmp	-14863
▁memcmp	-14864
uk	-14865
)?.	-14866
asus	-14867
▁lfloat	-14868
▁requester	-14869
elasticsearch	-14870
)";	-14871
emy	-14872
hmac	-14873
▁npc	-14874
▁sta	-14875
▁tpm	-14876
▁axiom	-14877
employee	-14878
▁correspond	-14879
▁soon	-14880
▁hexa	-14881
▁easily	-14882
▁tupled	-14883
▁assured	-14884
"},	-14885
perm	-14886
▁2){	-14887
▁gdbm	-14888
▁increasing	-14889
▁intersector	-14890
▁vh	-14891
▁cam	-14892
extent	-14893
▁)*	-14894
▁66,	-14895
brief	-14896
▁trib	-14897
▁david	-14898
▁prere	-14899
▁khronos	-14900
/19	-14901
▁metal	-14902
▁stemmer	-14903
▁uniswap	-14904
▁catalogs	-14905
!!!!	-14906
square	-14907
▁validations	-14908
▁3\	-14909
▁ry	-14910
)});	-14911
▁16),	-14912
▁0000,	-14913
▁bounc	-14914
▁cimport	-14915
▁predictions	-14916
订单	-14917
=",	-14918
▁cpuid	-14919
▁hudson	-14920
▁appears	-14921
▁rejects	-14922
▁predictor	-14923
[64	-14924
glfw	-14925
▁raws	-14926
,:	-14927
-=-=	-14928
▁raml	-14929
▁driven	-14930
fw	-14931
▁bdev	-14932
▁quux	-14933
tokenizer	-14934
▁sourceimport	-14935
!</	-14936
tabs	-14937
iveness	-14938
▁rethrow	-14939
▁eos	-14940
▁xds	-14941
▁joining	-14942
▁nicolas	-14943
▁squareup	-14944
▁committer	-14945
▁durations	-14946
▁gregorian	-14947
via	-14948
▁802	-14949
eof	-14950
▁|]	-14951
▁janu	-14952
@@	-14953
▁mips	-14954
▁uploaded	-14955
▁commission	-14956
npm	-14957
▁ares	-14958
tol	-14959
▁reverts	-14960
▁accepting	-14961
▁.~	-14962
▁gx	-14963
merged	-14964
setter	-14965
▁istanbul	-14966
▁163	-14967
▁blackbox	-14968
lx	-14969
)]]	-14970
▁sph	-14971
/?	-14972
predict	-14973
▁provisioning	-14974
dag	-14975
fri	-14976
▁3->	-14977
▁00000	-14978
▁salary	-14979
▁2011-2021	-14980
grp	-14981
bject	-14982
▁datatypes	-14983
9)	-14984
自定义	-14985
▁***	-14986
▁003	-14987
▁writeable	-14988
▁gauges	-14989
/14	-14990
hir	-14991
▁subtra	-14992
represent	-14993
连接	-14994
millis	-14995
2:	-14996
)/*	-14997
▁223	-14998
▁vpn	-14999
▁01);	-15000
▁maur	-15001
uctive	-15002
▁invol	-15003
picture	-15004
▁exhausted	-15005
▁explanation	-15006
0:	-15007
xm	-15008
advance	-15009
▁proofs	-15010
▁sentry	-15011
▁linkplain	-15012
)/**	-15013
quis	-15014
▁dfa	-15015
▁lte	-15016
▁owns	-15017
ckeditor	-15018
▁existed	-15019
▁initiated	-15020
▁transporter	-15021
ple	-15022
▁ow	-15023
▁requestimport	-15024
▁gcd	-15025
prett	-15026
▁bencher	-15027
▁markets	-15028
{2}	-15029
fuzz	-15030
▁ccc	-15031
▁808	-15032
▁touched	-15033
▁tofu	-15034
market	-15035
▁infoimport	-15036
▁49,	-15037
▁pca	-15038
oline	-15039
sound	-15040
ystuff	-15041
▁unboxed	-15042
ghijklmnop	-15043
▁commander	-15044
▁bgfx	-15045
▁laun	-15046
shr	-15047
▁valu	-15048
flight	-15049
▁promp	-15050
▁fresco	-15051
▁spline	-15052
▁rowimport	-15053
▁synchronize	-15054
(0<	-15055
967	-15056
▁56,	-15057
▁gossip	-15058
▁achieve	-15059
▁disruptor	-15060
wit	-15061
▁9:	-15062
▁<:<	-15063
mtime	-15064
▁swit	-15065
▁tomcat	-15066
▁0123456789	-15067
商品	-15068
watcher	-15069
▁archives	-15070
▁routines	-15071
▁httpclient	-15072
aked	-15073
ited	-15074
▁hosted	-15075
▁eviction	-15076
additional	-15077
▁replacing	-15078
\\/	-15079
sex	-15080
▁(8	-15081
▁-7	-15082
)"),	-15083
▁gens	-15084
▁domin	-15085
▁graceful	-15086
<2	-15087
nos	-15088
0,1,	-15089
▁52,	-15090
▁nol	-15091
▁bert	-15092
▁damp	-15093
▁fini	-15094
▁fflush	-15095
▁transc	-15096
▁codepoint	-15097
(-0	-15098
(7)	-15099
+1]	-15100
urls	-15101
▁bfs	-15102
rance	-15103
▁defl	-15104
▁lily	-15105
princip	-15106
requested	-15107
(128	-15108
6666	-15109
▁kes	-15110
▁wpa	-15111
(2)).	-15112
▁srgb	-15113
14748364	-15114
▁cmdline	-15115
▁logback	-15116
▁(5	-15117
▁0//	-15118
▁1111	-15119
osmium	-15120
▁doper	-15121
▁scanline	-15122
serializable	-15123
▁accompanies	-15124
kw	-15125
▁htm	-15126
radata	-15127
▁encodings	-15128
▁204	-15129
terms	-15130
(1000,	-15131
▁quadr	-15132
▁parserimport	-15133
▁00)	-15134
behav	-15135
▁ebpf	-15136
beacon	-15137
▁renew	-15138
▁(){	-15139
▁dsc	-15140
▁confirmed	-15141
oon	-15142
▁::=	-15143
▁mst	-15144
▁resets	-15145
(&*	-15146
men	-15147
▁crd	-15148
▁vss	-15149
rendered	-15150
:59	-15151
▁cz	-15152
▁jfx	-15153
▁corpus	-15154
▁reliable	-15155
▁languageserver	-15156
=*/	-15157
▁xsl	-15158
▁nmalloc	-15159
▁synonyms	-15160
▁spookystuff	-15161
}#	-15162
▁2);}	-15163
:8,	-15164
▁mur	-15165
▁wil	-15166
▁apic	-15167
▁tape	-15168
rained	-15169
dorfmann	-15170
▁directed	-15171
▁hannesdorfmann	-15172
$.	-15173
idi	-15174
▁2};	-15175
▁unref	-15176
▁backbone	-15177
▁schemaimport	-15178
000/	-15179
▁bes	-15180
▁setters	-15181
="'	-15182
▁*/{	-15183
▁[1]	-15184
▁bip	-15185
ffffff	-15186
syscall	-15187
▁accent	-15188
▁underflow	-15189
▁checkpoints	-15190
直接	-15191
logo	-15192
-2014	-15193
configs	-15194
▁hashmap	-15195
▁magenta	-15196
datasource	-15197
annotations	-15198
▁disposed	-15199
▁demonstrates	-15200
回调	-15201
cuda	-15202
gather	-15203
▁paypal	-15204
▁searching	-15205
[0][	-15206
schemas	-15207
▁700	-15208
/////	-15209
▁tsec	-15210
curator	-15211
keywords	-15212
▁gamepad	-15213
==0)	-15214
▁kvs	-15215
deref	-15216
▁1970	-15217
choice	-15218
timing	-15219
qrstuvw	-15220
▁chains	-15221
cod	-15222
▁delt	-15223
▁hasn	-15224
▁april	-15225
▁analog	-15226
▁complement	-15227
($.	-15228
▁1("	-15229
▁")";	-15230
▁logistic	-15231
▁programming	-15232
usd	-15233
▁"""{	-15234
stored	-15235
▁coley	-15236
▁curry	-15237
▁usable	-15238
▁weapon	-15239
eterminate	-15240
nm	-15241
▁rele	-15242
▁stra	-15243
▁cmwell	-15244
▁mconcat	-15245
▁satisfied	-15246
▁googlecode	-15247
authenticated	-15248
ards	-15249
▁"["	-15250
▁<->	-15251
▁jak	-15252
▁modulo	-15253
▁uninitialized	-15254
=/^	-15255
▁4-	-15256
seat	-15257
lings	-15258
prefab	-15259
▁tiled	-15260
▁geomet	-15261
checkbox	-15262
oot	-15263
▁pty	-15264
ifold	-15265
<>());	-15266
:0,	-15267
▁pil	-15268
▁elev	-15269
▁pickup	-15270
anc	-15271
[1024	-15272
iterations	-15273
▁elig	-15274
▁hyph	-15275
▁canary	-15276
visibility	-15277
jsx	-15278
roo	-15279
▁212	-15280
▁302	-15281
▁54,	-15282
▁rcc	-15283
manual	-15284
prepared	-15285
▁relying	-15286
▁intentionally	-15287
▁`/	-15288
("//	-15289
▁4->	-15290
▁hie	-15291
-2015	-15292
knife	-15293
wealth	-15294
▁exiting	-15295
▁collapser	-15296
за	-15297
▁aid	-15298
queued	-15299
▁regional	-15300
▁intensity	-15301
://"	-15302
mpsc	-15303
▁combat	-15304
▁autotest	-15305
▁&[],	-15306
bloids	-15307
▁deinit	-15308
▁nickname	-15309
▁federation	-15310
▁profession	-15311
rod	-15312
▁30)	-15313
itored	-15314
▁");});	-15315
▁residual	-15316
lld	-15317
zoom	-15318
▁lsb	-15319
▁oak	-15320
(10).	-15321
▁1999-2019	-15322
▁deregister	-15323
▁tribbloids	-15324
▁|<	-15325
&&0<	-15326
▁plush	-15327
▁shuff	-15328
padapter	-15329
▁commitment	-15330
▁commonwealth	-15331
moid	-15332
▁iwdg	-15333
(8)	-15334
lam	-15335
caps	-15336
rope	-15337
▁simplifier	-15338
erna	-15339
nikov	-15340
registered	-15341
endifstatic	-15342
▁deactivate	-15343
################	-15344
▁200;	-15345
▁addon	-15346
▁:*	-15347
stud	-15348
parquet	-15349
▁borders	-15350
▁alphanum	-15351
▁classname	-15352
▁suiteclass	-15353
▁validating	-15354
ttl	-15355
▁vest	-15356
▁connectors	-15357
jq	-15358
lop	-15359
iton	-15360
▁cps	-15361
▁stash	-15362
chedule	-15363
▁errmsg	-15364
+0	-15365
▁nov	-15366
special	-15367
▁memcache	-15368
(32	-15369
(6)	-15370
▁'(	-15371
▁vcos	-15372
berg	-15373
ocle	-15374
▁++)	-15375
▁bbb	-15376
▁qux	-15377
alice	-15378
specs	-15379
iframe	-15380
▁combiner	-15381
▁triangles	-15382
(16,	-15383
▁++;	-15384
▁tcc	-15385
acher	-15386
orted	-15387
punct	-15388
▁scanning	-15389
}@	-15390
tar	-15391
▁heat	-15392
erscan	-15393
-(	-15394
-26	-15395
rue	-15396
▁waiters	-15397
[]{"	-15398
fusc	-15399
▁tpc	-15400
▁jfinal	-15401
▁2();	-15402
▁wart	-15403
expire	-15404
▁100000	-15405
(12,	-15406
}"),	-15407
▁kept	-15408
▁enrich	-15409
interpol	-15410
▁implimport	-15411
▁'!	-15412
▁exif	-15413
▁txid	-15414
15,	-15415
pie	-15416
trail	-15417
▁20000	-15418
▁lerna	-15419
osition	-15420
relations	-15421
▁72,	-15422
itivity	-15423
▁initially	-15424
▁privileged	-15425
*",	-15426
▁ada	-15427
itute	-15428
naming	-15429
▁themes	-15430
▁contextual	-15431
▁disposition	-15432
▁multiplication	-15433
▁@,	-15434
▁ay	-15435
([&](	-15436
▁bund	-15437
▁schemes	-15438
==============	-15439
▁'](	-15440
▁14:	-15441
▁glx	-15442
----+	-15443
three	-15444
▁inde	-15445
▁masks	-15446
▁emails	-15447
bob	-15448
don	-15449
▁#)	-15450
))--	-15451
▁hero	-15452
▁ptrs	-15453
▁ips	-15454
ignored	-15455
▁dispute	-15456
cart	-15457
fifo	-15458
quad	-15459
▁bcd	-15460
▁hor	-15461
▁mou	-15462
12}	-15463
etition	-15464
+1;	-15465
]"){	-15466
alph	-15467
▁63,	-15468
▁jud	-15469
▁","@	-15470
▁winpr	-15471
)(?:	-15472
addrs	-15473
-2018,	-15474
quiring	-15475
▁claimed	-15476
partitions	-15477
▁healthcheck	-15478
▁qpel	-15479
▁tray	-15480
▁marg	-15481
▁outs	-15482
▁parms	-15483
wat	-15484
▁sqr	-15485
sprite	-15486
▁parsley	-15487
fst	-15488
[2])	-15489
▁unc	-15490
▁benefic	-15491
cessarily	-15492
▁passthrough	-15493
>')	-15494
▁amq	-15495
▁framed	-15496
▁strncpy	-15497
------===	-15498
▁evolution	-15499
{2	-15500
)](	-15501
▁-(	-15502
[...]
