<unk>	0
<s>	0
</s>	0
<pad>	0
<endofline>	0
<endoftext>	0
▁.	-2.5564
▁(	-3.27001
▁,	-3.44397
▁=	-3.69316
▁{	-3.93888
▁)	-3.94761
▁"	-4.07846
▁;	-4.1141
▁}	-4.16153
▁:	-4.1826
▁'	-4.21142
▁/	-4.78964
▁import	-4.80132
▁$	-4.85908
▁1	-4.92206
▁0	-4.94471
▁);	-4.9606
▁->	-5.01043
▁[	-5.05027
▁-	-5.0703
▁get	-5.098
▁return	-5.10164
▁string	-5.15919
▁=>	-5.16833
▁()	-5.16903
▁public	-5.22976
▁if	-5.24059
▁',	-5.25311
▁#	-5.26509
▁this	-5.28777
▁name	-5.29937
▁",	-5.30353
▁test	-5.31529
▁\	-5.32706
▁to	-5.33613
▁2	-5.37833
▁class	-5.43254
▁type	-5.4447
▁::	-5.45492
▁end	-5.45914
▁("	-5.45966
▁new	-5.47785
▁<	-5.51164
▁t	-5.53586
▁a	-5.55336
▁self	-5.58989
▁id	-5.63279
▁@	-5.6677
▁function	-5.66877
▁assert	-5.69169
▁value	-5.70827
▁is	-5.75374
▁set	-5.76232
▁data	-5.8227
▁]	-5.83131
▁the	-5.86004
▁i	-5.87813
▁*	-5.88328
▁x	-5.89016
▁>	-5.91645
▁s	-5.94144
▁('	-5.99773
▁($	-6.03416
▁();	-6.06174
▁null	-6.06853
▁file	-6.07049
▁error	-6.10592
▁for	-6.11211
▁list	-6.11735
▁key	-6.11885
▁in	-6.12739
▁true	-6.14342
▁path	-6.16381
▁3	-6.16536
▁private	-6.16914
▁with	-6.21002
▁context	-6.22021
▁+	-6.2273
▁use	-6.24932
▁c	-6.25463
▁n	-6.25978
▁")	-6.26253
▁),	-6.26672
▁).	-6.27097
▁==	-6.27394
▁):	-6.27558
▁from	-6.27676
▁of	-6.29609
▁do	-6.33011
▁not	-6.3434
▁static	-6.34696
▁map	-6.35385
▁array	-6.36345
▁void	-6.36585
▁v	-6.36619
▁object	-6.38558
▁package	-6.38998
▁size	-6.39535
▁f	-6.40899
▁b	-6.4249
▁exception	-6.43414
▁io	-6.43644
▁false	-6.44285
▁))	-6.4493
▁result	-6.45739
▁e	-6.46273
▁|	-6.50398
▁4	-6.50514
▁request	-6.51804
▁time	-6.53609
▁view	-6.5392
▁},	-6.54227
▁create	-6.55723
▁r	-6.56928
▁client	-6.5707
▁on	-6.57236
▁default	-6.57677
▁d	-6.58089
▁user	-6.58623
▁case	-6.60869
▁and	-6.61088
▁model	-6.61326
▁add	-6.6197
▁text	-6.62472
▁8	-6.62649
▁system	-6.65909
▁it	-6.66533
▁message	-6.67206
▁should	-6.6728
▁h	-6.69323
▁err	-6.69745
▁state	-6.70788
▁m	-6.71324
▁local	-6.7188
▁node	-6.72782
▁event	-6.7428
▁else	-6.74371
▁override	-6.74873
▁p	-6.76115
▁response	-6.76133
▁be	-6.76186
▁service	-6.77633
▁as	-6.7784
▁5	-6.78535
▁],	-6.82037
▁code	-6.83198
▁final	-6.83216
▁expect	-6.83989
▁method	-6.85315
▁index	-6.85647
▁&	-6.8643
▁include	-6.86747
▁base	-6.87106
▁version	-6.87543
▁input	-6.89488
▁:=	-6.90063
▁equal	-6.90754
▁nil	-6.91598
▁":	-6.9201
▁item	-6.97567
▁core	-6.98078
▁table	-6.99118
▁['	-6.99472
▁log	-6.99856
▁require	-7.01235
▁!=	-7.02057
▁().	-7.02392
▁k	-7.03321
▁field	-7.0337
▁status	-7.03864
▁or	-7.04939
▁count	-7.05046
▁source	-7.05067
▁?	-7.06367
▁content	-7.08248
▁server	-7.08288
▁output	-7.09382
▁(),	-7.10508
▁");	-7.10818
▁builder	-7.10825
▁l	-7.1166
▁')	-7.11859
▁all	-7.12642
▁));	-7.12918
▁%	-7.1413
▁instance	-7.14415
▁="	-7.14438
▁module	-7.14788
▁none	-7.15107
▁property	-7.15143
▁format	-7.1594
▁fun	-7.16035
▁by	-7.16469
▁y	-7.16476
▁query	-7.17688
▁token	-7.18253
▁32	-7.18668
▁foo	-7.19501
▁date	-7.19842
▁stream	-7.206
▁android	-7.21213
▁[]	-7.21672
▁--	-7.21808
▁command	-7.21929
▁());	-7.22872
▁start	-7.23327
▁action	-7.23448
▁length	-7.23888
▁`	-7.24236
▁then	-7.25607
▁long	-7.26844
▁check	-7.27692
▁run	-7.27735
▁no	-7.2907
▁u	-7.29734
▁"""	-7.31039
▁())	-7.31339
▁(:	-7.31594
▁resource	-7.31869
▁image	-7.32038
▁manager	-7.32665
▁read	-7.32679
▁factory	-7.33084
▁empty	-7.33286
▁task	-7.33331
▁mock	-7.34958
▁interface	-7.35112
▁hash	-7.36934
▁');	-7.37581
▁unit	-7.37636
▁number	-7.37771
▁color	-7.37964
▁line	-7.38184
▁out	-7.38211
▁&&	-7.38424
▁apache	-7.38475
▁logger	-7.38914
▁build	-7.39163
▁let	-7.39699
▁6	-7.3991
▁that	-7.40641
▁group	-7.41155
▁update	-7.41171
▁write	-7.41596
▁cache	-7.42003
▁["	-7.44076
▁o	-7.44076
▁handler	-7.44317
▁buffer	-7.44953
▁param	-7.46329
▁filter	-7.46786
▁10	-7.47241
▁page	-7.47273
▁option	-7.48605
▁target	-7.4879
▁any	-7.49657
▁bool	-7.49726
▁session	-7.49934
▁});	-7.50403
▁address	-7.50919
▁common	-7.51548
▁element	-7.52023
▁j	-7.5205
▁tag	-7.52448
▁char	-7.52456
▁block	-7.52859
▁when	-7.53615
▁float	-7.54467
▁w	-7.55013
▁next	-7.5525
▁};	-7.55489
▁column	-7.55641
▁internal	-7.55804
▁schema	-7.56603
▁provider	-7.57491
▁body	-7.58518
▁<?	-7.58584
▁7	-7.58935
▁64	-7.58971
▁current	-7.59684
▁net	-7.60255
▁spec	-7.60932
▁entity	-7.61094
▁':	-7.61761
▁():	-7.61952
▁bar	-7.61956
▁first	-7.62298
▁match	-7.627
▁container	-7.63023
▁parse	-7.63155
▁at	-7.64125
▁header	-7.64371
▁component	-7.64422
▁connection	-7.65087
▁root	-7.65621
▁})	-7.66869
▁call	-7.6724
▁last	-7.67272
▁os	-7.68124
▁g	-7.68279
▁configuration	-7.68522
▁attribute	-7.68812
▁project	-7.69302
▁].	-7.70098
▁parser	-7.70709
▁';	-7.71424
▁title	-7.71449
▁];	-7.71497
▁||	-7.71569
▁load	-7.72184
▁mode	-7.72711
▁9	-7.73915
▁range	-7.74288
▁find	-7.74861
▁width	-7.75252
▁description	-7.75387
▁";	-7.76057
▁store	-7.76106
▁((	-7.76734
▁parent	-7.77093
▁label	-7.78223
▁])	-7.79457
▁order	-7.8085
▁testing	-7.81413
▁post	-7.81834
▁layout	-7.82149
▁16	-7.82248
▁example	-7.82351
▁application	-7.82469
▁offset	-7.82595
▁!	-7.83194
▁template	-7.83243
▁argument	-7.84405
▁try	-7.84556
▁channel	-7.85072
▁super	-7.85765
▁(&	-7.85786
▁before	-7.86391
▁ref	-7.86568
▁double	-7.86762
▁</	-7.86826
▁integer	-7.87137
▁entry	-7.87343
▁collection	-7.87538
▁delete	-7.88003
▁listener	-7.88138
▁style	-7.88396
▁an	-7.88596
▁invalid	-7.88652
▁append	-7.88843
▁{}	-7.89335
▁some	-7.89423
▁(!	-7.8961
▁main	-7.90796
▁record	-7.91033
▁"),	-7.91073
▁open	-7.91466
▁throw	-7.91552
▁[:	-7.91726
▁annotation	-7.92602
▁one	-7.93446
▁web	-7.93938
▁host	-7.9447
▁']	-7.94729
▁controller	-7.94978
▁://	-7.95799
▁row	-7.96115
▁z	-7.96121
▁helper	-7.9614
▁port	-7.96496
▁frame	-7.96703
▁level	-7.9674
▁height	-7.97437
▁print	-7.99642
▁position	-8.00118
▁my	-8.00197
▁each	-8.01267
▁process	-8.01326
▁other	-8.02047
▁select	-8.03255
▁join	-8.034
▁min	-8.03955
▁prop	-8.04813
▁rule	-8.05411
▁storage	-8.05795
▁button	-8.06237
▁describe	-8.06835
▁graph	-8.06872
▁you	-8.0717
▁remove	-8.07273
▁div	-8.07469
▁q	-8.07639
▁job	-8.07726
▁abstract	-8.07868
▁"]	-8.08258
▁register	-8.08293
▁left	-8.08456
▁thread	-8.0886
▁prefix	-8.09146
▁copy	-8.09243
▁license	-8.09329
▁meta	-8.09814
▁repository	-8.10123
▁can	-8.10959
▁+=	-8.10988
▁auto	-8.11251
▁define	-8.11536
▁reader	-8.11591
▁tree	-8.11697
▁device	-8.11789
▁handle	-8.11966
▁scala	-8.12697
▁send	-8.13113
▁active	-8.13503
▁are	-8.13708
▁password	-8.13966
▁batch	-8.1418
▁parameter	-8.14213
▁only	-8.15862
▁have	-8.16352
▁access	-8.16741
▁pub	-8.16784
▁after	-8.16795
▁form	-8.16868
▁expression	-8.17405
▁activity	-8.17478
▁vector	-8.17724
▁break	-8.18515
▁success	-8.18589
▁must	-8.18612
▁.{	-8.18947
▁close	-8.18986
▁support	-8.1915
▁random	-8.19361
▁await	-8.19475
▁document	-8.20171
▁make	-8.20271
▁search	-8.20342
▁{"	-8.21253
▁location	-8.21308
▁queue	-8.21568
▁show	-8.22015
▁scope	-8.22027
▁adapter	-8.22421
▁({	-8.23272
▁\\	-8.23295
▁non	-8.23498
▁child	-8.2358
▁right	-8.23876
▁put	-8.23879
▁custom	-8.24038
▁](	-8.24748
▁00	-8.25323
▁link	-8.25549
▁)',	-8.25745
▁stack	-8.25803
▁subject	-8.26046
▁valid	-8.26137
▁===	-8.26715
▁").	-8.27031
▁generator	-8.27355
▁same	-8.27524
▁apply	-8.27592
▁actual	-8.28011
▁window	-8.28137
▁opt	-8.28219
▁writer	-8.28739
▁generic	-8.28856
▁simple	-8.29239
▁spark	-8.29712
▁future	-8.312
▁domain	-8.31243
▁cluster	-8.31336
▁socket	-8.31389
▁found	-8.31468
▁go	-8.3173
▁directory	-8.32585
▁raise	-8.32939
▁sync	-8.32977
▁account	-8.34382
▁100	-8.34732
▁"))	-8.35219
▁protocol	-8.3559
▁box	-8.3646
▁memory	-8.36977
▁reference	-8.37083
▁='	-8.37208
▁point	-8.37306
▁<<	-8.37339
▁feature	-8.38372
▁change	-8.38385
▁pool	-8.38492
▁ret	-8.38549
▁pattern	-8.38997
▁duration	-8.39007
▁engine	-8.39158
▁will	-8.39257
▁sub	-8.3926
▁render	-8.39384
▁implicit	-8.39404
▁registry	-8.39672
▁math	-8.39922
▁extension	-8.40238
▁route	-8.40629
▁'],	-8.40719
▁raw	-8.41117
▁icon	-8.41828
▁12	-8.42142
▁insert	-8.42198
▁..	-8.42326
▁limit	-8.42483
▁global	-8.42568
▁script	-8.42607
▁concurrent	-8.42633
▁shape	-8.43275
▁definition	-8.43402
▁optional	-8.43434
▁total	-8.43539
▁save	-8.43765
▁up	-8.43918
▁security	-8.43968
▁(@	-8.44341
▁menu	-8.44749
▁sample	-8.45077
▁execute	-8.45246
▁>(	-8.45513
▁bundle	-8.45839
▁flag	-8.45923
▁fragment	-8.46456
▁([	-8.46858
▁role	-8.46982
▁setup	-8.47079
▁20	-8.47273
▁where	-8.47464
▁proxy	-8.48171
▁network	-8.48328
▁transaction	-8.48418
▁loader	-8.48715
▁'),	-8.48993
▁strict	-8.49468
▁]);	-8.49695
▁span	-8.49727
▁single	-8.50218
▁operation	-8.50458
▁kind	-8.50542
▁variable	-8.50783
▁display	-8.50848
▁split	-8.51492
▁top	-8.51698
▁lock	-8.51826
▁execution	-8.5243
▁)).	-8.52439
▁)(	-8.53243
▁tensor	-8.53283
▁free	-8.53585
▁export	-8.5375
▁policy	-8.54063
▁font	-8.54193
▁)]	-8.54724
▁step	-8.54759
▁failure	-8.55187
▁comment	-8.55606
▁git	-8.55917
▁receive	-8.5606
▁>>	-8.56178
▁while	-8.56516
▁environment	-8.56734
▁256	-8.57043
▁:"	-8.57207
▁runner	-8.57485
▁(*	-8.57925
▁catch	-8.58515
▁fail	-8.58688
▁console	-8.58837
▁col	-8.59059
▁11	-8.59405
▁metrics	-8.59446
▁verify	-8.59657
▁doc	-8.60135
▁media	-8.61032
▁replace	-8.61378
▁push	-8.61681
▁now	-8.62399
▁","	-8.6254
▁defined	-8.63123
▁.',	-8.63406
▁full	-8.63751
▁hello	-8.63835
▁allow	-8.63943
▁props	-8.63984
▁validate	-8.64037
▁generate	-8.64879
▁suite	-8.64967
▁exit	-8.65514
▁torch	-8.65525
▁platform	-8.65572
▁sort	-8.65962
▁member	-8.66713
▁click	-8.66989
▁language	-8.67416
▁report	-8.67436
▁unsigned	-8.67802
▁mapper	-8.68019
▁head	-8.68318
▁control	-8.68348
▁logging	-8.68577
▁>=	-8.68658
▁secret	-8.6876
▁">	-8.68923
▁binding	-8.69417
▁short	-8.69499
▁framework	-8.70309
▁reflect	-8.70344
▁trace	-8.70697
▁matcher	-8.70895
▁mask	-8.70954
▁merge	-8.71169
▁docker	-8.71697
▁symbol	-8.71742
▁]]	-8.71744
▁executor	-8.71896
▁used	-8.71954
▁reset	-8.72188
▁operator	-8.72231
▁remote	-8.72585
▁resolve	-8.72592
▁}.	-8.7273
▁flow	-8.72788
▁resolver	-8.7279
▁wrapper	-8.73181
▁big	-8.73544
▁convert	-8.74262
▁actor	-8.74379
▁()).	-8.74579
▁metric	-8.74946
▁conn	-8.75027
▁consumer	-8.7518
▁clear	-8.75205
▁player	-8.75256
▁topic	-8.75316
▁driver	-8.75449
▁"},	-8.75452
▁){	-8.75693
▁dev	-8.76049
▁we	-8.76205
▁enable	-8.76367
▁}"	-8.76378
▁".	-8.7682
▁${	-8.76918
▁scale	-8.77064
▁binary	-8.77185
▁stop	-8.77304
▁"/	-8.77399
▁validation	-8.77485
▁literal	-8.7797
▁bind	-8.78166
▁holder	-8.78275
▁)))	-8.7829
▁old	-8.78325
▁layer	-8.78511
▁gen	-8.78582
▁sequence	-8.78805
▁given	-8.79267
▁trait	-8.79615
▁constructor	-8.79704
▁profile	-8.79766
▁'',	-8.79783
▁ruby	-8.79807
▁done	-8.79893
▁pass	-8.80057
▁++)	-8.80141
▁#[	-8.80191
▁strategy	-8.80196
▁transform	-8.80221
▁second	-8.81057
▁wait	-8.81349
▁may	-8.81621
▁native	-8.82164
▁background	-8.82283
▁"$	-8.82566
▁tab	-8.82712
▁#{	-8.82867
▁ignore	-8.82867
▁owner	-8.82948
▁pair	-8.83119
▁per	-8.83235
▁?(	-8.8335
▁product	-8.83388
▁extra	-8.83593
▁**	-8.83692
▁rate	-8.83803
▁01	-8.84109
▁region	-8.8428
▁selector	-8.84386
▁[$	-8.84462
▁construct	-8.84541
▁train	-8.84556
▁login	-8.84836
▁::{	-8.84896
▁alpha	-8.84929
▁echo	-8.85465
▁category	-8.85814
▁does	-8.85929
▁dependency	-8.86028
▁ast	-8.8653
▁nullable	-8.86549
▁switch	-8.86673
▁classes	-8.86903
▁alias	-8.87105
▁help	-8.87182
▁matrix	-8.87304
▁sum	-8.87343
▁kernel	-8.8736
▁*)	-8.88017
▁fetch	-8.88639
▁down	-8.88842
▁condition	-8.89052
▁!(	-8.89439
▁stub	-8.89781
▁decode	-8.9029
▁initialize	-8.90313
▁world	-8.904
▁agent	-8.90432
▁"\	-8.90467
▁authentication	-8.90826
▁fixture	-8.90974
▁ad	-8.91032
▁>,	-8.91086
▁connect	-8.9142
▁space	-8.91501
▁cell	-8.91554
▁unsafe	-8.91714
▁()->	-8.91781
▁part	-8.91834
▁identifier	-8.92252
▁encode	-8.92293
▁++	-8.92364
▁atomic	-8.92629
▁into	-8.92636
▁][	-8.93165
▁={	-8.93505
▁missing	-8.93762
▁decimal	-8.93883
▁skip	-8.93923
▁counter	-8.93936
▁200	-8.94082
▁identity	-8.94148
▁pointer	-8.94514
▁15	-8.94572
▁basic	-8.94597
▁locale	-8.94668
▁de	-8.94753
▁ex	-8.9495
▁18	-8.95205
▁clone	-8.95447
▁selected	-8.96106
▁without	-8.96219
▁temp	-8.96318
▁bin	-8.96537
▁theme	-8.96747
▁<=	-8.96988
▁edit	-8.97027
▁statement	-8.97094
▁lazy	-8.97169
▁except	-8.97687
▁)),	-8.9784
▁contract	-8.98149
▁notification	-8.98242
▁bean	-8.98257
▁fake	-8.98708
▁two	-8.98746
▁amount	-8.99009
▁commit	-8.9915
▁zero	-8.9933
▁yield	-8.99387
▁rest	-8.99521
▁]):	-8.99594
▁grid	-8.99602
▁available	-8.997
▁iter	-8.99901
▁converter	-9.00368
▁original	-9.00592
▁interval	-9.00841
▁cursor	-9.01033
▁got	-9.01396
▁screen	-9.0163
▁re	-9.02497
▁chain	-9.0274
▁...	-9.0298
▁progress	-9.03019
▁unknown	-9.03069
▁begin	-9.03413
▁work	-9.03439
▁customer	-9.03646
▁""	-9.03906
▁30	-9.03958
▁bit	-9.03964
▁processor	-9.04115
▁permission	-9.04129
▁once	-9.04255
▁release	-9.04364
▁primary	-9.04392
▁video	-9.04489
▁copyright	-9.04569
▁intent	-9.04652
▁word	-9.04761
▁constant	-9.0489
▁like	-9.05007
▁50	-9.05206
▁folder	-9.0537
▁sha	-9.05442
▁weight	-9.05497
▁relative	-9.05822
▁timer	-9.05875
▁"));	-9.05931
▁loop	-9.05974
▁unique	-9.06172
▁library	-9.06279
▁initial	-9.065
▁want	-9.07284
▁external	-9.07352
▁?.	-9.07377
▁reg	-9.07506
▁fact	-9.07606
▁<-	-9.07624
▁inject	-9.07674
▁drawable	-9.07707
▁inner	-9.07759
▁asset	-9.08394
▁usage	-9.09077
▁collect	-9.09108
▁').	-9.09387
▁compiler	-9.09408
▁en	-9.09542
▁section	-9.09703
▁24	-9.09735
▁13	-9.10085
▁crate	-9.10218
▁more	-9.10585
▁transition	-9.10615
▁but	-9.11104
▁warning	-9.11208
▁loss	-9.11555
▁disable	-9.11895
▁than	-9.12042
▁"],	-9.12386
▁>();	-9.12506
▁proto	-9.12524
▁graphics	-9.12644
▁your	-9.12733
▁card	-9.13495
▁complete	-9.13647
▁person	-9.13777
▁{},	-9.13804
▁editor	-9.13877
▁was	-9.13928
▁master	-9.14775
▁signature	-9.15352
▁day	-9.1562
▁dynamic	-9.15649
▁syntax	-9.15705
▁transport	-9.15949
▁summary	-9.15955
▁cast	-9.16161
▁reflection	-9.16168
▁unless	-9.16236
▁twitter	-9.16245
▁("/	-9.16293
▁install	-9.16565
▁browser	-9.16679
▁router	-9.16806
▁standard	-9.16854
▁move	-9.17032
▁padding	-9.17217
▁exchange	-9.17599
▁center	-9.17652
▁continue	-9.18191
▁'/	-9.18436
▁zone	-9.18543
▁pipeline	-9.18622
▁site	-9.18738
▁dummy	-9.18777
▁rect	-9.18845
▁mutable	-9.1925
▁worker	-9.1928
▁criteria	-9.19444
▁scan	-9.19596
▁dim	-9.19715
▁chunk	-9.19772
▁margin	-9.19882
▁lambda	-9.19934
▁zip	-9.20068
▁hook	-9.20077
▁compile	-9.20115
▁so	-9.20131
▁drop	-9.20292
▁draw	-9.20433
▁which	-9.20551
▁destroy	-9.20757
▁slice	-9.20781
▁\"	-9.208
▁1000	-9.21056
▁fill	-9.21211
▁setting	-9.21583
▁under	-9.21703
▁modifier	-9.2198
▁bucket	-9.22007
▁beta	-9.22014
▁gateway	-9.22098
▁home	-9.22153
▁react	-9.2218
▁trigger	-9.22194
▁128	-9.2223
▁cloud	-9.22336
▁delta	-9.22437
▁"",	-9.22495
▁frozen	-9.22637
▁safe	-9.22649
▁configure	-9.22746
▁edge	-9.22826
▁---	-9.2285
▁bottom	-9.22923
▁14	-9.2294
▁reason	-9.22974
▁retry	-9.23165
▁border	-9.23204
▁history	-9.2326
▁delay	-9.23277
▁animation	-9.23321
▁mark	-9.23335
▁invoke	-9.23401
▁game	-9.23403
▁multiple	-9.2352
▁psi	-9.24908
▁'\	-9.24992
▁declare	-9.2525
▁destination	-9.25518
▁netty	-9.2556
▁bad	-9.25737
▁cannot	-9.26084
▁``	-9.26174
▁promise	-9.26229
▁running	-9.26364
▁priority	-9.26695
▁back	-9.26836
▁wrap	-9.26947
▁visible	-9.27007
▁volume	-9.27048
▁python	-9.27068
▁serialization	-9.2744
▁delegate	-9.2764
▁patch	-9.28039
▁authorization	-9.28113
▁compare	-9.28136
▁:'	-9.28443
▁partition	-9.28856
▁snapshot	-9.29152
▁exist	-9.29165
▁undefined	-9.29239
▁serialize	-9.29487
▁see	-9.29611
▁stage	-9.29694
▁currency	-9.29707
▁immutable	-9.29788
▁branch	-9.30185
▁partial	-9.30744
▁refresh	-9.31245
▁effect	-9.31401
▁{})	-9.31409
▁cancel	-9.3143
▁(-	-9.32083
▁author	-9.32099
▁'));	-9.32104
▁issue	-9.32157
▁relation	-9.32157
▁saved	-9.32224
▁sender	-9.32365
▁term	-9.32594
▁mem	-9.32973
▁machine	-9.33113
▁'))	-9.33158
▁force	-9.33885
▁information	-9.33969
▁dictionary	-9.34153
▁contents	-9.34196
▁certificate	-9.34457
▁renderer	-9.34546
▁flat	-9.34634
▁scroll	-9.34718
▁lower	-9.34813
▁migration	-9.34895
▁me	-9.35034
▁(()	-9.351
▁25	-9.35204
▁resp	-9.35924
▁observer	-9.36023
▁redirect	-9.36145
▁align	-9.362
▁packet	-9.36377
▁!==	-9.36386
▁st	-9.36455
▁123	-9.36496
▁score	-9.36588
▁reply	-9.36835
▁normal	-9.37081
▁illegal	-9.37125
▁observable	-9.37349
▁many	-9.37612
▁"`	-9.37721
▁selection	-9.37775
▁times	-9.38788
▁detail	-9.38888
▁stride	-9.39138
▁[];	-9.39206
▁accept	-9.39255
▁depth	-9.39269
▁illuminate	-9.39283
▁255	-9.39463
▁virtual	-9.39638
▁notify	-9.39924
▁"${	-9.40108
▁sign	-9.40168
▁dispatcher	-9.40832
▁subscription	-9.4085
▁es	-9.40876
▁texture	-9.41515
▁origin	-9.41714
▁strip	-9.41892
▁price	-9.42229
▁cur	-9.42268
▁.",	-9.42459
▁)->	-9.42471
▁peer	-9.42474
▁shift	-9.42538
▁rel	-9.42798
▁.*	-9.42863
▁[],	-9.4294
▁hidden	-9.4299
▁pending	-9.42996
▁scheme	-9.43088
▁'])	-9.43126
▁]:	-9.43203
▁']);	-9.43251
▁clock	-9.43411
▁.*;	-9.43625
▁509	-9.43879
▁seed	-9.44016
▁extract	-9.44337
▁42	-9.44715
▁panel	-9.44914
▁note	-9.45005
▁dump	-9.45171
▁win	-9.45286
▁")]	-9.45344
▁digest	-9.45438
▁.'	-9.45595
▁')->	-9.45805
▁unwrap	-9.45945
▁disabled	-9.46107
▁room	-9.46226
▁(['	-9.46738
▁previous	-9.47033
▁additional	-9.47556
▁health	-9.4785
▁deep	-9.47925
▁sharp	-9.47956
▁compute	-9.47975
▁integration	-9.48028
▁fixed	-9.48252
▁audio	-9.4828
▁constraint	-9.48784
▁real	-9.49252
▁''	-9.49656
▁]).	-9.49716
▁boot	-9.50272
▁":"	-9.50581
▁contain	-9.50766
▁'{	-9.50881
▁>()	-9.50987
▁prototype	-9.51576
▁character	-9.51772
▁pod	-9.51831
▁suppress	-9.51944
▁forward	-9.52005
▁direction	-9.52051
▁subscribe	-9.52116
▁trim	-9.5219
▁}/	-9.52574
▁geo	-9.5292
▁blob	-9.52923
▁##	-9.53034
▁alert	-9.53063
▁play	-9.53306
▁warn	-9.53441
▁grad	-9.53773
▁payment	-9.53859
▁year	-9.54116
▁'.	-9.54335
▁dao	-9.54342
▁area	-9.54395
▁round	-9.5483
▁material	-9.54867
▁assets	-9.55064
▁++;	-9.5508
▁sh	-9.55094
▁present	-9.55207
▁transformer	-9.55344
▁visit	-9.55549
▁lint	-9.55656
▁off	-9.55848
▁axis	-9.56418
▁el	-9.56659
▁chat	-9.56713
▁distance	-9.56812
▁extend	-9.56836
▁th	-9.56849
▁been	-9.57347
▁linear	-9.57463
▁hex	-9.57549
▁publisher	-9.57792
▁segment	-9.57792
▁month	-9.58026
▁pack	-9.58032
▁compose	-9.5806
▁02	-9.58091
▁}}	-9.58263
▁dot	-9.58342
▁ensure	-9.58695
▁22	-9.58744
▁red	-9.58813
▁need	-9.58868
▁manifest	-9.58955
▁between	-9.59042
▁sink	-9.59369
▁artifact	-9.59624
▁sheet	-9.59648
▁'./	-9.59862
▁suffix	-9.60181
▁latest	-9.60287
▁fi	-9.60466
▁checker	-9.60621
▁epoch	-9.60667
▁received	-9.61
▁dom	-9.61092
▁."	-9.61145
▁transfer	-9.61465
▁team	-9.61558
▁iterable	-9.61797
▁signal	-9.61929
▁ready	-9.61968
▁rand	-9.62026
▁weather	-9.62065
▁fixer	-9.6264
▁bootstrap	-9.6269
▁"%	-9.62827
▁assertion	-9.6291
▁licensed	-9.62914
▁shell	-9.62921
▁{{	-9.6304
▁plan	-9.63308
▁60	-9.63355
▁fast	-9.63632
▁serial	-9.63635
▁slot	-9.63646
▁age	-9.63846
▁sleep	-9.63879
▁possible	-9.63908
▁tile	-9.64095
▁li	-9.64355
▁spring	-9.64417
▁article	-9.64666
▁blank	-9.64777
▁either	-9.64832
▁pull	-9.64939
▁visibility	-9.65338
▁ca	-9.65393
▁primitive	-9.65467
▁mean	-9.65541
▁monitor	-9.65783
▁23	-9.65786
▁already	-9.65887
▁us	-9.65924
▁absolute	-9.65954
▁country	-9.6601
▁visitor	-9.66099
▁schedule	-9.66129
▁pipe	-9.66417
▁scalar	-9.66424
▁subscriber	-9.66439
▁tool	-9.6645
▁producer	-9.66469
▁callable	-9.66518
▁specs	-9.66585
▁invocation	-9.66634
▁'#	-9.66698
▁colors	-9.66705
▁loaded	-9.66795
▁solution	-9.66803
▁`,	-9.66806
▁high	-9.66934
▁()))	-9.66964
▁}",	-9.67036
▁80	-9.67058
▁receiver	-9.67089
▁live	-9.67115
▁dispatch	-9.67296
▁pop	-9.67405
▁mail	-9.67417
▁persistence	-9.6816
▁loading	-9.68331
▁?>	-9.68408
▁there	-9.68568
▁behavior	-9.68798
▁40	-9.68932
▁canvas	-9.68932
▁("\	-9.69074
▁obtain	-9.69205
▁fatal	-9.69212
▁parallel	-9.69301
▁aggregate	-9.69393
▁separator	-9.69405
▁21	-9.69733
▁17	-9.69775
▁fix	-9.6983
▁book	-9.69872
▁>>>	-9.69903
▁indent	-9.69915
▁expand	-9.70027
▁union	-9.70066
▁correct	-9.70521
▁closed	-9.7054
▁"#	-9.70759
▁{'	-9.70786
▁navigation	-9.70798
▁deployment	-9.70888
▁program	-9.70923
▁until	-9.70927
▁analysis	-9.70982
▁algorithm	-9.70998
▁"];	-9.71225
▁("%	-9.7128
▁thrift	-9.71296
▁provided	-9.71504
▁enumerable	-9.71709
▁take	-9.71808
▁here	-9.72271
▁bot	-9.7229
▁predicate	-9.7233
▁track	-9.72338
▁sorted	-9.72556
▁defer	-9.72716
▁cause	-9.72783
▁prepare	-9.72967
▁([]	-9.72983
▁days	-9.73035
▁()));	-9.73235
▁vertex	-9.73235
▁singleton	-9.73375
▁linked	-9.74112
▁)));	-9.7416
▁calendar	-9.74168
▁since	-9.74363
▁indices	-9.74399
▁period	-9.74411
▁family	-9.74513
▁emit	-9.74683
▁mouse	-9.74935
▁[[	-9.75041
▁ai	-9.75127
▁"-	-9.75205
▁publish	-9.75294
▁connector	-9.75376
▁puppet	-9.7556
▁?:	-9.75988
▁.")	-9.76029
▁fa	-9.76371
▁unsupported	-9.76566
▁flush	-9.76794
▁<>();	-9.7691
▁()),	-9.76931
▁series	-9.77014
▁(\	-9.77085
▁based	-9.77209
▁chart	-9.77707
▁escape	-9.7782
▁norm	-9.78059
▁,"	-9.78152
▁its	-9.78185
▁[(	-9.78236
▁checked	-9.78446
▁500	-9.78679
▁keep	-9.78717
▁broker	-9.78992
▁[])	-9.79285
▁derive	-9.79549
▁upper	-9.79686
▁cat	-9.79712
▁phone	-9.79985
▁pad	-9.80127
▁clean	-9.80131
▁capture	-9.80157
▁small	-9.80247
▁31	-9.80441
▁added	-9.80501
▁reverse	-9.80634
▁variant	-9.80863
▁macro	-9.80868
▁criterion	-9.81054
▁low	-9.81119
▁side	-9.81201
▁/>	-9.81727
▁threshold	-9.81788
▁'];	-9.81801
▁compliance	-9.81941
▁radius	-9.8198
▁19	-9.82011
▁tables	-9.82129
▁speed	-9.8216
▁unexpected	-9.83123
▁mime	-9.83136
▁hide	-9.83145
▁disk	-9.83691
▁prompt	-9.83837
▁><	-9.83976
▁assembly	-9.83984
▁::$	-9.84212
▁hint	-9.8431
▁shutdown	-9.8453
▁ar	-9.84642
▁=(	-9.84669
▁]))	-9.84772
▁"--	-9.84853
▁organization	-9.84885
▁stroke	-9.84907
▁blocking	-9.84943
▁light	-9.85065
▁normalize	-9.85205
▁archive	-9.85218
▁dimension	-9.85259
▁sig	-9.85671
▁}")	-9.85907
▁"#{	-9.85984
▁plain	-9.86107
▁verbose	-9.86276
▁focus	-9.86495
▁watch	-9.8666
▁}),	-9.86742
▁touch	-9.86875
▁']['	-9.86953
▁terminal	-9.86985
▁tracker	-9.87165
▁creator	-9.87169
▁flash	-9.87215
▁contact	-9.87335
▁doctrine	-9.87344
▁slug	-9.87464
▁links	-9.87765
▁logical	-9.8842
▁over	-9.88485
▁inspect	-9.88546
▁preview	-9.88551
▁commons	-9.88569
▁)}	-9.88588
▁cipher	-9.88616
▁foreign	-9.88635
▁127	-9.88667
▁></	-9.88681
▁heap	-9.88897
▁less	-9.88906
▁collector	-9.89075
▁cleanup	-9.89112
▁<'	-9.89286
▁('/	-9.89352
▁translation	-9.89762
▁balance	-9.89781
▁','	-9.89819
▁factor	-9.89861
▁mac	-9.89861
▁(){	-9.90003
▁}',	-9.90093
▁~=	-9.90117
▁reporter	-9.90122
▁too	-9.90122
▁respond	-9.90222
▁bound	-9.90231
▁just	-9.90259
▁modify	-9.90464
▁bus	-9.90545
▁?,	-9.90621
▁backup	-9.90774
▁512	-9.90793
▁something	-9.90821
▁instant	-9.91089
▁blue	-9.91238
▁calcite	-9.91305
▁marker	-9.91396
▁toggle	-9.9166
▁notice	-9.91872
▁'';	-9.91955
▁streaming	-9.92008
▁training	-9.92022
▁trade	-9.92104
▁completion	-9.92172
▁asp	-9.92313
▁companion	-9.92682
▁1024	-9.92759
▁"{	-9.92808
▁||=	-9.93419
▁power	-9.93595
▁complex	-9.93718
▁launch	-9.93841
▁capacity	-9.93876
▁tail	-9.93969
▁fallback	-9.93984
▁unity	-9.94023
▁ratio	-9.94107
▁sent	-9.94181
▁finish	-9.94473
▁>)	-9.94483
▁please	-9.94582
▁could	-9.94711
▁28	-9.94751
▁quote	-9.95074
▁distribution	-9.95194
▁different	-9.95438
▁nothing	-9.95458
▁na	-9.95508
▁inflater	-9.95618
▁enter	-9.95874
▁translate	-9.95945
▁analytics	-9.9608
▁interceptor	-9.96171
▁instead	-9.96186
▁('./	-9.96312
▁structure	-9.96383
▁injection	-9.96504
▁]),	-9.96519
▁assign	-9.96737
▁mount	-9.96884
▁creation	-9.97158
▁unused	-9.97163
▁registration	-9.9725
▁carbon	-9.9728
▁03	-9.97311
▁"].	-9.97392
▁pay	-9.97408
▁negative	-9.97551
▁successful	-9.97719
▁specification	-9.9777
▁magic	-9.97945
▁mono	-9.9795
▁`()	-9.98145
▁)",	-9.98443
▁white	-9.98495
▁about	-9.98531
▁matching	-9.98541
▁special	-9.98742
▁stripe	-9.98851
▁declaration	-9.98892
▁another	-9.99001
▁tester	-9.99037
▁attachment	-9.99053
▁camera	-9.99063
▁}).	-9.99063
▁?)	-9.99183
▁exclude	-9.99677
▁sound	-9.99693
▁always	-9.99719
▁perform	-9.99761
▁'../	-9.99829
▁greater	-9.99928
▁cancellation	-9.9998
▁hub	-10.0003
▁")).	-10.0004
▁04	-10.0009
▁maximum	-10.0022
▁'<	-10.0048
▁preference	-10.0066
▁^	-10.0069
▁//	-10.0076
▁reactive	-10.0091
▁iso	-10.01
▁also	-10.0112
▁secure	-10.0114
▁answer	-10.0119
▁foundation	-10.0119
▁sofa	-10.012
▁distributed	-10.0147
▁wire	-10.017
▁twig	-10.0179
▁)"	-10.0189
▁anchor	-10.0198
▁green	-10.0252
▁removed	-10.0255
▁specific	-10.0291
▁-=	-10.0342
▁arch	-10.0348
▁registered	-10.0348
▁"])	-10.0355
▁share	-10.0389
▁cost	-10.0399
▁:{	-10.0424
▁conversion	-10.0438
▁implementation	-10.0439
▁shadow	-10.0443
▁best	-10.0457
▁paint	-10.0475
▁.$	-10.0477
▁choice	-10.0489
▁mesh	-10.0491
▁analyzer	-10.0497
▁vertical	-10.0503
▁reduce	-10.0562
▁poll	-10.0571
▁'%	-10.0586
▁surface	-10.059
▁verification	-10.0597
▁(%	-10.0599
▁maybe	-10.0602
▁returned	-10.0603
▁positive	-10.0609
▁swagger	-10.0614
▁horizontal	-10.0619
▁fit	-10.063
▁indexed	-10.0638
▁closure	-10.0654
▁discovery	-10.0677
▁suspend	-10.0682
▁routing	-10.0692
▁extern	-10.071
▁every	-10.0723
▁dense	-10.0734
▁sealed	-10.0741
▁"}	-10.0744
▁increment	-10.0753
▁05	-10.0777
▁wrong	-10.0784
▁city	-10.0786
▁em	-10.081
▁provide	-10.0812
▁resolved	-10.0813
▁|=	-10.0836
▁getter	-10.0838
▁wrapped	-10.0854
▁interpreter	-10.0873
▁33	-10.0875
▁repeat	-10.0876
▁bias	-10.0896
▁sec	-10.0896
▁flex	-10.0908
▁direct	-10.094
▁alignment	-10.0942
▁feed	-10.0953
▁audit	-10.0964
▁??	-10.0981
▁connected	-10.0983
▁place	-10.1007
▁`.	-10.1014
▁fold	-10.1017
▁fee	-10.1035
▁deploy	-10.104
▁(`	-10.1066
▁statistics	-10.107
▁<:	-10.1073
▁\":	-10.1075
▁hour	-10.108
▁submit	-10.1134
▁via	-10.1142
▁face	-10.1143
▁sparse	-10.1147
▁rank	-10.1147
▁large	-10.1149
▁plot	-10.1156
▁000	-10.1173
▁finally	-10.1183
▁<?>	-10.1196
▁[-	-10.1233
▁]],	-10.1248
▁pact	-10.1262
▁{};	-10.1279
▁#!/	-10.1282
▁plural	-10.1283
▁both	-10.1311
▁claim	-10.1312
▁resize	-10.1347
▁rep	-10.1348
▁legacy	-10.1351
▁gem	-10.1357
▁vendor	-10.1359
▁~	-10.1375
▁rescue	-10.139
▁arrow	-10.14
▁reactor	-10.141
▁ordered	-10.1419
▁association	-10.1425
▁cross	-10.1425
▁upstream	-10.1461
▁alt	-10.1473
▁attach	-10.1523
▁hi	-10.1529
▁86	-10.1542
▁scene	-10.1566
▁documentation	-10.1578
▁finished	-10.1583
▁percent	-10.1611
▁don	-10.1636
▁three	-10.1641
▁unlock	-10.1643
▁plus	-10.1646
▁di	-10.1677
▁."""	-10.168
▁"<	-10.1716
▁company	-10.1717
▁stretch	-10.1717
▁functional	-10.1747
▁generation	-10.1779
▁diagnostics	-10.1818
▁following	-10.1822
▁comparison	-10.1833
▁clip	-10.1861
▁"")	-10.1885
▁moment	-10.1889
▁=%	-10.1903
▁known	-10.1913
▁such	-10.1941
▁precision	-10.1946
▁disposable	-10.1949
▁within	-10.1958
▁management	-10.1965
▁directive	-10.1966
▁angle	-10.1971
▁tracing	-10.1997
▁minimum	-10.2009
▁26	-10.2013
▁evaluate	-10.2043
▁setter	-10.2081
▁arc	-10.2156
▁shader	-10.2162
▁smart	-10.2175
▁animator	-10.2176
▁markdown	-10.2176
▁extractor	-10.218
▁compilation	-10.2193
▁tick	-10.2199
▁90	-10.2212
▁activation	-10.2221
▁scenario	-10.2223
▁confirm	-10.2227
▁dashboard	-10.2236
▁bash	-10.2237
▁('../	-10.2242
▁idle	-10.2245
▁:%	-10.2247
▁reserved	-10.225
▁guard	-10.2256
▁sa	-10.2256
▁=[	-10.2263
▁34	-10.2265
▁credit	-10.2272
▁sampler	-10.2281
▁99	-10.2293
▁pa	-10.2298
▁finder	-10.23
▁.");	-10.2309
▁composer	-10.2327
▁credential	-10.2335
▁through	-10.2343
▁general	-10.2362
▁:`	-10.2366
▁black	-10.2371
▁ascii	-10.2374
▁easy	-10.2378
▁problem	-10.2381
▁501	-10.2387
▁ace	-10.2387
▁restore	-10.2401
▁restart	-10.2403
▁recipe	-10.2424
▁regular	-10.2425
▁tap	-10.2439
▁composite	-10.2448
▁upgrade	-10.2462
▁reload	-10.2509
▁highlight	-10.2525
▁question	-10.2531
▁principal	-10.2544
▁kit	-10.255
▁pin	-10.257
▁album	-10.2573
▁floor	-10.2579
▁pi	-10.2596
▁diagnostic	-10.2597
▁---@	-10.261
▁broadcast	-10.2634
▁supplier	-10.2649
▁outer	-10.2654
▁never	-10.2664
▁encryption	-10.2666
▁extended	-10.2668
▁geometry	-10.2673
▁offense	-10.2719
▁-*-	-10.2731
▁starting	-10.2734
▁::*;	-10.2741
▁(!$	-10.2754
▁own	-10.2758
▁unset	-10.2761
▁deprecation	-10.2771
▁)[	-10.2781
▁least	-10.2799
▁bold	-10.2803
▁mobile	-10.2827
▁45	-10.2831
▁300	-10.2853
▁cop	-10.2854
▁'].	-10.2855
▁jerry	-10.2857
▁specify	-10.2858
▁unable	-10.286
▁inside	-10.2904
▁did	-10.2911
▁}\	-10.2914
▁08	-10.2915
▁persistent	-10.2916
▁act	-10.2919
▁curr	-10.2934
▁')).	-10.295
▁review	-10.2964
▁duplicate	-10.3006
▁compression	-10.302
▁2020	-10.3031
▁phase	-10.3042
▁pager	-10.3066
▁what	-10.3066
▁overlay	-10.3067
▁")),	-10.3074
▁meter	-10.3077
▁encrypt	-10.3078
▁executable	-10.3079
▁wallet	-10.3082
▁aa	-10.3082
▁week	-10.3094
▁spy	-10.3099
▁reject	-10.3107
▁400	-10.3128
▁clause	-10.3137
▁lite	-10.314
▁faker	-10.3151
▁retention	-10.3176
▁major	-10.3177
▁75	-10.3207
▁arn	-10.3221
▁"):	-10.3228
▁measure	-10.3232
▁unpack	-10.3235
▁mat	-10.3253
▁modal	-10.3256
▁jar	-10.326
▁/"	-10.3267
▁locator	-10.3277
▁48	-10.3282
▁dark	-10.3289
▁emitter	-10.3289
▁comparator	-10.3292
▁aspect	-10.3314
▁average	-10.3314
▁revision	-10.3314
▁pure	-10.3322
▁[]*	-10.3338
▁resume	-10.3354
▁readable	-10.3355
▁rename	-10.3363
▁sure	-10.3363
▁naming	-10.3365
▁bug	-10.3377
▁because	-10.3402
▁listen	-10.343
▁pagination	-10.3435
▁:\	-10.3439
▁embed	-10.344
▁'--	-10.3463
▁gradient	-10.3469
▁indicator	-10.3472
▁formula	-10.348
▁whether	-10.3502
▁...)	-10.3507
▁07	-10.3507
▁bulk	-10.3514
▁photo	-10.3517
▁<>(	-10.3521
▁}{	-10.3525
▁brand	-10.3535
▁con	-10.3545
▁circuit	-10.3572
▁hoodie	-10.3578
▁minute	-10.3588
▁translator	-10.3594
▁dispose	-10.3603
▁thing	-10.3629
▁good	-10.3638
▁freeze	-10.3641
▁recursive	-10.3673
▁sentinel	-10.3677
▁27	-10.3687
▁flatten	-10.3689
▁runnable	-10.3704
▁scanner	-10.3717
▁logic	-10.3727
▁watcher	-10.3728
▁daemon	-10.3742
▁keyboard	-10.3749
▁these	-10.3761
▁sizes	-10.3765
▁related	-10.3769
▁delivery	-10.379
▁presenter	-10.3799
▁eu	-10.3807
▁picker	-10.3816
▁vagrant	-10.3837
▁exactly	-10.3865
▁'$	-10.3867
▁!("	-10.388
▁calculate	-10.3893
▁resolution	-10.3895
▁beagle	-10.3899
▁ping	-10.3899
▁seek	-10.3928
▁thrown	-10.3928
▁included	-10.3929
▁29	-10.3942
▁spawn	-10.3956
▁35	-10.3973
▁spatial	-10.4005
▁nonce	-10.4025
▁tenant	-10.405
▁curl	-10.4062
▁bridge	-10.4076
▁experimental	-10.4077
▁36	-10.4103
▁orientation	-10.4104
▁41	-10.4108
▁fire	-10.4111
▁apple	-10.4129
▁pretty	-10.4134
▁sock	-10.4142
▁>().	-10.4157
▁drag	-10.4175
▁authority	-10.4179
▁binder	-10.4197
▁]['	-10.4208
▁coverage	-10.4233
▁delimiter	-10.4239
▁arbitrary	-10.4242
▁]=	-10.4243
▁inspector	-10.4251
▁cycle	-10.4266
▁printer	-10.4266
▁correctly	-10.4284
▁testify	-10.429
▁authorize	-10.4302
▁=$	-10.4313
▁('\	-10.4326
▁assignment	-10.437
▁damage	-10.4392
▁conditional	-10.4401
▁distinct	-10.441
▁swap	-10.4417
▁medium	-10.4424
▁'../../	-10.4436
▁buttons	-10.4449
▁rotation	-10.4454
▁sun	-10.4463
▁cap	-10.4464
▁allocator	-10.4481
▁visual	-10.4484
▁datum	-10.4491
▁am	-10.4497
▁folly	-10.45
▁injector	-10.4503
▁\'	-10.4506
▁panic	-10.4512
▁estimator	-10.4519
▁expectation	-10.4524
▁decorator	-10.4545
▁mirror	-10.4565
▁'-	-10.4569
▁attempt	-10.4569
▁'"	-10.4577
▁0000	-10.4593
▁yes	-10.4593
▁ax	-10.4606
▁rating	-10.4612
▁hit	-10.4617
▁synchronized	-10.4638
▁shard	-10.464
▁catalyst	-10.4646
▁consume	-10.4667
▁gray	-10.4671
▁*(	-10.4675
▁compress	-10.469
▁gauge	-10.4691
▁hive	-10.4699
▁combine	-10.4709
▁'''	-10.4718
▁predict	-10.4725
▁evaluation	-10.4726
▁uniform	-10.4732
▁writable	-10.4734
▁']))	-10.4764
▁"[	-10.4766
▁\":\"	-10.4766
▁crop	-10.479
▁money	-10.479
▁histogram	-10.4796
▁}'	-10.4797
▁1234	-10.4803
▁severity	-10.4815
▁explicit	-10.4818
▁si	-10.4818
▁works	-10.4831
▁da	-10.4832
▁cond	-10.4846
▁radio	-10.4849
▁reward	-10.4854
▁}},	-10.4866
▁tar	-10.4871
▁'@	-10.4883
▁mailer	-10.4883
▁intercept	-10.4894
▁very	-10.4904
▁ma	-10.4912
▁guild	-10.4927
▁06	-10.4936
▁detect	-10.4941
▁marshal	-10.4957
▁latch	-10.4962
▁44	-10.4964
▁>.	-10.4964
▁2019	-10.4976
▁projection	-10.4979
▁probe	-10.4981
▁un	-10.4988
▁aware	-10.5003
▁fluent	-10.5015
▁?(:	-10.5028
▁elf	-10.503
▁flux	-10.5039
▁they	-10.5045
▁temporary	-10.5052
▁compact	-10.5068
▁friendly	-10.5087
▁otherwise	-10.5094
▁toast	-10.5104
▁learning	-10.5112
▁inventory	-10.5123
▁.');	-10.513
▁working	-10.5136
▁"]["	-10.5151
▁footer	-10.5161
▁classifier	-10.5177
▁elastic	-10.5179
▁associated	-10.5192
▁""".	-10.5231
▁se	-10.5239
▁backward	-10.5242
▁blueprint	-10.5246
▁2017	-10.525
▁detector	-10.5268
▁unchecked	-10.5284
▁2000	-10.5285
▁kill	-10.5293
▁circle	-10.5295
▁needs	-10.5301
▁relationship	-10.5303
▁")))	-10.5305
▁effects	-10.532
▁successfully	-10.5322
▁09	-10.5335
▁(<<~	-10.5342
▁particle	-10.5347
▁finagle	-10.5378
▁trust	-10.5388
▁candidate	-10.5395
▁mutation	-10.5397
▁bag	-10.5402
▁representation	-10.5405
▁instruction	-10.5412
▁[{	-10.5424
▁lit	-10.5425
▁interaction	-10.5427
▁trial	-10.5435
▁board	-10.5438
▁.,	-10.544
▁?).	-10.544
▁abort	-10.5471
▁]->	-10.5473
▁limiter	-10.5476
▁operand	-10.5484
▁curve	-10.5487
▁"./	-10.5518
▁2018	-10.553
▁leaf	-10.5534
▁performance	-10.5534
▁physical	-10.5534
▁*/	-10.5535
▁most	-10.5538
▁retrieve	-10.5554
▁ring	-10.5577
▁utility	-10.5585
▁ability	-10.5634
▁balancer	-10.5642
▁markup	-10.5652
▁deferred	-10.5684
▁built	-10.5689
▁motion	-10.5733
▁them	-10.5734
▁accepted	-10.5738
▁'):	-10.5748
▁pause	-10.5758
▁chainer	-10.5785
▁ba	-10.579
▁.=	-10.5793
▁tracer	-10.5807
▁authorized	-10.5823
▁ne	-10.5827
▁picture	-10.5839
▁('--	-10.5845
▁weak	-10.5849
▁declared	-10.5862
▁secondary	-10.5915
▁quick	-10.5918
▁coin	-10.5934
▁logged	-10.5944
▁caller	-10.5978
▁43	-10.6015
▁square	-10.6028
▁minor	-10.6032
▁national	-10.6032
▁quantity	-10.6037
▁realm	-10.6045
▁]];	-10.605
▁purchase	-10.6055
▁37	-10.6061
▁(|	-10.6067
▁dagger	-10.6068
▁"></	-10.6071
▁aes	-10.6094
▁undertow	-10.61
▁chip	-10.6106
▁how	-10.6118
▁(&:	-10.6133
▁locked	-10.6138
▁"})	-10.6141
▁exact	-10.6143
▁slack	-10.6149
▁la	-10.615
▁{}",	-10.6152
▁underlying	-10.6166
▁sessions	-10.6171
▁cobra	-10.6174
▁boundary	-10.6216
▁soft	-10.6224
▁.\	-10.6238
▁grant	-10.625
▁<<-	-10.6261
▁'},	-10.6277
▁]](	-10.6287
▁accessibility	-10.629
▁2010	-10.6307
▁$(	-10.6315
▁atom	-10.6329
▁slider	-10.6359
▁excel	-10.6382
▁truth	-10.6384
▁feat	-10.6388
▁{\	-10.6394
▁verifier	-10.6408
▁rev	-10.6414
▁third	-10.6417
▁(/	-10.6425
▁]|	-10.6429
▁dropout	-10.6432
▁bank	-10.6445
▁entropy	-10.6445
▁volatile	-10.6445
▁38	-10.6461
▁boost	-10.6487
▁cake	-10.6488
▁violation	-10.6491
▁sentence	-10.6492
▁skin	-10.6495
▁lo	-10.6505
▁55	-10.6508
▁{|	-10.6508
▁[:,	-10.6515
▁alive	-10.6522
▁dead	-10.6532
▁profiler	-10.6535
▁56	-10.6571
▁letter	-10.6585
▁("",	-10.659
▁rack	-10.6591
▁regression	-10.6595
▁/{	-10.6667
▁expire	-10.6671
▁2015	-10.6672
▁bench	-10.6672
▁market	-10.6672
▁10000	-10.6674
▁cask	-10.6674
▁offer	-10.6678
▁overflow	-10.6693
▁production	-10.672
▁handshake	-10.6726
▁movie	-10.6726
▁iteration	-10.6727
▁hot	-10.6737
▁al	-10.6743
▁people	-10.6758
▁slow	-10.6764
▁rotate	-10.6771
▁404	-10.6773
▁azure	-10.678
▁:",	-10.6786
▁ginkgo	-10.6791
▁normalizer	-10.6804
▁shuffle	-10.6811
▁70	-10.6812
▁recorder	-10.6817
▁、	-10.6827
▁anonymous	-10.683
▁))]	-10.6844
▁instrumentation	-10.6847
▁)):	-10.6848
▁::<	-10.6859
▁manual	-10.686
▁]])	-10.6876
▁"../	-10.6879
▁inserter	-10.69
▁percentage	-10.6902
▁even	-10.6914
▁jet	-10.6925
▁(?:	-10.6929
▁{:	-10.6936
▁enumerate	-10.6938
▁persist	-10.6946
▁snippet	-10.6955
▁'')	-10.696
▁executed	-10.6965
▁)},	-10.7004
▁cart	-10.7004
▁'<?	-10.7014
▁poly	-10.702
▁prod	-10.7035
▁}))	-10.7045
▁lens	-10.7046
▁79	-10.7059
▁prophecy	-10.7089
▁sol	-10.7089
▁diagram	-10.7108
▁ticker	-10.7112
▁>("	-10.7116
▁qualified	-10.7126
▁paragraph	-10.7133
▁aggregation	-10.7139
▁inflate	-10.7143
▁notifier	-10.7161
▁dup	-10.7168
▁above	-10.7176
▁("./	-10.7181
▁quality	-10.7187
▁39	-10.7197
▁ask	-10.7214
▁biz	-10.7226
▁tear	-10.7229
▁51	-10.7233
▁buff	-10.724
▁>::	-10.7265
▁aria	-10.7268
▁)\	-10.7276
▁)")	-10.7279
▁()[	-10.7287
▁accessible	-10.7293
▁way	-10.7297
▁nexus	-10.7309
▁party	-10.7329
▁skill	-10.7341
▁]("	-10.7342
▁follow	-10.7349
▁noise	-10.7355
▁"'	-10.7359
▁culture	-10.7392
▁leading	-10.7393
▁invoker	-10.7397
▁proposal	-10.7398
▁(",	-10.7408
▁love	-10.7414
▁brains	-10.743
▁53	-10.7434
▁dumper	-10.7439
▁*,	-10.7441
▁authenticator	-10.7458
▁tiny	-10.7469
▁"]);	-10.747
▁digit	-10.7473
▁fork	-10.7482
▁"";	-10.7501
▁express	-10.7521
▁serve	-10.7528
▁59	-10.7536
▁observe	-10.7537
▁/#{	-10.7557
▁confirmation	-10.7571
▁&=	-10.7575
▁cover	-10.7576
▁tech	-10.7583
▁temporal	-10.7584
▁frequency	-10.7591
▁remember	-10.7591
▁65	-10.7593
▁expiration	-10.7606
▁prepared	-10.761
▁minus	-10.7615
▁trainer	-10.7631
▁;\	-10.7632
▁our	-10.7632
▁written	-10.7637
▁par	-10.7647
▁classification	-10.765
▁}:	-10.7653
▁half	-10.7669
▁arm	-10.7671
▁unary	-10.768
▁]",	-10.7686
▁transient	-10.769
▁leader	-10.7696
▁52	-10.7698
▁rich	-10.77
▁being	-10.7702
▁recording	-10.7713
▁('../../	-10.7726
▁soap	-10.7734
▁192	-10.7768
▁hover	-10.7778
▁=\"	-10.7779
▁sin	-10.7792
▁yellow	-10.781
▁curator	-10.7817
▁invoice	-10.7825
▁({"	-10.7842
▁infinity	-10.7846
▁press	-10.7855
▁(((	-10.7866
▁mixed	-10.7874
▁during	-10.7878
▁58	-10.7879
▁interrupted	-10.7912
▁fetcher	-10.7922
▁ae	-10.7923
▁authenticate	-10.7923
▁choose	-10.7926
▁ce	-10.7935
▁walk	-10.7953
▁instrument	-10.7954
▁mu	-10.7961
▁fe	-10.7971
▁>',	-10.798
▁(!(	-10.7982
▁manage	-10.7984
▁"(	-10.7985
▁recipient	-10.7999
▁="{{	-10.8003
▁pane	-10.803
▁alter	-10.8061
▁2016	-10.8064
▁guest	-10.8065
▁detection	-10.8066
▁waiting	-10.8066
▁rollback	-10.8067
▁compatible	-10.8086
▁prelude	-10.8086
▁overwrite	-10.8089
▁infrastructure	-10.8093
▁vim	-10.8094
▁merchant	-10.8111
▁][:	-10.8129
▁thumbnail	-10.8131
▁produce	-10.8134
▁feedback	-10.8152
▁>"	-10.8157
▁employee	-10.8171
▁---*	-10.8178
▁dialect	-10.8178
▁prediction	-10.8178
▁('.	-10.818
▁("[	-10.8183
▁001	-10.8186
▁handling	-10.8192
▁}]	-10.8205
▁sniff	-10.8209
▁46	-10.8211
▁])(	-10.8217
▁experiment	-10.8218
▁sequential	-10.8223
▁swift	-10.8225
▁conflict	-10.8231
▁front	-10.8266
▁"+	-10.8268
▁--------------------------------------------------------------------------------	-10.827
▁issuer	-10.8272
▁49	-10.8284
▁submission	-10.8284
▁enumerator	-10.8302
▁activate	-10.8319
▁protection	-10.8331
▁`)	-10.8345
▁swipe	-10.8363
▁noop	-10.8365
▁traverse	-10.8367
▁rendering	-10.8373
▁strong	-10.8374
▁presence	-10.8376
▁transformation	-10.8389
▁inbound	-10.8392
▁smack	-10.8396
▁news	-10.8409
▁ticket	-10.8417
▁applied	-10.8423
▁risk	-10.8424
▁timber	-10.8428
▁allocate	-10.8437
▁telegram	-10.8458
▁]()	-10.8467
▁>;	-10.8487
▁("")	-10.8495
▁>\	-10.8512
▁pow	-10.852
▁today	-10.8523
▁/%	-10.8541
▁;",	-10.8552
▁er	-10.8552
▁150	-10.8561
▁disconnect	-10.8568
▁calling	-10.857
▁cascade	-10.8572
▁acquire	-10.8588
▁101	-10.8604
▁grain	-10.8609
▁lat	-10.8609
▁incorrect	-10.8615
▁("#	-10.864
▁ingress	-10.8645
▁middle	-10.8645
▁semantic	-10.8655
▁ray	-10.8664
▁billing	-10.8675
▁hand	-10.8676
▁again	-10.868
▁.(	-10.87
▁drawing	-10.87
▁2011	-10.8701
▁micro	-10.8702
▁studio	-10.8704
▁tagged	-10.8709
▁nan	-10.8711
▁pip	-10.8717
▁$',	-10.872
▁infer	-10.8724
▁course	-10.8726
▁spacing	-10.873
▁\",\"	-10.8755
▁accuracy	-10.8771
▁reveal	-10.8774
▁rectangle	-10.8788
▁latency	-10.8793
▁canonical	-10.8794
▁expanded	-10.8795
▁ago	-10.8798
▁migrate	-10.8813
▁sampling	-10.8813
▁drawer	-10.8814
▁trailing	-10.8824
▁ta	-10.8831
▁>'	-10.8832
▁pet	-10.8832
▁difference	-10.8837
▁leave	-10.8843
▁journal	-10.8847
▁viewer	-10.885
▁(".	-10.8859
▁fully	-10.8861
▁tint	-10.8871
▁bob	-10.888
▁=~	-10.8896
▁72	-10.8899
▁palette	-10.8916
▁rabbit	-10.8918
▁foreground	-10.8921
▁za	-10.8921
▁blocked	-10.8935
▁alternate	-10.8939
▁'",	-10.8958
▁attached	-10.8962
▁wide	-10.8966
▁outcome	-10.8971
▁dirty	-10.8983
▁launcher	-10.8988
▁voice	-10.9002
▁below	-10.9024
▁]));	-10.9037
▁yet	-10.9046
▁:!	-10.9065
▁nu	-10.9078
▁dry	-10.9091
▁zoom	-10.9098
▁rewrite	-10.9125
▁replacement	-10.9137
▁66	-10.9143
▁sandbox	-10.9161
▁96	-10.9176
▁teardown	-10.9178
▁ownership	-10.9182
▁timing	-10.9184
▁inverse	-10.9206
▁around	-10.9219
▁>&	-10.9236
▁sess	-10.9236
▁mid	-10.9238
▁comma	-10.924
▁well	-10.9243
▁63	-10.9257
▁drive	-10.9273
▁sprite	-10.9276
▁prob	-10.9277
▁600	-10.9279
▁desired	-10.9284
▁contributor	-10.9288
▁mismatch	-10.9288
▁>",	-10.9296
▁currently	-10.9296
▁slave	-10.9297
▁corner	-10.9304
▁marathon	-10.9304
▁shop	-10.9314
▁requirement	-10.9324
▁,-	-10.9342
▁human	-10.9349
▁would	-10.9349
▁reshape	-10.9356
▁flip	-10.9357
▁(["	-10.9369
▁alarm	-10.938
▁!',	-10.9386
▁creative	-10.939
▁development	-10.9396
▁}}</	-10.9397
▁'}	-10.9406
▁vertices	-10.9413
▁elm	-10.9416
▁gif	-10.9416
▁environ	-10.9419
▁=$(	-10.9429
▁assigned	-10.944
▁street	-10.9441
▁opening	-10.9452
▁pix	-10.9456
▁potential	-10.946
▁band	-10.9462
▁("--	-10.9467
▁]*	-10.9478
▁hierarchy	-10.9501
▁participant	-10.951
▁:]	-10.9513
▁/**	-10.9528
▁star	-10.9533
▁----------	-10.9536
▁seen	-10.9543
▁dash	-10.9547
▁turn	-10.9585
▁.')	-10.9595
▁their	-10.9596
▁opacity	-10.9608
▁47	-10.9615
▁badge	-10.9616
▁replication	-10.9618
▁decay	-10.9634
▁)'	-10.9636
▁61	-10.9636
▁stuffer	-10.9637
▁equality	-10.9644
▁vehicle	-10.9651
▁fade	-10.9652
▁statistic	-10.9663
▁reading	-10.9675
▁slide	-10.9689
▁95	-10.9703
▁('<	-10.9706
▁finite	-10.9727
▁music	-10.9727
▁stopped	-10.9728
▁building	-10.9732
▁shipping	-10.9739
▁breaker	-10.9742
▁heading	-10.9763
▁gate	-10.9775
▁2012	-10.9781
▁74	-10.9782
▁>:	-10.9789
▁traffic	-10.9797
▁cucumber	-10.9804
▁anything	-10.9811
▁ground	-10.9814
▁pickle	-10.982
▁57	-10.9823
▁2021	-10.9825
▁challenge	-10.9834
▁ordinal	-10.9839
▁stable	-10.9849
▁-%	-10.9851
▁}));	-10.9859
▁design	-10.9872
▁}</	-10.9874
▁exporter	-10.9884
▁20210724	-10.9893
▁preferred	-10.9893
▁office	-10.9917
▁say	-10.9918
▁"@	-10.9927
▁incoming	-10.9938
▁caster	-10.9942
▁look	-10.9943
▁maker	-10.9963
▁capability	-10.9969
▁guzzle	-11.0004
▁conference	-11.002
▁raised	-11.002
▁salt	-11.0022
▁54	-11.0023
▁peek	-11.0024
▁semaphore	-11.0024
▁monad	-11.0029
▁%%	-11.005
▁car	-11.0054
▁{}{	-11.0056
▁("-	-11.0057
▁!"	-11.0063
▁'][	-11.0064
▁slash	-11.0064
▁!(:	-11.0072
▁/",	-11.008
▁gravity	-11.008
▁-\	-11.01
▁episode	-11.01
▁polygon	-11.0131
▁mix	-11.0143
▁internals	-11.0145
▁automatically	-11.0146
▁'[	-11.0159
▁able	-11.0162
▁fraction	-11.0174
▁subclass	-11.0196
▁(**	-11.0206
▁advanced	-11.0207
▁mi	-11.0207
▁lift	-11.0217
▁pick	-11.0223
▁sensitive	-11.0235
▁recent	-11.0239
▁artist	-11.0254
▁converted	-11.0254
▁"..	-11.026
▁sequel	-11.0271
▁/^	-11.0279
▁!")	-11.028
▁ie	-11.0286
▁pic	-11.0293
▁/.	-11.0295
▁envelope	-11.0304
▁critical	-11.0309
▁120	-11.0314
▁ball	-11.0318
▁bounding	-11.033
▁urn	-11.0331
▁assume	-11.0343
▁wheel	-11.0343
▁!");	-11.0345
▁compatibility	-11.0351
▁otter	-11.0352
▁aggregator	-11.0361
▁ply	-11.0362
▁@"	-11.0367
▁))).	-11.0377
▁ak	-11.038
▁campaign	-11.0385
▁banner	-11.0396
▁('#	-11.0398
▁interrupt	-11.0411
▁ea	-11.0423
▁signer	-11.0427
▁`${	-11.0429
▁ur	-11.0432
▁gamma	-11.0436
▁correction	-11.0447
▁subset	-11.0463
▁portal	-11.0465
▁te	-11.0477
▁))))	-11.0478
▁brush	-11.0487
▁truncate	-11.0496
▁lettuce	-11.05
▁optimize	-11.0509
▁ge	-11.0523
▁architecture	-11.0527
▁)],	-11.0529
▁--;	-11.0529
▁heartbeat	-11.0538
▁replay	-11.0539
▁still	-11.0553
▁cool	-11.0559
▁combined	-11.0561
▁detach	-11.0564
▁}");	-11.0585
▁("<	-11.0612
▁/$	-11.0621
▁quit	-11.0624
▁]{	-11.0625
▁stateful	-11.0625
▁solid	-11.063
▁###	-11.0639
▁analyze	-11.0641
▁axes	-11.0644
▁spiral	-11.0644
▁topology	-11.0668
▁conversation	-11.0672
▁caught	-11.0674
▁solidity	-11.068
▁study	-11.0683
▁89	-11.0706
▁87	-11.0711
▁solver	-11.0727
▁{",	-11.0734
▁parcel	-11.0738
▁thumb	-11.075
▁developer	-11.076
▁quartz	-11.0766
▁2014	-11.077
▁/)	-11.0776
▁prime	-11.0784
▁@@	-11.0793
▁plane	-11.0804
▁consensus	-11.0806
▁implement	-11.0806
▁bonus	-11.0807
▁finalize	-11.081
▁)?;	-11.082
▁88	-11.0821
▁="$	-11.083
▁bolt	-11.083
▁man	-11.0834
▁po	-11.0838
▁scratch	-11.0844
▁dog	-11.0847
▁league	-11.0874
▁{#	-11.0878
▁succeed	-11.0888
▁divider	-11.0889
▁#:	-11.09
▁[@	-11.0905
▁extent	-11.0908
▁psalm	-11.0922
▁chrome	-11.0927
▁led	-11.0941
▁--[[	-11.0942
▁;;	-11.0942
▁six	-11.0974
▁![	-11.0975
▁eloquent	-11.0994
▁ser	-11.1021
▁rocket	-11.1029
▁recovery	-11.1033
▁("../	-11.1038
▁perm	-11.104
▁67	-11.1044
▁compressed	-11.1046
▁arena	-11.1054
▁determine	-11.106
▁91	-11.1062
▁localization	-11.1065
▁parquet	-11.1071
▁later	-11.1075
▁relic	-11.1084
▁latitude	-11.1102
▁($"	-11.1114
▁refund	-11.1117
▁201809	-11.1127
▁forbidden	-11.1141
▁vault	-11.1143
▁verb	-11.1146
▁('%	-11.1151
▁jest	-11.1151
▁sensor	-11.1151
▁fingerprint	-11.1152
▁guide	-11.1152
▁78	-11.1164
▁inspection	-11.1167
▁hero	-11.1184
▁rune	-11.1196
▁.<	-11.1197
▁presentation	-11.1197
▁decision	-11.1208
▁charge	-11.1217
▁oracle	-11.1225
▁83	-11.1226
▁92	-11.1231
▁)*	-11.1233
▁supply	-11.1234
▁stuff	-11.1236
▁?):	-11.1239
▁spell	-11.1244
▁={"	-11.1252
▁outbound	-11.1265
▁[#	-11.1266
▁250	-11.1268
▁song	-11.1273
▁invalidate	-11.1284
▁business	-11.1286
▁264	-11.1287
▁interactive	-11.13
▁forecast	-11.1304
▁,'	-11.1309
▁normalization	-11.1322
▁due	-11.1336
▁}}"	-11.1336
▁<?=	-11.1341
▁)|	-11.1348
▁81	-11.1351
▁outline	-11.1352
▁longitude	-11.1354
▁stereotype	-11.1357
▁)/	-11.1361
▁。	-11.1361
▁ा	-11.137
▁membership	-11.1374
▁:',	-11.1377
▁())->	-11.1378
▁68	-11.1385
▁floating	-11.1387
▁cut	-11.1388
▁62	-11.1392
▁)?	-11.1405
▁ary	-11.1424
▁ha	-11.1431
▁85	-11.1434
▁meeting	-11.1436
▁98	-11.1441
▁concrete	-11.1444
▁")));	-11.1446
▁limited	-11.1457
▁sans	-11.146
▁alchemy	-11.147
▁tip	-11.1475
▁concern	-11.1479
▁were	-11.1484
▁&&(	-11.149
▁chapter	-11.149
▁swing	-11.1497
▁2007	-11.15
▁properly	-11.1508
▁/'	-11.1518
▁community	-11.1523
▁&'	-11.1535
▁roi	-11.1535
▁truthy	-11.1537
▁decoration	-11.1545
▁favorite	-11.1545
▁goal	-11.1551
▁blend	-11.1555
▁twisted	-11.1568
▁sugar	-11.1573
▁phrase	-11.1576
▁installation	-11.1578
▁para	-11.1581
▁facade	-11.1583
▁/,	-11.16
▁collision	-11.1603
▁zeppelin	-11.1603
▁dependent	-11.1611
▁/><	-11.1616
▁stamp	-11.1618
▁outside	-11.1623
▁synthetic	-11.1626
▁attention	-11.1632
▁69	-11.164
▁]"	-11.165
▁")(	-11.1653
▁permit	-11.1662
▁/:	-11.1667
▁avoid	-11.1668
▁cos	-11.1668
▁relay	-11.168
▁weapon	-11.169
▁crash	-11.1705
▁velocity	-11.1711
▁('-	-11.1738
▁better	-11.1744
▁inactive	-11.1744
▁800	-11.1751
▁-->	-11.1782
▁=-	-11.1782
▁derived	-11.1785
▁those	-11.1787
▁}}'	-11.179
▁concurrency	-11.1799
▁unauthorized	-11.18
▁broken	-11.1802
▁invite	-11.1806
▁5000	-11.1811
▁()}	-11.1816
▁्	-11.1845
▁gold	-11.1848
▁privacy	-11.1855
▁/',	-11.1857
▁dock	-11.1865
▁="/	-11.1874
▁([[	-11.1876
▁seg	-11.1877
▁replica	-11.1879
▁transpose	-11.1884
▁unavailable	-11.1884
▁wall	-11.1896
▁undo	-11.191
▁opaque	-11.1912
▁:,	-11.1936
▁"><	-11.195
▁atlas	-11.1955
▁tweet	-11.1955
▁}";	-11.1967
▁']),	-11.1972
▁nid	-11.1979
▁]["	-11.199
▁backbone	-11.1998
▁downstream	-11.2002
▁gap	-11.2014
▁97	-11.2019
▁behaviour	-11.2023
▁terminate	-11.2028
▁alternative	-11.203
▁animated	-11.2033
▁sell	-11.2037
▁measurement	-11.2038
▁73	-11.204
▁paper	-11.2042
▁eager	-11.2043
▁mux	-11.2052
▁notebook	-11.2063
▁timed	-11.2078
▁exclusive	-11.2082
▁84	-11.2115
▁mall	-11.2128
▁8080	-11.2133
▁malformed	-11.2133
▁density	-11.2136
▁singular	-11.2136
▁stock	-11.2151
▁=${	-11.2161
▁interpolation	-11.2189
▁gender	-11.2191
▁navigate	-11.2193
▁82	-11.2196
▁hard	-11.2198
▁}],	-11.2204
▁suggestion	-11.2209
▁scaling	-11.2212
▁202105	-11.2216
▁corp	-11.2237
▁999	-11.2243
▁against	-11.2248
▁caption	-11.2257
▁inference	-11.2269
▁76	-11.2275
▁'(	-11.2277
▁=!	-11.2277
▁compound	-11.2282
▁202102	-11.2289
▁convention	-11.2293
▁}}',	-11.2305
▁.(*	-11.2312
▁glide	-11.2314
▁77	-11.2318
▁202011	-11.2321
▁restrict	-11.2321
▁{$	-11.2334
▁passing	-11.2339
▁interpolator	-11.2346
▁coco	-11.2364
▁lifetime	-11.2373
▁verbosity	-11.2401
▁({})	-11.2406
▁?',	-11.243
▁adjust	-11.2435
▁glyph	-11.244
▁beam	-11.2442
▁!",	-11.2455
▁sphinx	-11.2457
▁tid	-11.2462
▁algebra	-11.2464
▁navigator	-11.2464
▁spinner	-11.2471
▁prevent	-11.2473
▁publication	-11.2482
▁student	-11.2488
▁bearer	-11.2493
▁inherit	-11.2504
▁helm	-11.2506
▁replicated	-11.2512
▁directly	-11.2513
▁("""	-11.2515
▁advance	-11.2521
▁="${	-11.2523
▁attack	-11.2523
▁mockery	-11.253
▁$.	-11.2548
▁""")	-11.2554
▁great	-11.2563
▁four	-11.2567
▁dismiss	-11.2572
▁eureka	-11.2581
▁]}	-11.2589
▁eye	-11.259
▁listing	-11.2598
▁/*	-11.2603
▁snap	-11.2609
▁")},	-11.2611
▁raft	-11.2627
▁"");	-11.2629
▁pac	-11.2637
▁))),	-11.2639
▁ra	-11.2639
▁workbook	-11.2639
▁'/'	-11.2655
▁social	-11.2659
▁made	-11.2674
▁little	-11.2676
▁*=	-11.2691
▁energy	-11.2694
▁[][]	-11.2696
▁storm	-11.2702
▁pivot	-11.2704
▁ripper	-11.2707
▁sharper	-11.2713
▁camel	-11.2715
▁nat	-11.2715
▁",{	-11.2718
▁pro	-11.2718
▁calculator	-11.2724
▁preset	-11.2726
▁wave	-11.2726
▁friend	-11.2732
▁plumbing	-11.2733
▁angular	-11.2735
▁]',	-11.2743
▁[]{	-11.275
▁12345	-11.2754
▁repeated	-11.2758
▁("#{	-11.276
▁160	-11.276
▁sunshine	-11.2765
▁decorated	-11.2782
▁lab	-11.279
▁?></	-11.2793
▁$"	-11.2799
▁implode	-11.2803
▁audience	-11.2805
▁quiet	-11.2809
▁populate	-11.2818
▁allocation	-11.2822
▁vol	-11.2822
▁convolution	-11.2825
▁({},	-11.2827
▁jump	-11.2827
▁sam	-11.2827
▁sniffer	-11.2852
▁welcome	-11.2852
▁placement	-11.2861
▁collapse	-11.2863
▁(())	-11.2873
▁legend	-11.2888
▁unlink	-11.2894
▁quad	-11.2896
▁discard	-11.2905
▁tax	-11.2909
▁⇒	-11.2909
▁inserted	-11.2926
▁('@	-11.2934
▁hosting	-11.2936
▁animate	-11.296
▁"',	-11.297
▁figure	-11.297
▁postfix	-11.2974
▁stanza	-11.2976
▁ceil	-11.2993
▁zircon	-11.3022
▁("$	-11.3028
▁.`	-11.3031
▁coll	-11.3035
▁180	-11.3049
▁>):	-11.3055
▁111	-11.306
▁?"	-11.3062
▁"/"	-11.3064
▁rake	-11.3064
▁,\	-11.3076
▁rex	-11.308
▁())).	-11.3097
▁incident	-11.3099
▁}>	-11.3099
▁71	-11.3107
▁propagation	-11.3117
▁circular	-11.3136
▁draft	-11.3142
▁()]	-11.3152
▁latex	-11.3153
▁=/	-11.3167
▁)])	-11.3173
▁ember	-11.3175
▁*)(	-11.3177
▁die	-11.3179
▁93	-11.3191
▁east	-11.3206
▁give	-11.3208
▁epsilon	-11.3216
▁captor	-11.3218
▁refute	-11.322
▁'#{	-11.3228
▁shown	-11.3232
▁[]>	-11.3253
▁purpose	-11.3267
▁":{"	-11.3287
▁("{	-11.3305
▁confirmed	-11.3309
▁nut	-11.3309
▁restriction	-11.3319
▁temperature	-11.3319
▁zoo	-11.3323
▁224	-11.3325
▁subtitle	-11.3327
▁)-	-11.3333
▁')),	-11.3335
▁gather	-11.3337
▁manga	-11.3346
▁[%	-11.3354
▁installer	-11.3354
▁&[	-11.3362
▁handled	-11.3362
▁='%	-11.3364
▁copied	-11.3366
▁blur	-11.3398
▁transactional	-11.3408
▁[\	-11.341
▁expiry	-11.3412
▁\",	-11.3414
▁`:	-11.342
▁168	-11.3428
▁writing	-11.3432
▁rounded	-11.3434
▁}`	-11.3438
▁iterate	-11.3448
▁eclipse	-11.3454
▁2013	-11.346
▁explode	-11.346
▁canal	-11.3464
▁202008	-11.3468
▁gesture	-11.3472
▁cube	-11.3477
▁mo	-11.3483
▁blah	-11.3505
▁preserve	-11.3507
▁cheerio	-11.3511
▁ut	-11.3517
▁ga	-11.3519
▁reuse	-11.3521
▁glue	-11.3523
▁comparable	-11.3527
▁complexity	-11.3537
▁effective	-11.3541
▁equivalent	-11.3543
▁vote	-11.3543
▁absent	-11.3549
▁qualifier	-11.3557
▁throttle	-11.3584
▁danger	-11.3586
▁)?.	-11.3588
▁chef	-11.3598
▁recover	-11.3627
▁deadline	-11.3631
▁']).	-11.3633
▁]].	-11.3643
▁sigma	-11.3647
▁keeper	-11.3651
▁might	-11.3651
▁-.	-11.3655
▁precedence	-11.3657
▁:/	-11.3674
▁triggered	-11.3678
▁201	-11.3686
▁crypt	-11.369
▁micrometer	-11.3692
▁([],	-11.3705
▁bing	-11.3707
▁.()	-11.3713
▁cleaner	-11.3719
▁gin	-11.3719
▁]")	-11.3732
▁narrow	-11.3734
▁shall	-11.374
▁exposed	-11.3752
▁piece	-11.3752
▁ti	-11.3752
▁crawler	-11.3758
▁multiplier	-11.3767
▁everything	-11.3771
▁approval	-11.3779
▁.";	-11.3781
▁transparent	-11.3783
▁'})	-11.3814
▁lease	-11.3814
▁flume	-11.3863
▁early	-11.3883
▁silent	-11.3894
▁(...)	-11.3896
▁]\	-11.3907
▁gid	-11.3907
▁++]	-11.3909
▁whole	-11.3911
▁nearest	-11.3915
▁000000	-11.3923
▁grammar	-11.3928
▁indexing	-11.3928
▁rook	-11.3934
▁depend	-11.3957
▁(<	-11.3959
▁hold	-11.3968
▁"}},	-11.3972
▁story	-11.3972
▁401	-11.3974
▁immediate	-11.398
▁kraken	-11.4021
▁!!.	-11.4025
▁-------	-11.4025
▁reducer	-11.4036
▁"."	-11.4044
▁optimization	-11.4051
▁quest	-11.4078
▁art	-11.4083
▁marten	-11.4089
▁important	-11.4091
▁indexer	-11.4095
▁94	-11.4098
▁brace	-11.4102
▁robot	-11.4104
▁necessary	-11.411
▁persister	-11.411
▁awesome	-11.4113
▁fog	-11.4121
▁"==	-11.4126
▁coerce	-11.4132
▁getting	-11.4158
▁bracket	-11.416
▁brew	-11.4162
▁'{{	-11.4169
▁life	-11.4169
▁modification	-11.4169
▁splitter	-11.4169
▁ship	-11.4184
▁caret	-11.4188
▁multiply	-11.4197
▁clamp	-11.4203
▁similar	-11.4205
▁displayed	-11.4216
▁exposure	-11.4218
▁indirect	-11.4221
▁calculation	-11.4231
▁failing	-11.4234
▁gas	-11.4238
▁weighted	-11.424
▁?",	-11.4242
▁>>,	-11.4255
▁']->	-11.426
▁playback	-11.4264
▁deny	-11.4292
▁>>(	-11.4295
▁|}	-11.4306
▁\"%	-11.4325
▁sending	-11.4343
▁spender	-11.4349
▁correlation	-11.4358
▁insensitive	-11.4378
▁underscore	-11.4389
▁division	-11.4398
▁retain	-11.4398
▁intermediate	-11.44
▁`(	-11.4407
▁envoy	-11.4413
▁daily	-11.4416
▁justify	-11.4416
▁]\\	-11.442
▁fault	-11.442
▁colour	-11.4431
▁consider	-11.444
▁consul	-11.4451
▁acme	-11.4453
▁ending	-11.4453
▁pacific	-11.4455
▁buy	-11.4464
▁.'/	-11.4471
▁resilience	-11.45
▁snowflake	-11.4509
▁.#	-11.4511
▁tilt	-11.4513
▁borrow	-11.452
▁disposed	-11.4525
▁prof	-11.4538
▁invariant	-11.4545
▁=["	-11.4551
▁360	-11.4563
▁aw	-11.4563
▁bulkhead	-11.4567
▁subtract	-11.4567
▁rancher	-11.4569
▁torrent	-11.4574
▁department	-11.4576
▁survey	-11.4581
▁"=>"	-11.4587
▁far	-11.4587
▁probability	-11.4594
▁collation	-11.4599
▁enumeration	-11.4599
▁gain	-11.4603
▁\$	-11.4617
▁discriminator	-11.4617
▁indentation	-11.4617
▁swarm	-11.4619
▁~>	-11.4621
▁"][	-11.4626
▁triangle	-11.4632
▁sentry	-11.4637
▁&$	-11.4653
▁sanitize	-11.4655
▁25519	-11.4657
▁gone	-11.4657
▁tenancy	-11.4662
▁hip	-11.4676
▁apt	-11.468
▁beacon	-11.468
▁brave	-11.4682
▁superclass	-11.4703
▁mass	-11.4705
▁carrier	-11.4707
▁456	-11.4716
▁>?	-11.4735
▁=['	-11.4744
▁traversal	-11.4746
▁serving	-11.4748
▁dont	-11.476
▁really	-11.4762
▁central	-11.4769
▁deletion	-11.4771
▁telemetry	-11.4774
▁%>	-11.4781
▁<<<'	-11.4785
▁.%	-11.4799
▁quota	-11.481
▁travis	-11.4813
▁taken	-11.4815
▁procedure	-11.4822
▁230	-11.4827
▁hardware	-11.4827
▁physics	-11.484
▁reduction	-11.487
▁([$	-11.4887
▁ko	-11.4891
▁categorical	-11.4896
▁sibling	-11.4905
▁variance	-11.4917
▁concept	-11.4919
▁linter	-11.4919
▁accumulator	-11.4924
▁almost	-11.4931
▁()(	-11.4935
▁>]	-11.4938
▁]]]	-11.4942
▁shogun	-11.4942
▁(/\	-11.4963
▁#"	-11.4966
▁masked	-11.4966
▁384	-11.4968
▁speaker	-11.4968
▁))(	-11.497
▁deal	-11.4975
▁"../../	-11.4977
▁deliver	-11.4989
▁3000	-11.4996
▁comparer	-11.5003
▁(("	-11.5017
▁conductor	-11.5017
▁':'	-11.5022
▁om	-11.5024
▁'::	-11.5039
▁explicitly	-11.5039
▁sponsor	-11.5039
▁``.	-11.5041
▁equipment	-11.5057
▁fabric	-11.5057
▁he	-11.5062
▁availability	-11.5064
▁eventually	-11.5067
▁composition	-11.5086
▁filled	-11.5088
▁!!	-11.509
▁cal	-11.5095
▁kudu	-11.5095
▁flask	-11.51
▁closer	-11.5105
▁extracted	-11.5105
▁anime	-11.5117
▁punctuation	-11.5119
▁,\"	-11.5136
▁ि	-11.514
▁\.	-11.515
▁monoid	-11.5155
▁prefab	-11.5171
▁millisecond	-11.5174
▁scaled	-11.5183
▁’	-11.52
▁glow	-11.5205
▁enough	-11.5217
▁discover	-11.5219
▁hasher	-11.5236
▁infinite	-11.525
▁whenever	-11.5262
▁neon	-11.5265
▁prefer	-11.5272
▁rational	-11.5282
▁grouped	-11.5294
▁=").	-11.5296
▁werf	-11.5296
▁>(),	-11.5299
▁/${	-11.5301
▁roll	-11.5301
▁inflector	-11.5313
▁lost	-11.5315
▁،	-11.5315
▁>/	-11.532
▁bundler	-11.534
▁<<~	-11.5357
▁>';	-11.5359
▁implicitly	-11.5362
▁water	-11.5362
▁prune	-11.5366
▁universe	-11.5369
▁tested	-11.5376
▁@!	-11.5381
▁bo	-11.5393
▁browse	-11.5401
▁sticky	-11.5401
▁od	-11.5403
▁guess	-11.5427
▁'\''	-11.543
▁memo	-11.5435
▁+"	-11.544
▁adapt	-11.544
▁rejection	-11.544
▁fiber	-11.5445
▁orange	-11.5454
▁maintenance	-11.5484
▁prism	-11.5486
▁>());	-11.5489
▁='"	-11.5496
▁mutate	-11.5499
▁minimal	-11.5501
▁}`,	-11.5513
▁overview	-11.5516
▁underline	-11.5516
▁tier	-11.5526
▁corresponding	-11.5533
▁divide	-11.5538
▁steam	-11.5541
▁clustering	-11.5568
▁mir	-11.5573
▁pie	-11.5585
▁("@	-11.559
▁continuous	-11.5603
▁fresh	-11.5603
▁marked	-11.5615
▁useful	-11.5623
▁confidence	-11.5625
▁%{	-11.563
▁inter	-11.5638
▁hist	-11.565
▁postal	-11.5655
▁door	-11.5673
▁ease	-11.5683
▁:$	-11.5685
▁bookmark	-11.5685
▁chai	-11.5685
▁natural	-11.5685
▁identical	-11.5698
▁|""".	-11.5716
▁overlap	-11.5718
▁expose	-11.5736
▁(${	-11.5738
▁grouping	-11.5743
▁trail	-11.5753
▁mining	-11.5758
▁who	-11.5758
▁})(\\	-11.5779
▁separate	-11.5781
▁<%=	-11.5827
▁bullet	-11.5835
▁{}".	-11.5842
▁<<<	-11.5845
▁8859	-11.5858
▁assignable	-11.587
▁{{-	-11.5878
▁%#	-11.5883
▁authorizer	-11.5891
▁higher	-11.5891
▁"]:	-11.5893
▁proof	-11.5896
▁itself	-11.5899
▁pulse	-11.5901
▁planner	-11.5904
▁}()	-11.5917
▁moving	-11.5927
▁reaction	-11.5929
▁cargo	-11.594
▁visualizer	-11.5958
▁introspection	-11.5968
▁joint	-11.5971
▁west	-11.5976
▁estimate	-11.5999
▁smooth	-11.6002
▁longer	-11.6004
▁("{\"	-11.6015
▁>{	-11.6015
▁inflect	-11.6017
▁#{@	-11.602
▁ory	-11.602
▁ann	-11.6028
▁fifo	-11.6028
▁particular	-11.6028
▁selenium	-11.6033
▁dolor	-11.6038
▁"\"	-11.6051
▁([])	-11.6051
▁%"	-11.6062
▁disconnected	-11.6067
▁corrector	-11.6072
▁lin	-11.6088
▁((*	-11.6096
▁discord	-11.6096
▁,),	-11.6098
▁trying	-11.6101
▁)((	-11.6106
▁pseudo	-11.6106
▁(;	-11.6122
▁universal	-11.6132
▁snake	-11.6148
▁momentum	-11.6151
▁ah	-11.6153
▁consistency	-11.6185
▁phantom	-11.6193
▁110	-11.6195
▁colon	-11.6198
▁um	-11.6198
▁breeze	-11.6206
▁inclusive	-11.6211
▁assembler	-11.6217
▁supervisor	-11.6217
▁tell	-11.6222
▁033	-11.6225
▁}')	-11.6233
▁({'	-11.6238
▁needle	-11.6241
▁('',	-11.6246
▁700	-11.6262
▁barrier	-11.6267
▁importer	-11.6272
▁busy	-11.628
▁unreachable	-11.6286
▁bid	-11.6288
▁increase	-11.6296
▁coupon	-11.6312
▁proper	-11.6312
▁overload	-11.6318
▁announce	-11.632
▁'^[\	-11.6323
▁materializer	-11.6334
▁prefect	-11.6353
▁cachet	-11.6355
▁dag	-11.6355
▁odd	-11.6358
▁mediator	-11.6361
▁0001	-11.6371
▁[['	-11.6382
▁mult	-11.6382
▁suggest	-11.6388
▁triple	-11.6388
▁polymorphic	-11.6396
▁purge	-11.6398
▁*)&	-11.6407
▁}".	-11.6407
▁coalesce	-11.6409
▁rolling	-11.6409
▁actually	-11.6412
▁'</	-11.6415
▁jib	-11.6423
▁"]).	-11.6425
▁beginning	-11.6428
▁flavor	-11.6442
▁fly	-11.645
▁protect	-11.6466
▁(#	-11.6472
▁inheritance	-11.6485
▁(--	-11.6493
▁!'	-11.6499
▁cancelable	-11.6501
▁devise	-11.6504
▁leak	-11.6504
▁personal	-11.651
▁substitute	-11.6512
▁structured	-11.6518
▁]]):	-11.6521
▁harness	-11.6521
▁,[	-11.6526
▁/\	-11.6529
▁enterprise	-11.6531
▁provision	-11.654
▁3600	-11.6553
▁tunnel	-11.6562
▁dynamo	-11.6564
▁whatever	-11.6564
▁manually	-11.6567
▁204	-11.6575
▁('../../../	-11.6586
▁flowable	-11.6586
▁00000000	-11.66
▁900	-11.6606
▁>>();	-11.6611
▁octet	-11.6611
▁4096	-11.663
▁skipping	-11.663
▁ox	-11.6633
▁bone	-11.6636
▁benthos	-11.6647
▁subtype	-11.665
▁./	-11.6658
▁)");	-11.6664
▁'../../../	-11.6666
▁!$	-11.6669
▁2048	-11.6672
▁=""	-11.668
▁#![	-11.6683
▁predictor	-11.6686
▁belt	-11.67
▁carry	-11.6702
▁expansion	-11.6708
▁()?.	-11.6714
▁male	-11.6716
▁infection	-11.6719
▁"/>	-11.6722
▁hyper	-11.6727
▁reserve	-11.6736
▁know	-11.6744
▁<?>>	-11.675
▁%(	-11.6753
▁240	-11.6755
▁automatic	-11.6755
▁prior	-11.6755
▁()):	-11.6758
▁<>	-11.6761
▁individual	-11.6764
▁'=>'	-11.6767
▁.."	-11.6783
▁[]);	-11.6786
▁characteristic	-11.6786
▁mon	-11.6789
▁%[	-11.6792
▁disposition	-11.6792
▁erase	-11.6803
▁403	-11.6806
▁outgoing	-11.6806
▁?('	-11.6811
▁invert	-11.6811
▁}};	-11.6817
▁movement	-11.682
▁theory	-11.6826
▁avail	-11.6834
▁shallow	-11.6834
▁jetty	-11.6842
▁plate	-11.6845
▁sodium	-11.6851
▁bubble	-11.6871
▁incomplete	-11.6874
▁contribution	-11.6876
▁synchronize	-11.6876
▁ram	-11.6882
▁,$	-11.6905
▁2006	-11.6908
▁^=	-11.691
▁healthy	-11.6916
▁shrink	-11.6916
▁past	-11.6925
▁"{\"	-11.6927
▁degree	-11.6936
▁ephemeral	-11.6936
▁123456	-11.6959
▁continuation	-11.6962
▁gallery	-11.6967
▁spot	-11.6967
▁>>()	-11.6973
▁100000	-11.6976
▁intersection	-11.6976
▁;"	-11.6979
▁>{{	-11.6979
▁{...	-11.6982
▁```	-11.6987
▁stenographer	-11.6987
▁nth	-11.699
▁unordered	-11.7004
▁ya	-11.7019
▁poi	-11.7025
▁)+	-11.7027
▁unresolved	-11.7036
▁five	-11.7039
▁intersect	-11.7039
▁twice	-11.7048
▁shot	-11.7053
▁lief	-11.7062
▁scatter	-11.7085
▁--)	-11.7091
▁ay	-11.7091
▁2008	-11.7094
▁termination	-11.7111
▁{}'.	-11.7111
▁traversable	-11.7114
▁flipper	-11.712
▁messenger	-11.7137
▁trip	-11.7137
▁selectable	-11.714
▁genesis	-11.7143
▁112	-11.7146
▁']));	-11.7149
▁removing	-11.7158
▁smaller	-11.716
▁paste	-11.7172
▁animal	-11.7193
▁objective	-11.7201
▁wrapping	-11.7204
▁ripple	-11.7216
▁(#{	-11.7222
▁regarding	-11.7228
▁saving	-11.7228
▁mine	-11.7236
▁filtering	-11.7269
▁appearance	-11.7286
▁reflector	-11.7286
▁)){	-11.7289
▁'${	-11.7292
▁headline	-11.7292
▁!\	-11.7298
▁cyan	-11.7298
▁reservation	-11.7298
▁polling	-11.7307
▁,)	-11.731
▁acceptance	-11.7313
▁liquid	-11.7319
▁tolerance	-11.7319
▁learn	-11.7328
▁*>(	-11.7334
▁exponential	-11.7334
▁302	-11.7337
▁teacher	-11.7337
▁coder	-11.734
▁125	-11.7346
▁redundant	-11.7369
▁lane	-11.7378
▁operating	-11.7381
▁ancestor	-11.7384
▁>`	-11.739
▁iron	-11.739
▁painter	-11.739
▁distribute	-11.7396
▁ni	-11.7396
▁food	-11.7399
▁'.$	-11.7402
▁lightning	-11.7408
▁sigmoid	-11.7417
▁yarn	-11.742
▁backing	-11.7423
▁?("	-11.7441
▁&(	-11.7456
▁walker	-11.7456
▁%.	-11.7459
▁connectivity	-11.7462
▁interpolate	-11.7465
▁intrinsic	-11.7486
▁brick	-11.7492
▁lean	-11.7498
▁<(	-11.7519
▁']],	-11.7522
▁gist	-11.7522
▁logistic	-11.7525
▁pal	-11.7531
▁。',	-11.754
▁prefixed	-11.7558
▁knowledge	-11.7571
▁partitioner	-11.7577
▁prog	-11.7577
▁{});	-11.7595
▁grow	-11.7601
▁insecure	-11.7601
▁percentile	-11.7604
▁bloom	-11.7613
▁rot	-11.7613
▁election	-11.7634
▁']:	-11.7637
▁refined	-11.7653
▁capybara	-11.7656
▁spider	-11.7665
▁theta	-11.7665
▁canary	-11.7674
▁`;	-11.7677
▁compressor	-11.7686
▁decrement	-11.7686
▁linker	-11.7699
▁"}},[	-11.7702
▁1000000	-11.7705
▁fetched	-11.7708
▁zoned	-11.7711
▁'")	-11.7717
▁restful	-11.7723
▁transparency	-11.773
▁102	-11.7736
▁approve	-11.7742
▁)];	-11.7748
▁\/	-11.7751
▁fig	-11.7754
▁explorer	-11.7767
▁simulate	-11.7767
▁looper	-11.777
▁phi	-11.7779
▁:-	-11.7785
▁nick	-11.7785
▁administrator	-11.7788
▁fu	-11.7791
▁observation	-11.7791
▁:`~	-11.7794
▁slick	-11.7798
▁?'	-11.7829
▁decompress	-11.7832
▁vocabulary	-11.7832
▁median	-11.7838
▁druid	-11.7844
▁restricted	-11.7847
▁(::	-11.786
▁*):	-11.786
▁inset	-11.786
▁rewind	-11.7863
▁deflate	-11.7869
▁spin	-11.7869
▁spread	-11.7869
▁applicable	-11.7875
▁subgroup	-11.7891
▁া	-11.7897
▁melee	-11.79
▁chronicle	-11.7907
▁immediately	-11.7907
▁2001	-11.791
▁backdrop	-11.791
▁drain	-11.791
▁│	-11.7913
▁2005	-11.7935
▁think	-11.7951
▁budget	-11.7954
▁unbind	-11.7954
▁near	-11.796
▁adaptive	-11.7966
▁scaffold	-11.7976
▁}-	-11.7982
▁pong	-11.7989
▁={{	-11.8011
▁bare	-11.8014
▁greeting	-11.8027
▁)$	-11.8036
▁according	-11.8036
▁differ	-11.8036
▁permitted	-11.8036
▁responder	-11.8036
▁}(	-11.8036
▁identify	-11.8039
▁'.'	-11.8046
▁nice	-11.8046
▁fitness	-11.8049
▁explain	-11.8052
▁infix	-11.8052
▁routine	-11.8058
▁yard	-11.8058
▁chroma	-11.8062
▁covered	-11.8062
▁science	-11.8062
▁squared	-11.8071
▁002	-11.8084
▁;',	-11.8097
▁dial	-11.8097
▁#=>	-11.8106
▁yo	-11.811
▁north	-11.8113
▁`"	-11.8119
▁neo	-11.8126
▁trap	-11.8135
▁basis	-11.8138
▁pat	-11.8138
▁–	-11.8151
▁">{{	-11.8158
▁(&(	-11.8174
▁<!--	-11.8193
▁awful	-11.8196
▁corpus	-11.82
▁discrete	-11.8203
▁piranha	-11.8209
▁slim	-11.8212
▁shopping	-11.8216
▁privilege	-11.8222
▁{-	-11.8222
▁tup	-11.8225
▁(?	-11.8229
▁scaler	-11.8232
▁incremental	-11.8235
▁locate	-11.8242
▁pose	-11.8242
▁(',	-11.8245
▁:${	-11.8245
▁("/")	-11.8261
▁spaceship	-11.8264
▁:+	-11.8284
▁calculated	-11.8284
▁][]	-11.8287
▁communication	-11.829
▁hue	-11.8294
▁reaper	-11.8294
▁courier	-11.8297
▁positional	-11.8297
▁*")	-11.83
▁reversed	-11.8303
▁educational	-11.8307
▁skinny	-11.8317
▁1305	-11.832
▁highest	-11.8333
▁lag	-11.8333
▁nickname	-11.8336
▁ferret	-11.8349
▁..."	-11.8359
▁্	-11.8362
▁/")	-11.8366
▁"$(	-11.8372
▁=#{	-11.8372
▁gnu	-11.8376
▁220	-11.8382
▁feign	-11.8382
▁descending	-11.8392
▁san	-11.8399
▁parallelism	-11.8412
▁pink	-11.8415
▁``,	-11.8418
▁={},	-11.8422
▁""",	-11.8438
▁{!!	-11.8455
▁="$(	-11.8475
▁.';	-11.8488
▁computation	-11.8491
▁́	-11.8491
▁/=	-11.8495
▁semi	-11.8501
▁pinned	-11.8518
▁addition	-11.8525
▁stopping	-11.8525
▁,(	-11.8528
▁reconnect	-11.8528
▁exponent	-11.8568
▁consistent	-11.8571
▁female	-11.8575
▁...',	-11.8578
▁("(	-11.8588
▁dill	-11.8598
▁8601	-11.8602
▁={'	-11.8602
▁bond	-11.8602
▁renderable	-11.8602
▁death	-11.8605
▁ocelot	-11.8612
▁few	-11.8618
▁chosen	-11.8622
▁cam	-11.8629
▁surging	-11.8629
▁battery	-11.8632
▁"]],	-11.8652
▁"};	-11.8662
▁blade	-11.8666
▁applicative	-11.8672
▁periodic	-11.8672
▁[](	-11.8683
▁paginate	-11.8683
▁::~	-11.8696
▁))->	-11.8703
▁enforce	-11.8706
▁generating	-11.8706
▁.)	-11.871
▁&.	-11.8713
▁similarity	-11.8713
▁wo	-11.872
▁searcher	-11.8747
▁legal	-11.8751
▁coeval	-11.8754
▁simulation	-11.8761
▁rust	-11.8764
▁listening	-11.8768
▁strength	-11.8768
▁{}',	-11.8771
▁become	-11.8781
▁elastica	-11.8785
▁fuzzy	-11.8785
▁advice	-11.8788
▁serif	-11.8809
▁=",	-11.8826
▁acceptable	-11.8829
▁unhandled	-11.8843
▁bill	-11.8847
▁"/",	-11.886
▁rio	-11.886
▁cryptography	-11.8867
▁forest	-11.8867
▁commerce	-11.8871
▁faster	-11.8871
▁"</	-11.8874
▁wind	-11.8874
▁showing	-11.8878
▁[+	-11.8888
▁anti	-11.8888
▁nest	-11.8888
▁stale	-11.8892
▁monkey	-11.8905
▁affected	-11.8923
▁("");	-11.8926
▁)}"	-11.8933
▁(\"	-11.8944
▁descendant	-11.8944
▁booking	-11.8958
▁detailed	-11.8968
▁>')	-11.8978
▁fish	-11.8978
▁ide	-11.8978
▁argo	-11.8985
▁iris	-11.8992
▁blackfire	-11.8996
▁argon	-11.8999
▁relaxed	-11.8999
▁discount	-11.9003
▁international	-11.9003
▁\"",	-11.9006
▁('[	-11.901
▁doe	-11.9013
▁neighbor	-11.9013
▁mailbox	-11.902
▁=[],	-11.9034
▁contiguous	-11.9038
▁mention	-11.9038
▁sense	-11.9049
▁'');	-11.9052
▁compaction	-11.9052
▁tracked	-11.9052
▁*>	-11.9056
▁ascending	-11.9056
▁isolation	-11.9056
▁ban	-11.9063
▁fine	-11.9066
▁++,	-11.907
▁modular	-11.907
▁]'	-11.9077
▁:["	-11.908
▁(<<-	-11.9087
▁partner	-11.9091
▁genre	-11.9105
▁girl	-11.9116
▁stash	-11.9116
▁bread	-11.9119
▁fired	-11.9119
▁night	-11.9126
▁staging	-11.913
▁rounding	-11.9133
▁thickness	-11.9137
▁matter	-11.914
▁incompatible	-11.9151
▁detached	-11.9155
▁);\	-11.9158
▁moko	-11.9169
▁squeeze	-11.9172
▁},{	-11.9172
▁huge	-11.9187
▁sax	-11.9204
▁talk	-11.9208
▁staff	-11.9212
▁promotion	-11.9215
▁amt	-11.9229
▁projectile	-11.9237
▁opulence	-11.9244
▁lead	-11.9247
▁234	-11.9251
▁sortable	-11.9251
▁trend	-11.9258
▁forced	-11.9262
▁loose	-11.9269
▁requester	-11.9269
▁(&$	-11.9273
▁ammo	-11.9276
▁ghost	-11.928
▁together	-11.928
▁relevant	-11.9283
▁mandatory	-11.9298
▁revert	-11.9298
▁prep	-11.9309
▁recycle	-11.9312
▁skeleton	-11.9312
▁boss	-11.9316
▁")}	-11.9319
▁"},{	-11.933
▁bounded	-11.9334
▁forwarding	-11.9334
▁unstable	-11.9337
▁forum	-11.9341
▁validity	-11.9341
▁ended	-11.9345
▁discussion	-11.9348
▁won	-11.9352
▁++){	-11.9356
▁beat	-11.9356
▁']",	-11.9377
▁award	-11.9385
▁consent	-11.9385
▁reminder	-11.9392
▁ly	-11.9399
▁classic	-11.941
▁103	-11.9414
▁deterministic	-11.9417
▁receipt	-11.9417
▁invisible	-11.9421
▁sile	-11.9428
▁105	-11.9436
▁kinesis	-11.9436
▁tabler	-11.9439
▁withdraw	-11.945
▁ice	-11.9454
▁hunger	-11.9469
▁ran	-11.9469
▁truncated	-11.9472
▁intern	-11.9502
▁chi	-11.9509
▁>(()	-11.9516
▁yoga	-11.9516
▁biter	-11.9527
▁unread	-11.9527
▁े	-11.9527
▁insight	-11.9535
▁})"	-11.9542
▁deposit	-11.9546
▁gear	-11.9546
▁corpse	-11.9564
▁unpooled	-11.9564
▁???	-11.9572
▁sized	-11.9572
▁sorter	-11.9576
▁speech	-11.9576
▁(":	-11.9594
▁(...	-11.9598
▁provisioner	-11.9602
▁mechanism	-11.9613
▁ignite	-11.962
▁"}")	-11.9624
▁{%	-11.9624
▁magenta	-11.9639
▁?(@	-11.9642
▁burner	-11.9646
▁extraction	-11.9646
▁'/',	-11.965
▁aborted	-11.9665
▁colored	-11.9669
▁lithium	-11.9669
▁why	-11.9669
▁vis	-11.9672
▁roaring	-11.9676
▁>");	-11.968
▁()",	-11.9684
▁listed	-11.9684
▁race	-11.9691
▁shade	-11.9691
▁("${	-11.9699
▁2009	-11.9702
▁=>"	-11.971
▁pen	-11.9721
▁across	-11.9725
▁going	-11.9729
▁modern	-11.9732
▁-$	-11.9744
▁namer	-11.9748
▁neural	-11.9748
▁}}">	-11.9751
▁')));	-11.9759
▁combust	-11.9759
▁goods	-11.9766
▁!!}	-11.9785
▁`{"	-11.9785
▁reflected	-11.9793
▁passive	-11.9797
▁recall	-11.9797
▁tutorial	-11.9797
▁accent	-11.9808
▁...")	-11.9816
▁simulator	-11.9816
▁threaded	-11.9823
▁:")	-11.9835
▁convey	-11.9838
▁hack	-11.9842
▁$/	-11.9846
▁"*	-11.985
▁nancy	-11.9854
▁south	-11.9857
▁)')	-11.9869
▁hud	-11.9869
▁mustache	-11.9869
▁443	-11.9877
▁thresh	-11.9877
▁;}	-11.988
▁tol	-11.988
▁unbound	-11.988
▁:"@	-11.9896
▁computer	-11.9903
▁unspecified	-11.9911
▁flexible	-11.9915
▁>")	-11.9919
▁unrecognized	-11.9919
▁<()>	-11.993
▁sprint	-11.993
▁backlog	-11.9938
▁stencil	-11.9946
▁transcript	-11.9953
▁karate	-11.9965
▁|:	-11.9965
▁enemy	-11.9972
▁aura	-11.9976
▁collected	-11.9976
▁neutral	-11.9976
▁forget	-11.9992
▁symbolic	-11.9996
▁210	-12.0003
▁integrity	-12.0003
▁<%	-12.0007
▁flank	-12.0007
▁}/#{	-12.0007
▁unmanaged	-12.0023
▁///	-12.0027
▁stem	-12.0034
▁pressure	-12.0038
▁idea	-12.0069
▁-${	-12.0081
▁oam	-12.0081
▁disallow	-12.0089
▁liability	-12.0093
▁ore	-12.0093
▁vision	-12.0093
▁zebra	-12.0097
▁razor	-12.0104
▁"\\	-12.0108
▁doing	-12.0112
▁monthly	-12.0112
▁diary	-12.0116
▁dice	-12.0116
▁fin	-12.0116
▁remainder	-12.012
▁fetching	-12.0124
▁|\	-12.0124
▁'=>	-12.0128
▁flapjack	-12.0132
▁voyager	-12.0132
▁{}{"	-12.0132
▁construction	-12.014
▁cold	-12.0144
▁colorize	-12.0144
▁。",	-12.0148
▁slate	-12.0151
▁mocker	-12.0155
▁placeable	-12.0155
▁<?,	-12.0159
▁miss	-12.0163
▁affinity	-12.0167
▁orchestrator	-12.0167
▁arithmetic	-12.0171
▁elt	-12.0171
▁exclusion	-12.0171
▁bookstore	-12.0195
▁minimize	-12.0195
▁pickup	-12.0195
▁throughput	-12.0195
▁packer	-12.0199
▁visa	-12.0199
▁unload	-12.0207
▁-"	-12.0211
▁interest	-12.0211
▁combat	-12.023
▁]/	-12.0234
▁finding	-12.025
▁122	-12.0262
▁spray	-12.0262
▁chained	-12.0266
▁revoke	-12.0274
▁wireless	-12.0274
▁(.	-12.0278
▁'\\	-12.0282
▁goes	-12.0282
▁="<?=	-12.0286
▁searchable	-12.029
▁annotate	-12.0302
▁'][$	-12.031
▁appropriate	-12.031
▁}/{	-12.031
▁concatenate	-12.0314
▁(@"	-12.0326
▁propagate	-12.0326
▁recursion	-12.0338
▁silo	-12.0342
▁+:	-12.0354
▁garbage	-12.0366
▁omit	-12.0366
▁thrasher	-12.0366
▁existent	-12.037
▁chooser	-12.0374
▁synchronous	-12.0374
▁="",	-12.039
▁hat	-12.0398
▁keyed	-12.0398
▁hibernate	-12.0406
▁laser	-12.041
▁wa	-12.0434
▁folding	-12.0438
▁halt	-12.0446
▁activator	-12.0454
▁116	-12.0467
▁synchronization	-12.0471
▁""},	-12.0475
▁infra	-12.0475
▁-(	-12.0479
▁starter	-12.0479
▁,%	-12.0487
▁]*='	-12.0491
▁sonata	-12.0491
▁indented	-12.0495
▁morph	-12.0495
▁([]);	-12.0503
▁'/../	-12.0507
▁pitch	-12.0507
▁safety	-12.0507
▁(*)	-12.0515
▁bu	-12.0515
▁gecko	-12.0519
▁house	-12.0519
▁}}.'	-12.0519
▁('')	-12.0523
▁('/')	-12.0523
▁))));	-12.0523
▁chomp	-12.0523
▁்	-12.0532
▁`<	-12.0548
▁scales	-12.0548
▁grey	-12.0552
▁however	-12.0552
▁miner	-12.0556
▁104	-12.0564
▁reorder	-12.0564
▁decorate	-12.0568
▁"":	-12.0577
▁dual	-12.0577
▁>');	-12.0581
▁traverser	-12.0585
▁'+	-12.0597
▁paddle	-12.0597
▁%}	-12.0605
▁('/',	-12.0605
▁422	-12.0609
▁popular	-12.0609
▁smarty	-12.0609
▁,{	-12.0618
▁%',	-12.0622
▁],[	-12.0622
▁parenthesis	-12.0634
▁loot	-12.0642
▁sip	-12.0646
▁:])	-12.0651
▁boom	-12.0659
▁hybrid	-12.0659
▁had	-12.0675
▁combination	-12.0684
▁selective	-12.0692
▁scannable	-12.0696
▁cable	-12.0713
▁dilation	-12.0717
▁\"\	-12.0725
▁ug	-12.0729
▁warranty	-12.0733
▁})',	-12.0733
▁mob	-12.0738
▁9999	-12.0767
▁jane	-12.0767
▁pluck	-12.0771
▁wizard	-12.0771
▁="#	-12.0775
▁witness	-12.0779
▁insertion	-12.0788
▁\":{\"	-12.0792
▁braces	-12.0796
▁orc	-12.0804
▁deg	-12.0809
▁forgery	-12.0817
▁:#	-12.0821
▁,:	-12.0825
▁limitation	-12.0825
▁specifier	-12.0825
▁remark	-12.083
▁{}.	-12.083
▁refer	-12.0834
▁8000	-12.0838
▁pendulum	-12.0838
▁forever	-12.0851
▁removal	-12.0855
▁140	-12.0859
▁quaternion	-12.0859
▁along	-12.0868
▁ramp	-12.0876
▁technology	-12.0876
▁seat	-12.0889
▁。","	-12.0889
▁hora	-12.0893
▁tst	-12.0901
▁reduced	-12.0918
▁segmentation	-12.0918
▁proceed	-12.0923
▁joe	-12.0927
▁rebuild	-12.0927
▁province	-12.0931
▁tapir	-12.0939
▁counting	-12.0944
▁naive	-12.0944
▁-----	-12.0948
▁quarter	-12.0948
▁")"	-12.0952
▁dig	-12.0952
▁sleeping	-12.0952
▁[].	-12.0961
▁eh	-12.0965
▁much	-12.0965
▁splice	-12.0969
▁director	-12.0978
▁playground	-12.0982
▁penalty	-12.0986
▁oh	-12.0991
▁ি	-12.0991
▁turret	-12.1008
▁><?=	-12.1033
▁('');	-12.1038
▁ो	-12.1038
▁contest	-12.1046
▁passport	-12.1055
▁rad	-12.1055
▁volt	-12.1055
▁migrator	-12.1063
▁tu	-12.1063
▁premake	-12.1072
▁tanh	-12.1072
▁"){	-12.1076
▁222	-12.1076
▁/^(	-12.1081
▁bottle	-12.1081
▁easing	-12.1081
▁]}"	-12.1085
▁}".'	-12.1089
▁censor	-12.1094
▁occurrence	-12.1111
▁spout	-12.112
▁0123456789	-12.1133
▁population	-12.1133
▁tour	-12.1133
▁'=	-12.1137
▁tray	-12.1137
▁unbounded	-12.1137
▁"-"	-12.1154
▁('$	-12.1163
▁iota	-12.1167
▁tube	-12.1172
▁([]*	-12.118
▁igniter	-12.118
▁pan	-12.1189
▁ten	-12.1189
▁'}';	-12.1198
▁spawner	-12.1198
▁{}),	-12.1206
▁functionality	-12.1211
▁slab	-12.1211
▁influx	-12.122
▁wi	-12.122
▁attacher	-12.1228
▁summarizer	-12.1228
▁{}).	-12.1228
▁targeted	-12.125
▁various	-12.1255
▁)";	-12.1268
▁108	-12.1268
▁>((	-12.1268
▁sliding	-12.1272
▁("/",	-12.1276
▁')))	-12.1281
▁={})	-12.1281
▁equip	-12.1285
▁manufacturer	-12.1285
▁club	-12.129
▁%+	-12.1294
▁indigo	-12.1294
▁porter	-12.1294
▁suspended	-12.1294
▁'>	-12.1298
▁allowance	-12.1312
▁ledger	-12.1312
▁uncaught	-12.1316
▁citation	-12.132
▁gadget	-12.132
▁blake	-12.1325
▁/></	-12.1329
▁faction	-12.1329
▁groovy	-12.1334
▁+(	-12.1338
▁|(	-12.1343
▁'/')	-12.1347
▁golden	-12.1347
▁]+	-12.1351
▁lily	-12.1351
▁consecutive	-12.136
▁ey	-12.136
▁appear	-12.1369
▁bloop	-12.1369
▁'{"	-12.1374
▁003	-12.1378
▁dis	-12.1387
▁usar	-12.1391
▁'-'	-12.1396
▁tween	-12.1396
▁divisor	-12.14
▁informer	-12.14
▁}${	-12.1405
▁121	-12.1409
▁;]*	-12.1409
▁birth	-12.1409
▁####	-12.1418
▁upon	-12.1418
▁])]	-12.1423
▁met	-12.1423
▁recognizer	-12.1423
▁capitalize	-12.1427
▁fuel	-12.1431
▁ons	-12.1431
▁ِ	-12.1431
▁)})	-12.144
▁chassis	-12.144
▁completer	-12.1445
▁()},	-12.1449
▁burst	-12.1454
▁iterant	-12.1454
▁],'	-12.1467
▁(||	-12.1472
▁ion	-12.1481
▁damages	-12.1485
▁several	-12.1485
▁affine	-12.149
▁unmodifiable	-12.1494
▁reconciliation	-12.1499
▁()',	-12.1508
▁buoyant	-12.1508
▁()];	-12.1512
▁dungeon	-12.1517
▁mojo	-12.1517
▁/(	-12.1521
▁deactivate	-12.1526
▁den	-12.1526
▁()],	-12.1539
▁refinery	-12.1539
▁?;	-12.1544
▁.</	-12.1548
▁")->	-12.1566
▁impact	-12.1584
▁sat	-12.1593
▁,)),	-12.1598
▁respect	-12.1598
▁condensed	-12.1602
▁funder	-12.1602
▁}#{	-12.1607
▁bases	-12.1621
▁liveness	-12.1621
▁{.	-12.1621
▁."),	-12.163
▁202	-12.1648
▁bitwise	-12.1657
▁])->	-12.1666
▁nobs	-12.1666
▁registrar	-12.1666
▁boo	-12.1671
▁whom	-12.1671
▁produced	-12.1675
▁insufficient	-12.168
▁ka	-12.168
▁silence	-12.1684
▁320	-12.1689
▁clang	-12.1689
▁independent	-12.1689
▁subsystem	-12.1689
▁joiner	-12.1694
▁')[	-12.1698
▁communicator	-12.1703
▁<::	-12.1707
▁simply	-12.1707
▁care	-12.1721
▁raster	-12.173
▁armor	-12.1735
▁collate	-12.174
▁readiness	-12.174
▁172	-12.1744
▁monster	-12.1744
▁=&	-12.1749
▁assistant	-12.1758
▁tape	-12.1758
▁)>	-12.1772
▁ull	-12.1772
▁explanation	-12.1776
▁operate	-12.1781
▁('@/	-12.1786
▁trained	-12.1786
▁locker	-12.1795
▁redirection	-12.18
▁cow	-12.1809
▁school	-12.1823
▁staged	-12.1823
▁..-	-12.1832
▁osmium	-12.1841
▁1234567890	-12.1846
▁())),	-12.1851
▁/{+	-12.186
▁301	-12.186
▁electron	-12.186
▁announcement	-12.1869
▁puzzle	-12.1869
▁fitted	-12.1874
▁liable	-12.1879
▁unnamed	-12.1879
▁$"{	-12.1897
▁threat	-12.1902
▁harmony	-12.1907
▁][$	-12.1911
▁++$	-12.1921
▁associate	-12.1921
▁outdated	-12.1921
▁bat	-12.1925
▁wise	-12.1925
▁ั	-12.1925
▁>";	-12.1935
▁grade	-12.1935
▁""),	-12.1939
▁plant	-12.1944
▁telephone	-12.1949
▁vert	-12.1963
▁bypass	-12.1968
▁()"	-12.1972
▁>())	-12.1977
▁alphabet	-12.1977
▁behave	-12.1982
▁privileged	-12.1991
▁identification	-12.2001
▁previously	-12.2001
▁<&	-12.2005
▁nose	-12.2005
▁sketch	-12.2015
▁"""{"	-12.2024
▁chalk	-12.2024
▁130	-12.2029
▁"!=	-12.2034
▁:],	-12.2039
▁brightness	-12.2053
▁tort	-12.2057
▁(($	-12.2062
▁untagged	-12.2062
▁>%	-12.2067
▁fluid	-12.2072
▁saver	-12.2072
▁་	-12.2072
▁cumulative	-12.2077
▁hereby	-12.2077
▁backed	-12.2081
▁away	-12.2086
▁`),	-12.2091
▁้	-12.2096
▁114	-12.211
▁doesnt	-12.2115
▁notation	-12.2115
▁stemmer	-12.2119
▁gym	-12.2124
▁importance	-12.2124
▁sparkling	-12.2129
▁substantial	-12.2139
▁333	-12.2143
▁asynchronous	-12.2143
▁smoke	-12.2143
▁admission	-12.2148
▁older	-12.2148
▁1001	-12.2158
▁(/^	-12.2167
▁->{$	-12.2167
▁turns	-12.2167
▁sonar	-12.2172
▁sphere	-12.2172
▁<(),	-12.2182
▁castle	-12.2187
▁poster	-12.2187
▁intuit	-12.2196
▁4000	-12.2201
▁salary	-12.2201
▁/?	-12.2206
▁coil	-12.2206
▁solo	-12.2206
▁consumption	-12.2225
▁parentheses	-12.2225
▁raid	-12.2225
▁ribbon	-12.2235
▁){"	-12.224
▁])).	-12.224
▁noisy	-12.224
▁rewriter	-12.224
▁"".	-12.2245
▁likelihood	-12.2245
▁negate	-12.2245
▁್	-12.2245
▁);",	-12.2249
▁critic	-12.2249
▁enforced	-12.2249
▁puppeteer	-12.2249
▁diversity	-12.2254
▁\""	-12.2259
▁interpret	-12.2259
▁lighthouse	-12.2269
▁apex	-12.2283
▁sweep	-12.2283
▁monotonic	-12.2288
▁::*,	-12.2298
▁regressor	-12.2303
▁mocha	-12.2308
▁("../../	-12.2317
▁ant	-12.2327
▁emplace	-12.2337
▁005	-12.2342
▁}[	-12.2347
▁")]),	-12.2356
▁sit	-12.2356
▁wish	-12.2356
▁'&	-12.2361
▁symmetric	-12.2366
▁}})	-12.2366
▁,))	-12.2371
▁furnished	-12.2371
▁sublicense	-12.2371
▁sad	-12.2376
▁happen	-12.2386
▁(""),	-12.2391
▁difficulty	-12.2391
▁",[	-12.2396
▁"=>	-12.2401
▁ado	-12.2406
▁mute	-12.2406
▁fall	-12.241
▁})).	-12.2415
▁curly	-12.242
▁drawee	-12.2425
▁probably	-12.2425
▁disjoint	-12.243
▁[]):	-12.2445
▁constellation	-12.2445
▁flight	-12.2445
▁sanity	-12.2455
▁law	-12.246
▁substitution	-12.246
▁/*.	-12.2465
▁ensemble	-12.247
▁())))	-12.2475
▁''))	-12.248
▁gun	-12.248
▁jo	-12.248
▁solve	-12.248
▁%;	-12.2485
▁fence	-12.2485
▁,&	-12.249
▁printed	-12.249
▁:[	-12.2499
▁looking	-12.2499
▁filer	-12.2504
▁-#{	-12.2509
▁']]	-12.2524
▁trident	-12.2524
▁usually	-12.2524
▁mounted	-12.2549
▁:[{	-12.2559
▁pom	-12.2559
▁referrer	-12.2559
▁measured	-12.2564
▁portable	-12.2569
▁portrait	-12.2574
▁twill	-12.2574
▁*);	-12.2579
▁egress	-12.2584
▁resty	-12.2589
▁124	-12.2604
▁8192	-12.2604
▁:(	-12.2609
▁cash	-12.2609
▁ingest	-12.2609
▁'}),	-12.2614
▁(:@	-12.2614
▁)::	-12.2614
▁considered	-12.2614
▁recurring	-12.2614
▁remain	-12.2634
▁*.	-12.2644
▁buyer	-12.2649
▁ु	-12.2649
▁emu	-12.2655
▁}'.	-12.2655
▁=>'	-12.2665
▁volunteer	-12.2665
▁adder	-12.2675
▁grab	-12.268
▁prettifier	-12.2685
▁projector	-12.2685
▁recommend	-12.2685
▁[:-	-12.269
▁"{{	-12.27
▁)\\	-12.27
▁>);	-12.27
▁}/${	-12.2705
▁radix	-12.271
▁represent	-12.271
▁dollar	-12.2715
▁retriever	-12.2715
▁"))).	-12.272
▁parallelize	-12.272
▁electric	-12.2725
▁octant	-12.2725
▁spline	-12.2725
▁blink	-12.2736
▁entire	-12.2746
▁"});	-12.2751
▁invitation	-12.2751
▁[{"	-12.2756
▁craft	-12.2761
▁444	-12.2766
▁bom	-12.2766
▁residual	-12.2766
▁decrease	-12.2771
▁254	-12.2781
▁alpine	-12.2781
▁})(	-12.2781
▁pump	-12.2787
▁catalogue	-12.2797
▁<~	-12.2807
▁"]),	-12.2812
▁quant	-12.2812
▁fancy	-12.2817
▁jack	-12.2817
▁boxing	-12.2827
▁semicolon	-12.2833
▁'->	-12.2848
▁(*(	-12.2853
▁partitioned	-12.2853
▁contrast	-12.2863
▁("\\	-12.2869
▁anyhow	-12.2874
▁anon	-12.2879
▁['@	-12.2889
▁redo	-12.2894
▁*",	-12.29
▁115	-12.2905
▁estimation	-12.2905
▁rhea	-12.291
▁patience	-12.292
▁sky	-12.292
▁(!\	-12.2925
▁seeder	-12.2925
▁greeter	-12.2931
▁"").	-12.2936
▁explosion	-12.2941
▁forge	-12.2941
▁`{	-12.2946
▁purifier	-12.2946
▁maintainer	-12.2951
▁ी	-12.2951
▁prim	-12.2957
▁semantics	-12.2962
▁(`${	-12.2967
▁>(&	-12.2967
▁crawl	-12.2967
▁grape	-12.2967
▁recurse	-12.2972
▁'-',	-12.2983
▁locking	-12.2983
▁popover	-12.2983
▁$$	-12.2988
▁420	-12.2988
▁founding	-12.3003
▁formation	-12.3009
▁relational	-12.3009
▁remap	-12.3014
▁'.',	-12.3019
▁watched	-12.3019
▁integral	-12.303
▁lea	-12.3035
▁())));	-12.304
▁:)	-12.304
▁slope	-12.3045
▁ambiguous	-12.3056
▁advertiser	-12.3061
▁declined	-12.3061
▁1999	-12.3066
▁rerun	-12.3066
▁purple	-12.3072
▁)`	-12.3077
▁fusion	-12.3082
▁gob	-12.3082
▁redux	-12.3087
▁haystack	-12.3093
▁tri	-12.3093
▁}}",	-12.3093
▁responsive	-12.3098
▁676	-12.3103
▁deck	-12.3103
▁surrogate	-12.3103
▁unchanged	-12.3103
▁|{	-12.3108
▁assemble	-12.3114
▁commander	-12.3135
▁polynomial	-12.3135
▁stress	-12.3145
▁365	-12.3151
▁]-	-12.3151
▁late	-12.3151
▁typical	-12.3151
▁elevation	-12.3156
▁unpacked	-12.3156
▁facet	-12.3161
▁locally	-12.3161
▁travel	-12.3167
▁cubic	-12.3172
▁tan	-12.3188
▁('{	-12.3193
▁safari	-12.3193
▁digital	-12.3204
▁translatable	-12.3215
▁{{.	-12.3215
▁++);	-12.322
▁reinterpret	-12.322
▁\",\	-12.3225
▁fat	-12.3231
▁plat	-12.3231
▁(?:[	-12.3236
▁chia	-12.3236
▁refine	-12.3236
▁walking	-12.3236
▁diagonal	-12.3247
▁indicate	-12.3247
▁watermark	-12.3263
▁neck	-12.3268
▁adaptor	-12.3273
▁voter	-12.3284
▁isolated	-12.329
▁demand	-12.3295
▁ami	-12.3311
▁grace	-12.3311
▁paren	-12.3311
▁]},	-12.3322
▁graphic	-12.3322
▁`'	-12.3338
▁coffee	-12.3354
▁numerical	-12.3354
▁.","	-12.336
▁fuzz	-12.336
▁resulting	-12.336
▁corporation	-12.3387
▁cutoff	-12.3387
▁peak	-12.3392
▁angel	-12.3398
▁enhanced	-12.3398
▁throwing	-12.3419
▁**)	-12.3425
▁saturation	-12.3425
▁tablet	-12.3425
▁milestone	-12.343
▁partitioning	-12.343
▁imp	-12.3436
▁whose	-12.3441
▁merger	-12.3447
▁shark	-12.3447
▁succinct	-12.3447
▁>>=	-12.3452
▁jingle	-12.3452
▁""))	-12.3457
▁dragonfly	-12.3457
▁pusher	-12.3463
▁venue	-12.3468
▁arbitrate	-12.3474
▁corona	-12.3474
▁bounty	-12.3479
▁driven	-12.3479
▁shaped	-12.3479
▁certain	-12.3485
▁retrieval	-12.3485
▁wake	-12.3485
▁;'	-12.3496
▁excerpt	-12.3496
▁confusion	-12.3501
▁payable	-12.3501
▁!')	-12.3518
▁emergency	-12.3529
▁backwards	-12.354
▁significant	-12.3545
▁].[	-12.3551
▁?>"	-12.3556
▁jersey	-12.3556
▁grum	-12.3562
▁landscape	-12.3562
▁.#{	-12.3567
▁checkers	-12.3573
▁deviation	-12.3578
▁!</	-12.359
▁')]	-12.359
▁permutation	-12.359
▁("'	-12.3595
▁magnitude	-12.3595
▁making	-12.3601
▁)');	-12.3606
▁thin	-12.3606
▁among	-12.3623
▁bogus	-12.3623
▁composed	-12.3623
▁banana	-12.3634
▁)};	-12.3651
▁==>	-12.3656
▁!');	-12.3662
▁agreement	-12.3667
▁likely	-12.3667
▁shim	-12.3678
▁stone	-12.3678
▁nor	-12.3684
▁official	-12.369
▁010	-12.3701
▁duck	-12.3706
▁localize	-12.3723
▁featured	-12.3729
▁leaves	-12.3729
▁obsolete	-12.3746
▁god	-12.3751
▁!)	-12.3757
▁(`{"	-12.3757
▁1337	-12.3768
▁8888	-12.3774
▁parity	-12.3774
▁|[	-12.378
▁113	-12.3785
▁symmetry	-12.3785
▁splash	-12.3797
▁ellipsis	-12.3802
▁transact	-12.3802
▁َ	-12.3808
▁campo	-12.3819
▁saga	-12.3819
▁station	-12.3819
▁poetry	-12.3825
▁":{	-12.3836
▁duplex	-12.3836
▁rather	-12.3836
▁uncompressed	-12.3848
▁sup	-12.3853
▁sale	-12.3859
▁;">	-12.3865
▁xi	-12.3876
▁exceptionless	-12.3882
▁unified	-12.3887
▁deprecate	-12.3893
▁formulae	-12.3893
▁derivation	-12.3899
▁fid	-12.391
▁<=>	-12.3916
▁fruit	-12.3916
▁(('	-12.3922
▁...",	-12.3922
▁air	-12.3922
▁settable	-12.3922
▁65535	-12.3927
▁vat	-12.3927
▁chance	-12.3933
▁turtle	-12.3933
▁152	-12.3939
▁unmount	-12.3939
▁"))),	-12.3945
▁shapeless	-12.3945
▁{`	-12.3968
▁cookbook	-12.3985
▁guarded	-12.3985
▁170	-12.3991
▁lexicon	-12.3996
▁happy	-12.4002
▁hey	-12.4002
▁evict	-12.4008
▁metal	-12.4008
▁]]:	-12.4019
▁robin	-12.4037
▁stripped	-12.4037
▁107	-12.4043
▁greedy	-12.4048
▁egg	-12.406
▁regularizer	-12.4072
▁)&&	-12.4077
▁1970	-12.4083
▁headless	-12.4083
▁suppressed	-12.4083
▁164	-12.4089
▁sorcery	-12.4089
▁.'.	-12.4095
▁simplify	-12.4095
▁silhouette	-12.4101
▁specialized	-12.4101
▁edition	-12.4107
▁faraday	-12.4112
▁intended	-12.4118
▁"*"	-12.4124
▁geometric	-12.4124
▁geyser	-12.4124
▁chest	-12.4136
▁organizer	-12.4136
▁])|	-12.4142
▁silk	-12.4142
▁restaurant	-12.4147
▁144	-12.4159
▁gulp	-12.4159
▁overall	-12.4159
▁`);	-12.4165
▁&)	-12.4171
▁"|	-12.4183
▁telescope	-12.4183
▁ে	-12.4183
▁"&	-12.4188
▁!@	-12.4194
▁tomorrow	-12.4194
▁myself	-12.42
▁:#{	-12.4206
▁cyclic	-12.4206
▁testee	-12.4218
▁"===	-12.4224
▁marshaler	-12.4224
▁123456789	-12.423
▁]|[	-12.423
▁]");	-12.4236
▁emulator	-12.4236
▁existence	-12.4236
▁smoothing	-12.4236
▁?\	-12.4242
▁tower	-12.4242
▁completely	-12.4247
▁leadership	-12.4247
▁accumulate	-12.4265
▁recently	-12.4271
▁rotated	-12.4271
▁epic	-12.4277
▁ora	-12.4277
▁reachable	-12.4283
▁triplet	-12.4283
▁ิ	-12.4283
▁[*	-12.4289
▁keg	-12.4289
▁stability	-12.4289
▁spotless	-12.4295
▁horizon	-12.4301
▁balanced	-12.4307
▁experience	-12.4307
▁lister	-12.4307
▁''));	-12.4319
▁assist	-12.4319
▁")[	-12.4325
▁117	-12.4331
▁satisfy	-12.4331
▁()['	-12.4343
▁->(	-12.4343
▁`%	-12.4343
▁beautiful	-12.4343
▁reconcile	-12.4348
▁sway	-12.4348
▁inclusion	-12.4354
▁portability	-12.4354
▁sect	-12.4354
▁+.	-12.436
▁126	-12.436
▁denominator	-12.436
▁hugging	-12.436
▁bounce	-12.4366
▁chaos	-12.4366
▁119	-12.4378
▁reps	-12.4378
▁||(	-12.4378
▁~(	-12.4378
▁trunk	-12.4384
▁(;;)	-12.439
▁quorum	-12.4396
▁cosine	-12.4402
▁funds	-12.4402
▁possibly	-12.4402
▁inverted	-12.4408
▁maid	-12.4408
▁humanoid	-12.4414
▁caffeine	-12.442
▁decompose	-12.442
▁fan	-12.442
▁"#{@	-12.4432
▁approach	-12.4432
▁cortex	-12.4438
▁radar	-12.4438
▁bye	-12.4445
▁interact	-12.4457
▁notifiable	-12.4463
▁('"	-12.4469
▁𞥅	-12.4475
▁&&"	-12.4481
▁.'/../	-12.4487
▁intensity	-12.4493
▁lamp	-12.4493
▁്	-12.4493
▁growth	-12.4505
▁slogan	-12.4511
▁sector	-12.4517
▁imagine	-12.4523
▁stubbed	-12.4529
▁{:?}",	-12.4529
▁?.().	-12.4566
▁[${	-12.4566
▁underground	-12.4566
▁"`,	-12.4572
▁opus	-12.4572
▁555	-12.4578
▁blocker	-12.4578
▁0008	-12.4596
▁=="	-12.4603
▁mar	-12.4603
▁spire	-12.4603
▁warp	-12.4603
▁('.',	-12.4609
▁birthday	-12.4609
▁quat	-12.4609
▁451	-12.4621
▁reek	-12.4621
▁eta	-12.4633
▁umbrella	-12.4633
▁109	-12.4639
▁owl	-12.4639
▁scoring	-12.4639
▁weed	-12.4646
▁coefficient	-12.4652
▁locality	-12.4652
▁bright	-12.4658
▁''),	-12.4664
▁([:	-12.467
▁covid	-12.467
▁shiny	-12.467
▁styling	-12.4676
▁->$	-12.4683
▁kay	-12.4683
▁pruner	-12.4683
▁rebalance	-12.4701
▁reach	-12.4707
▁"}}	-12.4713
▁ever	-12.4726
▁#####	-12.4732
▁further	-12.4732
▁'][]	-12.4738
▁106	-12.4738
▁profit	-12.4745
▁%'	-12.4751
▁shrine	-12.4751
▁swiper	-12.4751
▁depending	-12.4763
▁pledge	-12.4763
▁hilt	-12.4776
▁whisk	-12.4794
▁sar	-12.4807
▁trash	-12.4807
▁boring	-12.4826
▁cocorico	-12.4832
▁($"{	-12.4838
▁++=	-12.4838
▁recommendation	-12.4838
▁spend	-12.4838
▁136	-12.4844
▁321	-12.4844
▁thinking	-12.4844
▁optionally	-12.4851
▁streamlet	-12.4851
▁sentiment	-12.4857
▁useless	-12.4857
▁fuse	-12.4863
▁navigable	-12.4863
▁lan	-12.487
▁opal	-12.487
▁expander	-12.4876
▁rid	-12.4876
▁yr	-12.4882
▁premium	-12.4888
▁printable	-12.4888
▁{}\	-12.4895
▁viper	-12.492
▁(""	-12.4933
▁tofu	-12.4933
▁waiter	-12.4933
▁yahoo	-12.4933
▁nonzero	-12.4939
▁')],	-12.4945
▁fourth	-12.4945
▁gutter	-12.4945
▁mixer	-12.4945
▁212	-12.4958
▁visualization	-12.4964
▁()?;	-12.4971
▁zombie	-12.4971
▁--]]	-12.4984
▁idempotent	-12.499
▁skew	-12.499
▁bedrock	-12.5003
▁crystal	-12.5003
▁011	-12.5009
▁efficient	-12.5009
▁)('	-12.5015
▁,#	-12.5015
▁bilinear	-12.5015
▁":["	-12.5022
▁communicate	-12.5022
▁fae	-12.5022
▁suitable	-12.5028
▁typescript	-12.5035
▁$('.	-12.5041
▁,.	-12.5041
▁posted	-12.5041
▁era	-12.5047
▁'..',	-12.5054
▁conflicting	-12.5067
▁tone	-12.5067
▁)"),	-12.5073
▁225	-12.5073
▁gimel	-12.5073
▁stomp	-12.5073
▁extreme	-12.5079
▁่	-12.5079
▁"><?=	-12.5092
▁'`	-12.5092
▁.*)	-12.5092
▁()]);	-12.5099
▁brown	-12.5099
▁follower	-12.5105
▁junk	-12.5105
▁preamble	-12.5105
▁"{$	-12.5118
▁noun	-12.5118
▁',$	-12.5125
▁fleet	-12.5125
▁)&	-12.5137
▁supporting	-12.5157
▁acceptor	-12.5163
▁federation	-12.5163
▁kern	-12.517
▁-'	-12.5176
▁spew	-12.5176
▁/')	-12.5183
▁pluralize	-12.5183
▁watchdog	-12.5183
▁640	-12.5189
▁!!)	-12.5196
▁burn	-12.5196
▁curry	-12.5202
▁unnecessary	-12.5202
▁"))))	-12.5209
▁permanent	-12.5215
▁clue	-12.5222
▁:\\	-12.5228
▁inception	-12.5228
▁}|	-12.5228
▁"))]	-12.5235
▁<!	-12.5241
▁>(@"	-12.5248
▁adjustment	-12.5248
▁materialize	-12.5248
▁treat	-12.5248
▁129	-12.5255
▁==(	-12.5261
▁:}	-12.5274
▁atlantic	-12.5274
▁cand	-12.5281
▁ி	-12.5281
▁normally	-12.5287
▁}}{{	-12.5287
▁'='	-12.5294
▁derivative	-12.5294
▁usable	-12.5294
▁';'	-12.53
▁contour	-12.5307
▁ingredient	-12.5307
▁uniqueness	-12.5307
▁9000	-12.5314
▁allure	-12.5314
▁sidecar	-12.5327
▁contextual	-12.5333
▁disruptor	-12.5333
▁155	-12.534
▁ahead	-12.534
▁his	-12.534
▁"<?	-12.5353
▁filler	-12.5366
▁{@	-12.5366
▁overhead	-12.5373
▁'"'	-12.5386
▁')}	-12.5386
▁<*>	-12.5386
▁midnight	-12.5399
▁recognition	-12.5399
▁sex	-12.5399
▁converting	-12.5406
▁163	-12.5419
▁្	-12.5426
▁("\"	-12.5433
▁smell	-12.5433
▁sensitivity	-12.5446
▁345	-12.5453
▁ternary	-12.5453
▁tried	-12.5453
▁okapi	-12.5459
▁precompile	-12.5459
▁swep	-12.5459
▁warm	-12.5459
▁analyse	-12.5466
▁132	-12.5473
▁elb	-12.5473
▁ี	-12.5473
▁regenerate	-12.5479
▁208	-12.5486
▁convertor	-12.5486
▁writeable	-12.5486
▁china	-12.5493
▁118	-12.5499
▁scrub	-12.552
▁stereo	-12.552
▁clips	-12.5533
▁1200	-12.5547
▁artisan	-12.5547
▁/<	-12.5553
▁ho	-12.5553
▁20000	-12.556
▁lesson	-12.556
▁`#{	-12.5567
▁safely	-12.5567
▁unreal	-12.5567
▁ಿ	-12.5567
▁2002	-12.5573
▁386	-12.558
▁pu	-12.558
▁".',	-12.5587
▁hole	-12.5587
▁latent	-12.5587
▁centered	-12.5594
▁sharded	-12.5594
▁starred	-12.5594
▁">{	-12.5601
▁assignee	-12.5601
▁cant	-12.5607
▁externally	-12.5614
▁$('#	-12.5621
▁","@	-12.5628
▁cabal	-12.5641
▁:@	-12.5648
▁redraw	-12.5655
▁committer	-12.5662
▁jasmine	-12.5662
▁longs	-12.5662
▁suppression	-12.5662
▁206	-12.5668
▁essence	-12.5675
▁trailer	-12.5675
▁135	-12.5682
▁fed	-12.5682
▁(++	-12.5689
▁touched	-12.5689
▁}}}	-12.5689
▁eviction	-12.5696
▁phases	-12.5696
▁/';	-12.5703
▁350	-12.5703
▁transferred	-12.5703
▁}.'	-12.5703
▁bravo	-12.5716
▁mostly	-12.5716
▁270	-12.5723
▁combiner	-12.5723
▁facing	-12.5723
▁repair	-12.573
▁shut	-12.5737
▁sizer	-12.5737
▁cheese	-12.5744
▁convertible	-12.5744
▁doorkeeper	-12.5751
▁'*'	-12.5757
▁luke	-12.5757
▁,!	-12.5764
▁"/")	-12.5771
▁()`	-12.5771
▁transporter	-12.5771
▁rainbow	-12.5778
▁heart	-12.5785
▁jitter	-12.5785
▁|"	-12.5785
▁(...$	-12.5792
▁corruption	-12.5792
▁constrained	-12.5799
▁mesa	-12.5799
▁quot	-12.5799
▁shake	-12.5799
▁strike	-12.5799
▁()")	-12.5813
▁candle	-12.5813
▁}'"	-12.5826
▁enlistment	-12.5833
▁tang	-12.5833
▁went	-12.5833
▁matrices	-12.584
▁mongoose	-12.584
▁orb	-12.584
▁perfect	-12.5854
▁}`);	-12.5854
▁/[	-12.5861
▁232	-12.5861
▁aggressive	-12.5861
▁stateless	-12.5868
▁ි	-12.5868
▁volcano	-12.5875
▁"=	-12.5889
▁<*>,	-12.5889
▁evidence	-12.5896
▁puma	-12.5903
▁."))	-12.591
▁van	-12.591
▁*(*	-12.5917
▁discipline	-12.5917
▁mib	-12.5924
▁satisfied	-12.5924
▁engineer	-12.5931
▁basket	-12.5938
▁browsing	-12.5938
▁flocker	-12.5952
▁localizer	-12.5952
▁manipulation	-12.5966
▁simplified	-12.5966
▁['--	-12.5973
▁rail	-12.598
▁shorthand	-12.598
▁"]]	-12.5987
▁smith	-12.5987
▁203	-12.5994
▁hourly	-12.5994
▁"}),	-12.6001
▁]')	-12.6008
▁intrigue	-12.6008
▁(',')	-12.6015
▁-----------------------------	-12.6015
▁1500	-12.6015
▁;</	-12.6022
▁roster	-12.6022
▁seven	-12.6022
▁'])->	-12.6029
▁reagent	-12.6036
▁transmission	-12.6036
▁්	-12.6036
▁)['	-12.6044
▁143	-12.6044
▁131	-12.6051
▁['/	-12.6051
▁copier	-12.6051
▁fresco	-12.6051
▁wallpaper	-12.6051
▁dos	-12.6058
▁saint	-12.6058
▁searching	-12.6058
▁sufficient	-12.6058
▁come	-12.6065
▁taxi	-12.6072
▁yesterday	-12.6072
▁--------	-12.6079
▁151	-12.6079
▁season	-12.6079
▁...$	-12.6086
▁acceleration	-12.6086
▁pep	-12.6093
▁nonexistent	-12.61
▁treatment	-12.6107
▁itinerary	-12.6115
▁;&	-12.6122
▁rock	-12.6122
▁anvil	-12.6129
▁newsletter	-12.6129
▁211	-12.6136
▁printing	-12.6136
▁understand	-12.6143
▁))}	-12.615
▁004	-12.6165
▁coercion	-12.6165
▁tabular	-12.6172
▁weekly	-12.6172
▁capital	-12.6179
▁sri	-12.6179
▁"""|	-12.62
▁191	-12.62
▁samp	-12.6215
▁$('	-12.6222
▁>),	-12.6222
▁]]);	-12.6229
▁knife	-12.6229
▁1111	-12.6236
▁235	-12.6236
▁unlimited	-12.6236
▁leap	-12.6244
▁{:.	-12.6244
▁chronology	-12.6251
▁pizza	-12.6251
▁tangram	-12.6251
▁30000	-12.6258
▁cad	-12.6265
▁comet	-12.6265
▁dimensional	-12.6265
▁domestic	-12.6265
▁unauthenticated	-12.6265
▁"//	-12.6273
▁guru	-12.6273
▁poller	-12.6273
▁=`	-12.628
▁bam	-12.628
▁payer	-12.6287
▁tiff	-12.6287
▁partially	-12.6294
▁precondition	-12.6294
▁shipment	-12.6294
▁ា	-12.6294
▁lot	-12.6316
▁cropper	-12.6323
▁gherkin	-12.6331
▁}><	-12.6331
▁['$	-12.6338
▁dan	-12.6338
▁dispute	-12.6338
▁storer	-12.6338
▁}"""	-12.6338
▁:///	-12.6353
▁tank	-12.6353
▁169	-12.636
▁precise	-12.636
▁belong	-12.6367
▁<<=	-12.6374
▁negotiation	-12.6382
▁replicate	-12.6382
▁"~/	-12.6389
▁}>"	-12.6389
▁poco	-12.6396
▁ye	-12.6396
▁65536	-12.6418
▁turned	-12.6418
▁affect	-12.6426
▁balancing	-12.6426
▁forwards	-12.6426
▁lim	-12.6426
▁>>.	-12.6433
▁ambassador	-12.6441
▁heal	-12.6441
▁promote	-12.6441
▁<?>[]	-12.6455
▁notary	-12.6455
▁renew	-12.6455
▁resample	-12.6455
▁unwrapped	-12.6463
▁*((*	-12.647
▁demos	-12.647
▁trading	-12.647
▁showcase	-12.6477
▁"*",	-12.6485
▁$("#	-12.6485
▁/#{@	-12.6492
▁vamp	-12.6492
▁vanilla	-12.6492
▁2003	-12.65
▁helium	-12.65
▁mud	-12.65
▁142	-12.6507
▁assured	-12.6507
▁?")	-12.6514
▁mill	-12.6514
▁unhealthy	-12.6514
▁pole	-12.6522
▁4008	-12.6529
▁gram	-12.6529
▁["--	-12.6537
▁mora	-12.6537
▁splat	-12.6544
▁providing	-12.6552
▁dying	-12.6559
▁()])	-12.6566
▁([{	-12.6581
▁trader	-12.6581
▁[--	-12.6589
▁though	-12.6589
▁('//	-12.6596
▁fused	-12.6596
▁00000	-12.6604
▁"*.	-12.6619
▁)||	-12.6619
▁145	-12.6619
▁[["	-12.6619
▁switcher	-12.6619
▁war	-12.6619
▁480	-12.6626
▁united	-12.6626
▁={}	-12.6634
▁catchup	-12.6634
▁pimple	-12.6641
▁();",	-12.6649
▁-{	-12.6664
▁dialogue	-12.6664
▁mana	-12.6664
▁irregular	-12.6671
▁:");	-12.6679
▁baggage	-12.6679
▁bump	-12.6679
▁minify	-12.6679
▁soon	-12.6679
▁}):	-12.6679
▁్	-12.6679
▁('{{	-12.6687
▁behind	-12.6687
▁bouncer	-12.6687
▁pruning	-12.6687
▁|--	-12.6687
▁...");	-12.6694
▁153	-12.6694
▁(""))	-12.6702
▁/'.	-12.6702
▁debt	-12.6702
▁lockbox	-12.6702
▁spacer	-12.6702
▁blaze	-12.6709
▁orderer	-12.6709
▁brief	-12.6717
▁duo	-12.6717
▁}])	-12.6724
▁60000	-12.6732
▁vary	-12.6732
▁celluloid	-12.674
▁tango	-12.674
▁permute	-12.6747
▁}").	-12.6747
▁eat	-12.6755
▁')(	-12.6762
▁terrain	-12.677
▁%,	-12.6785
▁="'	-12.6793
▁</>	-12.68
▁disc	-12.68
▁rocketeer	-12.68
▁utilization	-12.6808
▁(",")	-12.6816
▁("//	-12.6816
▁)].	-12.6816
▁251	-12.6816
▁handshaker	-12.6816
▁toll	-12.6816
▁)}")	-12.6823
▁monocle	-12.6823
▁smoking	-12.6823
▁watching	-12.6823
▁',',	-12.6831
▁<*,	-12.6839
▁scored	-12.6839
▁koala	-12.6846
▁seller	-12.6846
▁789	-12.6854
▁cleaning	-12.6854
▁pickler	-12.6862
▁thus	-12.6862
▁someone	-12.6869
▁.".	-12.6877
▁adjacent	-12.6877
▁503	-12.6885
▁[...,	-12.6892
▁--@	-12.6908
▁deform	-12.6908
▁}`)	-12.6908
▁213	-12.6916
▁gift	-12.6923
▁mobility	-12.6923
▁hug	-12.6931
▁shield	-12.6939
▁}`;	-12.6939
▁(".")	-12.6946
▁tagger	-12.6946
▁grand	-12.6954
▁pairwise	-12.6954
▁weaver	-12.6954
▁190	-12.6962
▁covariance	-12.6962
▁dupe	-12.6962
▁approximate	-12.697
▁jinja	-12.697
▁pollution	-12.697
▁$/,	-12.6978
▁brain	-12.6978
▁scanning	-12.6978
▁capsule	-12.6985
▁tuning	-12.6993
▁/#	-12.7001
▁166	-12.7001
▁flaky	-12.7001
▁sides	-12.7001
▁york	-12.7001
▁...\	-12.7009
▁corrupted	-12.7009
▁.${	-12.7016
▁}.{	-12.7016
▁acquired	-12.7024
▁})();	-12.7032
▁).'/	-12.704
▁:.	-12.704
▁amenity	-12.704
▁defense	-12.704
▁entrance	-12.704
▁{(	-12.704
▁auction	-12.7048
▁favor	-12.7048
▁maximize	-12.7048
▁recoil	-12.7048
▁'^	-12.7063
▁()-	-12.7063
▁=>:	-12.7063
▁associative	-12.7063
▁spent	-12.7063
▁fib	-12.7071
▁moon	-12.7071
▁2004	-12.7079
▁666	-12.7087
▁impossible	-12.7087
▁248	-12.7103
▁handy	-12.7103
▁summarize	-12.711
▁tau	-12.711
▁wagon	-12.711
▁goa	-12.7126
▁heavy	-12.7126
▁unmatched	-12.7126
▁weekday	-12.7126
▁stick	-12.7134
▁vanity	-12.7134
▁bigger	-12.7142
▁mint	-12.7142
▁nominal	-12.7142
▁gum	-12.715
▁marketing	-12.7158
▁scalding	-12.7166
▁additive	-12.7174
▁withdrawal	-12.7174
▁pomerium	-12.7182
▁bor	-12.719
▁{}},	-12.7197
▁'').	-12.7205
▁tee	-12.7205
▁;)	-12.7213
▁designer	-12.7213
▁{&	-12.7213
▁"]";	-12.7221
▁`--	-12.7221
▁neither	-12.7221
▁}\"	-12.7221
▁221	-12.7229
▁intention	-12.7229
▁opener	-12.7229
▁")],	-12.7253
▁interior	-12.7253
▁mangle	-12.7253
▁205	-12.7261
▁()["	-12.7269
▁194	-12.7269
▁gossip	-12.7269
▁+="	-12.7277
▁directed	-12.7285
▁graphite	-12.7285
▁yn	-12.7285
▁)("	-12.7293
▁/>);	-12.7293
▁[&](	-12.7301
▁antarctica	-12.7301
▁manipulator	-12.7301
▁svelte	-12.7301
▁{}))	-12.7301
▁actionable	-12.7309
▁']}	-12.7317
▁rigid	-12.7317
▁sizing	-12.7317
▁537	-12.7325
▁mission	-12.7325
▁!("{}",	-12.7333
▁conduit	-12.7333
▁numeral	-12.7333
▁rain	-12.7333
▁tuner	-12.7333
▁".",	-12.7341
▁deb	-12.7341
▁variation	-12.7341
▁12345678	-12.7358
▁199	-12.7358
▁ow	-12.7358
▁portfolio	-12.7358
▁!,	-12.7366
▁"^	-12.7366
▁("*	-12.7366
▁discovered	-12.7366
▁wipe	-12.7366
▁})->	-12.7374
▁seasonal	-12.7382
▁('.')	-12.739
▁.`,	-12.739
▁:</	-12.7398
▁eligible	-12.7398
▁inconsistent	-12.7398
▁",["	-12.7406
▁#%	-12.7406
▁450	-12.7414
▁falcon	-12.7414
▁lexical	-12.7422
▁nope	-12.7422
▁raven	-12.7431
▁012	-12.7439
▁lod	-12.7439
▁[:]	-12.7447
▁taking	-12.7447
▁),(	-12.7455
▁="%	-12.7455
▁\\"	-12.7455
▁])))	-12.7455
▁battle	-12.7455
▁nine	-12.7455
▁passenger	-12.7455
▁tweak	-12.7455
▁175	-12.7463
▁specimen	-12.7463
▁######	-12.7471
▁252	-12.7471
▁rugged	-12.7479
▁unlocked	-12.7488
▁declarative	-12.7496
▁'/../../	-12.7504
▁(',',	-12.7504
▁themis	-12.7504
▁.")]	-12.7512
▁223	-12.7512
▁polar	-12.7512
▁+'	-12.752
▁007	-12.752
▁165	-12.752
▁crush	-12.752
▁dad	-12.752
▁tin	-12.752
▁peg	-12.7529
▁2222	-12.7537
▁pig	-12.7537
▁orphan	-12.7553
▁245	-12.7561
▁maintain	-12.7561
▁nettle	-12.7578
▁filament	-12.7586
▁304	-12.7594
▁8723	-12.7594
▁"../../../	-12.7603
▁throttling	-12.7611
▁%-	-12.7619
▁leaky	-12.7619
▁mag	-12.7619
▁refreshing	-12.7619
▁tot	-12.7628
▁buzz	-12.7644
▁hydrator	-12.7644
▁quarantine	-12.7644
▁233	-12.7652
▁kept	-12.7652
▁established	-12.7661
▁notified	-12.7661
▁seal	-12.7661
▁ַ	-12.7661
▁='',	-12.7669
▁exceed	-12.7669
▁rod	-12.7669
▁species	-12.7669
▁)*(	-12.7677
▁133	-12.7677
▁"]))	-12.7686
▁bios	-12.7686
▁hant	-12.7686
▁originally	-12.7686
▁("").	-12.7694
▁bang	-12.7694
▁])),	-12.7702
▁healing	-12.7702
▁radial	-12.7702
▁)}.	-12.7711
▁trivial	-12.7711
▁[{'	-12.7719
▁{[]	-12.7719
▁mist	-12.7728
▁captain	-12.7736
▁trig	-12.7736
▁auxiliary	-12.7744
▁numerator	-12.7753
▁snow	-12.7753
▁compass	-12.7761
▁nearby	-12.7761
▁suit	-12.7761
▁bail	-12.777
▁majority	-12.777
▁humidity	-12.7778
▁unicorn	-12.7778
▁":[{"	-12.7786
▁eagle	-12.7786
▁randomize	-12.7786
▁|]	-12.7786
▁[/	-12.7795
▁orbit	-12.7795
▁`")	-12.7803
▁dragging	-12.7803
▁guesser	-12.782
▁interactivity	-12.7829
▁{{"	-12.7829
▁154	-12.7837
▁reconciler	-12.7846
▁globally	-12.7854
▁်	-12.7854
▁imprint	-12.7862
▁indirection	-12.7862
▁rib	-12.7862
▁)()	-12.7871
▁relocation	-12.7871
▁middleman	-12.7879
▁maze	-12.7888
▁took	-12.7896
▁)&&(	-12.7905
▁dotted	-12.7914
▁spawning	-12.7914
▁trainable	-12.7914
▁<?>)	-12.7922
▁[`	-12.7922
▁'#,##	-12.7931
▁226	-12.7931
▁scorer	-12.7931
▁unescaped	-12.7939
▁)]);	-12.7948
▁comes	-12.7948
▁peripheral	-12.7948
▁='\\	-12.7956
▁dotty	-12.7956
▁plug	-12.7965
▁spa	-12.7965
▁aid	-12.7982
▁increasing	-12.7982
▁symbolize	-12.7982
▁archetype	-12.7991
▁ether	-12.7991
▁granularity	-12.7991
▁"}"	-12.7999
▁'\\'	-12.7999
▁arrange	-12.7999
▁comfy	-12.7999
▁tui	-12.7999
▁assessment	-12.8008
▁mnemonic	-12.8008
▁therefore	-12.8008
▁→	-12.8008
▁dram	-12.8016
▁nebula	-12.8016
▁280	-12.8025
▁ellipse	-12.8025
▁207	-12.8034
▁]})	-12.8034
▁resolvable	-12.8034
▁administration	-12.8042
▁260	-12.806
▁coral	-12.806
▁beg	-12.8068
▁firm	-12.8068
▁unlikely	-12.8068
▁rebase	-12.8077
▁statics	-12.8077
▁({});	-12.8086
▁134	-12.8086
▁acronym	-12.8086
▁responsible	-12.8086
▁(~	-12.8094
▁attacker	-12.8094
▁potion	-12.8103
▁advisor	-12.8112
▁253	-12.812
▁bower	-12.812
▁introspect	-12.812
▁soup	-12.812
▁tec	-12.812
▁`).	-12.8129
▁"="	-12.8138
▁ways	-12.8138
▁.],	-12.8147
▁often	-12.8147
▁sur	-12.8147
▁¥',	-12.8147
▁)==	-12.8155
▁147	-12.8155
▁247	-12.8155
▁haptic	-12.8155
▁hydrate	-12.8155
▁=='	-12.8164
▁><?	-12.8164
▁flyweight	-12.8173
▁programmatic	-12.8173
▁snack	-12.8173
▁mathematics	-12.8182
▁}}>	-12.8182
▁{"/	-12.819
▁'});	-12.8199
▁("/").	-12.8199
▁====	-12.8199
▁molecule	-12.8199
▁})),	-12.8199
▁perspective	-12.8208
▁},\	-12.8208
▁tic	-12.8217
▁trickster	-12.8217
▁gremlin	-12.8226
▁139	-12.8234
▁chunky	-12.8234
▁revalidate	-12.8234
▁tor	-12.8234
▁+)	-12.8243
▁finger	-12.8243
▁lei	-12.8243
▁scribe	-12.8252
▁sometimes	-12.8252
▁176	-12.8261
▁777	-12.8261
▁quietly	-12.8261
▁.'),	-12.8287
▁?=	-12.8287
▁bidirectional	-12.8287
▁boiler	-12.8287
▁fut	-12.8287
▁}"))	-12.8287
▁"#,	-12.8296
▁">'	-12.8296
▁149	-12.8296
▁furnace	-12.8296
▁tactic	-12.8296
▁({['	-12.8305
▁casting	-12.8305
▁141	-12.8314
▁joining	-12.8314
▁unquoted	-12.8314
▁̀	-12.8314
▁"?	-12.8323
▁transit	-12.8323
▁fore	-12.8332
▁taint	-12.8341
▁tal	-12.8341
▁pot	-12.835
▁"'],	-12.8358
▁='(\\	-12.8367
▁reflective	-12.8367
▁toolbox	-12.8376
▁"')	-12.8385
▁ranged	-12.8385
▁{"-	-12.8385
▁compliant	-12.8394
▁fractional	-12.8394
▁nag	-12.8394
▁occur	-12.8394
▁replacer	-12.8394
▁5120	-12.8403
▁lut	-12.8403
▁|*	-12.8403
▁"::	-12.8412
▁corridor	-12.8412
▁tomcat	-12.8412
▁'");	-12.8421
▁optimal	-12.8421
▁/>,	-12.843
▁239	-12.843
▁;[	-12.843
▁durable	-12.843
▁enrollment	-12.843
▁frank	-12.843
▁hazard	-12.843
▁statistical	-12.843
▁tire	-12.843
▁"?>	-12.8439
▁delegation	-12.8439
▁pouch	-12.8439
▁'..	-12.8448
▁assigner	-12.8448
▁bird	-12.8448
▁clustered	-12.8448
▁submariner	-12.8448
▁'](	-12.8457
▁meet	-12.8457
▁161	-12.8466
▁hop	-12.8466
▁straight	-12.8466
▁://"	-12.8475
▁replaceable	-12.8475
▁[<	-12.8484
▁']]);	-12.8493
▁assumed	-12.8493
▁countable	-12.8493
▁`",	-12.8502
▁columnar	-12.8502
▁lazily	-12.8502
▁nova	-12.8502
▁agency	-12.8511
▁streamer	-12.8511
▁augment	-12.852
▁lollipop	-12.852
▁scram	-12.852
▁=\	-12.8529
▁forwarder	-12.8529
▁recreate	-12.8529
▁forgot	-12.8538
▁kex	-12.8538
▁scapegoat	-12.8538
▁establish	-12.8548
▁saw	-12.8548
▁("$.	-12.8557
▁802	-12.8557
▁remover	-12.8566
▁spare	-12.8566
▁randomly	-12.8575
▁film	-12.8584
▁outlet	-12.8584
▁("+	-12.8593
▁310	-12.8593
▁earth	-12.8593
▁her	-12.8593
▁:::	-12.8602
▁explore	-12.8611
▁="{	-12.8621
▁ist	-12.8621
▁linking	-12.8621
▁(\$	-12.863
▁dip	-12.863
▁'?.	-12.8639
▁6379	-12.8639
▁'))->	-12.8657
▁);}	-12.8657
▁[[([^@]*	-12.8657
▁[^\\/]*[\\/])]]	-12.8657
▁lose	-12.8657
▁tangent	-12.8657
▁~/.	-12.8657
▁&&!	-12.8666
▁sliced	-12.8666
▁":[	-12.8676
▁wild	-12.8676
▁doit	-12.8685
▁drunk	-12.8685
▁footnote	-12.8685
▁guarantee	-12.8685
▁buildable	-12.8694
▁=.	-12.8703
▁cha	-12.8703
▁cull	-12.8703
▁graceful	-12.8703
▁}"),	-12.8703
▁157	-12.8713
▁216	-12.8713
▁437	-12.8713
▁checkable	-12.8713
▁dither	-12.8713
▁persona	-12.8713
▁typography	-12.8713
▁'.')	-12.8722
▁/).	-12.8722
▁distributor	-12.8722
▁erizo	-12.8722
▁bud	-12.8731
▁learner	-12.8731
▁lenient	-12.8731
▁(&[	-12.874
▁+,	-12.874
▁}:{	-12.874
▁303	-12.875
▁convenience	-12.875
▁lerp	-12.875
▁mutant	-12.875
▁augmentation	-12.8759
▁>>>>>>>>	-12.8768
▁decide	-12.8768
▁flutter	-12.8768
▁=[];	-12.8777
▁alphabetical	-12.8787
▁duff	-12.8787
▁"""{	-12.8796
▁<?>,	-12.8796
▁]`	-12.8805
▁skippable	-12.8805
▁}&	-12.8805
▁/');	-12.8815
▁]]("	-12.8815
▁corrected	-12.8815
▁indifferent	-12.8815
▁limiting	-12.8815
▁mad	-12.8815
▁orient	-12.8815
▁progressive	-12.8815
▁scrapy	-12.8815
▁({:	-12.8824
▁156	-12.8824
▁|>	-12.8824
▁reservoir	-12.8833
▁subsequent	-12.8833
▁<*>)	-12.8843
▁'-')	-12.8852
▁repeatable	-12.8852
▁kick	-12.8862
▁road	-12.8862
▁weird	-12.8862
▁;");	-12.8871
▁tabulate	-12.8871
▁0644	-12.888
▁138	-12.888
▁squash	-12.889
▁*\	-12.8899
▁+/	-12.8899
▁swag	-12.8899
▁})",	-12.8899
▁ິ	-12.8899
▁<<<<<<<<	-12.8909
▁beer	-12.8909
▁236	-12.8918
▁;")	-12.8918
▁]?	-12.8918
▁exhausted	-12.8918
▁modulus	-12.8918
▁"""\	-12.8927
▁tie	-12.8927
▁(':	-12.8937
▁('{"	-12.8937
▁?>">	-12.8937
▁cum	-12.8937
▁prerelease	-12.8937
▁>>)	-12.8956
▁amplitude	-12.8965
▁introduction	-12.8965
▁sticker	-12.8965
▁ً	-12.8965
▁"},"	-12.8975
▁)!!	-12.8975
▁215	-12.8975
▁diffuse	-12.8975
▁pangolin	-12.8975
▁transmit	-12.8975
▁167	-12.8984
▁booster	-12.8984
▁}")]	-12.8984
▁)[:	-12.8994
▁recurrence	-12.8994
▁regional	-12.8994
▁wan	-12.8994
▁ู	-12.9013
▁''],	-12.9022
▁'(\\	-12.9022
▁\"}",	-12.9022
▁develop	-12.9022
▁newly	-12.9022
▁referral	-12.9022
▁unsuccessful	-12.9022
▁batcher	-12.9032
▁electronic	-12.9032
▁nonprofit	-12.9032
▁robust	-12.9032
▁unassigned	-12.9032
▁022	-12.9041
▁229	-12.9041
▁652	-12.9041
▁canada	-12.9041
▁switching	-12.9041
▁toto	-12.9041
▁}-{	-12.9041
▁"]=	-12.9051
▁chewy	-12.9051
▁complement	-12.9051
▁focal	-12.9051
▁humanize	-12.9051
▁rho	-12.9051
▁)}}	-12.906
▁?(::	-12.906
▁inflection	-12.906
▁.""	-12.907
▁<&'	-12.907
▁[("	-12.907
▁dragon	-12.907
▁snappy	-12.907
▁terminator	-12.907
▁&[],	-12.908
▁electrum	-12.908
▁')])	-12.9089
▁{}{}	-12.9089
▁'%{	-12.9099
▁corrupt	-12.9099
▁pocket	-12.9099
▁·	-12.9099
▁̇	-12.9099
▁()){	-12.9108
▁bacon	-12.9108
▁148	-12.9118
▁768	-12.9118
▁\(	-12.9118
▁'()	-12.9128
▁'/');	-12.9128
▁king	-12.9128
▁wiring	-12.9128
▁balloon	-12.9137
▁calibration	-12.9137
▁eight	-12.9137
▁raising	-12.9137
▁magnet	-12.9147
▁verdict	-12.9147
▁448	-12.9157
▁clipping	-12.9157
▁lighting	-12.9157
▁ಾ	-12.9166
▁'+',	-12.9176
▁holding	-12.9176
▁rat	-12.9176
▁750	-12.9186
▁grunt	-12.9186
▁voting	-12.9186
▁feeder	-12.9205
▁*));	-12.9215
▁bandit	-12.9215
▁}."	-12.9215
▁boulder	-12.9225
▁ing	-12.9225
▁judge	-12.9225
▁spanner	-12.9225
▁"]},	-12.9234
▁={}",	-12.9234
▁scrooge	-12.9234
▁}':	-12.9234
▁520	-12.9244
▁\">	-12.9244
▁196	-12.9254
▁ocean	-12.9254
▁198	-12.9263
▁=('	-12.9263
▁garden	-12.9263
▁50000	-12.9273
▁warden	-12.9273
▁)?|	-12.9283
▁*((	-12.9283
▁195	-12.9283
▁absinthe	-12.9283
▁fox	-12.9283
▁visualize	-12.9283
▁1975	-12.9293
▁steel	-12.9293
▁{}}	-12.9293
▁(",",	-12.9303
▁246	-12.9303
▁indeterminate	-12.9303
▁focusable	-12.9312
▁recoverable	-12.9312
▁188	-12.9322
▁\\.	-12.9322
▁rouge	-12.9322
▁(){}	-12.9332
▁="<?	-12.9332
▁chemical	-12.9332
▁convolutional	-12.9342
▁han	-12.9342
▁('/');	-12.9352
▁([(	-12.9352
▁10000000	-12.9352
▁internally	-12.9352
▁"$@"	-12.9362
▁/");	-12.9362
▁=:	-12.9362
▁butter	-12.9362
▁ceiling	-12.9362
▁deregister	-12.9362
▁gorilla	-12.9362
▁tall	-12.9362
▁}]);	-12.9362
▁)</	-12.9371
▁`/	-12.9371
▁accidentally	-12.9371
▁cased	-12.9381
▁founder	-12.9381
▁137	-12.9391
▁<:<	-12.9391
▁rely	-12.9391
▁sie	-12.9391
▁ু	-12.9391
▁proportion	-12.9401
▁tiled	-12.9401
▁winner	-12.9401
▁(+	-12.9411
▁backspace	-12.9411
▁flake	-12.9411
▁227	-12.9421
▁:{}",	-12.9421
▁["/	-12.9421
▁[]).	-12.9431
▁alumni	-12.9431
▁autopilot	-12.9431
▁typically	-12.9431
▁sai	-12.9441
▁162	-12.9451
▁facility	-12.9451
▁inheritable	-12.9451
▁mind	-12.9451
▁'=',	-12.9461
▁('../../../../	-12.9471
▁accelerator	-12.9471
▁forked	-12.9471
▁tornado	-12.9471
▁={()	-12.9481
▁006	-12.9491
▁244	-12.9491
▁dream	-12.9491
▁solar	-12.9491
▁:')	-12.9501
▁acknowledged	-12.9501
▁historical	-12.9501
▁recognize	-12.9501
▁')",	-12.9511
▁("[%	-12.9511
▁)$/	-12.9511
▁picked	-12.9521
▁!!,	-12.9531
▁(['--	-12.9531
▁/\.	-12.9531
▁3339	-12.9531
▁negotiate	-12.9531
▁somewhere	-12.9531
▁("""{"	-12.9541
▁]"),	-12.9541
▁tars	-12.9541
▁testable	-12.9541
▁victim	-12.9541
▁?>>	-12.9551
▁ym	-12.9551
▁*))	-12.9561
▁biti	-12.9561
▁://#{	-12.9571
▁"],["	-12.9581
▁014	-12.9581
▁\"#{	-12.9581
▁chad	-12.9581
▁pry	-12.9581
▁structural	-12.9581
▁241	-12.9591
▁accountable	-12.9591
▁playbook	-12.9591
▁quill	-12.9591
▁#]*(	-12.9601
▁146	-12.9601
▁fiat	-12.9601
▁transitive	-12.9601
▁-",	-12.9611
▁entering	-12.9611
▁419	-12.9621
▁exercise	-12.9621
▁preceding	-12.9621
▁...')	-12.9632
▁asterisk	-12.9632
▁breaking	-12.9632
▁whiny	-12.9632
▁ா	-12.9632
▁')"	-12.9642
▁drake	-12.9642
▁sorry	-12.9642
▁)["	-12.9662
▁dialer	-12.9662
▁spectator	-12.9662
▁!";	-12.9672
▁*',	-12.9672
▁}:#{	-12.9672
▁shorter	-12.9682
▁emotion	-12.9692
▁referential	-12.9692
▁'{}'	-12.9703
▁='/	-12.9703
▁flame	-12.9703
▁inch	-12.9703
▁},"	-12.9703
▁']];	-12.9713
▁405	-12.9713
▁tune	-12.9713
▁214	-12.9723
▁altitude	-12.9723
▁chop	-12.9723
▁convergence	-12.9723
▁['-	-12.9733
▁ු	-12.9733
▁]){	-12.9744
▁onto	-12.9744
▁patron	-12.9744
▁}.#{	-12.9744
▁"!	-12.9754
▁excluding	-12.9754
▁scientific	-12.9774
▁"{}",	-12.9785
▁(".",	-12.9785
▁261	-12.9785
▁263	-12.9785
▁bottleneck	-12.9785
▁mixture	-12.9785
▁droplet	-12.9795
▁lateral	-12.9795
▁wid	-12.9795
▁}'")	-12.9795
▁coarse	-12.9805
▁!).	-12.9826
▁]]),	-12.9826
▁!["	-12.9836
▁185	-12.9836
▁renewal	-12.9836
▁jabber	-12.9857
▁<*>):	-12.9867
▁awaiter	-12.9867
▁initially	-12.9867
▁research	-12.9867
▁terminus	-12.9867
▁390	-12.9878
▁=<	-12.9878
▁advertise	-12.9888
▁district	-12.9888
▁radiant	-12.9888
▁subsample	-12.9888
▁159	-12.9898
▁==="	-12.9898
▁eventuate	-12.9898
▁ి	-12.9898
▁("/"))	-12.9909
▁5678	-12.9909
▁analyser	-12.9909
▁rethrow	-12.9909
▁013	-12.9919
▁>[]	-12.9919
▁([](	-12.993
▁nebulous	-12.993
▁''.	-12.994
▁<>());	-12.994
▁'?	-12.9951
▁888	-12.9951
▁ethics	-12.9951
▁meant	-12.9951
▁peter	-12.9951
▁'?'	-12.9961
▁="{{$	-12.9961
▁filterable	-12.9961
▁forecaster	-12.9961
▁ped	-12.9961
▁()})	-12.9972
▁closable	-12.9972
▁delegator	-12.9972
▁189	-12.9982
▁ben	-12.9982
▁silencer	-12.9982
▁(({	-12.9993
▁dissolution	-12.9993
▁extensible	-12.9993
▁interleave	-12.9993
▁([-	-13.0003
▁0101	-13.0003
▁leg	-13.0003
▁(...,	-13.0014
▁174	-13.0014
▁721	-13.0014
▁]]],	-13.0014
▁compensation	-13.0014
▁"}],	-13.0024
▁)))),	-13.0024
▁86400	-13.0024
▁utterance	-13.0024
▁volley	-13.0024
▁#<	-13.0035
▁';',	-13.0035
▁++];	-13.0035
▁arms	-13.0035
▁"("	-13.0045
▁[]{"	-13.0045
▁landmark	-13.0045
▁.*)'	-13.0056
▁colossus	-13.0056
▁pyramid	-13.0056
▁ambient	-13.0066
▁revocation	-13.0066
▁257	-13.0077
▁glossary	-13.0077
▁))[	-13.0088
▁attestation	-13.0088
▁tck	-13.0088
▁|$	-13.0098
▁!('	-13.0109
▁179	-13.0109
▁quantize	-13.0109
▁|*|	-13.0109
▁+\	-13.0119
▁huff	-13.0119
▁502	-13.013
▁^^	-13.013
▁joke	-13.013
▁|<	-13.013
▁()");	-13.0141
▁din	-13.0141
▁minable	-13.0141
▁sheep	-13.0141
▁sinh	-13.0141
▁pst	-13.0151
▁assumption	-13.0162
▁landing	-13.0162
▁becomes	-13.0173
▁lattice	-13.0173
▁planet	-13.0173
▁signum	-13.0173
▁)))->	-13.0183
▁/-	-13.0183
▁231	-13.0183
▁410	-13.0183
▁accordion	-13.0183
▁720	-13.0194
▁breed	-13.0194
▁ongoing	-13.0194
▁|-	-13.0194
▁risky	-13.0205
▁touchable	-13.0205
▁toy	-13.0205
▁ി	-13.0205
▁meaningful	-13.0216
▁'}'	-13.0226
▁diamond	-13.0226
▁fillable	-13.0226
▁fulfillment	-13.0226
▁unsorted	-13.0226
▁://%	-13.0237
▁expiring	-13.0237
▁fraud	-13.0237
▁modality	-13.0237
▁242	-13.0248
▁565	-13.0248
▁achievement	-13.0248
▁&:	-13.0259
▁augmented	-13.0259
▁ava	-13.0259
▁sage	-13.0259
▁silver	-13.0259
▁truffle	-13.0259
▁0002	-13.0269
▁til	-13.0269
▁(|(	-13.0291
▁/**/*.	-13.0291
▁destructor	-13.0291
▁}:${	-13.0291
▁193	-13.0302
▁chromium	-13.0302
▁hierarchical	-13.0302
▁iterative	-13.0302
▁trivia	-13.0302
▁184	-13.0313
▁cosmos	-13.0313
▁twitch	-13.0313
▁173	-13.0324
▁181	-13.0324
▁blas	-13.0324
▁degrade	-13.0324
▁doctor	-13.0324
▁#######	-13.0334
▁>>(&	-13.0334
▁acting	-13.0334
▁dapper	-13.0334
▁deeply	-13.0334
▁“	-13.0334
▁successor	-13.0345
▁wrote	-13.0345
▁})}	-13.0345
▁/">	-13.0356
▁ding	-13.0356
▁reopen	-13.0356
▁0755	-13.0367
▁237	-13.0367
▁accelerate	-13.0367
▁blood	-13.0367
▁guinea	-13.0367
▁knob	-13.0367
▁loan	-13.0367
▁178	-13.0378
▁broadcaster	-13.0378
▁cruise	-13.0378
▁panda	-13.0378
▁stay	-13.0378
▁automata	-13.04
▁combinator	-13.04
▁2022	-13.0411
▁"#/	-13.0422
▁299	-13.0422
▁?|	-13.0422
▁completeness	-13.0422
▁dynamically	-13.0422
▁!.	-13.0433
▁[]),	-13.0433
▁income	-13.0433
▁opera	-13.0433
▁)`,	-13.0444
▁effort	-13.0444
▁modulo	-13.0444
▁{"--	-13.0444
▁&#	-13.0455
▁')")	-13.0455
▁'*',	-13.0466
▁introspector	-13.0466
▁roc	-13.0466
▁}}\	-13.0477
▁"}))	-13.0488
▁hawk	-13.0488
▁preparation	-13.0488
▁->>	-13.0499
▁pika	-13.0499
▁scallop	-13.0499
▁($(	-13.051
▁),"	-13.051
▁\"")	-13.051
▁[[:	-13.0521
▁![],	-13.0532
▁"'"	-13.0532
▁)\/(	-13.0532
▁equivalence	-13.0532
▁reliable	-13.0532
▁topo	-13.0532
▁187	-13.0543
▁`[	-13.0543
▁guava	-13.0543
▁{}:	-13.0543
▁୍	-13.0543
▁"}";	-13.0554
▁relevance	-13.0554
▁unfiltered	-13.0554
▁}';	-13.0554
▁foldable	-13.0565
▁plexus	-13.0565
▁()}")	-13.0577
▁402	-13.0577
▁:`.	-13.0577
▁ally	-13.0577
▁poison	-13.0577
▁shading	-13.0577
▁descent	-13.0588
▁expensive	-13.0588
▁initiate	-13.0588
▁negotiator	-13.0588
▁sequencer	-13.0588
▁|\/|	-13.0588
▁228	-13.0599
▁charging	-13.0599
▁determined	-13.0599
▁}"]	-13.0599
▁308	-13.061
▁bake	-13.061
▁valued	-13.061
▁warehouse	-13.061
▁:+:	-13.0621
▁clearance	-13.0621
▁|(/	-13.0621
▁(%(	-13.0632
▁binomial	-13.0632
▁isometry	-13.0632
▁sport	-13.0632
▁unconfirmed	-13.0632
▁{{--	-13.0632
▁/);	-13.0644
▁creativity	-13.0644
▁issuing	-13.0644
▁applier	-13.0655
▁initiator	-13.0655
▁("^	-13.0666
▁171	-13.0666
▁1998	-13.0666
▁evolve	-13.0666
▁generalized	-13.0666
▁`$	-13.0677
▁cate	-13.0677
▁hyperspace	-13.0677
▁medical	-13.0677
▁===========================================================================	-13.0688
▁adjacency	-13.0688
▁billable	-13.07
▁chips	-13.07
▁oe	-13.07
▁synopsis	-13.07
▁tilde	-13.07
▁('(	-13.0722
▁singularize	-13.0722
▁340	-13.0734
▁untrusted	-13.0734
▁%",	-13.0745
▁&,	-13.0745
▁)))))	-13.0745
▁/";	-13.0745
▁['.	-13.0745
▁gel	-13.0745
▁unwind	-13.0745
▁'//	-13.0756
▁><![	-13.0756
▁ber	-13.0756
▁lev	-13.0756
▁receipts	-13.0756
▁|'	-13.0756
▁!(!	-13.0768
▁")";	-13.0768
▁"{"	-13.0768
▁]]))	-13.0768
▁coinmate	-13.0768
▁insertable	-13.0768
▁)}</	-13.0779
▁?.#	-13.0779
▁`))	-13.0779
▁----	-13.079
▁chalice	-13.079
▁drawn	-13.079
▁outlier	-13.079
▁quantization	-13.079
▁1990	-13.0802
▁fei	-13.0802
▁geode	-13.0802
▁intervention	-13.0802
▁vaccination	-13.0802
▁beard	-13.0813
▁centroid	-13.0813
▁'['	-13.0825
▁))},	-13.0825
▁])\\	-13.0825
▁folded	-13.0825
▁injectable	-13.0825
▁interesting	-13.0825
▁maduro	-13.0825
▁["#{	-13.0836
▁["-	-13.0836
▁framed	-13.0836
▁island	-13.0836
▁quiz	-13.0836
▁diagnose	-13.0847
▁enrich	-13.0847
▁sold	-13.0847
▁subsequence	-13.0847
▁('\\',	-13.0859
▁249	-13.0859
▁mate	-13.0859
▁}\""	-13.0859
▁sauce	-13.087
▁##########################################################################	-13.0882
▁wow	-13.0882
▁});\	-13.0882
▁mailable	-13.0893
▁($.	-13.0905
▁["\	-13.0905
▁commutative	-13.0905
▁dogs	-13.0905
▁interception	-13.0905
▁shutting	-13.0905
▁spirit	-13.0905
▁"{}	-13.0916
▁--}}	-13.0916
▁158	-13.0916
▁1900	-13.0916
▁agnostic	-13.0916
▁emulate	-13.0916
▁thanks	-13.0916
▁")])	-13.0928
▁'*.	-13.0928
▁177	-13.0928
▁406	-13.0928
▁spool	-13.0928
▁pam	-13.0939
▁pony	-13.0939
▁vulnerability	-13.0939
▁"..",	-13.0951
▁);',	-13.0951
▁?')	-13.0951
▁biome	-13.0951
▁---------	-13.0962
▁typecast	-13.0962
▁gracefully	-13.0974
▁proceeding	-13.0974
▁town	-13.0974
▁()*	-13.0986
▁)=	-13.0997
▁")?;	-13.1009
▁197	-13.1009
▁clump	-13.1009
▁born	-13.1021
▁(\'	-13.1032
▁easier	-13.1032
▁eventual	-13.1032
▁strongly	-13.1032
▁")?.	-13.1044
▁knot	-13.1044
▁('{{%	-13.1056
▁0100	-13.1056
▁factorial	-13.1056
▁forbid	-13.1056
▁greyhound	-13.1056
▁opposite	-13.1067
▁`#	-13.1079
▁summer	-13.1079
▁'#'	-13.1091
▁alen	-13.1091
▁nature	-13.1091
▁suffer	-13.1091
▁enchantment	-13.1102
▁,[-	-13.1114
▁machinery	-13.1126
▁!("{}	-13.1138
▁)]]	-13.1138
▁+-	-13.1138
▁209	-13.1138
▁238	-13.1138
▁cheat	-13.1138
▁doodle	-13.1138
▁exploration	-13.1138
▁{/	-13.1138
▁')'	-13.1149
▁'*	-13.1149
▁.$$	-13.1149
▁217	-13.1149
▁advisory	-13.1149
▁meteor	-13.1149
▁querying	-13.1149
▁rarity	-13.1149
▁winter	-13.1149
▁ା	-13.1149
▁*"	-13.1161
▁shorten	-13.1161
▁()"))	-13.1173
▁020	-13.1173
▁;++	-13.1173
▁bay	-13.1173
▁encore	-13.1173
▁vent	-13.1173
▁'/';	-13.1185
▁ass	-13.1185
▁beyond	-13.1185
▁enhance	-13.1185
▁ravel	-13.1185
▁sine	-13.1185
▁<",	-13.1197
▁"["	-13.1209
▁'%',	-13.1209
▁015	-13.1209
▁coming	-13.1209
▁lineage	-13.1209
▁="-	-13.122
▁concatenation	-13.122
▁unblock	-13.122
▁`@	-13.1232
▁escaper	-13.1232
▁{\"	-13.1232
▁ு	-13.1232
▁();\	-13.1244
▁jelly	-13.1244
▁429	-13.1256
▁capable	-13.1256
▁\","	-13.1268
▁nome	-13.1268
▁}});	-13.1268
▁}}},	-13.1268
▁,["	-13.128
▁exhaustive	-13.128
▁'@'	-13.1292
▁)}),	-13.1292
▁awake	-13.1292
▁|}""".	-13.1292
▁219	-13.1304
▁['#	-13.1304
▁$('<	-13.1316
▁:<	-13.1316
▁magazine	-13.1316
▁scepter	-13.1316
▁stapler	-13.1316
▁vertically	-13.1316
▁)](	-13.1328
▁.[	-13.1328
▁/@	-13.1328
▁0777	-13.1328
▁]('	-13.1328
▁till	-13.1328
▁hardness	-13.134
▁prober	-13.134
▁tun	-13.134
▁automatization	-13.1364
▁elliptic	-13.1364
▁!(),	-13.1376
▁182	-13.1388
▁describer	-13.1388
▁mash	-13.1388
▁્	-13.1388
▁",")	-13.14
▁patcher	-13.14
▁zeroize	-13.14
▁)").	-13.1412
▁)]):	-13.1412
▁])[	-13.1412
▁]]--	-13.1412
▁cellular	-13.1412
▁els	-13.1412
▁transactor	-13.1424
▁。")	-13.1424
▁()}"	-13.1437
▁constrain	-13.1437
▁]?.	-13.1449
▁creat	-13.1449
▁separation	-13.1449
▁ා	-13.1449
▁ི་	-13.1461
▁...,	-13.1473
▁504	-13.1473
▁fifth	-13.1473
▁foot	-13.1473
▁rhizome	-13.1473
▁wat	-13.1473
▁||"	-13.1473
▁forth	-13.1485
▁german	-13.1485
▁lesser	-13.1485
▁}.${	-13.1485
▁'+'	-13.1497
▁1080	-13.1497
▁]().	-13.1497
▁fairy	-13.1497
▁scrolled	-13.1497
▁stochastic	-13.1497
▁*),	-13.151
▁depart	-13.151
▁unregistered	-13.151
▁{"$	-13.151
▁1800	-13.1522
▁murmur	-13.1522
▁representer	-13.1522
▁------------------------------------------------------------------------------	-13.1534
▁curd	-13.1534
▁quadratic	-13.1534
▁apprise	-13.1546
▁exceptionally	-13.1546
▁".")	-13.1559
▁("::	-13.1559
▁ens	-13.1559
▁parrot	-13.1559
▁"#;	-13.1571
▁absorb	-13.1571
▁wy	-13.1571
▁="";	-13.1583
▁lax	-13.1596
▁snapshotter	-13.1596
▁000001	-13.1608
▁243	-13.1608
▁father	-13.1608
▁friction	-13.1608
▁guardrail	-13.1608
▁unquote	-13.1608
▁($)	-13.162
▁={};	-13.162
▁watchman	-13.162
▁'};	-13.1633
▁."},	-13.1633
▁375	-13.1633
▁mood	-13.1633
▁yourself	-13.1633
▁broad	-13.1645
▁extending	-13.1645
▁identifiable	-13.1645
▁unbox	-13.1645
▁)"))	-13.1657
▁selling	-13.1657
▁',\	-13.167
▁8081	-13.167
▁;.	-13.167
▁}-[	-13.167
▁("../../../	-13.1682
▁1000000000	-13.1682
▁gogo	-13.1682
▁sigil	-13.1682
▁uncommitted	-13.1682
▁wearable	-13.1682
▁>[	-13.1695
▁?>(	-13.1695
▁expert	-13.1695
▁financial	-13.1695
▁jaeger	-13.1695
▁regardless	-13.1695
▁scoreboard	-13.1695
▁bearing	-13.1707
▁cartridge	-13.1707
▁gos	-13.1707
▁presto	-13.1707
▁]";	-13.172
▁dumb	-13.172
▁})")	-13.172
▁")):	-13.1732
▁183	-13.1732
▁="#"	-13.1732
▁materialistic	-13.1732
▁surname	-13.1732
▁290	-13.1745
▁isolate	-13.1745
▁queen	-13.1745
▁rax	-13.1745
▁"]}	-13.1757
▁()};	-13.1757
▁recurrent	-13.1757
▁redeem	-13.1757
▁'('	-13.177
▁*/\	-13.177
▁330	-13.177
▁authoritative	-13.177
▁derby	-13.177
▁rag	-13.177
▁shriek	-13.177
▁stamper	-13.177
▁supervision	-13.177
▁<>",	-13.1782
▁dashed	-13.1782
▁strictly	-13.1782
▁totem	-13.1782
▁unparsed	-13.1782
▁",",	-13.1795
▁*]]	-13.1807
▁035	-13.1807
▁6000	-13.1807
▁<=",	-13.1807
▁march	-13.1807
▁untracked	-13.1807
▁."]	-13.182
▁511	-13.182
▁lobby	-13.182
▁+")	-13.1833
▁-\\	-13.1833
▁fishing	-13.1833
▁invalidation	-13.1833
▁wad	-13.1833
▁mezzanine	-13.1845
▁("{{	-13.1858
▁>=",	-13.1858
▁anomaly	-13.1858
▁instructor	-13.1858
▁retina	-13.1858
▁sparsity	-13.1858
▁unsaved	-13.1858
▁"},{"	-13.1871
▁*/',	-13.1871
▁*[	-13.1871
▁016	-13.1871
▁])',	-13.1871
▁scrubbed	-13.1871
▁sla	-13.1871
▁unsubscribed	-13.1871
▁<.	-13.1883
▁confluent	-13.1883
▁inlet	-13.1883
▁leaving	-13.1883
▁|${	-13.1883
▁('..');	-13.1896
▁)}},	-13.1896
▁adult	-13.1896
▁diagnosis	-13.1896
▁easily	-13.1896
▁feel	-13.1896
▁shadowed	-13.1896
▁}).$	-13.1896
▁்',	-13.1896
▁,,	-13.1909
▁262	-13.1909
▁caution	-13.1909
▁("&	-13.1921
▁]]()	-13.1921
▁alfa	-13.1921
▁anywhere	-13.1921
▁damping	-13.1921
▁divisible	-13.1921
▁justification	-13.1921
▁paired	-13.1921
▁unlike	-13.1921
▁*)"	-13.1934
▁017	-13.1934
▁`):	-13.1934
▁abbreviation	-13.1934
▁complicated	-13.1934
▁=@	-13.1947
▁shorts	-13.1947
▁!($	-13.196
▁committee	-13.196
▁spice	-13.196
▁218	-13.1972
▁badger	-13.1972
▁delight	-13.1972
▁gan	-13.1972
▁morning	-13.1972
▁alone	-13.1985
▁hypothesis	-13.1985
▁nuke	-13.1985
▁parliament	-13.1985
▁trampoline	-13.1985
▁186	-13.1998
▁fiddle	-13.1998
▁kappa	-13.1998
▁mirrored	-13.1998
▁outstanding	-13.1998
▁746	-13.2011
▁ill	-13.2011
▁tue	-13.2011
▁blame	-13.2024
▁clipped	-13.2024
▁rector	-13.2024
▁workshop	-13.2024
▁)]),	-13.2037
▁440	-13.2037
▁<->	-13.2037
▁``'	-13.2037
▁0600	-13.205
▁chevron	-13.205
▁farm	-13.205
▁greet	-13.205
▁resizer	-13.205
▁*[]	-13.2062
▁+/)	-13.2062
▁covariant	-13.2062
▁harvest	-13.2062
▁valve	-13.2062
▁.'));	-13.2075
▁`\	-13.2075
▁,*	-13.2088
▁\")	-13.2088
▁cellar	-13.2088
▁synchronizer	-13.2088
▁young	-13.2088
▁์	-13.2088
▁"))(	-13.2101
▁"「	-13.2101
▁+',	-13.2101
▁copybook	-13.2101
▁muss	-13.2101
▁subplot	-13.2101
▁!()	-13.2114
▁307	-13.2114
▁`.`	-13.2114
▁equation	-13.2114
▁moo	-13.2114
▁]])(	-13.2127
▁awless	-13.2127
▁microsecond	-13.2127
▁permanently	-13.2127
▁rendezvous	-13.2127
▁{}{},	-13.2127
▁"');	-13.214
▁[('	-13.214
▁analyses	-13.214
▁meaning	-13.214
▁aim	-13.2153
▁comb	-13.2153
▁encounter	-13.2153
▁resend	-13.2153
▁surrounding	-13.2153
▁3333	-13.2166
▁409	-13.2166
▁510	-13.2166
▁illusion	-13.2166
▁soot	-13.2166
▁ं	-13.2166
▁>).	-13.2179
▁^^^	-13.2179
▁concurrently	-13.2179
▁3306	-13.2193
▁crowd	-13.2206
▁fort	-13.2206
▁remind	-13.2206
▁son	-13.2206
▁*],	-13.2219
▁<*>>	-13.2219
▁drift	-13.2219
▁unfinished	-13.2219
▁"],"	-13.2232
▁("</	-13.2232
▁alb	-13.2232
▁bastille	-13.2232
▁baud	-13.2232
▁negation	-13.2232
▁)'],	-13.2245
▁dazzle	-13.2258
▁omega	-13.2271
▁weave	-13.2271
▁decomposition	-13.2285
▁latter	-13.2285
▁stolen	-13.2285
▁subscript	-13.2285
▁""));	-13.2298
▁)"""	-13.2298
▁piped	-13.2298
▁slop	-13.2298
▁/^[	-13.2311
▁]]></	-13.2311
▁``(	-13.2311
▁consumable	-13.2311
▁linger	-13.2311
▁009	-13.2324
▁801	-13.2324
▁accompanist	-13.2324
▁fitting	-13.2324
▁formed	-13.2338
▁ਾ	-13.2338
▁);"	-13.2351
▁)});	-13.2351
▁265	-13.2351
▁80211	-13.2351
▁dean	-13.2351
▁het	-13.2351
▁}\\	-13.2351
▁()/	-13.2364
▁/>;	-13.2364
▁dividend	-13.2364
▁modifiable	-13.2364
▁{[	-13.2364
▁confidential	-13.2377
▁ُ	-13.2377
▁))?;	-13.2391
▁consuming	-13.2391
▁tooling	-13.2391
▁ा',	-13.2391
▁({{	-13.2404
▁unloaded	-13.2404
▁414	-13.2418
▁("-",	-13.2431
▁266	-13.2431
▁movable	-13.2431
▁)++;	-13.2444
▁32768	-13.2444
▁]++;	-13.2444
▁luminance	-13.2444
▁pilot	-13.2444
▁tea	-13.2444
▁.*",	-13.2458
▁...'	-13.2458
▁discoverer	-13.2458
▁pill	-13.2471
▁!;	-13.2485
▁"-",	-13.2485
▁([@	-13.2485
▁550	-13.2485
▁descriptive	-13.2485
▁flee	-13.2485
▁vacuum	-13.2485
▁wed	-13.2485
▁ా	-13.2485
▁assuming	-13.2498
▁exceptional	-13.2498
▁looping	-13.2498
▁pirate	-13.2498
▁salomon	-13.2498
▁interested	-13.2512
▁motif	-13.2512
▁('<?	-13.2525
▁00001	-13.2525
▁008	-13.2525
▁compacted	-13.2525
▁keeping	-13.2525
▁nonlocal	-13.2525
▁pomelo	-13.2525
▁specialization	-13.2525
▁`]	-13.2539
▁hyp	-13.2539
▁shoppe	-13.2539
▁'))).	-13.2552
▁.:	-13.2552
▁:"",	-13.2552
▁`-	-13.2552
▁everyone	-13.2552
▁griffin	-13.2552
▁impression	-13.2552
▁splitting	-13.2552
▁()>	-13.2566
▁).',	-13.2579
▁catching	-13.2579
▁exploit	-13.2579
▁ivy	-13.2579
▁reconnection	-13.2579
▁tramp	-13.2579
▁(!!	-13.2593
▁executer	-13.2593
▁ी',	-13.2593
▁𞥄	-13.2593
▁classified	-13.2607
▁cook	-13.2607
▁dal	-13.2607
▁hog	-13.2607
▁***	-13.262
▁valet	-13.262
▁governance	-13.2634
▁'£',	-13.2648
▁("{}	-13.2648
▁.'],	-13.2648
▁0700	-13.2648
▁1993	-13.2648
▁gala	-13.2648
▁peso	-13.2648
▁shaper	-13.2648
▁hyphen	-13.2661
▁lake	-13.2661
▁proximity	-13.2661
▁unify	-13.2661
▁}"}.	-13.2675
▁convex	-13.2689
▁refinement	-13.2689
▁"\""	-13.2703
▁asymmetric	-13.2703
▁cite	-13.2703
▁/^\	-13.2716
▁aka	-13.2716
▁conformance	-13.2716
▁taxonomy	-13.2716
▁incorrectly	-13.273
▁ancestry	-13.2744
▁decline	-13.2744
▁',),	-13.2758
▁'/../../../../	-13.2758
▁("{$	-13.2758
▁()+	-13.2758
▁))",	-13.2758
▁taps	-13.2758
▁=#{@	-13.2772
▁maha	-13.2772
▁024	-13.2786
▁5555	-13.2786
▁downgrade	-13.2786
▁extruder	-13.2786
▁pol	-13.2786
▁ratchet	-13.2786
▁ruler	-13.2786
▁stand	-13.2786
▁throttler	-13.2786
▁unmapped	-13.2786
▁|```	-13.2786
▁=$(<	-13.28
▁>}	-13.28
▁desk	-13.28
▁optimistic	-13.28
▁quasi	-13.28
▁spinach	-13.28
▁truncation	-13.28
▁']';	-13.2814
▁-}}	-13.2814
▁\":[\"	-13.2814
▁`',	-13.2814
▁heat	-13.2814
▁improve	-13.2814
▁lam	-13.2814
▁(/^\	-13.2827
▁+\.\	-13.2827
▁imaginary	-13.2841
▁metronome	-13.2841
▁debit	-13.2855
▁hunk	-13.2855
▁understood	-13.2855
▁(':')	-13.2869
▁emote	-13.2869
▁rope	-13.2869
▁."));	-13.2897
▁reality	-13.2897
▁whence	-13.2897
▁accurate	-13.2911
▁couch	-13.2911
▁cud	-13.2911
▁das	-13.2911
▁outlook	-13.2911
▁"}).	-13.2926
▁']'	-13.2926
▁berlin	-13.2926
▁bring	-13.2926
▁enzyme	-13.2926
▁tout	-13.2926
▁turk	-13.2926
▁"{\	-13.294
▁indication	-13.294
▁simplification	-13.294
▁stake	-13.294
▁'.';	-13.2954
▁1002	-13.2954
▁={`	-13.2954
▁[,	-13.2954
▁("#{@	-13.2968
▁)();	-13.2968
▁616	-13.2968
▁glib	-13.2968
▁wont	-13.2968
▁).",	-13.2982
▁exclusively	-13.2982
▁potentially	-13.2982
▁00000001	-13.2996
▁tonga	-13.2996
▁']}"	-13.301
▁>>("	-13.301
▁dart	-13.301
▁rationale	-13.301
▁transitional	-13.301
▁]],[	-13.3025
▁helpful	-13.3025
▁ideal	-13.3025
▁multiplex	-13.3025
▁tunable	-13.3025
▁undocumented	-13.3025
▁}');	-13.3025
▁%>.	-13.3039
▁%|	-13.3039
▁,...)	-13.3039
▁288	-13.3039
▁[&	-13.3039
▁interpretation	-13.3039
▁'{'	-13.3053
▁305	-13.3053
▁=?	-13.3053
▁>?,	-13.3053
▁blazing	-13.3053
▁ink	-13.3053
▁technical	-13.3053
▁strata	-13.3067
▁434	-13.3082
▁lemma	-13.3082
▁segmented	-13.3082
▁yaw	-13.3082
▁'=>$	-13.3096
▁mutually	-13.3096
▁omnibus	-13.3096
▁situation	-13.3096
▁whoops	-13.3096
▁(""));	-13.311
▁)>>	-13.311
▁estate	-13.311
▁mechanize	-13.311
▁silly	-13.311
▁£',	-13.311
▁િ	-13.311
▁!"))	-13.3125
▁"[%	-13.3125
▁:/\	-13.3125
▁\\\\	-13.3125
▁bencher	-13.3125
▁castor	-13.3125
▁confine	-13.3125
▁powered	-13.3125
▁spelling	-13.3125
▁}?.	-13.3125
▁$?	-13.3139
▁16384	-13.3139
▁clap	-13.3139
▁polyglot	-13.3139
▁&>	-13.3153
▁,@	-13.3153
▁=''	-13.3153
▁emphasis	-13.3153
▁operational	-13.3153
▁fixable	-13.3168
▁flint	-13.3168
▁jail	-13.3168
▁unpublished	-13.3168
▁©	-13.3168
▁'"',	-13.3182
▁'€',	-13.3182
▁80000000	-13.3182
▁forecasting	-13.3182
▁grub	-13.3182
▁jess	-13.3182
▁("%.	-13.3197
▁]="	-13.3197
▁cosh	-13.3197
▁giving	-13.3197
▁ุ	-13.3197
▁+"/	-13.3211
▁822	-13.3211
▁tidy	-13.3211
▁}]"	-13.3211
▁")")	-13.3226
▁$",	-13.3226
▁===(	-13.3226
▁[]>>	-13.3226
▁delve	-13.3226
▁prayer	-13.3226
▁sao	-13.3226
▁unroll	-13.3226
▁(",");	-13.324
▁1994	-13.324
▁outbox	-13.324
▁tera	-13.324
▁"><?	-13.3255
▁....	-13.3255
▁bee	-13.3255
▁galaxy	-13.3255
▁mutual	-13.3255
▁strategic	-13.3255
▁{{{	-13.3255
▁"}`,	-13.3269
▁]").	-13.3269
▁billy	-13.3269
▁blending	-13.3269
▁commission	-13.3269
▁miscellaneous	-13.3269
▁telephony	-13.3269
▁wine	-13.3269
▁ି	-13.3269
▁)[(	-13.3284
▁modeling	-13.3284
▁temporarily	-13.3284
▁unaligned	-13.3284
▁}$	-13.3284
▁0123	-13.3299
▁dop	-13.3299
▁dust	-13.3299
▁verse	-13.3299
▁>*	-13.3313
▁\"{	-13.3313
▁999999	-13.3328
▁mage	-13.3328
▁nix	-13.3328
▁settlement	-13.3328
▁clearing	-13.3343
▁distinguished	-13.3343
▁hammer	-13.3343
▁productivity	-13.3343
▁"#<	-13.3357
▁-")	-13.3357
▁567	-13.3357
▁>@	-13.3357
▁directional	-13.3357
▁librarian	-13.3357
▁scalable	-13.3357
▁(?,	-13.3372
▁ballot	-13.3372
▁enigma	-13.3372
▁gatherer	-13.3372
▁)``	-13.3387
▁donate	-13.3387
▁kana	-13.3387
▁toe	-13.3387
▁"}]	-13.3401
▁\"$	-13.3401
▁bet	-13.3401
▁cab	-13.3401
▁diameter	-13.3401
▁populator	-13.3401
▁)%	-13.3416
▁312	-13.3416
▁mantissa	-13.3416
▁(*((*	-13.3431
▁influence	-13.3431
▁scout	-13.3431
▁sea	-13.3431
▁underflow	-13.3431
▁widen	-13.3431
▁352	-13.3446
▁highly	-13.3446
▁inertia	-13.3446
▁quantum	-13.3446
▁("`	-13.3461
▁abstraction	-13.3461
▁decelerate	-13.3461
▁fling	-13.3461
▁casing	-13.3476
▁cup	-13.3476
▁imputer	-13.3476
▁:].	-13.3491
▁(";	-13.3505
▁guideline	-13.3505
▁guy	-13.3505
▁posting	-13.3505
▁yang	-13.3505
▁>`,	-13.352
▁boat	-13.352
▁commenter	-13.352
▁rip	-13.352
▁rolled	-13.352
▁textual	-13.352
▁verifiable	-13.352
▁battlefield	-13.3535
▁immune	-13.3535
▁publishable	-13.3535
▁reseed	-13.3535
▁scrape	-13.3535
▁striped	-13.3535
▁uncountable	-13.3535
▁verbatim	-13.3535
▁ാ	-13.3535
▁...))	-13.355
▁?>)	-13.355
▁attribution	-13.355
▁hair	-13.355
▁interview	-13.355
▁mas	-13.355
▁unlabeled	-13.355
▁clog	-13.3565
▁empire	-13.3565
▁horizontally	-13.3565
▁multiplication	-13.3565
▁shuttle	-13.3565
▁","$	-13.358
▁fir	-13.358
▁reschedule	-13.358
▁valor	-13.358
▁('-',	-13.3595
▁99999	-13.3595
▁].(	-13.3595
▁endless	-13.3595
▁proposition	-13.3595
▁}();	-13.3595
▁ू	-13.3595
▁!(*	-13.361
▁'\\')	-13.361
▁meson	-13.361
▁specialty	-13.361
▁$")	-13.3626
▁960	-13.3626
▁hinge	-13.3626
▁acquisition	-13.3641
▁bidding	-13.3641
▁regularization	-13.3641
▁converge	-13.3656
▁thermal	-13.3656
▁thinker	-13.3656
▁turf	-13.3656
▁worm	-13.3656
▁")}"	-13.3671
▁521	-13.3671
▁moderation	-13.3671
▁')):	-13.3686
▁administrate	-13.3686
▁authorizable	-13.3686
▁improvement	-13.3686
▁land	-13.3686
▁remains	-13.3686
▁'{$	-13.3701
▁('+	-13.3701
▁,",	-13.3701
▁chess	-13.3701
▁<?>...	-13.3717
▁]())	-13.3717
▁moderator	-13.3717
▁prawn	-13.3717
▁()\	-13.3732
▁0020	-13.3732
▁2500	-13.3732
▁460	-13.3732
▁911	-13.3732
▁-',	-13.3747
▁acknowledge	-13.3747
▁hong	-13.3747
▁regenerator	-13.3747
▁slightly	-13.3747
▁talent	-13.3747
▁teal	-13.3747
▁{--	-13.3747
▁"}",	-13.3762
▁']):	-13.3762
▁conjunction	-13.3762
▁ean	-13.3762
▁}?	-13.3762
▁'.",	-13.3778
▁'../../../../	-13.3778
▁275	-13.3778
▁?>.	-13.3778
▁`"""	-13.3778
▁integrate	-13.3778
▁'%'	-13.3793
▁=,	-13.3793
▁[((	-13.3793
▁equatable	-13.3793
▁generally	-13.3793
▁park	-13.3793
▁[#{	-13.3808
▁\[	-13.3808
▁stringer	-13.3808
▁},{"	-13.3808
▁"}}},	-13.3824
▁---------------------------------------------	-13.3824
▁abnormal	-13.3824
▁traceable	-13.3824
▁{{$	-13.3824
▁"""<	-13.3839
▁()'	-13.3839
▁)}",	-13.3839
▁<--	-13.3839
▁commercial	-13.3839
▁outlined	-13.3839
▁squib	-13.3839
▁'></	-13.3855
▁+",	-13.3855
▁\',	-13.3855
▁########	-13.387
▁("]");	-13.387
▁2147483647	-13.387
▁=("	-13.387
▁breakdown	-13.387
▁|/	-13.387
▁).'	-13.3886
▁aptly	-13.3886
▁mal	-13.3886
▁">&	-13.3901
▁())?;	-13.3901
▁(*)(	-13.3901
▁:{$	-13.3901
▁effectivity	-13.3901
▁purl	-13.3901
▁<<(	-13.3917
▁ellipsoid	-13.3917
▁urgent	-13.3917
▁impure	-13.3932
▁mess	-13.3932
▁||!	-13.3932
▁"-----	-13.3948
▁((-	-13.3948
▁100000000	-13.3948
▁\\/	-13.3948
▁shebang	-13.3948
▁trajectory	-13.3948
▁transducer	-13.3948
▁unifier	-13.3948
▁']")	-13.3964
▁()==	-13.3964
▁complain	-13.3964
▁contravariant	-13.3964
▁portion	-13.3964
▁}/,	-13.3964
▁causal	-13.3979
▁nul	-13.3979
▁ូ	-13.3979
▁')('	-13.3995
▁------	-13.3995
▁366	-13.3995
▁;";	-13.3995
▁bosun	-13.3995
▁exportable	-13.3995
▁farmer	-13.3995
▁hull	-13.3995
▁pants	-13.3995
▁4444	-13.4011
▁booted	-13.4011
▁gatekeeper	-13.4011
▁([][]	-13.4026
▁-%>	-13.4026
▁1100	-13.4026
▁>())).	-13.4026
▁bal	-13.4026
▁committable	-13.4026
▁preflight	-13.4026
▁truck	-13.4026
▁wonderland	-13.4026
▁("")]	-13.4042
▁([\	-13.4042
▁..=	-13.4042
▁273	-13.4042
▁411	-13.4042
▁anyone	-13.4042
▁hydrosphere	-13.4042
▁maturity	-13.4042
▁optics	-13.4042
▁stubber	-13.4042
▁123456789012	-13.4058
▁['',	-13.4058
▁\|	-13.4058
▁collateral	-13.4058
▁dinar	-13.4058
▁gens	-13.4058
▁marking	-13.4058
▁multinomial	-13.4058
▁unverified	-13.4058
▁1995	-13.4074
▁;(	-13.4074
▁anyway	-13.4074
▁designed	-13.4074
▁impurity	-13.4074
▁linkage	-13.4074
▁1234567	-13.4089
▁=[])	-13.4089
▁]&&	-13.4089
▁axiom	-13.4089
▁explosive	-13.4089
▁1280	-13.4105
▁=");	-13.4105
▁animating	-13.4105
▁tripper	-13.4105
▁undirected	-13.4105
▁(":")	-13.4121
▁>?)	-13.4121
▁lob	-13.4121
▁wamp	-13.4121
▁+%	-13.4137
▁="+	-13.4137
▁="\	-13.4137
▁darken	-13.4137
▁limb	-13.4137
▁neighborhood	-13.4137
▁thank	-13.4137
▁university	-13.4137
▁wer	-13.4137
▁}}.	-13.4137
▁ા	-13.4137
▁')';	-13.4153
▁:`\	-13.4153
▁<$	-13.4153
▁fizz	-13.4153
▁numerically	-13.4153
▁confused	-13.4169
▁fund	-13.4169
▁knop	-13.4169
▁}""")	-13.4169
▁}];	-13.4169
▁[,]	-13.4185
▁]]).	-13.4185
▁bordered	-13.4185
▁coverlet	-13.4185
▁operable	-13.4185
▁="{$	-13.4201
▁bike	-13.4201
▁dangerous	-13.4201
▁duplication	-13.4201
▁rig	-13.4201
▁sculpin	-13.4201
▁('!	-13.4217
▁-----------------------------------------------------------------------------	-13.4217
▁[{}]	-13.4217
▁\{	-13.4217
▁copper	-13.4217
▁%=	-13.4233
▁'{}	-13.4233
▁--------------------------------------------------------	-13.4233
▁412	-13.4233
▁;/	-13.4233
▁brute	-13.4233
▁701	-13.4249
▁]>	-13.4249
▁aesthetic	-13.4249
▁cue	-13.4249
▁surprise	-13.4249
▁torus	-13.4249
▁'@/	-13.4265
▁evolution	-13.4265
▁gopher	-13.4265
▁lyric	-13.4265
▁redefine	-13.4265
▁shoot	-13.4265
▁vulnerable	-13.4265
▁weekend	-13.4265
▁">',	-13.4281
▁'>'	-13.4281
▁([]),	-13.4281
▁=>$	-13.4281
▁nibble	-13.4281
▁ັ	-13.4281
▁>.()	-13.4297
▁evil	-13.4297
▁framer	-13.4297
▁(!($	-13.4313
▁ear	-13.4313
▁enhancer	-13.4313
▁northeast	-13.4313
▁saa	-13.4313
▁'}',	-13.433
▁($('#	-13.433
▁())[	-13.433
▁875	-13.433
▁disclaimer	-13.433
▁{"",	-13.433
▁。"	-13.433
▁las	-13.4346
▁seeded	-13.4346
▁){}	-13.4362
▁030	-13.4362
▁remediation	-13.4362
▁1600	-13.4378
▁534	-13.4378
▁contamination	-13.4378
▁qualify	-13.4378
▁sweet	-13.4378
▁}(),	-13.4378
▁;');	-13.4395
▁='')	-13.4395
▁])}	-13.4395
▁calculating	-13.4395
▁ignition	-13.4395
▁martin	-13.4395
▁respectively	-13.4395
▁weasel	-13.4395
▁"]')	-13.4411
▁'|'	-13.4411
▁'₪',	-13.4411
▁1996	-13.4411
▁cherry	-13.4411
▁formal	-13.4411
▁rated	-13.4411
▁”	-13.4411
▁"))));	-13.4427
▁']])	-13.4427
▁adopt	-13.4427
▁honor	-13.4427
▁mike	-13.4427
▁'₫',	-13.4444
▁(:[]).	-13.4444
▁invulnerable	-13.4444
▁redact	-13.4444
▁relax	-13.4444
▁tight	-13.4444
▁waker	-13.4444
▁/'.$	-13.446
▁025	-13.446
▁8814	-13.446
▁panama	-13.446
▁sneaky	-13.446
▁vuln	-13.446
▁#########	-13.4476
▁'..'	-13.4476
▁'₩',	-13.4476
▁connectable	-13.4476
▁inactivity	-13.4476
▁lay	-13.4476
▁<*>.	-13.4493
▁>>;	-13.4493
▁>>>,	-13.4493
▁[...	-13.4493
▁],\	-13.4493
▁heuristic	-13.4493
▁typer	-13.4493
▁wood	-13.4493
▁worst	-13.4493
▁{...}	-13.4493
▁executive	-13.4509
▁translucent	-13.4509
▁0004	-13.4526
▁?>()	-13.4526
▁hound	-13.4526
▁said	-13.4526
▁1985	-13.4542
▁=:=	-13.4542
▁buddy	-13.4542
▁contribute	-13.4542
▁dar	-13.4542
▁education	-13.4542
▁slog	-13.4542
▁axe	-13.4559
▁divided	-13.4559
▁flavour	-13.4559
▁rider	-13.4559
▁sir	-13.4559
▁sma	-13.4559
▁spill	-13.4559
▁spooky	-13.4559
▁ো	-13.4559
▁()``	-13.4576
▁7000	-13.4576
▁agreed	-13.4576
▁parametric	-13.4576
▁serf	-13.4576
▁yearly	-13.4576
▁'!	-13.4592
▁1980	-13.4592
▁258	-13.4592
▁comic	-13.4592
▁zipper	-13.4592
▁#'	-13.4609
▁))"	-13.4609
▁:";	-13.4609
▁prosody	-13.4609
▁zo	-13.4609
▁}-\	-13.4609
▁ು	-13.4609
▁"---	-13.4626
▁"/../	-13.4626
▁0010	-13.4626
▁[@]}"	-13.4626
▁coconut	-13.4626
▁fringe	-13.4626
▁rematch	-13.4626
▁tonic	-13.4626
▁("|	-13.4642
▁----------------------------------------------------------------------------	-13.4642
▁algor	-13.4642
▁biometric	-13.4642
▁blind	-13.4642
▁pluralization	-13.4642
▁resistance	-13.4642
▁technique	-13.4642
▁")})	-13.4659
▁1986	-13.4659
▁1997	-13.4659
▁dotless	-13.4659
▁involved	-13.4659
▁"}',	-13.4676
▁+/,	-13.4676
▁2028	-13.4676
▁80000	-13.4676
▁[`${	-13.4676
▁]]](	-13.4676
▁fireproof	-13.4676
▁mutability	-13.4676
▁specifically	-13.4676
▁",)	-13.4693
▁";"	-13.4693
▁]').	-13.4693
▁comfortable	-13.4693
▁depthwise	-13.4693
▁grass	-13.4693
▁motor	-13.4693
▁pretend	-13.4693
▁supposed	-13.4693
▁]<<	-13.4709
▁kan	-13.4709
▁pointing	-13.4709
▁'<'	-13.4726
▁364	-13.4726
▁\"");	-13.4726
▁colorable	-13.4726
▁continent	-13.4726
▁frequent	-13.4726
▁knapsack	-13.4726
▁resident	-13.4726
▁spacy	-13.4726
▁}/.	-13.4726
▁>${	-13.4743
▁busted	-13.4743
▁feather	-13.4743
▁lime	-13.4743
▁silently	-13.4743
▁steal	-13.4743
▁zinc	-13.4743
▁expanding	-13.476
▁externals	-13.476
▁isle	-13.476
▁separately	-13.476
▁}>{	-13.476
▁"&#	-13.4777
▁(%[	-13.4777
▁chord	-13.4777
▁maria	-13.4777
▁spinal	-13.4777
▁'$',	-13.4794
▁277	-13.4794
▁fair	-13.4794
▁sandwich	-13.4794
▁workbox	-13.4794
▁#!	-13.4811
▁':')	-13.4811
▁1992	-13.4811
▁=)	-13.4811
▁]');	-13.4811
▁fiscal	-13.4811
▁probabilistic	-13.4811
▁unselected	-13.4811
▁{}]	-13.4811
▁}%	-13.4811
▁"?"	-13.4828
▁'{{%	-13.4828
▁)';	-13.4828
▁{{/	-13.4828
▁=',	-13.4845
▁glass	-13.4845
▁living	-13.4845
▁slows	-13.4845
▁"]').	-13.4862
▁$:	-13.4862
▁)}/	-13.4862
▁1010	-13.4862
▁annotator	-13.4862
▁august	-13.4862
▁polled	-13.4862
▁"##	-13.4879
▁=>{	-13.4879
▁]||	-13.4879
▁`},	-13.4879
▁causing	-13.4879
▁expense	-13.4879
▁plotting	-13.4879
▁synchronously	-13.4879
▁":",	-13.4896
▁293	-13.4896
▁://$	-13.4896
▁falling	-13.4896
▁rare	-13.4896
▁})\	-13.4896
▁ာ	-13.4896
▁1252	-13.4914
▁334	-13.4914
▁370	-13.4914
▁8327	-13.4914
▁[".	-13.4914
▁|@	-13.4914
▁"#"	-13.4931
▁"]"	-13.4931
▁'฿',	-13.4931
▁357	-13.4931
▁aside	-13.4931
▁claro	-13.4931
▁flock	-13.4931
▁kitten	-13.4948
▁readability	-13.4948
▁worked	-13.4948
▁[]],	-13.4965
▁inform	-13.4965
▁performer	-13.4965
▁preparer	-13.4965
▁punctuator	-13.4965
▁querier	-13.4965
▁strictness	-13.4965
▁typesetter	-13.4965
▁}'",	-13.4965
▁')}"	-13.4982
▁/>',	-13.4982
▁272	-13.4982
▁batman	-13.4982
▁$:.	-13.5
▁oes	-13.5
▁reimbursement	-13.5
▁swashbuckle	-13.5
▁"-//	-13.5017
▁("/{	-13.5017
▁|#	-13.5017
▁('/').	-13.5035
▁)**	-13.5035
▁415	-13.5035
▁[{{},	-13.5035
▁dropping	-13.5035
▁radii	-13.5035
▁sake	-13.5035
▁subtotal	-13.5035
▁}=",	-13.5035
▁":"","	-13.5052
▁coercer	-13.5052
▁parking	-13.5052
▁sand	-13.5052
▁်',	-13.5052
▁.*,	-13.5069
▁332	-13.5069
▁adaptation	-13.5069
▁cleave	-13.5069
▁japan	-13.5069
▁nock	-13.5069
▁revive	-13.5069
▁''):	-13.5087
▁(">	-13.5087
▁().(*	-13.5087
▁auditor	-13.5087
▁gross	-13.5087
▁killer	-13.5087
▁...]	-13.5104
▁gauss	-13.5104
▁pooler	-13.5104
▁towards	-13.5104
▁%>(:	-13.5122
▁337	-13.5122
▁??=	-13.5122
▁],"	-13.5122
▁nightly	-13.5122
▁stun	-13.5122
▁°	-13.5122
▁́'	-13.5122
▁*)((	-13.5139
▁**)&	-13.5139
▁-------------------------------------------------------------------------------------------------	-13.5139
▁306	-13.5139
▁@$	-13.5139
▁affix	-13.5139
▁kitchen	-13.5139
▁summon	-13.5139
▁['<?	-13.5157
▁compositor	-13.5157
▁deformer	-13.5157
▁)}(	-13.5175
▁043	-13.5175
▁601	-13.5175
▁901	-13.5175
▁bought	-13.5175
▁haven	-13.5175
▁hooked	-13.5175
▁journey	-13.5175
▁("...	-13.5192
▁(&["	-13.5192
▁027	-13.5192
▁1023	-13.5192
▁271	-13.5192
▁engineering	-13.5192
▁reify	-13.5192
▁scrum	-13.5192
▁"=",	-13.521
▁="")	-13.521
▁\\\	-13.521
▁behemoth	-13.521
▁curse	-13.521
▁traditional	-13.521
▁27017	-13.5228
▁315	-13.5228
▁="">	-13.5228
▁enforcement	-13.5228
▁oil	-13.5228
▁stylet	-13.5228
▁wear	-13.5228
▁['{	-13.5245
▁cent	-13.5245
▁pretrain	-13.5245
▁್',	-13.5245
▁00000000000000000000000000000000	-13.5263
▁holiday	-13.5263
▁marginal	-13.5263
▁nimbus	-13.5263
▁spectral	-13.5263
▁।',	-13.5263
▁"}.	-13.5281
▁']},	-13.5281
▁2345	-13.5281
▁blip	-13.5281
▁irrelevant	-13.5281
▁janitor	-13.5281
▁symmetrical	-13.5281
▁vincent	-13.5281
▁(/#{	-13.5299
▁/{$	-13.5299
▁cobalt	-13.5299
▁mae	-13.5299
▁manipulate	-13.5299
▁spitter	-13.5299
▁'."	-13.5317
▁'?',	-13.5317
▁292	-13.5317
▁324	-13.5317
▁mot	-13.5317
▁mover	-13.5317
▁reassign	-13.5317
▁(':',	-13.5335
▁['%	-13.5335
▁correspond	-13.5335
▁everywhere	-13.5335
▁"*")	-13.5353
▁034	-13.5353
▁372	-13.5353
▁[::-	-13.5353
▁])));	-13.5353
▁aft	-13.5353
▁candy	-13.5353
▁consist	-13.5353
▁punct	-13.5353
▁surround	-13.5353
▁thrifty	-13.5353
▁{}"	-13.5353
▁'#',	-13.5371
▁(''	-13.5371
▁062	-13.5371
▁1983	-13.5371
▁2029	-13.5371
▁>>/	-13.5371
▁[[],	-13.5371
▁'"')	-13.5389
▁).(*	-13.5389
▁021	-13.5389
▁268	-13.5389
▁bunch	-13.5389
▁'∞',	-13.5407
▁----------------------------------------------------------	-13.5407
▁-----\	-13.5407
▁018	-13.5407
▁200000	-13.5407
▁416	-13.5407
▁]}")	-13.5407
▁compo	-13.5407
▁silex	-13.5407
▁unpin	-13.5407
▁[:],	-13.5425
▁\":[{\"	-13.5425
▁bear	-13.5425
▁collator	-13.5425
▁rapid	-13.5425
▁taker	-13.5425
▁ෙ	-13.5425
▁267	-13.5443
▁9080	-13.5443
▁9200	-13.5443
▁:"))	-13.5443
▁?");	-13.5443
▁"{}"	-13.5461
▁#-}	-13.5461
▁("<?	-13.5461
▁((((	-13.5461
▁`}	-13.5461
▁keel	-13.5461
▁obsessive	-13.5461
▁ultimate	-13.5461
▁viewable	-13.5461
▁్',	-13.5461
▁%(<	-13.5479
▁")("	-13.5497
▁)."	-13.5497
▁-------------------------------------	-13.5497
▁531	-13.5497
▁9081	-13.5497
▁eliminate	-13.5497
▁enclosure	-13.5497
▁horse	-13.5497
▁pound	-13.5497
▁tai	-13.5497
▁428	-13.5515
▁decider	-13.5515
▁orchestration	-13.5515
▁poke	-13.5515
▁!~	-13.5534
▁().'/	-13.5534
▁/../	-13.5534
▁://'	-13.5534
▁://{	-13.5534
▁crazy	-13.5534
▁.);	-13.5552
▁ham	-13.5552
▁listable	-13.5552
▁mille	-13.5552
▁reviewer	-13.5552
▁ີ	-13.5552
▁"}})	-13.557
▁('.');	-13.557
▁('|',	-13.557
▁[]}	-13.557
▁buffalo	-13.557
▁separable	-13.557
▁sett	-13.557
▁vibrate	-13.557
▁'‰',	-13.5589
▁)>,	-13.5589
▁987	-13.5589
▁]`,	-13.5589
▁agile	-13.5589
▁arrangement	-13.5589
▁fiction	-13.5589
▁guardian	-13.5589
▁}-#{	-13.5589
▁}.")	-13.5589
▁'<%=	-13.5607
▁him	-13.5607
▁pepper	-13.5607
▁unmodified	-13.5607
▁5280	-13.5626
▁[::	-13.5626
▁cylinder	-13.5626
▁rehash	-13.5626
▁unclosed	-13.5626
▁~~	-13.5626
▁‘	-13.5626
▁'"),	-13.5644
▁642	-13.5644
▁]}/	-13.5644
▁bookkeeper	-13.5644
▁essential	-13.5644
▁learned	-13.5644
▁postmaster	-13.5644
▁snafu	-13.5644
▁vex	-13.5644
▁}-${	-13.5644
▁!';	-13.5663
▁517	-13.5663
▁:"\\	-13.5663
▁chisel	-13.5663
▁cuboid	-13.5663
▁duty	-13.5663
▁sherlock	-13.5663
▁{<	-13.5663
▁"-")	-13.5681
▁'").	-13.5681
▁([['	-13.5681
▁--,	-13.5681
▁>$	-13.5681
▁collective	-13.5681
▁deadlock	-13.5681
▁mountain	-13.5681
▁playable	-13.5681
▁propagator	-13.5681
▁")",	-13.57
▁02219	-13.57
▁1591	-13.57
▁796033	-13.57
▁](),	-13.57
▁agree	-13.57
▁downcast	-13.57
▁oat	-13.57
▁$#	-13.5718
▁'}).	-13.5718
▁.@	-13.5718
▁0400	-13.5718
▁borer	-13.5718
▁franc	-13.5718
▁positioned	-13.5718
▁reskin	-13.5718
▁ride	-13.5718
▁}::	-13.5718
▁}}"></	-13.5718
▁']"	-13.5737
▁6584	-13.5737
▁]==	-13.5737
▁afternoon	-13.5737
▁joy	-13.5737
▁milk	-13.5737
▁practice	-13.5737
▁sponsorship	-13.5737
▁stepper	-13.5737
▁「	-13.5737
▁"/#{	-13.5756
▁039	-13.5756
▁1920	-13.5756
▁]={	-13.5756
▁bluebird	-13.5756
▁simp	-13.5756
▁>{$	-13.5774
▁\`	-13.5774
▁]")]	-13.5774
▁affiliation	-13.5774
▁chandu	-13.5774
▁oasis	-13.5774
▁octave	-13.5774
▁quickly	-13.5774
▁sleeper	-13.5774
▁trackable	-13.5774
▁).`	-13.5793
▁.."/	-13.5793
▁259	-13.5793
▁civic	-13.5793
▁kingpin	-13.5793
▁"+"	-13.5812
▁650	-13.5812
▁:{"	-13.5812
▁="<	-13.5812
▁='\	-13.5812
▁anchored	-13.5812
▁dingo	-13.5812
▁enchant	-13.5812
▁quis	-13.5812
▁sharable	-13.5812
▁speak	-13.5812
▁}}">{{	-13.5812
▁""}	-13.5831
▁269	-13.5831
▁filling	-13.5831
▁posterior	-13.5831
▁')['	-13.5849
▁)($	-13.5849
▁1987	-13.5849
▁?`	-13.5849
▁clockwork	-13.5849
▁lightness	-13.5849
▁"~	-13.5868
▁'"%	-13.5868
▁'₹',	-13.5868
▁alembic	-13.5868
▁deduplication	-13.5868
▁diesel	-13.5868
▁dynamics	-13.5868
▁growable	-13.5868
▁josh	-13.5868
▁unfold	-13.5868
▁unprocessed	-13.5868
▁{!	-13.5868
▁ี่	-13.5868
▁)~((	-13.5887
▁coo	-13.5887
▁proofer	-13.5887
▁steep	-13.5887
▁)?,	-13.5906
▁804	-13.5906
▁creature	-13.5906
▁displayer	-13.5906
▁fight	-13.5906
▁karma	-13.5906
▁settled	-13.5906
▁symptom	-13.5906
▁')</	-13.5925
▁approximately	-13.5925
▁bra	-13.5925
▁foundry	-13.5925
▁grit	-13.5925
▁hence	-13.5925
▁idiom	-13.5925
▁lamb	-13.5925
▁quay	-13.5925
▁softly	-13.5925
▁voyage	-13.5925
▁(',');	-13.5944
▁322	-13.5944
▁=[[	-13.5944
▁><!--	-13.5944
▁inversed	-13.5944
▁mary	-13.5944
▁''')	-13.5963
▁hundred	-13.5963
▁ٖ	-13.5963
▁'}},	-13.5982
▁(:'	-13.5982
▁289	-13.5982
▁=>{:	-13.5982
▁displayable	-13.5982
▁introduce	-13.5982
▁leet	-13.5982
▁plex	-13.5982
▁skal	-13.5982
▁pear	-13.6002
▁worth	-13.6002
▁("{}",	-13.6021
▁('.$	-13.6021
▁alien	-13.6021
▁knight	-13.6021
▁rotating	-13.6021
▁transistor	-13.6021
▁"](	-13.604
▁%}{%	-13.604
▁':',	-13.604
▁'>"	-13.604
▁'}}	-13.604
▁fader	-13.604
▁kat	-13.604
▁lots	-13.604
▁noon	-13.604
▁stocks	-13.604
▁&*	-13.6059
▁::*)(	-13.6059
▁deva	-13.6059
▁dilate	-13.6059
▁repeater	-13.6059
▁--$	-13.6078
▁:".	-13.6078
▁[{:	-13.6078
▁aurelia	-13.6078
▁champ	-13.6078
▁cream	-13.6078
▁shanghai	-13.6078
▁}}")	-13.6078
▁('"')	-13.6098
▁())(	-13.6098
▁+=(	-13.6098
▁1991	-13.6098
▁612	-13.6098
▁approver	-13.6098
▁bookshelf	-13.6098
▁declarator	-13.6098
▁palindrome	-13.6098
▁}'],	-13.6098
▁!({	-13.6117
▁761	-13.6117
▁=")	-13.6117
▁flagger	-13.6117
▁highway	-13.6117
▁reputation	-13.6117
▁scabbard	-13.6117
▁~/	-13.6117
▁344	-13.6137
▁finishing	-13.6137
▁ranger	-13.6137
▁spectrum	-13.6137
▁!(@	-13.6156
▁"!==	-13.6156
▁")");	-13.6156
▁$/)	-13.6156
▁'-';	-13.6156
▁()?	-13.6156
▁057	-13.6156
▁636	-13.6156
▁donation	-13.6156
▁'>',	-13.6175
▁1123	-13.6175
▁accessory	-13.6175
▁collide	-13.6175
▁distant	-13.6175
▁intangible	-13.6175
▁kinetics	-13.6175
▁repetition	-13.6175
▁river	-13.6175
▁།',	-13.6175
▁""):	-13.6195
▁'#/	-13.6195
▁("*",	-13.6195
▁(",").	-13.6195
▁('.').	-13.6195
▁(("%	-13.6195
▁).(	-13.6195
▁)<	-13.6195
▁>(*	-13.6195
▁displacement	-13.6195
▁hire	-13.6195
▁typo	-13.6195
▁"()	-13.6215
▁",),	-13.6215
▁'\\',	-13.6215
▁["<	-13.6215
▁clockwise	-13.6215
▁hup	-13.6215
▁observability	-13.6215
▁pollable	-13.6215
▁!!!	-13.6234
▁"}");	-13.6234
▁topological	-13.6234
▁wraith	-13.6234
▁040	-13.6254
▁='#{	-13.6254
▁[]){	-13.6254
▁analogue	-13.6254
▁drink	-13.6254
▁gat	-13.6254
▁inductive	-13.6254
▁violate	-13.6254
▁2312	-13.6273
▁343	-13.6273
▁almond	-13.6273
▁excess	-13.6273
▁lightweight	-13.6273
▁olm	-13.6273
▁rooted	-13.6273
▁sacred	-13.6273
▁yielding	-13.6273
▁",\	-13.6293
▁``"	-13.6293
▁civil	-13.6293
▁evening	-13.6293
▁june	-13.6293
▁roaming	-13.6293
▁"{%	-13.6313
▁##########	-13.6313
▁descend	-13.6313
▁flair	-13.6313
▁freedom	-13.6313
▁preact	-13.6313
▁swatch	-13.6313
▁ugly	-13.6313
▁32767	-13.6333
▁homogeneous	-13.6333
▁lottery	-13.6333
▁wit	-13.6333
▁![];	-13.6352
▁"|"	-13.6352
▁'$'	-13.6352
▁(,	-13.6352
▁/"),	-13.6352
▁1003	-13.6352
▁274	-13.6352
▁309	-13.6352
▁311	-13.6352
▁417	-13.6352
▁soldier	-13.6352
▁ੀ	-13.6352
▁""""	-13.6372
▁"&&	-13.6372
▁('../../../../../	-13.6372
▁crumb	-13.6372
▁skey	-13.6372
▁}}');	-13.6372
▁755	-13.6392
▁?>,	-13.6392
▁gene	-13.6392
▁impulse	-13.6392
▁locust	-13.6392
▁reissue	-13.6392
▁superscript	-13.6392
▁)*):	-13.6412
▁019	-13.6412
▁276	-13.6412
▁342	-13.6412
▁[\"	-13.6412
▁bow	-13.6412
▁}/)	-13.6412
▁"<"	-13.6432
▁("/");	-13.6432
▁0000000	-13.6432
▁="""	-13.6432
▁manifold	-13.6432
▁planar	-13.6432
▁warmer	-13.6432
▁'|	-13.6452
▁941	-13.6452
▁bankera	-13.6452
▁loge	-13.6452
▁switched	-13.6452
▁("--%	-13.6472
▁vinyl	-13.6472
▁}`.	-13.6472
▁"%.	-13.6492
▁]#	-13.6492
▁exploded	-13.6492
▁mop	-13.6492
▁()!!.	-13.6512
▁-$(	-13.6512
▁1090	-13.6512
▁=#	-13.6512
▁men	-13.6512
▁retail	-13.6512
▁sham	-13.6512
▁spine	-13.6512
▁}').	-13.6512
▁**{	-13.6533
▁-----------	-13.6533
▁...);	-13.6533
▁}""".	-13.6533
▁../	-13.6553
▁354	-13.6553
▁brin	-13.6553
▁lockable	-13.6553
▁swizzle	-13.6553
▁407	-13.6573
▁4326	-13.6573
▁5432	-13.6573
▁seem	-13.6573
▁vie	-13.6573
▁!();	-13.6593
▁(")	-13.6593
▁]][	-13.6593
▁leverage	-13.6593
▁pasteboard	-13.6593
▁}}]	-13.6593
▁"/></	-13.6614
▁'{%	-13.6614
▁)<<	-13.6614
▁279	-13.6614
▁615	-13.6614
▁='{	-13.6614
▁@%	-13.6614
▁county	-13.6614
▁regress	-13.6614
▁siren	-13.6614
▁|//	-13.6614
▁」	-13.6614
▁###################	-13.6634
▁']"}),	-13.6634
▁(`<	-13.6634
▁278	-13.6634
▁checkstring	-13.6634
▁dominant	-13.6634
▁gip	-13.6634
▁inhibit	-13.6634
▁kebab	-13.6634
▁panoptic	-13.6634
▁regulatory	-13.6634
▁trick	-13.6634
▁1333	-13.6655
▁711	-13.6655
▁:{},	-13.6655
▁beaker	-13.6655
▁cone	-13.6655
▁disruption	-13.6655
▁frontier	-13.6655
▁gleam	-13.6655
▁orthogonal	-13.6655
▁spherical	-13.6655
▁'<',	-13.6675
▁)"));	-13.6675
▁]]])	-13.6675
▁extender	-13.6675
▁florent	-13.6675
▁icicle	-13.6675
▁mali	-13.6675
▁multiplicative	-13.6675
▁pour	-13.6675
▁thick	-13.6675
▁triangular	-13.6675
▁!"),	-13.6696
▁+)\	-13.6696
▁644	-13.6696
▁cod	-13.6696
▁hope	-13.6696
▁quo	-13.6696
▁(<<~'	-13.6716
▁40000	-13.6716
▁?";	-13.6716
▁])):	-13.6716
▁amber	-13.6716
▁collaborator	-13.6716
▁dimensionality	-13.6716
▁dwarf	-13.6716
▁ecosystem	-13.6716
▁grandchild	-13.6716
▁pastel	-13.6716
▁pun	-13.6716
▁&>(	-13.6737
▁(\\	-13.6737
▁667	-13.6737
▁acid	-13.6737
▁industrial	-13.6737
▁ingestion	-13.6737
▁ridge	-13.6737
▁syndication	-13.6737
▁"=>{"	-13.6757
▁'':	-13.6757
▁380	-13.6757
▁620	-13.6757
▁>#{	-13.6757
▁accumulation	-13.6757
▁deformable	-13.6757
▁dragged	-13.6757
▁thunder	-13.6757
▁.###',	-13.6778
▁286	-13.6778
▁7200	-13.6778
▁=!!	-13.6778
▁`%<	-13.6778
▁capped	-13.6778
▁divergence	-13.6778
▁fabricate	-13.6778
▁lis	-13.6778
▁optic	-13.6778
▁ི	-13.6778
▁!(&	-13.6799
▁)`.	-13.6799
▁*).	-13.6799
▁combining	-13.6799
▁uncovered	-13.6799
▁"%"	-13.682
▁((!	-13.682
▁934	-13.682
▁['<	-13.682
▁abandon	-13.682
▁backtrack	-13.682
▁bipartite	-13.682
▁bis	-13.682
▁pup	-13.682
▁territory	-13.682
▁")',	-13.684
▁("'",	-13.684
▁(',').	-13.684
▁*'	-13.684
▁.*")	-13.684
▁administrative	-13.684
▁correctness	-13.684
▁gettable	-13.684
▁medicine	-13.684
▁strange	-13.684
▁|)	-13.684
▁("\$	-13.6861
▁('>	-13.6861
▁(`\	-13.6861
▁)))).	-13.6861
▁1440	-13.6861
▁566	-13.6861
▁:\"	-13.6861
▁intelligence	-13.6861
▁microphone	-13.6861
▁offensive	-13.6861
▁republic	-13.6861
▁smoother	-13.6861
▁warrior	-13.6861
▁"{{.	-13.6882
▁)~	-13.6882
▁foreman	-13.6882
▁investigation	-13.6882
▁rear	-13.6882
▁resumable	-13.6882
▁wither	-13.6882
▁("*.	-13.6903
▁...');	-13.6903
▁/###	-13.6903
▁803	-13.6903
▁\".	-13.6903
▁chatter	-13.6903
▁nam	-13.6903
▁418	-13.6924
▁;&#	-13.6924
▁decompression	-13.6924
▁frameless	-13.6924
▁hungry	-13.6924
▁thought	-13.6924
▁!("{:?}",	-13.6945
▁'*')	-13.6945
▁625	-13.6945
▁informative	-13.6945
▁pebble	-13.6945
▁reaching	-13.6945
▁rogue	-13.6945
▁shipped	-13.6945
▁1989	-13.6966
▁622	-13.6966
▁porto	-13.6966
▁representative	-13.6966
▁silenced	-13.6966
▁'){	-13.6987
▁',)	-13.6987
▁*:	-13.6987
▁291	-13.6987
▁784	-13.6987
▁=()	-13.6987
▁disjunction	-13.6987
▁emission	-13.6987
▁lion	-13.6987
▁quite	-13.6987
▁="#">	-13.7008
▁="#{	-13.7008
▁interference	-13.7008
▁jeweler	-13.7008
▁skiff	-13.7008
▁sword	-13.7008
▁ီ	-13.7008
▁$;	-13.703
▁commitment	-13.703
▁locomotive	-13.703
▁(","))	-13.7051
▁298	-13.7051
▁421	-13.7051
▁678	-13.7051
▁although	-13.7051
▁governing	-13.7051
▁interruption	-13.7051
▁statically	-13.7051
▁?>',	-13.7072
▁]();	-13.7072
▁acute	-13.7072
▁conter	-13.7072
▁dob	-13.7072
▁outsize	-13.7072
▁vacancy	-13.7072
▁)","	-13.7094
▁backer	-13.7094
▁kite	-13.7094
▁lucky	-13.7094
▁pointed	-13.7094
▁">=	-13.7115
▁(*,	-13.7115
▁/"))	-13.7115
▁analytic	-13.7115
▁fen	-13.7115
▁goon	-13.7115
▁stuck	-13.7115
▁unrelated	-13.7115
▁unscheduled	-13.7115
▁|%	-13.7115
▁')}}</	-13.7136
▁)(((	-13.7136
▁,<	-13.7136
▁499	-13.7136
▁arrival	-13.7136
▁cave	-13.7136
▁fixing	-13.7136
▁hydration	-13.7136
▁maroon	-13.7136
▁overtime	-13.7136
▁passage	-13.7136
▁subtraction	-13.7136
▁",-	-13.7158
▁$($	-13.7158
▁'(',	-13.7158
▁(%%	-13.7158
▁)':	-13.7158
▁))/	-13.7158
▁**:	-13.7158
▁...).	-13.7158
▁781	-13.7158
▁9090	-13.7158
▁disassemble	-13.7158
▁drill	-13.7158
▁examine	-13.7158
▁governor	-13.7158
▁inquirer	-13.7158
▁ordinary	-13.7158
▁scissor	-13.7158
▁thingy	-13.7158
▁—	-13.7158
▁(/(	-13.7179
▁331	-13.7179
▁4567	-13.7179
▁clearer	-13.7179
▁eastern	-13.7179
▁genotype	-13.7179
▁phrasing	-13.7179
▁severe	-13.7179
▁swallow	-13.7179
▁')',	-13.7201
▁]</	-13.7201
▁^{	-13.7201
▁finance	-13.7201
▁servant	-13.7201
▁steady	-13.7201
▁}]",	-13.7201
▁(["--	-13.7223
▁15000	-13.7223
▁285	-13.7223
▁=[$	-13.7223
▁fulfill	-13.7223
▁reverb	-13.7223
▁standardized	-13.7223
▁(/[	-13.7244
▁)".	-13.7244
▁bunny	-13.7244
▁explainer	-13.7244
▁hill	-13.7244
▁rufus	-13.7244
▁sublime	-13.7244
▁483	-13.7266
▁:]:	-13.7266
▁()!!	-13.7288
▁/"+	-13.7288
▁0005	-13.7288
▁951	-13.7288
▁blizzard	-13.7288
▁infallible	-13.7288
▁junction	-13.7288
▁puck	-13.7288
▁recur	-13.7288
▁speculative	-13.7288
▁twenty	-13.7288
▁ultra	-13.7288
▁'=')	-13.731
▁)!!.	-13.731
▁.'/'.$	-13.731
▁2046	-13.731
▁905	-13.731
▁:`"	-13.731
▁``:	-13.731
▁settle	-13.731
▁turbine	-13.731
▁})#	-13.731
▁'}],	-13.7331
▁356	-13.7331
▁>>::	-13.7331
▁[]>();	-13.7331
▁adjective	-13.7331
▁bas	-13.7331
▁compactor	-13.7331
▁cracker	-13.7331
▁pict	-13.7331
▁rant	-13.7331
▁rub	-13.7331
▁sigh	-13.7331
▁sil	-13.7331
▁'...'	-13.7353
▁))")	-13.7353
▁->{	-13.7353
▁283	-13.7353
▁graphical	-13.7353
▁spaced	-13.7353
▁!!}</	-13.7375
▁"].(	-13.7375
▁295	-13.7375
▁505	-13.7375
▁])],	-13.7375
▁destructive	-13.7375
▁specificity	-13.7375
▁ೆ	-13.7375
▁?),	-13.7397
▁\\'	-13.7397
▁flawed	-13.7397
▁mango	-13.7397
▁ubi	-13.7397
▁{"#	-13.7397
▁#|	-13.7419
▁("..	-13.7419
▁1988	-13.7419
▁goo	-13.7419
▁grip	-13.7419
▁inflated	-13.7419
▁informational	-13.7419
▁leftover	-13.7419
▁ribble	-13.7419
▁',')	-13.7441
▁(([	-13.7441
▁(/<	-13.7441
▁)!=	-13.7441
▁)..	-13.7441
▁---------------------------------------------------------------------------	-13.7441
▁281	-13.7441
▁:'"',	-13.7441
▁;-	-13.7441
▁>"),	-13.7441
▁ach	-13.7441
▁kiwi	-13.7441
▁otto	-13.7441
▁perhaps	-13.7441
▁phoenix	-13.7441
▁pyre	-13.7441
▁quint	-13.7441
▁ို	-13.7441
▁"((	-13.7464
▁",(	-13.7464
▁"../../../../	-13.7464
▁#####################################################	-13.7464
▁charting	-13.7464
▁gathering	-13.7464
▁provenance	-13.7464
▁"[]",	-13.7486
▁:"#	-13.7486
▁=).	-13.7486
▁difficult	-13.7486
▁dolphin	-13.7486
▁pyroscope	-13.7486
▁serpent	-13.7486
▁('\\	-13.7508
▁2030	-13.7508
▁346	-13.7508
▁408	-13.7508
▁840	-13.7508
▁mordant	-13.7508
▁smile	-13.7508
▁[");	-13.753
▁additionally	-13.753
▁collapsible	-13.753
▁fifteen	-13.753
▁flashlight	-13.753
▁organized	-13.753
▁slap	-13.753
▁themselves	-13.753
▁tiling	-13.753
▁unveil	-13.753
▁"...	-13.7553
▁..'	-13.7553
▁323	-13.7553
▁686	-13.7553
▁>').	-13.7553
▁holy	-13.7553
▁prerequisite	-13.7553
▁shaded	-13.7553
▁titanium	-13.7553
▁"@"	-13.7575
▁################################################################################	-13.7575
▁(")");	-13.7575
▁('*	-13.7575
▁,"\	-13.7575
▁.").	-13.7575
▁.*.	-13.7575
▁282	-13.7575
▁500000	-13.7575
▁:`(	-13.7575
▁[]...	-13.7575
▁drunkard	-13.7575
▁industry	-13.7575
▁lighten	-13.7575
▁weakly	-13.7575
▁|`	-13.7575
▁ે	-13.7575
▁"}\	-13.7597
▁1984	-13.7597
▁423	-13.7597
▁906	-13.7597
▁950	-13.7597
▁basically	-13.7597
▁bell	-13.7597
▁chucker	-13.7597
▁crap	-13.7597
▁freed	-13.7597
▁helmet	-13.7597
▁quotation	-13.7597
▁templater	-13.7597
▁undeclared	-13.7597
▁432	-13.762
▁548	-13.762
▁?("#{	-13.762
▁[.	-13.762
▁entitlement	-13.762
▁equivalency	-13.762
▁fading	-13.762
▁parallax	-13.762
▁submarine	-13.762
▁trumpet	-13.762
▁unexpectedly	-13.762
▁...),	-13.7643
▁029	-13.7643
▁abandoned	-13.7643
▁alphabetic	-13.7643
▁arbiter	-13.7643
▁ate	-13.7643
▁confirming	-13.7643
▁poker	-13.7643
▁sail	-13.7643
▁sierra	-13.7643
▁"/";	-13.7665
▁376	-13.7665
▁508	-13.7665
▁[:'	-13.7665
▁unresolvable	-13.7665
▁virgin	-13.7665
▁!=="	-13.7688
▁'<~	-13.7688
▁)[-	-13.7688
▁2147483648	-13.7688
▁485	-13.7688
▁]"))	-13.7688
▁blast	-13.7688
▁jam	-13.7688
▁licensee	-13.7688
▁predecessor	-13.7688
▁recompose	-13.7688
▁}}`,	-13.7688
▁"'");	-13.771
▁/").	-13.771
▁;}.	-13.771
▁`("	-13.771
▁aba	-13.771
▁admiral	-13.771
▁advised	-13.771
▁equalizer	-13.771
▁nap	-13.771
▁pico	-13.771
▁retract	-13.771
▁sole	-13.771
▁wired	-13.771
▁-⚬	-13.7733
▁conch	-13.7733
▁dance	-13.7733
▁economic	-13.7733
▁'][:	-13.7756
▁)/(	-13.7756
▁056	-13.7756
▁294	-13.7756
▁]||(	-13.7756
▁rubber	-13.7756
▁}:\	-13.7756
▁accelerated	-13.7779
▁celery	-13.7779
▁costa	-13.7779
▁killing	-13.7779
▁lantern	-13.7779
▁tome	-13.7779
▁tundra	-13.7779
▁}')).	-13.7779
▁)(\\	-13.7802
▁)...)	-13.7802
▁)}:	-13.7802
▁1048576	-13.7802
▁958	-13.7802
▁crossing	-13.7802
▁exempt	-13.7802
▁freezer	-13.7802
▁interstitial	-13.7802
▁pend	-13.7802
▁transforming	-13.7802
▁"}'	-13.7825
▁("!	-13.7825
▁(`{	-13.7825
▁)(*	-13.7825
▁,"%	-13.7825
▁339	-13.7825
▁672	-13.7825
▁>()))	-13.7825
▁@{	-13.7825
▁[...]	-13.7825
▁automaton	-13.7825
▁centrifuge	-13.7825
▁interruptible	-13.7825
▁sap	-13.7825
▁tombstone	-13.7825
▁vast	-13.7825
▁"%{	-13.7848
▁"'",	-13.7848
▁'!'	-13.7848
▁).'/'.	-13.7848
▁023	-13.7848
▁395	-13.7848
▁;')	-13.7848
▁\"><	-13.7848
▁`]:	-13.7848
▁actuator	-13.7848
▁efficiently	-13.7848
▁flushing	-13.7848
▁progression	-13.7848
▁tut	-13.7848
▁unsatisfied	-13.7848
▁")\	-13.7871
▁(!*	-13.7871
▁)))(	-13.7871
▁0003	-13.7871
▁530	-13.7871
▁]}",	-13.7871
▁chocolate	-13.7871
▁daylight	-13.7871
▁mandate	-13.7871
▁rebound	-13.7871
▁shirt	-13.7871
▁transcription	-13.7871
▁unterminated	-13.7871
▁}":	-13.7871
▁})},	-13.7871
▁":")	-13.7894
▁.)',	-13.7894
▁2034	-13.7894
▁297	-13.7894
▁decreasing	-13.7894
▁emulation	-13.7894
▁lord	-13.7894
▁observing	-13.7894
▁parapet	-13.7894
▁redistribution	-13.7894
▁thousand	-13.7894
▁touching	-13.7894
▁vet	-13.7894
▁!=(	-13.7917
▁560	-13.7917
▁962	-13.7917
▁phony	-13.7917
▁recommender	-13.7917
▁standardize	-13.7917
▁synonym	-13.7917
▁*=\	-13.794
▁284	-13.794
▁353	-13.794
▁`(){	-13.794
▁amass	-13.794
▁attenuation	-13.794
▁engagement	-13.794
▁slip	-13.794
▁'";	-13.7964
▁741	-13.7964
▁convolve	-13.7964
▁million	-13.7964
▁pawn	-13.7964
▁pushing	-13.7964
▁submitter	-13.7964
▁"->	-13.7987
▁373	-13.7987
▁587	-13.7987
▁696	-13.7987
▁[]))	-13.7987
▁annual	-13.7987
▁cardinal	-13.7987
▁cartoon	-13.7987
▁orderable	-13.7987
▁}.",	-13.7987
▁"]',	-13.801
▁#@	-13.801
▁',[	-13.801
▁)=>{	-13.801
▁771	-13.801
▁8821	-13.801
▁ale	-13.801
▁cho	-13.801
▁foliage	-13.801
▁goose	-13.801
▁hangul	-13.801
▁measurer	-13.801
▁supplemental	-13.801
▁<>("	-13.8034
▁[]>(	-13.8034
▁digraph	-13.8034
▁elector	-13.8034
▁lifo	-13.8034
▁twist	-13.8034
▁}">	-13.8034
▁"/{	-13.8057
▁430	-13.8057
▁9092	-13.8057
▁[()	-13.8057
▁baton	-13.8057
▁bicycle	-13.8057
▁paragon	-13.8057
▁totally	-13.8057
▁zar	-13.8057
▁}/"	-13.8057
▁(*[	-13.8081
▁413	-13.8081
▁>>>>	-13.8081
▁disassembly	-13.8081
▁kestrel	-13.8081
▁oval	-13.8081
▁proposer	-13.8081
▁ै	-13.8081
▁(..)	-13.8104
▁355	-13.8104
▁://",	-13.8104
▁chuck	-13.8104
▁minter	-13.8104
▁oriental	-13.8104
▁twin	-13.8104
▁'&'	-13.8128
▁([&](	-13.8128
▁({\	-13.8128
▁589	-13.8128
▁\-	-13.8128
▁carter	-13.8128
▁chal	-13.8128
▁framing	-13.8128
▁hotel	-13.8128
▁permissive	-13.8128
▁thrust	-13.8128
▁tra	-13.8128
▁unreferenced	-13.8128
▁winning	-13.8128
▁"/");	-13.8152
▁'(?:	-13.8152
▁)~(	-13.8152
▁--->	-13.8152
▁570	-13.8152
▁70726	-13.8152
▁732	-13.8152
▁ascent	-13.8152
▁/>)	-13.8176
▁054	-13.8176
▁12306	-13.8176
▁314	-13.8176
▁4321	-13.8176
▁825	-13.8176
▁957	-13.8176
▁[**--	-13.8176
▁koi	-13.8176
▁minimizer	-13.8176
▁upcoming	-13.8176
▁})";	-13.8176
▁###########	-13.82
▁'\'	-13.82
▁('''	-13.82
▁(:"	-13.82
▁316	-13.82
▁841	-13.82
▁8800	-13.82
▁opponent	-13.82
▁reproduce	-13.82
▁sen	-13.82
▁sequentially	-13.82
▁she	-13.82
▁slinky	-13.82
▁.'.$	-13.8223
▁2181	-13.8223
▁44100	-13.8223
▁>>().	-13.8223
▁\"}";	-13.8223
▁bed	-13.8223
▁deliverable	-13.8223
▁exchanger	-13.8223
▁lumen	-13.8223
▁perturb	-13.8223
▁refit	-13.8223
▁stagger	-13.8223
▁!!(	-13.8247
▁1394	-13.8247
▁726	-13.8247
▁adobe	-13.8247
▁amend	-13.8247
▁shear	-13.8247
▁vista	-13.8247
▁}{{	-13.8247
▁1250	-13.8271
▁\";	-13.8271
▁applicator	-13.8271
▁inferno	-13.8271
▁microscope	-13.8271
▁skipper	-13.8271
▁tranquility	-13.8271
▁2025	-13.8295
▁431	-13.8295
▁814	-13.8295
▁algebraic	-13.8295
▁bisect	-13.8295
▁clash	-13.8295
▁culling	-13.8295
▁gio	-13.8295
▁moderate	-13.8295
▁photograph	-13.8295
▁reconstruct	-13.8295
▁">\	-13.832
▁().'	-13.832
▁(?<	-13.832
▁/~	-13.832
▁1981	-13.832
▁cashier	-13.832
▁cilium	-13.832
▁personalization	-13.832
▁topping	-13.832
▁"';	-13.8344
▁)&&!	-13.8344
▁578	-13.8344
▁824	-13.8344
▁`{$	-13.8344
▁approximation	-13.8344
▁unspent	-13.8344
▁#################################################	-13.8368
▁)}\	-13.8368
▁1977	-13.8368
▁?)",	-13.8368
▁flare	-13.8368
▁nonblocking	-13.8368
▁nuclear	-13.8368
▁painting	-13.8368
▁plasma	-13.8368
▁shelf	-13.8368
▁subpass	-13.8368
▁)]',	-13.8392
▁000000000000	-13.8392
▁>`.	-13.8392
▁aperture	-13.8392
▁repartition	-13.8392
▁ridgepole	-13.8392
▁!".	-13.8417
▁&["	-13.8417
▁/**/	-13.8417
▁556	-13.8417
▁:"-"`	-13.8417
▁brushes	-13.8417
▁comptroller	-13.8417
▁conjugate	-13.8417
▁polarity	-13.8417
▁reinstall	-13.8417
▁}--	-13.8417
▁1982	-13.8441
▁glean	-13.8441
▁nuclei	-13.8441
▁publicly	-13.8441
▁recheck	-13.8441
▁sonobuoy	-13.8441
▁specular	-13.8441
▁".."	-13.8466
▁/*",	-13.8466
▁coloring	-13.8466
▁exclamation	-13.8466
▁mother	-13.8466
▁naughty	-13.8466
▁vibrator	-13.8466
▁&);	-13.849
▁452	-13.849
▁544	-13.849
▁\"},{\"	-13.849
▁authenticity	-13.849
▁bomb	-13.849
▁collins	-13.849
▁lucet	-13.849
▁rent	-13.849
▁unsustainable	-13.849
▁zorro	-13.849
▁}-\\	-13.849
▁",".	-13.8515
▁--{	-13.8515
▁2023	-13.8515
▁371	-13.8515
▁576	-13.8515
▁perk	-13.8515
▁uniquely	-13.8515
▁">{$	-13.8539
▁0200	-13.8539
▁325	-13.8539
▁461	-13.8539
▁^^^^	-13.8539
▁bagging	-13.8539
▁flower	-13.8539
▁fragmentation	-13.8539
▁paranoid	-13.8539
▁tesseract	-13.8539
▁|</	-13.8539
▁}"));	-13.8539
▁̀'	-13.8539
▁();}	-13.8564
▁-----------------------------------------------------------------------	-13.8564
▁850	-13.8564
▁:[],	-13.8564
▁\">\	-13.8564
▁]'],	-13.8564
▁`+	-13.8564
▁camp	-13.8564
▁fashion	-13.8564
▁faucet	-13.8564
▁weld	-13.8564
▁}"/	-13.8564
▁(`[	-13.8589
▁).."	-13.8589
▁0625	-13.8589
▁<<~'	-13.8589
▁='*.	-13.8589
▁`{{	-13.8589
▁couple	-13.8589
▁dangling	-13.8589
▁enricher	-13.8589
▁footprint	-13.8589
▁occupancy	-13.8589
▁och	-13.8589
▁sike	-13.8589
▁thumbprint	-13.8589
▁.;	-13.8614
▁/,"	-13.8614
▁689	-13.8614
▁756	-13.8614
▁={(	-13.8614
▁freshness	-13.8614
▁ode	-13.8614
▁revenue	-13.8614
▁spotlight	-13.8614
▁{%-	-13.8614
▁";',	-13.8639
▁()});	-13.8639
▁={[	-13.8639
▁[{$	-13.8639
▁[{{	-13.8639
▁consistently	-13.8639
▁">"	-13.8664
▁397	-13.8664
▁425	-13.8664
▁:'<	-13.8664
▁cannon	-13.8664
▁doubly	-13.8664
▁dumping	-13.8664
▁nak	-13.8664
▁sah	-13.8664
▁#--	-13.8689
▁.'''	-13.8689
▁036	-13.8689
▁506	-13.8689
▁=%#	-13.8689
▁possibility	-13.8689
▁rage	-13.8689
▁unitary	-13.8689
▁୍',	-13.8689
▁ུ་	-13.8689
▁"..."	-13.8714
▁'.');	-13.8714
▁("-")	-13.8714
▁:\/\/	-13.8714
▁=['[	-13.8714
▁>/<	-13.8714
▁alternatively	-13.8714
▁remotely	-13.8714
▁+".	-13.8739
▁/>'	-13.8739
▁540	-13.8739
▁\\\"	-13.8739
▁chair	-13.8739
▁efficiency	-13.8739
▁precheck	-13.8739
▁refresher	-13.8739
▁};\	-13.8739
▁'*.{	-13.8764
▁(['/	-13.8764
▁>({	-13.8764
▁axially	-13.8764
▁cor	-13.8764
▁crypted	-13.8764
▁cursive	-13.8764
▁duplicator	-13.8764
▁grave	-13.8764
▁initiative	-13.8764
▁unequal	-13.8764
▁}={	-13.8764
▁")}")	-13.8789
▁("(%	-13.8789
▁446	-13.8789
▁::-	-13.8789
▁convenient	-13.8789
▁dusk	-13.8789
▁married	-13.8789
▁panicked	-13.8789
▁}|[	-13.8789
▁');\	-13.8815
▁'/(	-13.8815
▁).")	-13.8815
▁)|(	-13.8815
▁602	-13.8815
▁:]...)	-13.8815
▁century	-13.8815
▁cog	-13.8815
▁vera	-13.8815
▁ื	-13.8815
▁'.\	-13.884
▁/(?	-13.884
▁cape	-13.884
▁flax	-13.884
▁goby	-13.884
▁magnolia	-13.884
▁)]))	-13.8866
▁.),	-13.8866
▁296	-13.8866
▁>...	-13.8866
▁>|	-13.8866
▁?]]	-13.8866
▁[({	-13.8866
▁advise	-13.8866
▁evenly	-13.8866
▁gizzard	-13.8866
▁prettify	-13.8866
▁sided	-13.8866
▁sixth	-13.8866
▁summed	-13.8866
▁titanic	-13.8866
▁usual	-13.8866
▁'"\\	-13.8891
▁("//!	-13.8891
▁("\\",	-13.8891
▁((),	-13.8891
▁)^	-13.8891
▁lark	-13.8891
▁programmer	-13.8891
▁subversion	-13.8891
▁thrower	-13.8891
▁"}:	-13.8917
▁):\	-13.8917
▁0666	-13.8917
▁3166	-13.8917
▁457	-13.8917
▁590	-13.8917
▁611	-13.8917
▁654	-13.8917
▁998	-13.8917
▁catchall	-13.8917
▁creatable	-13.8917
▁dude	-13.8917
▁helix	-13.8917
▁kingdom	-13.8917
▁suspension	-13.8917
▁unconfined	-13.8917
▁":{},"	-13.8942
▁''',	-13.8942
▁))::	-13.8942
▁.*"	-13.8942
▁3986	-13.8942
▁595	-13.8942
▁722	-13.8942
▁=[(	-13.8942
▁@-@	-13.8942
▁]}.	-13.8942
▁reciprocal	-13.8942
▁servo	-13.8942
▁".$	-13.8968
▁#",	-13.8968
▁###',	-13.8968
▁(''),	-13.8968
▁10001	-13.8968
▁cisco	-13.8968
▁cutout	-13.8968
▁docket	-13.8968
▁fortune	-13.8968
▁maximal	-13.8968
▁prone	-13.8968
▁surf	-13.8968
▁{}'	-13.8968
▁("")),	-13.8994
▁('{}	-13.8994
▁(?:\\	-13.8994
▁426	-13.8994
▁787	-13.8994
▁\''	-13.8994
▁differently	-13.8994
▁grenade	-13.8994
▁sane	-13.8994
▁tum	-13.8994
▁unqualified	-13.8994
▁'"..	-13.902
▁))],	-13.902
▁-{{	-13.902
▁389	-13.902
▁]=]	-13.902
▁donkey	-13.902
▁hurt	-13.902
▁inn	-13.902
▁tippy	-13.902
▁zimbabwe	-13.902
▁.+	-13.9046
▁053	-13.9046
▁8812	-13.9046
▁came	-13.9046
▁consolidate	-13.9046
▁dominated	-13.9046
▁irreversible	-13.9046
▁nicely	-13.9046
▁quotient	-13.9046
▁reasonable	-13.9046
▁vowel	-13.9046
▁ី	-13.9046
▁399	-13.9072
▁::*};	-13.9072
▁]';	-13.9072
▁].(*	-13.9072
▁]};	-13.9072
▁accordingly	-13.9072
▁conformity	-13.9072
▁definer	-13.9072
▁growl	-13.9072
▁onion	-13.9072
▁resettable	-13.9072
▁supportability	-13.9072
▁"[#{	-13.9098
▁'/../../../	-13.9098
▁--[=[	-13.9098
▁1400	-13.9098
▁2045	-13.9098
▁697	-13.9098
▁955	-13.9098
▁\");",	-13.9098
▁drupal	-13.9098
▁improper	-13.9098
▁inaccessible	-13.9098
▁mockable	-13.9098
▁onetime	-13.9098
▁parsley	-13.9098
▁personality	-13.9098
▁("."),	-13.9124
▁();',	-13.9124
▁)"]	-13.9124
▁061	-13.9124
▁1025	-13.9124
▁347	-13.9124
▁driving	-13.9124
▁entirely	-13.9124
▁flood	-13.9124
▁inspired	-13.9124
▁inversion	-13.9124
▁misfire	-13.9124
▁%}{{	-13.915
▁'#<	-13.915
▁++));	-13.915
▁[++	-13.915
▁confirmable	-13.915
▁klaxon	-13.915
▁layered	-13.915
▁pristine	-13.915
▁{}.",	-13.915
▁'``	-13.9176
▁543	-13.9176
▁656	-13.9176
▁mainly	-13.9176
▁pauser	-13.9176
▁tension	-13.9176
▁tiger	-13.9176
▁!"));	-13.9203
▁")))))	-13.9203
▁$(".	-13.9203
▁.]],	-13.9203
▁6170692	-13.9203
▁<[	-13.9203
▁=(),	-13.9203
▁[]=	-13.9203
▁announcer	-13.9203
▁enforcer	-13.9203
▁impersonate	-13.9203
▁meat	-13.9203
▁proportional	-13.9203
▁quantifier	-13.9203
▁resist	-13.9203
▁thirty	-13.9203
▁unselect	-13.9203
▁|+|	-13.9203
▁}"'	-13.9203
▁║	-13.9203
▁%)	-13.9229
▁'"))	-13.9229
▁("####	-13.9229
▁)'),	-13.9229
▁12000	-13.9229
▁>".	-13.9229
▁beautify	-13.9229
▁eject	-13.9229
▁glove	-13.9229
▁lux	-13.9229
▁niter	-13.9229
▁practical	-13.9229
▁refuse	-13.9229
▁toleration	-13.9229
▁valuable	-13.9229
▁("%-	-13.9256
▁(`"	-13.9256
▁/>");	-13.9256
▁:|	-13.9256
▁="@	-13.9256
▁='[	-13.9256
▁>'.$	-13.9256
▁gyp	-13.9256
▁ladder	-13.9256
▁lockout	-13.9256
▁recalculate	-13.9256
▁resent	-13.9256
▁stratified	-13.9256
▁}"}	-13.9256
▁}($	-13.9256
▁'."\	-13.9282
▁+[	-13.9282
▁---#	-13.9282
▁032	-13.9282
▁048	-13.9282
▁0800	-13.9282
▁535	-13.9282
▁=\""	-13.9282
▁advantage	-13.9282
▁advertising	-13.9282
▁destruction	-13.9282
▁federal	-13.9282
▁guernsey	-13.9282
▁liquidity	-13.9282
▁rescan	-13.9282
▁shadowing	-13.9282
▁uncle	-13.9282
▁{{#	-13.9282
▁。'	-13.9282
▁")){	-13.9309
▁(()))	-13.9309
▁),\	-13.9309
▁-}	-13.9309
▁.|	-13.9309
▁:"[",	-13.9309
▁::%	-13.9309
▁["",	-13.9309
▁aurora	-13.9309
▁fame	-13.9309
▁removable	-13.9309
▁sling	-13.9309
▁',{	-13.9336
▁561	-13.9336
▁8245	-13.9336
▁:"(",	-13.9336
▁discriminant	-13.9336
▁lack	-13.9336
▁squad	-13.9336
▁titled	-13.9336
▁%</	-13.9362
▁({}),	-13.9362
▁377	-13.9362
▁ana	-13.9362
▁conservative	-13.9362
▁wonder	-13.9362
▁"/><	-13.9389
▁"]")	-13.9389
▁"}]],	-13.9389
▁("".	-13.9389
▁('.')[	-13.9389
▁)=>	-13.9389
▁)}'	-13.9389
▁3002	-13.9389
▁525	-13.9389
▁712	-13.9389
▁;"));	-13.9389
▁<@	-13.9389
▁=[{	-13.9389
▁[*]}{	-13.9389
▁adversary	-13.9389
▁donor	-13.9389
▁flog	-13.9389
▁genome	-13.9389
▁glutin	-13.9389
▁paw	-13.9389
▁uninstalled	-13.9389
▁unreadable	-13.9389
▁wap	-13.9389
▁}]]	-13.9389
▁׳	-13.9389
▁()`.	-13.9416
▁)+"	-13.9416
▁accounting	-13.9416
▁benjamin	-13.9416
▁especially	-13.9416
▁relativize	-13.9416
▁steven	-13.9416
▁synthesize	-13.9416
▁tent	-13.9416
▁vibration	-13.9416
▁}}{{/	-13.9416
▁"**	-13.9443
▁##################################################	-13.9443
▁(".").	-13.9443
▁2026	-13.9443
▁358	-13.9443
▁754	-13.9443
▁:');	-13.9443
▁\"${	-13.9443
▁canned	-13.9443
▁cloth	-13.9443
▁deferrable	-13.9443
▁malicious	-13.9443
▁nei	-13.9443
▁paradox	-13.9443
▁spending	-13.9443
▁stays	-13.9443
▁([]));	-13.947
▁031	-13.947
▁16000	-13.947
▁2024	-13.947
▁478	-13.947
▁<>::	-13.947
▁])/	-13.947
▁brazil	-13.947
▁declarer	-13.947
▁doggo	-13.947
▁elsewhere	-13.947
▁famous	-13.947
▁logistics	-13.947
▁mayor	-13.947
▁pile	-13.947
▁reissuable	-13.947
▁yer	-13.947
▁{}));	-13.947
▁"[$	-13.9497
▁###/	-13.9497
▁(':')[	-13.9497
▁660	-13.9497
▁>"]	-13.9497
▁elapse	-13.9497
▁pistol	-13.9497
▁ransack	-13.9497
▁recompute	-13.9497
▁roller	-13.9497
▁transmitter	-13.9497
▁whats	-13.9497
▁}}),	-13.9497
▁%.'	-13.9525
▁']=	-13.9525
▁):(	-13.9525
▁--------------------------------	-13.9525
▁:"{",	-13.9525
▁[]"	-13.9525
▁litho	-13.9525
▁optical	-13.9525
▁voltage	-13.9525
▁})]	-13.9525
▁().(	-13.9552
▁367	-13.9552
▁=".	-13.9552
▁='$	-13.9552
▁]&	-13.9552
▁propose	-13.9552
▁rootless	-13.9552
▁subtle	-13.9552
▁watchtower	-13.9552
▁(*((	-13.9579
▁...";	-13.9579
▁037	-13.9579
▁=[]	-13.9579
▁=\"$	-13.9579
▁?","	-13.9579
▁blowfish	-13.9579
▁dawn	-13.9579
▁kiss	-13.9579
▁monetary	-13.9579
▁munge	-13.9579
▁'"{	-13.9607
▁091	-13.9607
▁1004	-13.9607
▁326	-13.9607
▁675	-13.9607
▁:"'",	-13.9607
▁<%-	-13.9607
▁<>(),	-13.9607
▁];\	-13.9607
▁bulb	-13.9607
▁chase	-13.9607
▁enrichment	-13.9607
▁erased	-13.9607
▁individually	-13.9607
▁steering	-13.9607
▁successive	-13.9607
▁}}).	-13.9607
▁"]/	-13.9634
▁2100	-13.9634
▁363	-13.9634
▁://${	-13.9634
▁=')	-13.9634
▁\":[	-13.9634
▁firebird	-13.9634
▁fur	-13.9634
▁mercurial	-13.9634
▁mosaic	-13.9634
▁throughout	-13.9634
▁('`	-13.9662
▁-------------------------------------------------------------------------------	-13.9662
▁."\	-13.9662
▁050	-13.9662
▁287	-13.9662
▁329	-13.9662
▁470	-13.9662
▁=$((	-13.9662
▁[][]{	-13.9662
▁afterwards	-13.9662
▁cohort	-13.9662
▁ours	-13.9662
▁rise	-13.9662
▁"]");	-13.9689
▁/>"	-13.9689
▁362	-13.9689
▁blow	-13.9689
▁lowering	-13.9689
▁marionette	-13.9689
▁preorder	-13.9689
▁shapely	-13.9689
▁sib	-13.9689
▁sing	-13.9689
▁}.',	-13.9689
▁#',	-13.9717
▁'|',	-13.9717
▁------------	-13.9717
▁][\	-13.9717
▁^^^^^^	-13.9717
▁buggy	-13.9717
▁dit	-13.9717
▁offshore	-13.9717
▁outfit	-13.9717
▁trimming	-13.9717
▁}})),	-13.9717
▁"]):	-13.9745
▁(<<	-13.9745
▁+(?:\.\	-13.9745
▁://")	-13.9745
▁ade	-13.9745
▁lasso	-13.9745
▁storybook	-13.9745
▁uglify	-13.9745
▁">%	-13.9773
▁'']	-13.9773
▁://',	-13.9773
▁:{}	-13.9773
▁[/^	-13.9773
▁[:,:,	-13.9773
▁amazing	-13.9773
▁bamboo	-13.9773
▁drug	-13.9773
▁expressed	-13.9773
▁harry	-13.9773
▁isomorphic	-13.9773
▁monarchy	-13.9773
▁occlusion	-13.9773
▁turbo	-13.9773
▁'"';	-13.9801
▁').'	-13.9801
▁')},	-13.9801
▁']")),	-13.9801
▁(''));	-13.9801
▁cursed	-13.9801
▁hell	-13.9801
▁monochrome	-13.9801
▁overlord	-13.9801
▁rental	-13.9801
▁sieve	-13.9801
▁singer	-13.9801
▁sports	-13.9801
▁spruce	-13.9801
▁toon	-13.9801
▁('"',	-13.9829
▁953	-13.9829
▁>").	-13.9829
▁[@]}";	-13.9829
▁appendix	-13.9829
▁cheap	-13.9829
▁chile	-13.9829
▁cocktail	-13.9829
▁enclave	-13.9829
▁erasure	-13.9829
▁floodlight	-13.9829
▁sal	-13.9829
▁trunking	-13.9829
▁ust	-13.9829
▁"'$	-13.9857
▁'}]	-13.9857
▁()[-	-13.9857
▁(<<<	-13.9857
▁."],	-13.9857
▁424	-13.9857
▁904	-13.9857
▁?]	-13.9857
▁])])	-13.9857
▁],{	-13.9857
▁clearable	-13.9857
▁commonly	-13.9857
▁conclusion	-13.9857
▁eve	-13.9857
▁jade	-13.9857
▁newton	-13.9857
▁questionnaire	-13.9857
▁rob	-13.9857
▁rump	-13.9857
▁subframe	-13.9857
▁("""\	-13.9885
▁+')	-13.9885
▁2040	-13.9885
▁800000	-13.9885
▁citizen	-13.9885
▁coercible	-13.9885
▁kell	-13.9885
▁lap	-13.9885
▁pap	-13.9885
▁sparks	-13.9885
▁">@	-13.9914
▁348	-13.9914
▁351	-13.9914
▁="/">	-13.9914
▁])*	-13.9914
▁blessed	-13.9914
▁boston	-13.9914
▁conditionally	-13.9914
▁flora	-13.9914
▁gated	-13.9914
▁manger	-13.9914
▁qua	-13.9914
▁rebind	-13.9914
▁})`	-13.9914
▁"...",	-13.9942
▁&"	-13.9942
▁'])).	-13.9942
▁('=',	-13.9942
▁);");	-13.9942
▁533	-13.9942
▁553	-13.9942
▁724	-13.9942
▁828	-13.9942
▁:"+	-13.9942
▁[]];	-13.9942
▁`.'	-13.9942
▁addend	-13.9942
▁blinding	-13.9942
▁colorful	-13.9942
▁farming	-13.9942
▁survival	-13.9942
▁swig	-13.9942
▁versioner	-13.9942
▁".");	-13.997
▁'>=	-13.997
▁("##	-13.997
▁()()	-13.997
▁,--	-13.997
▁455	-13.997
▁bop	-13.997
▁mermaid	-13.997
▁tycoon	-13.997
▁|@|	-13.997
▁">';	-13.9999
▁"\\"	-13.9999
▁'..')	-13.9999
▁('[%	-13.9999
▁)||(	-13.9999
▁8822	-13.9999
▁>"""	-13.9999
▁allele	-13.9999
▁ara	-13.9999
▁bark	-13.9999
▁former	-13.9999
▁forty	-13.9999
▁soul	-13.9999
▁speedometer	-13.9999
▁strap	-13.9999
▁upcast	-13.9999
▁"'#{	-14.0027
▁'^'	-14.0027
▁('../');	-14.0027
▁))|	-14.0027
▁)."""	-14.0027
▁)}");	-14.0027
▁**=<	-14.0027
▁/"..	-14.0027
▁21600	-14.0027
▁341	-14.0027
▁:{}};	-14.0027
▁<>),	-14.0027
▁>()));	-14.0027
▁alongside	-14.0027
▁appropriately	-14.0027
▁baby	-14.0027
▁coveralls	-14.0027
▁finch	-14.0027
▁fro	-14.0027
▁government	-14.0027
▁honeycomb	-14.0027
▁ranked	-14.0027
▁})?;	-14.0027
▁":[],"	-14.0056
▁(&*	-14.0056
▁,"\\	-14.0056
▁..(	-14.0056
▁['\	-14.0056
▁monadic	-14.0056
▁neigh	-14.0056
▁}());	-14.0056
▁}}{%	-14.0056
▁া',	-14.0056
▁"(%	-14.0085
▁".*	-14.0085
▁"}"""	-14.0085
▁')");	-14.0085
▁.$(	-14.0085
▁2049	-14.0085
▁=$?	-14.0085
▁='#	-14.0085
▁?(&:	-14.0085
▁azimuth	-14.0085
▁classroom	-14.0085
▁clipper	-14.0085
▁prince	-14.0085
▁subaccount	-14.0085
▁']()	-14.0114
▁('*',	-14.0114
▁0007	-14.0114
▁044	-14.0114
▁exam	-14.0114
▁nobody	-14.0114
▁peewee	-14.0114
▁relate	-14.0114
▁}=#{	-14.0114
▁%<	-14.0143
▁))&&	-14.0143
▁))):	-14.0143
▁))\	-14.0143
▁+++	-14.0143
▁2038	-14.0143
▁327	-14.0143
▁639	-14.0143
▁778	-14.0143
▁\)	-14.0143
▁]]]]	-14.0143
▁glint	-14.0143
▁scraper	-14.0143
▁"]?.	-14.0172
▁"``	-14.0172
▁([[:	-14.0172
▁045	-14.0172
▁1904	-14.0172
▁313	-14.0172
▁368	-14.0172
▁absence	-14.0172
▁armature	-14.0172
▁asserter	-14.0172
▁blazer	-14.0172
▁dutch	-14.0172
▁isotonic	-14.0172
▁ortho	-14.0172
▁popper	-14.0172
▁tide	-14.0172
▁"\$	-14.0201
▁'::'	-14.0201
▁'{}',	-14.0201
▁(":",	-14.0201
▁()]))	-14.0201
▁(/[\	-14.0201
▁(:"#{	-14.0201
▁*>>	-14.0201
▁374	-14.0201
▁507	-14.0201
▁>>>()	-14.0201
▁backfill	-14.0201
▁careful	-14.0201
▁chamber	-14.0201
▁dealer	-14.0201
▁dell	-14.0201
▁discourse	-14.0201
▁firing	-14.0201
▁mushroom	-14.0201
▁pulp	-14.0201
▁smote	-14.0201
▁ted	-14.0201
▁troll	-14.0201
▁wormhole	-14.0201
▁}}.',	-14.0201
▁=?",	-14.023
▁cardholder	-14.023
▁kilo	-14.023
▁nearly	-14.023
▁pit	-14.023
▁}<	-14.023
▁')]);	-14.0259
▁/+	-14.0259
▁060	-14.0259
▁14496	-14.0259
▁2047	-14.0259
▁604	-14.0259
▁=\"%	-14.0259
▁])([	-14.0259
▁fam	-14.0259
▁grantee	-14.0259
▁regulation	-14.0259
▁willow	-14.0259
▁}}')	-14.0259
▁"`)	-14.0289
▁#$	-14.0289
▁("}");	-14.0289
▁..".	-14.0289
▁/)).	-14.0289
▁6789	-14.0289
▁="./	-14.0289
▁advertisement	-14.0289
▁conform	-14.0289
▁hazel	-14.0289
▁hob	-14.0289
▁hummingbird	-14.0289
▁memento	-14.0289
▁mountable	-14.0289
▁passe	-14.0289
▁prevention	-14.0289
▁spoiler	-14.0289
▁western	-14.0289
▁####");	-14.0318
▁#{$	-14.0318
▁([["	-14.0318
▁){|	-14.0318
▁392	-14.0318
▁999999999	-14.0318
▁='.	-14.0318
▁]+\	-14.0318
▁dealing	-14.0318
▁exploder	-14.0318
▁raspberry	-14.0318
▁whistle	-14.0318
▁wolf	-14.0318
▁},\"	-14.0318
▁}}/	-14.0318
▁"">	-14.0348
▁0009	-14.0348
▁1251	-14.0348
▁464	-14.0348
▁630	-14.0348
▁`}>	-14.0348
▁derma	-14.0348
▁inport	-14.0348
▁lak	-14.0348
▁reraise	-14.0348
▁rose	-14.0348
▁shortener	-14.0348
▁」",	-14.0348
▁"]",	-14.0377
▁())]	-14.0377
▁621	-14.0377
▁902	-14.0377
▁>'.	-14.0377
▁arango	-14.0377
▁disappear	-14.0377
▁funny	-14.0377
▁ignorable	-14.0377
▁reconstructed	-14.0377
▁registrator	-14.0377
▁topmost	-14.0377
▁{..}	-14.0377
▁")()	-14.0407
▁"/$	-14.0407
▁).\	-14.0407
▁.'/../../	-14.0407
▁/</	-14.0407
▁2037	-14.0407
▁336	-14.0407
▁[]]	-14.0407
▁boy	-14.0407
▁correlate	-14.0407
▁dive	-14.0407
▁hamster	-14.0407
▁impersonation	-14.0407
▁improperly	-14.0407
▁repeatedly	-14.0407
▁revealed	-14.0407
▁transformable	-14.0407
▁wangle	-14.0407
▁.."\	-14.0437
▁/{{	-14.0437
▁834	-14.0437
▁>-	-14.0437
▁\"},\"	-14.0437
▁atmosphere	-14.0437
▁cork	-14.0437
▁intact	-14.0437
▁lossless	-14.0437
▁releaser	-14.0437
▁shimmer	-14.0437
▁suspicious	-14.0437
▁്',	-14.0437
▁!((	-14.0467
▁"^[	-14.0467
▁'#')	-14.0467
▁'{}'",	-14.0467
▁/*.(	-14.0467
▁1352110219202	-14.0467
▁1918	-14.0467
▁762	-14.0467
▁961	-14.0467
▁::=	-14.0467
▁==",	-14.0467
▁?))]	-14.0467
▁?><	-14.0467
▁\".\"	-14.0467
▁\'',	-14.0467
▁airport	-14.0467
▁expunge	-14.0467
▁kore	-14.0467
▁laminar	-14.0467
▁nullify	-14.0467
▁olla	-14.0467
▁plenary	-14.0467
▁reclaim	-14.0467
▁russia	-14.0467
▁})));	-14.0467
▁"]])	-14.0497
▁('-')	-14.0497
▁/>}	-14.0497
▁2032	-14.0497
▁2050	-14.0497
▁:"),	-14.0497
▁>?):	-14.0497
▁?[	-14.0497
▁adjoint	-14.0497
▁bearded	-14.0497
▁distortion	-14.0497
▁elvish	-14.0497
▁gnome	-14.0497
▁lone	-14.0497
▁outport	-14.0497
▁symptomatic	-14.0497
▁}""",	-14.0497
▁({$	-14.0527
▁)*)	-14.0527
▁1950	-14.0527
▁3001	-14.0527
▁[][	-14.0527
▁rickshaw	-14.0527
▁teapot	-14.0527
▁}'),	-14.0527
▁)``.	-14.0557
▁447	-14.0557
▁597	-14.0557
▁954	-14.0557
▁^.	-14.0557
▁boarding	-14.0557
▁cest	-14.0557
▁faulty	-14.0557
▁representable	-14.0557
▁''...'	-14.0587
▁']',	-14.0587
▁()].	-14.0587
▁)')).	-14.0587
▁*"]	-14.0587
▁/;	-14.0587
▁666666	-14.0587
▁]-'	-14.0587
▁allowable	-14.0587
▁ammonite	-14.0587
▁imperial	-14.0587
▁mappable	-14.0587
▁ogre	-14.0587
▁ort	-14.0587
▁remodel	-14.0587
▁slurp	-14.0587
▁standing	-14.0587
▁})))	-14.0587
▁}{$	-14.0587
▁")?	-14.0618
▁$'	-14.0618
▁'{',	-14.0618
▁([('	-14.0618
▁))?	-14.0618
▁-]	-14.0618
▁."):	-14.0618
▁?}	-14.0618
▁curried	-14.0618
▁eric	-14.0618
▁loglike	-14.0618
▁mima	-14.0618
▁quadrant	-14.0618
▁"(#{	-14.0648
▁'<!	-14.0648
▁'])){	-14.0648
▁(-(	-14.0648
▁)[:,	-14.0648
▁541	-14.0648
▁887	-14.0648
▁[]},	-14.0648
▁ancient	-14.0648
▁capturer	-14.0648
▁ego	-14.0648
▁excessive	-14.0648
▁longhorn	-14.0648
▁poor	-14.0648
▁sancho	-14.0648
▁saturated	-14.0648
▁timor	-14.0648
▁turning	-14.0648
▁unrolled	-14.0648
▁'[',	-14.0679
▁->{'	-14.0679
▁064	-14.0679
▁2200	-14.0679
▁359	-14.0679
▁469	-14.0679
▁>{'	-14.0679
▁?</	-14.0679
▁carriage	-14.0679
▁continuity	-14.0679
▁cryptogram	-14.0679
▁disclosure	-14.0679
▁initiation	-14.0679
▁wice	-14.0679
▁|,	-14.0679
▁})[	-14.0679
▁"""[	-14.0709
▁"/.	-14.0709
▁(");	-14.0709
▁---------------------------------	-14.0709
▁522	-14.0709
▁536	-14.0709
▁[:])	-14.0709
▁actively	-14.0709
▁cheetah	-14.0709
▁glassfish	-14.0709
▁handed	-14.0709
▁literally	-14.0709
▁pon	-14.0709
▁scalariform	-14.0709
▁semiring	-14.0709
▁typeset	-14.0709
▁violet	-14.0709
▁yeah	-14.0709
▁("~	-14.074
▁++]=	-14.074
▁2027	-14.074
▁335	-14.074
▁backdoor	-14.074
▁breakable	-14.074
▁contentful	-14.074
▁dali	-14.074
▁obfuscate	-14.074
▁protector	-14.074
▁rounder	-14.074
▁||[]).	-14.074
▁}»	-14.074
▁"=>["	-14.0771
▁),)	-14.0771
▁9223372036854775807	-14.0771
▁[?	-14.0771
▁\]	-14.0771
▁]&&(	-14.0771
▁darkness	-14.0771
▁gaufrette	-14.0771
▁moniker	-14.0771
▁seeker	-14.0771
▁stupid	-14.0771
▁surveyor	-14.0771
▁}`"	-14.0771
▁('/^	-14.0802
▁()";	-14.0802
▁()')	-14.0802
▁-[	-14.0802
▁/$(	-14.0802
▁:"..	-14.0802
▁decorative	-14.0802
▁subsection	-14.0802
▁unwanted	-14.0802
▁්',	-14.0802
▁)})"	-14.0833
▁462	-14.0833
▁\"],\"	-14.0833
▁]((	-14.0833
▁che	-14.0833
▁chill	-14.0833
▁joinable	-14.0833
▁lunar	-14.0833
▁overshoot	-14.0833
▁satisfiable	-14.0833
▁subcase	-14.0833
▁teaser	-14.0833
▁worse	-14.0833
▁়া	-14.0833
▁"(?	-14.0864
▁))+	-14.0864
▁067	-14.0864
▁328	-14.0864
▁chicken	-14.0864
▁granter	-14.0864
▁katakana	-14.0864
▁lac	-14.0864
▁marcel	-14.0864
▁proven	-14.0864
▁shoulder	-14.0864
▁unnest	-14.0864
▁wasted	-14.0864
▁"$.	-14.0895
▁"+",	-14.0895
▁,'<	-14.0895
▁055	-14.0895
▁2822	-14.0895
▁>"))	-14.0895
▁guidance	-14.0895
▁ket	-14.0895
▁postable	-14.0895
▁shareable	-14.0895
▁'&',	-14.0926
▁'.");	-14.0926
▁(".");	-14.0926
▁381	-14.0926
▁751	-14.0926
▁:{"@	-14.0926
▁=(-	-14.0926
▁>>(),	-14.0926
▁`."	-14.0926
▁definite	-14.0926
▁hall	-14.0926
▁satisfying	-14.0926
▁stopper	-14.0926
▁tele	-14.0926
▁{:?}	-14.0926
▁}].	-14.0926
▁'><	-14.0958
▁("[",	-14.0958
▁))])	-14.0958
▁300000	-14.0958
▁514	-14.0958
▁90000	-14.0958
▁<{	-14.0958
▁=((	-14.0958
▁@<%=	-14.0958
▁]%	-14.0958
▁census	-14.0958
▁cora	-14.0958
▁frustum	-14.0958
▁kelvin	-14.0958
▁},${	-14.0958
▁")}},	-14.0989
▁("*")	-14.0989
▁(['-	-14.0989
▁.([]	-14.0989
▁/[\	-14.0989
▁4294967295	-14.0989
▁829	-14.0989
▁?.()?.	-14.0989
▁?],	-14.0989
▁])\	-14.0989
▁computable	-14.0989
▁cryptographic	-14.0989
▁}]:	-14.0989
▁###############	-14.1021
▁.{$	-14.1021
▁2039	-14.1021
▁908	-14.1021
▁;};	-14.1021
▁='.$	-14.1021
▁["$	-14.1021
▁bowhead	-14.1021
▁cinch	-14.1021
▁concise	-14.1021
▁dow	-14.1021
▁grandparent	-14.1021
▁lisp	-14.1021
▁rap	-14.1021
▁troposphere	-14.1021
▁{}):	-14.1021
▁">",	-14.1052
▁'"':	-14.1052
▁',';	-14.1052
▁("""{	-14.1052
▁("."))	-14.1052
▁(...):	-14.1052
▁*>(&	-14.1052
▁."+	-14.1052
▁385	-14.1052
▁599	-14.1052
▁<*>?	-14.1052
▁="[	-14.1052
▁]+/,	-14.1052
▁adjuster	-14.1052
▁avenue	-14.1052
▁crane	-14.1052
▁crossed	-14.1052
▁dap	-14.1052
▁fighter	-14.1052
▁mimesis	-14.1052
▁sweeper	-14.1052
▁tally	-14.1052
▁}#	-14.1052
▁1005	-14.1084
▁903	-14.1084
▁['./	-14.1084
▁ave	-14.1084
▁emptiness	-14.1084
▁gambia	-14.1084
▁imageable	-14.1084
▁interlaced	-14.1084
▁juniper	-14.1084
▁materialization	-14.1084
▁unconstrained	-14.1084
▁"}`)	-14.1116
▁('</	-14.1116
▁090	-14.1116
▁2042	-14.1116
▁490	-14.1116
▁\"}");	-14.1116
▁gains	-14.1116
▁haw	-14.1116
▁koa	-14.1116
▁overdue	-14.1116
▁riff	-14.1116
▁stylus	-14.1116
▁subdivision	-14.1116
▁"""$	-14.1148
▁")||	-14.1148
▁'.")	-14.1148
▁0000000000000000	-14.1148
▁467	-14.1148
▁933	-14.1148
▁:"".	-14.1148
▁=''):	-14.1148
▁\""));	-14.1148
▁agility	-14.1148
▁cocoa	-14.1148
▁correspondence	-14.1148
▁fou	-14.1148
▁lum	-14.1148
▁multilingual	-14.1148
▁unprotected	-14.1148
▁virus	-14.1148
▁}=	-14.1148
▁*--	-14.118
▁338	-14.118
▁586	-14.118
▁646	-14.118
▁70000	-14.118
▁959	-14.118
▁=>-	-14.118
▁[[[	-14.118
▁beauty	-14.118
▁brigade	-14.118
▁citrus	-14.118
▁dilated	-14.118
▁stime	-14.118
▁unstaged	-14.118
▁weighting	-14.118
▁"'")	-14.1212
▁(());	-14.1212
▁)(*(	-14.1212
▁922	-14.1212
▁erroneous	-14.1212
▁furniture	-14.1212
▁grouper	-14.1212
▁substituted	-14.1212
▁threw	-14.1212
▁".');	-14.1245
▁#++	-14.1245
▁'])):	-14.1245
▁([]).	-14.1245
▁.':	-14.1245
▁070	-14.1245
▁2033	-14.1245
▁:;	-14.1245
▁beng	-14.1245
▁ose	-14.1245
▁rotator	-14.1245
▁scrubber	-14.1245
▁visiting	-14.1245
▁"%%	-14.1277
▁#(	-14.1277
▁'#{@	-14.1277
▁('::	-14.1277
▁))',	-14.1277
▁1979	-14.1277
▁382	-14.1277
▁618	-14.1277
▁:-}"	-14.1277
▁]*):	-14.1277
▁agate	-14.1277
▁branching	-14.1277
▁cleanse	-14.1277
▁enclose	-14.1277
▁frost	-14.1277
▁howdy	-14.1277
▁squid	-14.1277
▁taxis	-14.1277
▁toi	-14.1277
▁tomato	-14.1277
▁'-':	-14.131
▁(",\	-14.131
▁)/,	-14.131
▁-------------------------------------------------------------------------------]]	-14.131
▁--[[-----------------------------------------------------------------------------	-14.131
▁349	-14.131
▁=%%	-14.131
▁["@	-14.131
▁][-	-14.131
▁bib	-14.131
▁iba	-14.131
▁labeler	-14.131
▁manner	-14.131
▁pau	-14.131
▁supervise	-14.131
▁treasure	-14.131
▁"":""	-14.1342
▁''}	-14.1342
▁'@',	-14.1342
▁---------------------------------------------------------------------------]]	-14.1342
▁/'),	-14.1342
▁09375	-14.1342
▁318	-14.1342
▁361	-14.1342
▁468	-14.1342
▁488	-14.1342
▁580	-14.1342
▁792	-14.1342
▁`.")	-14.1342
▁nevermore	-14.1342
▁stamina	-14.1342
▁synch	-14.1342
▁tied	-14.1342
▁woo	-14.1342
▁%}',	-14.1375
▁(".")[	-14.1375
▁026	-14.1375
▁317	-14.1375
▁647	-14.1375
▁810	-14.1375
▁978	-14.1375
▁atomics	-14.1375
▁clan	-14.1375
▁factorization	-14.1375
▁integrator	-14.1375
▁mistake	-14.1375
▁reconstruction	-14.1375
▁respective	-14.1375
▁snip	-14.1375
▁unpacker	-14.1375
▁}')"	-14.1375
▁}}";	-14.1375
▁".'	-14.1408
▁'}.	-14.1408
▁042	-14.1408
▁10240	-14.1408
▁1973	-14.1408
▁880	-14.1408
▁995	-14.1408
▁[..	-14.1408
▁]()(	-14.1408
▁abuse	-14.1408
▁dairy	-14.1408
▁debris	-14.1408
▁definitely	-14.1408
▁hetero	-14.1408
▁importable	-14.1408
▁stoppable	-14.1408
▁torso	-14.1408
▁undone	-14.1408
▁}$/,	-14.1408
▁"[",	-14.1441
▁&[&	-14.1441
▁()]),	-14.1441
▁*/,	-14.1441
▁------------------------------	-14.1441
▁441	-14.1441
▁[]));	-14.1441
▁accelerometer	-14.1441
▁agenda	-14.1441
▁anda	-14.1441
▁cattle	-14.1441
▁contention	-14.1441
▁indefinite	-14.1441
▁maestro	-14.1441
▁sarif	-14.1441
▁sensible	-14.1441
▁tricky	-14.1441
▁}({	-14.1441
▁""..."	-14.1474
▁"%(	-14.1474
▁"}`),	-14.1474
▁()}",	-14.1474
▁---\	-14.1474
▁...(	-14.1474
▁605	-14.1474
▁8188	-14.1474
▁@.	-14.1474
▁adventurer	-14.1474
▁aqua	-14.1474
▁attendance	-14.1474
▁fie	-14.1474
▁hypo	-14.1474
▁magical	-14.1474
▁organizational	-14.1474
▁pluggable	-14.1474
▁prose	-14.1474
▁simpler	-14.1474
▁socialite	-14.1474
▁talking	-14.1474
▁{})).	-14.1474
▁}}';	-14.1474
▁%>,	-14.1507
▁'}))	-14.1507
▁'~/	-14.1507
▁**(	-14.1507
▁+"\	-14.1507
▁2035	-14.1507
▁2086	-14.1507
▁9001	-14.1507
▁>()?.	-14.1507
▁^^^^^	-14.1507
▁binning	-14.1507
▁blo	-14.1507
▁cayman	-14.1507
▁elixir	-14.1507
▁homestead	-14.1507
▁mong	-14.1507
▁torque	-14.1507
▁'/^	-14.154
▁610	-14.154
▁945	-14.154
▁;}',	-14.154
▁]():	-14.154
▁catalina	-14.154
▁cooking	-14.154
▁eel	-14.154
▁newsboat	-14.154
▁numerous	-14.154
▁phonetic	-14.154
▁staleness	-14.154
▁{");	-14.154
▁(^.	-14.1574
▁477	-14.1574
▁booth	-14.1574
▁canon	-14.1574
▁clark	-14.1574
▁fallible	-14.1574
▁forging	-14.1574
▁harvester	-14.1574
▁iced	-14.1574
▁prest	-14.1574
▁rectangular	-14.1574
▁zeta	-14.1574
▁(#[	-14.1607
▁)>=	-14.1607
▁956	-14.1607
▁='(?:	-14.1607
▁caddy	-14.1607
▁conflate	-14.1607
▁golf	-14.1607
▁overdrive	-14.1607
▁polish	-14.1607
▁potato	-14.1607
▁repairable	-14.1607
▁scrim	-14.1607
▁snaps	-14.1607
▁watchable	-14.1607
▁("?	-14.1641
▁*]	-14.1641
▁1336	-14.1641
▁:]))	-14.1641
▁;%	-14.1641
▁<#	-14.1641
▁>()).	-14.1641
▁\.\	-14.1641
▁`,`	-14.1641
▁controllable	-14.1641
▁disposer	-14.1641
▁excellent	-14.1641
▁inhibitor	-14.1641
▁mandrill	-14.1641
▁nog	-14.1641
▁pronto	-14.1641
▁pushover	-14.1641
▁reducing	-14.1641
▁referee	-14.1641
▁styler	-14.1641
▁unfortunately	-14.1641
▁')\	-14.1675
▁(')	-14.1675
▁()');	-14.1675
▁-')	-14.1675
▁00000004	-14.1675
▁731	-14.1675
▁;')).	-14.1675
▁=/;	-14.1675
▁inflict	-14.1675
▁loofah	-14.1675
▁servidor	-14.1675
▁stringy	-14.1675
▁tig	-14.1675
▁transmute	-14.1675
▁vara	-14.1675
▁%.*	-14.1708
▁**,	-14.1708
▁/>\	-14.1708
▁/{}/	-14.1708
▁2041	-14.1708
▁ape	-14.1708
▁bel	-14.1708
▁eating	-14.1708
▁freezing	-14.1708
▁originator	-14.1708
▁ourselves	-14.1708
▁taproot	-14.1708
▁!>	-14.1742
▁('=	-14.1742
▁([("	-14.1742
▁*')	-14.1742
▁*)*	-14.1742
▁:").	-14.1742
▁]+/	-14.1742
▁ante	-14.1742
▁gee	-14.1742
▁hap	-14.1742
▁somehow	-14.1742
▁streak	-14.1742
▁unrecoverable	-14.1742
▁walkable	-14.1742
▁':');	-14.1776
▁'\\');	-14.1776
▁'])),	-14.1776
▁2031	-14.1776
▁466	-14.1776
▁8443	-14.1776
▁866	-14.1776
▁890	-14.1776
▁;';	-14.1776
▁?%	-14.1776
▁['*.	-14.1776
▁],["	-14.1776
▁attachable	-14.1776
▁audible	-14.1776
▁lotto	-14.1776
▁plank	-14.1776
▁ranker	-14.1776
▁shi	-14.1776
▁untested	-14.1776
▁}".',	-14.1776
▁('"%	-14.1811
▁()<	-14.1811
▁00000002	-14.1811
▁11111	-14.1811
▁120000	-14.1811
▁2036	-14.1811
▁319	-14.1811
▁707	-14.1811
▁chasing	-14.1811
▁chief	-14.1811
▁dae	-14.1811
▁gam	-14.1811
▁indic	-14.1811
▁intentionally	-14.1811
▁maya	-14.1811
▁reap	-14.1811
▁reversal	-14.1811
▁stationary	-14.1811
▁"--",	-14.1845
▁']").	-14.1845
▁)({	-14.1845
▁/'],	-14.1845
▁2043	-14.1845
▁471	-14.1845
▁=\"#{	-14.1845
▁dor	-14.1845
▁oblique	-14.1845
▁pundit	-14.1845
▁twirl	-14.1845
▁unseen	-14.1845
▁{}}},	-14.1845
▁|^	-14.1845
▁}|(?:	-14.1845
▁"/*	-14.1879
▁("..",	-14.1879
▁(&'	-14.1879
▁('/\	-14.1879
▁()]));	-14.1879
▁..",	-14.1879
▁546	-14.1879
▁bolivia	-14.1879
▁boots	-14.1879
▁certification	-14.1879
▁expirable	-14.1879
▁jazz	-14.1879
▁"(",	-14.1914
▁"}')	-14.1914
▁'&#	-14.1914
▁'../')	-14.1914
▁';\	-14.1914
▁1300	-14.1914
▁433	-14.1914
▁940	-14.1914
▁covering	-14.1914
▁localizable	-14.1914
▁necessarily	-14.1914
▁searchlight	-14.1914
▁shielded	-14.1914
▁unreserved	-14.1914
▁}}"><	-14.1914
▁"}};	-14.1949
▁,`	-14.1949
▁614	-14.1949
▁820	-14.1949
▁[':	-14.1949
▁arrive	-14.1949
▁baa	-14.1949
▁beehive	-14.1949
▁cloak	-14.1949
▁elbow	-14.1949
▁hacker	-14.1949
▁mechanical	-14.1949
▁refuter	-14.1949
▁{',	-14.1949
▁}`),	-14.1949
▁""(""	-14.1983
▁"'";	-14.1983
▁")["	-14.1983
▁&&("	-14.1983
▁(#{@	-14.1983
▁++))	-14.1983
▁/(\	-14.1983
▁0000001	-14.1983
▁454	-14.1983
▁532	-14.1983
▁=/^\	-14.1983
▁]+)	-14.1983
▁beach	-14.1983
▁enjoyment	-14.1983
▁leftmost	-14.1983
▁postman	-14.1983
▁repaint	-14.1983
▁saturate	-14.1983
▁superfluous	-14.1983
▁tense	-14.1983
▁|{-#	-14.1983
▁}"],	-14.1983
▁","#	-14.2018
▁"/:	-14.2018
▁'~'	-14.2018
▁,{"	-14.2018
▁459	-14.2018
▁[]",	-14.2018
▁bod	-14.2018
▁consequent	-14.2018
▁reportable	-14.2018
▁tale	-14.2018
▁unlinked	-14.2018
▁------------------------------------------	-14.2053
▁/*/	-14.2053
▁2044	-14.2053
▁659	-14.2053
▁664	-14.2053
▁ady	-14.2053
▁continued	-14.2053
▁orchestra	-14.2053
▁parsable	-14.2053
▁relabel	-14.2053
▁reproducible	-14.2053
▁rough	-14.2053
▁simplex	-14.2053
▁sunrise	-14.2053
▁tabulator	-14.2053
▁yours	-14.2053
▁"?",	-14.2088
▁"`.	-14.2088
▁"}""")	-14.2088
▁%>'	-14.2088
▁/--	-14.2088
▁1020	-14.2088
▁1952	-14.2088
▁391	-14.2088
▁4242	-14.2088
▁728	-14.2088
▁]++	-14.2088
▁cypress	-14.2088
▁ebb	-14.2088
▁heath	-14.2088
▁hoodwink	-14.2088
▁recompile	-14.2088
▁toggler	-14.2088
▁vignette	-14.2088
▁!./	-14.2124
▁"#",	-14.2124
▁",";	-14.2124
▁-"+	-14.2124
▁775	-14.2124
▁952	-14.2124
▁bumper	-14.2124
▁inspectable	-14.2124
▁invocable	-14.2124
▁pain	-14.2124
▁periodically	-14.2124
▁perpendicular	-14.2124
▁puller	-14.2124
▁speaking	-14.2124
▁substrate	-14.2124
▁tether	-14.2124
▁{*	-14.2124
▁}.");	-14.2124
▁")'	-14.2159
▁".";	-14.2159
▁"`},	-14.2159
▁${(	-14.2159
▁/}	-14.2159
▁075	-14.2159
▁400000	-14.2159
▁broke	-14.2159
▁clobber	-14.2159
▁computational	-14.2159
▁dum	-14.2159
▁investigate	-14.2159
▁issuance	-14.2159
▁poet	-14.2159
▁profession	-14.2159
▁punch	-14.2159
▁"'.	-14.2195
▁'(?	-14.2195
▁']]))	-14.2195
▁']]],	-14.2195
▁?://	-14.2195
▁[]=(	-14.2195
▁\"></	-14.2195
▁]/,	-14.2195
▁`)",	-14.2195
▁apparent	-14.2195
▁dee	-14.2195
▁stance	-14.2195
▁stepped	-14.2195
▁"${!	-14.223
▁"],[	-14.223
▁(/\.	-14.223
▁*<	-14.223
▁436	-14.223
▁591	-14.223
▁673	-14.223
▁7777	-14.223
▁780	-14.223
▁853	-14.223
▁[*[	-14.223
▁\;	-14.223
▁]":	-14.223
▁^^^^^^^	-14.223
▁determinant	-14.223
▁photon	-14.223
▁proton	-14.223
▁summarization	-14.223
▁"$"	-14.2266
▁'[:	-14.2266
▁.""")	-14.2266
▁.]	-14.2266
▁0006	-14.2266
▁1050	-14.2266
▁527	-14.2266
▁8001	-14.2266
▁]+',	-14.2266
▁adventure	-14.2266
▁continually	-14.2266
▁dari	-14.2266
▁darr	-14.2266
▁durability	-14.2266
▁friendship	-14.2266
▁greenlet	-14.2266
▁hacking	-14.2266
▁multihead	-14.2266
▁pinning	-14.2266
▁prove	-14.2266
▁superman	-14.2266
▁unscaled	-14.2266
▁waterline	-14.2266
▁wife	-14.2266
▁~==	-14.2266
▁"{",	-14.2302
▁']')	-14.2302
▁1040	-14.2302
▁680	-14.2302
▁910	-14.2302
▁]*\	-14.2302
▁ascend	-14.2302
▁comprehension	-14.2302
▁electronics	-14.2302
▁hear	-14.2302
▁stall	-14.2302
▁stiffness	-14.2302
▁whisper	-14.2302
▁""").	-14.2338
▁"<",	-14.2338
▁("=")	-14.2338
▁---------------------	-14.2338
▁383	-14.2338
▁669	-14.2338
▁821	-14.2338
▁870	-14.2338
▁=%"	-14.2338
▁=[('	-14.2338
▁destroyable	-14.2338
▁draper	-14.2338
▁foursquare	-14.2338
▁hamlet	-14.2338
▁independently	-14.2338
▁nowhere	-14.2338
▁offering	-14.2338
▁sunset	-14.2338
▁'\\':	-14.2374
▁("#",	-14.2374
▁);}.	-14.2374
▁1978	-14.2374
▁516	-14.2374
▁>>&	-14.2374
▁`{}`	-14.2374
▁differentiable	-14.2374
▁lid	-14.2374
▁pressing	-14.2374
▁roar	-14.2374
▁ross	-14.2374
▁stellar	-14.2374
▁"$$	-14.241
▁$\	-14.241
▁'#$	-14.241
▁("/")[-	-14.241
▁({})",	-14.241
▁)")]	-14.241
▁)}>	-14.241
▁0080	-14.241
▁980	-14.241
▁["./	-14.241
▁[&]	-14.241
▁\?	-14.241
▁\\:	-14.241
▁artificial	-14.241
▁blub	-14.241
▁dexter	-14.241
▁drunken	-14.241
▁easter	-14.241
▁lina	-14.241
▁patient	-14.241
▁promoter	-14.241
▁renegotiation	-14.241
▁termin	-14.241
▁wang	-14.241
▁("^[	-14.2447
▁('').	-14.2447
▁*/",	-14.2447
▁*@	-14.2447
▁766	-14.2447
▁914	-14.2447
▁[{}]",	-14.2447
▁\"/	-14.2447
▁]===	-14.2447
▁aval	-14.2447
▁defender	-14.2447
▁depot	-14.2447
▁distinguish	-14.2447
▁hiragana	-14.2447
▁justo	-14.2447
▁liner	-14.2447
▁mig	-14.2447
▁perplexity	-14.2447
▁pinch	-14.2447
▁reread	-14.2447
▁sac	-14.2447
▁unvalidated	-14.2447
▁})'	-14.2447
▁---------------------------------------	-14.2483
▁/]	-14.2483
▁046	-14.2483
▁2800	-14.2483
▁608	-14.2483
▁706	-14.2483
▁<+>	-14.2483
▁``<	-14.2483
▁armored	-14.2483
▁hanging	-14.2483
▁ignorer	-14.2483
▁lad	-14.2483
▁olive	-14.2483
▁opportunity	-14.2483
▁unhide	-14.2483
▁"),"	-14.252
▁''{	-14.252
▁'?';	-14.252
▁("}")	-14.252
▁--===========================================================================--	-14.252
▁.'))	-14.252
▁32000	-14.252
▁495	-14.252
▁==")	-14.252
▁avast	-14.252
▁dout	-14.252
▁gez	-14.252
▁monologue	-14.252
▁palm	-14.252
▁pencil	-14.252
▁premature	-14.252
▁similarly	-14.252
▁somewhat	-14.252
▁trouble	-14.252
▁woman	-14.252
▁('#{	-14.2557
▁)<=	-14.2557
▁579	-14.2557
▁736	-14.2557
▁=\"${	-14.2557
▁annoy	-14.2557
▁augmenter	-14.2557
▁bridged	-14.2557
▁defect	-14.2557
▁extremely	-14.2557
▁flyway	-14.2557
▁shine	-14.2557
▁uncheck	-14.2557
▁"]'	-14.2594
▁'!',	-14.2594
▁('/'	-14.2594
▁()%	-14.2594
▁)?"	-14.2594
▁058	-14.2594
▁690	-14.2594
▁791	-14.2594
▁:"#{	-14.2594
▁<#{	-14.2594
▁["#	-14.2594
▁][%	-14.2594
▁^^^^^^^^^^^	-14.2594
▁benefit	-14.2594
▁classy	-14.2594
▁existential	-14.2594
▁guitar	-14.2594
▁peto	-14.2594
▁rewarder	-14.2594
▁vestibulum	-14.2594
▁yank	-14.2594
▁}*	-14.2594
▁"($	-14.2631
▁#############################################	-14.2631
▁%*	-14.2631
▁()}.	-14.2631
▁+(\	-14.2631
▁1006	-14.2631
▁54321	-14.2631
▁883	-14.2631
▁;<	-14.2631
▁abb	-14.2631
▁correlated	-14.2631
▁dendrite	-14.2631
▁eagerly	-14.2631
▁enrolled	-14.2631
▁oar	-14.2631
▁redundancy	-14.2631
▁snooze	-14.2631
▁yelp	-14.2631
▁}@	-14.2631
▁!*	-14.2668
▁"!"	-14.2668
▁"!",	-14.2668
▁########################################################################	-14.2668
▁$,	-14.2668
▁'\\';	-14.2668
▁*)@	-14.2668
▁,,,	-14.2668
▁.#"	-14.2668
▁076	-14.2668
▁:")"},{	-14.2668
▁=\\"	-14.2668
▁>{}),	-14.2668
▁?(*	-14.2668
▁``)	-14.2668
▁annoying	-14.2668
▁essentially	-14.2668
▁glance	-14.2668
▁jeff	-14.2668
▁kiosk	-14.2668
▁marvel	-14.2668
▁ope	-14.2668
▁pagina	-14.2668
▁refill	-14.2668
▁swish	-14.2668
▁unmonitored	-14.2668
▁vicious	-14.2668
▁}'))	-14.2668
▁ེ་	-14.2668
▁"{:	-14.2706
▁$@"	-14.2706
▁':';	-14.2706
▁("")).	-14.2706
▁("../../../../	-14.2706
▁(":");	-14.2706
▁("=	-14.2706
▁)&&"	-14.2706
▁++(	-14.2706
▁/".	-14.2706
▁123123	-14.2706
▁835	-14.2706
▁852	-14.2706
▁@#{	-14.2706
▁\"";	-14.2706
▁\"];",	-14.2706
▁appointment	-14.2706
▁hydrated	-14.2706
▁keto	-14.2706
▁rearrange	-14.2706
▁significance	-14.2706
▁unprefixed	-14.2706
▁">{{$	-14.2743
▁"},"@	-14.2743
▁%")	-14.2743
▁("[\"	-14.2743
▁*(\	-14.2743
▁038	-14.2743
▁041	-14.2743
▁378	-14.2743
▁681	-14.2743
▁:**	-14.2743
▁:>	-14.2743
▁="//	-14.2743
▁\}}	-14.2743
▁acorn	-14.2743
▁arise	-14.2743
▁blurred	-14.2743
▁dak	-14.2743
▁flattener	-14.2743
▁gazetteer	-14.2743
▁hangfire	-14.2743
▁subspace	-14.2743
▁telemeter	-14.2743
▁waterfall	-14.2743
▁("")(	-14.2781
▁*%	-14.2781
▁15625	-14.2781
▁645	-14.2781
▁655	-14.2781
▁:"]"},{	-14.2781
▁>()),	-14.2781
▁bush	-14.2781
▁climber	-14.2781
▁heaven	-14.2781
▁laura	-14.2781
▁novel	-14.2781
▁rerank	-14.2781
▁sister	-14.2781
▁tasker	-14.2781
▁textile	-14.2781
▁tog	-14.2781
▁{")	-14.2781
▁&&=	-14.2819
▁'/:	-14.2819
▁("{%	-14.2819
▁,+	-14.2819
▁4294967296	-14.2819
▁435	-14.2819
▁855	-14.2819
▁988	-14.2819
▁[]{};	-14.2819
▁hijack	-14.2819
▁police	-14.2819
▁psych	-14.2819
▁reversible	-14.2819
▁shaping	-14.2819
▁shrinking	-14.2819
▁tat	-14.2819
▁told	-14.2819
▁untitled	-14.2819
▁}"#,	-14.2819
▁์',	-14.2819
▁").(	-14.2857
▁":"/	-14.2857
▁#>	-14.2857
▁','.	-14.2857
▁('#',	-14.2857
▁('&	-14.2857
▁333333	-14.2857
▁811	-14.2857
▁818	-14.2857
▁833	-14.2857
▁8472	-14.2857
▁:"}"},{	-14.2857
▁::#{	-14.2857
▁?>';	-14.2857
▁\")",	-14.2857
▁barrel	-14.2857
▁belonging	-14.2857
▁conduct	-14.2857
▁interconnect	-14.2857
▁nelson	-14.2857
▁problematic	-14.2857
▁procurement	-14.2857
▁recon	-14.2857
▁rethink	-14.2857
▁}$`,	-14.2857
▁"#<#{	-14.2895
▁"]="	-14.2895
▁$?.	-14.2895
▁${({	-14.2895
▁(&&	-14.2895
▁('%.	-14.2895
▁({}	-14.2895
▁).$	-14.2895
▁/^(\	-14.2895
▁028	-14.2895
▁066	-14.2895
▁472	-14.2895
▁481	-14.2895
▁526	-14.2895
▁8899	-14.2895
▁>='	-14.2895
▁borderless	-14.2895
▁crime	-14.2895
▁elevated	-14.2895
▁enquirer	-14.2895
▁fantasy	-14.2895
▁interrupting	-14.2895
▁mimic	-14.2895
▁nestable	-14.2895
▁protractor	-14.2895
▁spendable	-14.2895
▁subcategory	-14.2895
▁tole	-14.2895
▁|(?:	-14.2895
▁|\\	-14.2895
▁}]")	-14.2895
▁}}`	-14.2895
▁"""@	-14.2933
▁",'	-14.2933
▁')')	-14.2933
▁('=')	-14.2933
▁('^	-14.2933
▁(/(\	-14.2933
▁.'"	-14.2933
▁..")	-14.2933
▁/?.	-14.2933
▁703	-14.2933
▁932	-14.2933
▁9999999	-14.2933
▁:()	-14.2933
▁<=>(	-14.2933
▁]="\	-14.2933
▁]}'	-14.2933
▁coupling	-14.2933
▁outpoint	-14.2933
▁scalene	-14.2933
▁sind	-14.2933
▁transliterate	-14.2933
▁unconsumed	-14.2933
▁{\\	-14.2933
▁«{	-14.2933
▁!!@	-14.2971
▁"}));	-14.2971
▁(\"%	-14.2971
▁--------------------	-14.2971
▁051	-14.2971
▁427	-14.2971
▁439	-14.2971
▁723	-14.2971
▁=\'	-14.2971
▁?))	-14.2971
▁[]::	-14.2971
▁]]].	-14.2971
▁^(	-14.2971
▁`."""	-14.2971
▁admonition	-14.2971
▁ani	-14.2971
▁hep	-14.2971
▁miter	-14.2971
▁nonsense	-14.2971
▁rice	-14.2971
▁sate	-14.2971
▁somebody	-14.2971
▁twelve	-14.2971
▁")))),	-14.301
▁"],[/@	-14.301
▁%>/	-14.301
▁%></	-14.301
▁'/*	-14.301
▁())}	-14.301
▁(``	-14.301
▁):"	-14.301
▁1111111111111111111111111111111111111111	-14.301
▁2000000	-14.301
▁449	-14.301
▁518	-14.301
▁592	-14.301
▁]='	-14.301
▁curved	-14.301
▁disconnection	-14.301
▁gaming	-14.301
▁hertz	-14.301
▁kurtosis	-14.301
▁naked	-14.301
▁platinum	-14.301
▁rout	-14.301
▁swimmer	-14.301
▁{"&	-14.301
▁}}").	-14.301
▁"--"	-14.3049
▁${#	-14.3049
▁'%(	-14.3049
▁'))),	-14.3049
▁)+(	-14.3049
▁);},	-14.3049
▁.*/	-14.3049
▁..$	-14.3049
▁080	-14.3049
▁463	-14.3049
▁662	-14.3049
▁776	-14.3049
▁864	-14.3049
▁876	-14.3049
▁882	-14.3049
▁9223372036854775808	-14.3049
▁:';	-14.3049
▁bats	-14.3049
▁beginner	-14.3049
▁catcher	-14.3049
▁continuum	-14.3049
▁doom	-14.3049
▁effectively	-14.3049
▁outpath	-14.3049
▁raiser	-14.3049
▁sina	-14.3049
▁unfreeze	-14.3049
▁{^	-14.3049
▁!(-	-14.3087
▁'(%	-14.3087
▁'\'',	-14.3087
▁().$	-14.3087
▁,',	-14.3087
▁...</	-14.3087
▁2400	-14.3087
▁442	-14.3087
▁923	-14.3087
▁::/	-14.3087
▁>`;	-14.3087
▁ailment	-14.3087
▁capitalization	-14.3087
▁commissioner	-14.3087
▁designator	-14.3087
▁empirical	-14.3087
▁flying	-14.3087
▁sick	-14.3087
▁tarantula	-14.3087
▁unmounted	-14.3087
▁!../	-14.3126
▁'/':	-14.3126
▁'~>	-14.3126
▁/"));	-14.3126
▁111111	-14.3126
▁453	-14.3126
▁547	-14.3126
▁<<-'	-14.3126
▁>"));	-14.3126
▁alphabetically	-14.3126
▁frog	-14.3126
▁hoist	-14.3126
▁insider	-14.3126
▁intercom	-14.3126
▁monte	-14.3126
▁museum	-14.3126
▁writability	-14.3126
▁"~>	-14.3166
▁')}}"	-14.3166
▁('../../../../../../	-14.3166
▁758	-14.3166
▁930	-14.3166
▁="..	-14.3166
▁['[	-14.3166
▁]}}	-14.3166
▁bookcase	-14.3166
▁centrale	-14.3166
▁crouch	-14.3166
▁downward	-14.3166
▁flogger	-14.3166
▁forger	-14.3166
▁pug	-14.3166
▁shepherd	-14.3166
▁strider	-14.3166
▁subpackage	-14.3166
▁subunit	-14.3166
▁treetop	-14.3166
▁unaccent	-14.3166
▁}/",	-14.3166
▁"###	-14.3205
▁))*	-14.3205
▁482	-14.3205
▁832	-14.3205
▁9292	-14.3205
▁:+=	-14.3205
▁capstone	-14.3205
▁castable	-14.3205
▁crispy	-14.3205
▁flakiness	-14.3205
▁grabber	-14.3205
▁propensity	-14.3205
▁rightmost	-14.3205
▁simultaneous	-14.3205
▁stripping	-14.3205
▁"")]	-14.3244
▁()))),	-14.3244
▁465	-14.3244
▁596	-14.3244
▁:`~.	-14.3244
▁="'.$	-14.3244
▁="{!!	-14.3244
▁={}):	-14.3244
▁[?]",	-14.3244
▁barlow	-14.3244
▁commodity	-14.3244
▁distraction	-14.3244
▁hearts	-14.3244
▁inviter	-14.3244
▁lived	-14.3244
▁marquee	-14.3244
▁payee	-14.3244
▁roughly	-14.3244
▁shopkeeper	-14.3244
▁variety	-14.3244
▁warping	-14.3244
▁ি',	-14.3244
▁'}\	-14.3284
▁*>,	-14.3284
▁-%}	-14.3284
▁115200	-14.3284
▁5625	-14.3284
▁788	-14.3284
▁807	-14.3284
▁billed	-14.3284
▁demonstration	-14.3284
▁destroyer	-14.3284
▁kuba	-14.3284
▁overline	-14.3284
▁redistribute	-14.3284
▁scramble	-14.3284
▁seeking	-14.3284
▁slicing	-14.3284
▁xenon	-14.3284
▁ိ	-14.3284
▁&)>	-14.3324
▁("/"),	-14.3324
▁({}).	-14.3324
▁)(\	-14.3324
▁)}`	-14.3324
▁.*',	-14.3324
▁1969	-14.3324
▁551	-14.3324
▁554	-14.3324
▁558	-14.3324
▁710	-14.3324
▁808080	-14.3324
▁demote	-14.3324
▁fifty	-14.3324
▁gearman	-14.3324
▁macao	-14.3324
▁primarily	-14.3324
▁quip	-14.3324
▁tiered	-14.3324
▁")`,	-14.3364
▁"/").	-14.3364
▁(),"	-14.3364
▁+');	-14.3364
▁692	-14.3364
▁:%(	-14.3364
▁;"),	-14.3364
▁;|&	-14.3364
▁=/\	-14.3364
▁?.()).	-14.3364
▁[@]}	-14.3364
▁fidelity	-14.3364
▁journalist	-14.3364
▁ohm	-14.3364
▁preparator	-14.3364
▁tew	-14.3364
▁vantage	-14.3364
▁{}")	-14.3364
▁•	-14.3364
▁!="	-14.3404
▁######################################	-14.3404
▁######################################################################	-14.3404
▁'([	-14.3404
▁($($	-14.3404
▁(':');	-14.3404
▁())):	-14.3404
▁.\"	-14.3404
▁047	-14.3404
▁523	-14.3404
▁649	-14.3404
▁805	-14.3404
▁896	-14.3404
▁966	-14.3404
▁993	-14.3404
▁?>:</	-14.3404
▁]"=&	-14.3404
▁auxiliar	-14.3404
▁awa	-14.3404
▁biggest	-14.3404
▁cub	-14.3404
▁dependence	-14.3404
▁incompatibility	-14.3404
▁passable	-14.3404
▁rainy	-14.3404
▁treasury	-14.3404
▁ོ་	-14.3404
▁%>',	-14.3444
▁()`,	-14.3444
▁/.',	-14.3444
▁052	-14.3444
▁486	-14.3444
▁808	-14.3444
▁]!!.	-14.3444
▁architect	-14.3444
▁coda	-14.3444
▁funky	-14.3444
▁hung	-14.3444
▁interim	-14.3444
▁piano	-14.3444
▁withdrawn	-14.3444
▁%!	-14.3484
▁(')')	-14.3484
▁)(),	-14.3484
▁++]);	-14.3484
▁1209	-14.3484
▁2520	-14.3484
▁773	-14.3484
▁920	-14.3484
▁][(	-14.3484
▁]`.	-14.3484
▁classical	-14.3484
▁departure	-14.3484
▁dib	-14.3484
▁dirt	-14.3484
▁headset	-14.3484
▁invitee	-14.3484
▁pes	-14.3484
▁prophet	-14.3484
▁surrounded	-14.3484
▁traversing	-14.3484
▁ware	-14.3484
▁|.	-14.3484
▁}"',	-14.3484
▁├──	-14.3484
▁'"');	-14.3525
▁("@#{	-14.3525
▁("~/	-14.3525
▁)=="	-14.3525
▁1235	-14.3525
▁398	-14.3525
▁475	-14.3525
▁729	-14.3525
▁949	-14.3525
▁\\":	-14.3525
▁bucketing	-14.3525
▁clique	-14.3525
▁hunt	-14.3525
▁ligula	-14.3525
▁mina	-14.3525
▁mounter	-14.3525
▁preface	-14.3525
▁|",	-14.3525
▁■	-14.3525
▁"""))	-14.3566
▁'".	-14.3566
▁':'#	-14.3566
▁(".*	-14.3566
▁("/"	-14.3566
▁*$/,	-14.3566
▁+)/	-14.3566
▁000000000	-14.3566
▁479	-14.3566
▁513	-14.3566
▁552	-14.3566
▁936	-14.3566
▁<='	-14.3566
▁='+',	-14.3566
▁]*(	-14.3566
▁]=!	-14.3566
▁faded	-14.3566
▁geography	-14.3566
▁incidence	-14.3566
▁knee	-14.3566
▁occupation	-14.3566
▁onset	-14.3566
▁origination	-14.3566
▁rim	-14.3566
▁simplifier	-14.3566
▁storable	-14.3566
▁unconnected	-14.3566
▁"[${	-14.3607
▁'/.	-14.3607
▁,&(	-14.3607
▁2300	-14.3607
▁931	-14.3607
▁]='\	-14.3607
▁applicant	-14.3607
▁baked	-14.3607
▁berry	-14.3607
▁cockroach	-14.3607
▁drone	-14.3607
▁earnings	-14.3607
▁forcing	-14.3607
▁hypotheses	-14.3607
▁organize	-14.3607
▁repost	-14.3607
▁stitch	-14.3607
▁{-#	-14.3607
▁|{"	-14.3607
▁}"},	-14.3607
▁!]	-14.3648
▁"\"")	-14.3648
[...]
